<?xml version="1.0"?>
<MethodSetup Method="MLP::MLPBNN">
  <GeneralInfo>
    <Info name="TMVA Release" value="4.1.3 [262403]"/>
    <Info name="ROOT Release" value="5.30/04 [335364]"/>
    <Info name="Creator" value="kreplin"/>
    <Info name="Date" value="Wed Jan  9 18:14:57 2013"/>
    <Info name="Host" value="Linux lxbuild148.cern.ch 2.6.18-194.26.1.el5 #1 SMP Wed Nov 10 09:45:46 CET 2010 x86_64 x86_64 x86_64 GNU/Linux"/>
    <Info name="Dir" value="/auto/sigma0/work2/kreplin/TMVA-v4.1.2/test"/>
    <Info name="Training events" value="90000"/>
    <Info name="TrainingTime" value="1.03631423e+04"/>
    <Info name="AnalysisType" value="Classification"/>
  </GeneralInfo>
  <Options>
    <Option name="NCycles" modified="Yes">600</Option>
    <Option name="HiddenLayers" modified="Yes">N+8</Option>
    <Option name="NeuronType" modified="Yes">sigmoid</Option>
    <Option name="RandomSeed" modified="No">1</Option>
    <Option name="EstimatorType" modified="Yes">CE</Option>
    <Option name="NeuronInputType" modified="No">sum</Option>
    <Option name="V" modified="Yes">False</Option>
    <Option name="VerbosityLevel" modified="No">Default</Option>
    <Option name="VarTransform" modified="Yes">N,D</Option>
    <Option name="H" modified="Yes">True</Option>
    <Option name="CreateMVAPdfs" modified="No">False</Option>
    <Option name="IgnoreNegWeightsInTraining" modified="No">False</Option>
    <Option name="TrainingMethod" modified="Yes">BFGS</Option>
    <Option name="LearningRate" modified="No">2.000000e-02</Option>
    <Option name="DecayRate" modified="No">1.000000e-02</Option>
    <Option name="TestRate" modified="Yes">5</Option>
    <Option name="EpochMonitoring" modified="No">False</Option>
    <Option name="Sampling" modified="No">1.000000e+00</Option>
    <Option name="SamplingEpoch" modified="No">1.000000e+00</Option>
    <Option name="SamplingImportance" modified="No">1.000000e+00</Option>
    <Option name="SamplingTraining" modified="No">True</Option>
    <Option name="SamplingTesting" modified="No">False</Option>
    <Option name="ResetStep" modified="No">50</Option>
    <Option name="Tau" modified="No">3.000000e+00</Option>
    <Option name="BPMode" modified="No">sequential</Option>
    <Option name="BatchSize" modified="No">-1</Option>
    <Option name="ConvergenceImprove" modified="No">1.000000e-30</Option>
    <Option name="ConvergenceTests" modified="No">-1</Option>
    <Option name="UseRegulator" modified="Yes">True</Option>
    <Option name="UpdateLimit" modified="No">10000</Option>
    <Option name="CalculateErrors" modified="Yes">True</Option>
    <Option name="WeightRange" modified="No">1.000000e+00</Option>
  </Options>
  <Variables NVar="11">
    <Variable VarIndex="0" Expression="sign_tag[0]*rnet_opp[0]" Label="sign_tag[0]*rnet_opp[0]" Title="sign_tag[0]*rnet_opp[0]" Unit="units" Internal="sign_tag_0__T_rnet_opp_0_" Type="F" Min="-9.98661220e-01" Max="9.97019351e-01"/>
    <Variable VarIndex="1" Expression="sign_tag[1]*rnet_opp[1]" Label="sign_tag[1]*rnet_opp[1]" Title="sign_tag[1]*rnet_opp[1]" Unit="units" Internal="sign_tag_1__T_rnet_opp_1_" Type="F" Min="-9.96991515e-01" Max="9.94016290e-01"/>
    <Variable VarIndex="2" Expression="sign_tag[2]*rnet_opp[2]" Label="sign_tag[2]*rnet_opp[2]" Title="sign_tag[2]*rnet_opp[2]" Unit="units" Internal="sign_tag_2__T_rnet_opp_2_" Type="F" Min="-9.85854328e-01" Max="9.93785560e-01"/>
    <Variable VarIndex="3" Expression="sign_tag[3]*rnet_opp[3]" Label="sign_tag[3]*rnet_opp[3]" Title="sign_tag[3]*rnet_opp[3]" Unit="units" Internal="sign_tag_3__T_rnet_opp_3_" Type="F" Min="-9.68796253e-01" Max="9.83174741e-01"/>
    <Variable VarIndex="4" Expression="sign_tag[0]*pidk[0]" Label="sign_tag[0]*pidk[0]" Title="sign_tag[0]*pidk[0]" Unit="units" Internal="sign_tag_0__T_pidk_0_" Type="F" Min="-1.30405899e+02" Max="1.18504402e+02"/>
    <Variable VarIndex="5" Expression="sign_tag[1]*pidk[1]" Label="sign_tag[1]*pidk[1]" Title="sign_tag[1]*pidk[1]" Unit="units" Internal="sign_tag_1__T_pidk_1_" Type="F" Min="-1.17963997e+02" Max="1.25757500e+02"/>
    <Variable VarIndex="6" Expression="sign_tag[2]*pidk[2]" Label="sign_tag[2]*pidk[2]" Title="sign_tag[2]*pidk[2]" Unit="units" Internal="sign_tag_2__T_pidk_2_" Type="F" Min="-1.09903603e+02" Max="9.81610031e+01"/>
    <Variable VarIndex="7" Expression="sign_tag[3]*pidk[3]" Label="sign_tag[3]*pidk[3]" Title="sign_tag[3]*pidk[3]" Unit="units" Internal="sign_tag_3__T_pidk_3_" Type="F" Min="-9.56821976e+01" Max="9.54918976e+01"/>
    <Variable VarIndex="8" Expression="B_pt" Label="B_pt" Title="B_pt" Unit="units" Internal="B_pt" Type="F" Min="1.22331514e+01" Max="7.90086172e+04"/>
    <Variable VarIndex="9" Expression="no_vtx" Label="no_vtx" Title="no_vtx" Unit="units" Internal="no_vtx" Type="I" Min="1.00000000e+00" Max="9.00000000e+00"/>
    <Variable VarIndex="10" Expression="cands" Label="cands" Title="cands" Unit="units" Internal="cands" Type="I" Min="1.00000000e+00" Max="1.10000000e+01"/>
  </Variables>
  <Spectators NSpec="0"/>
  <Classes NClass="2">
    <Class Name="Signal" Index="0"/>
    <Class Name="Background" Index="1"/>
  </Classes>
  <Transformations NTransformations="2">
    <Transform Name="Normalize">
      <Selection>
        <Input NInputs="11">
          <Input Type="Variable" Label="sign_tag[0]*rnet_opp[0]" Expression="sign_tag[0]*rnet_opp[0]"/>
          <Input Type="Variable" Label="sign_tag[1]*rnet_opp[1]" Expression="sign_tag[1]*rnet_opp[1]"/>
          <Input Type="Variable" Label="sign_tag[2]*rnet_opp[2]" Expression="sign_tag[2]*rnet_opp[2]"/>
          <Input Type="Variable" Label="sign_tag[3]*rnet_opp[3]" Expression="sign_tag[3]*rnet_opp[3]"/>
          <Input Type="Variable" Label="sign_tag[0]*pidk[0]" Expression="sign_tag[0]*pidk[0]"/>
          <Input Type="Variable" Label="sign_tag[1]*pidk[1]" Expression="sign_tag[1]*pidk[1]"/>
          <Input Type="Variable" Label="sign_tag[2]*pidk[2]" Expression="sign_tag[2]*pidk[2]"/>
          <Input Type="Variable" Label="sign_tag[3]*pidk[3]" Expression="sign_tag[3]*pidk[3]"/>
          <Input Type="Variable" Label="B_pt" Expression="B_pt"/>
          <Input Type="Variable" Label="no_vtx" Expression="no_vtx"/>
          <Input Type="Variable" Label="cands" Expression="cands"/>
        </Input>
        <Output NOutputs="11">
          <Output Type="Variable" Label="sign_tag[0]*rnet_opp[0]" Expression="sign_tag[0]*rnet_opp[0]"/>
          <Output Type="Variable" Label="sign_tag[1]*rnet_opp[1]" Expression="sign_tag[1]*rnet_opp[1]"/>
          <Output Type="Variable" Label="sign_tag[2]*rnet_opp[2]" Expression="sign_tag[2]*rnet_opp[2]"/>
          <Output Type="Variable" Label="sign_tag[3]*rnet_opp[3]" Expression="sign_tag[3]*rnet_opp[3]"/>
          <Output Type="Variable" Label="sign_tag[0]*pidk[0]" Expression="sign_tag[0]*pidk[0]"/>
          <Output Type="Variable" Label="sign_tag[1]*pidk[1]" Expression="sign_tag[1]*pidk[1]"/>
          <Output Type="Variable" Label="sign_tag[2]*pidk[2]" Expression="sign_tag[2]*pidk[2]"/>
          <Output Type="Variable" Label="sign_tag[3]*pidk[3]" Expression="sign_tag[3]*pidk[3]"/>
          <Output Type="Variable" Label="B_pt" Expression="B_pt"/>
          <Output Type="Variable" Label="no_vtx" Expression="no_vtx"/>
          <Output Type="Variable" Label="cands" Expression="cands"/>
        </Output>
      </Selection>
      <Class ClassIndex="0">
        <Ranges>
          <Range Index="0" Min="-9.9797409772872925e-01" Max="9.9701935052871704e-01"/>
          <Range Index="1" Min="-9.9699151515960693e-01" Max="9.9401628971099854e-01"/>
          <Range Index="2" Min="-9.7684031724929810e-01" Max="9.9378556013107300e-01"/>
          <Range Index="3" Min="-9.6879625320434570e-01" Max="9.6629369258880615e-01"/>
          <Range Index="4" Min="-1.3040589904785156e+02" Max="1.1850440216064453e+02"/>
          <Range Index="5" Min="-1.0642530059814453e+02" Max="1.1273880004882812e+02"/>
          <Range Index="6" Min="-1.0990360260009766e+02" Max="9.8161003112792969e+01"/>
          <Range Index="7" Min="-9.5682197570800781e+01" Max="9.5491897583007812e+01"/>
          <Range Index="8" Min="2.5359514236450195e+01" Max="5.6077562500000000e+04"/>
          <Range Index="9" Min="1.0000000000000000e+00" Max="9.0000000000000000e+00"/>
          <Range Index="10" Min="1.0000000000000000e+00" Max="1.0000000000000000e+01"/>
        </Ranges>
      </Class>
      <Class ClassIndex="1">
        <Ranges>
          <Range Index="0" Min="-9.9866122007369995e-01" Max="9.9698233604431152e-01"/>
          <Range Index="1" Min="-9.9280583858489990e-01" Max="9.9292272329330444e-01"/>
          <Range Index="2" Min="-9.8585432767868042e-01" Max="9.8714977502822876e-01"/>
          <Range Index="3" Min="-9.4058752059936523e-01" Max="9.8317474126815796e-01"/>
          <Range Index="4" Min="-1.1571640014648438e+02" Max="1.1768090057373047e+02"/>
          <Range Index="5" Min="-1.1796399688720703e+02" Max="1.2575749969482422e+02"/>
          <Range Index="6" Min="-8.8397102355957031e+01" Max="9.4736900329589844e+01"/>
          <Range Index="7" Min="-8.6252098083496094e+01" Max="8.6942703247070312e+01"/>
          <Range Index="8" Min="1.2233151435852051e+01" Max="7.9008617187500000e+04"/>
          <Range Index="9" Min="1.0000000000000000e+00" Max="8.0000000000000000e+00"/>
          <Range Index="10" Min="1.0000000000000000e+00" Max="1.1000000000000000e+01"/>
        </Ranges>
      </Class>
      <Class ClassIndex="2">
        <Ranges>
          <Range Index="0" Min="-9.9866122007369995e-01" Max="9.9701935052871704e-01"/>
          <Range Index="1" Min="-9.9699151515960693e-01" Max="9.9401628971099854e-01"/>
          <Range Index="2" Min="-9.8585432767868042e-01" Max="9.9378556013107300e-01"/>
          <Range Index="3" Min="-9.6879625320434570e-01" Max="9.8317474126815796e-01"/>
          <Range Index="4" Min="-1.3040589904785156e+02" Max="1.1850440216064453e+02"/>
          <Range Index="5" Min="-1.1796399688720703e+02" Max="1.2575749969482422e+02"/>
          <Range Index="6" Min="-1.0990360260009766e+02" Max="9.8161003112792969e+01"/>
          <Range Index="7" Min="-9.5682197570800781e+01" Max="9.5491897583007812e+01"/>
          <Range Index="8" Min="1.2233151435852051e+01" Max="7.9008617187500000e+04"/>
          <Range Index="9" Min="1.0000000000000000e+00" Max="9.0000000000000000e+00"/>
          <Range Index="10" Min="1.0000000000000000e+00" Max="1.1000000000000000e+01"/>
        </Ranges>
      </Class>
    </Transform>
    <Transform Name="Decorrelation">
      <Selection>
        <Input NInputs="11">
          <Input Type="Variable" Label="sign_tag[0]*rnet_opp[0]" Expression="sign_tag[0]*rnet_opp[0]"/>
          <Input Type="Variable" Label="sign_tag[1]*rnet_opp[1]" Expression="sign_tag[1]*rnet_opp[1]"/>
          <Input Type="Variable" Label="sign_tag[2]*rnet_opp[2]" Expression="sign_tag[2]*rnet_opp[2]"/>
          <Input Type="Variable" Label="sign_tag[3]*rnet_opp[3]" Expression="sign_tag[3]*rnet_opp[3]"/>
          <Input Type="Variable" Label="sign_tag[0]*pidk[0]" Expression="sign_tag[0]*pidk[0]"/>
          <Input Type="Variable" Label="sign_tag[1]*pidk[1]" Expression="sign_tag[1]*pidk[1]"/>
          <Input Type="Variable" Label="sign_tag[2]*pidk[2]" Expression="sign_tag[2]*pidk[2]"/>
          <Input Type="Variable" Label="sign_tag[3]*pidk[3]" Expression="sign_tag[3]*pidk[3]"/>
          <Input Type="Variable" Label="B_pt" Expression="B_pt"/>
          <Input Type="Variable" Label="no_vtx" Expression="no_vtx"/>
          <Input Type="Variable" Label="cands" Expression="cands"/>
        </Input>
        <Output NOutputs="11">
          <Output Type="Variable" Label="sign_tag[0]*rnet_opp[0]" Expression="sign_tag[0]*rnet_opp[0]"/>
          <Output Type="Variable" Label="sign_tag[1]*rnet_opp[1]" Expression="sign_tag[1]*rnet_opp[1]"/>
          <Output Type="Variable" Label="sign_tag[2]*rnet_opp[2]" Expression="sign_tag[2]*rnet_opp[2]"/>
          <Output Type="Variable" Label="sign_tag[3]*rnet_opp[3]" Expression="sign_tag[3]*rnet_opp[3]"/>
          <Output Type="Variable" Label="sign_tag[0]*pidk[0]" Expression="sign_tag[0]*pidk[0]"/>
          <Output Type="Variable" Label="sign_tag[1]*pidk[1]" Expression="sign_tag[1]*pidk[1]"/>
          <Output Type="Variable" Label="sign_tag[2]*pidk[2]" Expression="sign_tag[2]*pidk[2]"/>
          <Output Type="Variable" Label="sign_tag[3]*pidk[3]" Expression="sign_tag[3]*pidk[3]"/>
          <Output Type="Variable" Label="B_pt" Expression="B_pt"/>
          <Output Type="Variable" Label="no_vtx" Expression="no_vtx"/>
          <Output Type="Variable" Label="cands" Expression="cands"/>
        </Output>
      </Selection>
      <Matrix Rows="11" Columns="11">
        1.605838675407517e+00 2.334987395285921e-02 5.423035802491353e-03 -1.822603570497999e-03 -1.349911053127520e+00 -4.560439800688022e-03 9.444794465554816e-03 -1.408849176657097e-03 2.642538191914362e-03 6.716444514764194e-03 1.196186553011636e-02 2.334987395285920e-02 2.476780309645387e+00 4.022467570863052e-02 1.123565878031180e-02 1.331271146768518e-02 -1.922745573934577e+00 1.817778931978526e-02 3.174931649510980e-02 -1.001866860344938e-02 9.337174133052361e-03 4.452620207173458e-02 5.423035802491357e-03 4.022467570863052e-02 4.059970915491284e+00 4.647397548588435e-02 1.523314941009031e-02 2.197100334128756e-02 -3.061732440067008e+00 4.325591906844226e-02 1.840339080556997e-03 -1.319790035747284e-02 -6.844727145909802e-03 -1.822603570498000e-03 1.123565878031180e-02 4.647397548588435e-02 6.687505867152256e+00 1.309813695429397e-02 4.238390667862250e-02 -1.899546943539413e-02 -4.767960294693707e+00 1.638086720252894e-02 1.572586652327315e-03 -4.231625555468085e-02 -1.349911053127520e+00 1.331271146768517e-02 1.523314941009032e-02 1.309813695429396e-02 8.573778325938175e+00 8.159658869482034e-02 1.512589547934823e-02 2.848846795019059e-02 1.919496757610040e-02 -2.491946796961780e-02 1.278272746620881e-02 -4.560439800688027e-03 -1.922745573934577e+00 2.197100334128759e-02 4.238390667862250e-02 8.159658869482037e-02 1.071506556410436e+01 7.215084130472610e-02 -4.036684614609778e-02 4.769016839714225e-02 4.729304654104750e-03 -2.167575325866112e-02 9.444794465554809e-03 1.817778931978527e-02 -3.061732440067008e+00 -1.899546943539421e-02 1.512589547934824e-02 7.215084130472607e-02 1.358171898498237e+01 2.810571511204956e-01 8.744813700512853e-03 6.732108627344279e-03 2.621254462990899e-02 -1.408849176657096e-03 3.174931649510979e-02 4.325591906844225e-02 -4.767960294693709e+00 2.848846795019058e-02 -4.036684614609779e-02 2.810571511204956e-01 1.907674240796786e+01 -1.181775970579071e-02 -2.263108261538912e-02 3.737609342117833e-02 2.642538191914361e-03 -1.001866860344938e-02 1.840339080556997e-03 1.638086720252895e-02 1.919496757610040e-02 4.769016839714228e-02 8.744813700512855e-03 -1.181775970579072e-02 9.121556420462591e+00 -5.125882835762232e-02 7.208656158150190e-02 6.716444514764193e-03 9.337174133052368e-03 -1.319790035747284e-02 1.572586652327347e-03 -2.491946796961779e-02 4.729304654104753e-03 6.732108627344289e-03 -2.263108261538915e-02 -5.125882835762233e-02 4.318313664827788e+00 3.777162056658646e-01 1.196186553011635e-02 4.452620207173459e-02 -6.844727145909802e-03 -4.231625555468083e-02 1.278272746620882e-02 -2.167575325866113e-02 2.621254462990899e-02 3.737609342117829e-02 7.208656158150190e-02 3.777162056658643e-01 4.134496384710133e+00 
      </Matrix>
      <Matrix Rows="11" Columns="11">
        1.613144739987431e+00 2.527075248790946e-02 7.537663295983134e-03 -1.133514702159051e-03 -1.357668633516169e+00 -7.272122542260582e-03 -5.827657968783795e-03 -6.492304559721969e-03 -2.507724138073458e-03 -7.087189313337284e-03 -3.049884009387915e-02 2.527075248790943e-02 2.489591656287817e+00 7.228965685987687e-03 -1.458170311786996e-02 4.411161877645788e-03 -1.962265000232656e+00 2.740758322566831e-02 7.357434306058890e-03 -1.327249901953400e-02 5.094438144165419e-03 -4.076214451979751e-02 7.537663295983143e-03 7.228965685987679e-03 4.004290964926218e+00 2.107181106771460e-02 7.713960890539513e-03 1.845151687493720e-02 -2.925430075637301e+00 -1.116415745213387e-02 -2.760922553361140e-04 -1.239867912125985e-03 -7.250344915936173e-02 -1.133514702159051e-03 -1.458170311786996e-02 2.107181106771460e-02 6.737997220450469e+00 9.877408839154476e-03 3.750762864654791e-02 6.347272450327464e-02 -4.866593281795850e+00 6.340203890899652e-03 -8.151480068852981e-03 -1.146770027551176e-01 -1.357668633516169e+00 4.411161877645778e-03 7.713960890539513e-03 9.877408839154476e-03 8.599237920497089e+00 8.526489374933731e-02 8.657828891460477e-02 6.612166698455905e-02 -3.363782244666428e-02 6.273183810410908e-02 1.886731857848835e-02 -7.272122542260570e-03 -1.962265000232656e+00 1.845151687493717e-02 3.750762864654792e-02 8.526489374933738e-02 1.088473499784114e+01 4.024108986804200e-02 6.233237648645524e-02 3.226072531089364e-02 2.310218189770606e-02 -2.060270896871992e-02 -5.827657968783810e-03 2.740758322566832e-02 -2.925430075637302e+00 6.347272450327465e-02 8.657828891460476e-02 4.024108986804194e-02 1.323914311199556e+01 5.779802872474953e-02 -5.896173620643522e-03 2.903590579429747e-02 -4.770820362481457e-02 -6.492304559721969e-03 7.357434306058881e-03 -1.116415745213388e-02 -4.866593281795850e+00 6.612166698455905e-02 6.233237648645525e-02 5.779802872474950e-02 1.908504042606570e+01 -2.606111011993827e-02 2.056922453383351e-02 -5.437852356315585e-02 -2.507724138073529e-03 -1.327249901953399e-02 -2.760922553361105e-04 6.340203890899658e-03 -3.363782244666376e-02 3.226072531089363e-02 -5.896173620643525e-03 -2.606111011993828e-02 8.927591284583732e+00 -5.080314619222478e-02 6.443641088821679e-02 -7.087189313337280e-03 5.094438144165415e-03 -1.239867912126002e-03 -8.151480068852884e-03 6.273183810410905e-02 2.310218189770605e-02 2.903590579429750e-02 2.056922453383343e-02 -5.080314619222477e-02 4.322498375625945e+00 3.698588964154222e-01 -3.049884009387914e-02 -4.076214451979750e-02 -7.250344915936177e-02 -1.146770027551175e-01 1.886731857848834e-02 -2.060270896871992e-02 -4.770820362481459e-02 -5.437852356315599e-02 6.443641088821679e-02 3.698588964154220e-01 4.134167922524496e+00 
      </Matrix>
      <Matrix Rows="11" Columns="11">
        1.602375869381885e+00 2.064458067354634e-02 5.000568883911607e-03 -2.830926263960070e-03 -1.357435641099274e+00 -6.523767590897879e-03 -1.601487972991678e-04 -5.211142116137405e-03 -6.287563999445261e-04 -1.283373023847862e-04 -9.054037423976133e-03 2.064458067354633e-02 2.480598731284006e+00 2.236150882080857e-02 -2.876179571290487e-03 6.666138330592080e-03 -1.942547935069122e+00 2.136389564967236e-02 1.782524863608911e-02 -1.221590910596214e-02 7.296174367390180e-03 1.556886264437808e-03 5.000568883911607e-03 2.236150882080858e-02 4.030439655891805e+00 3.258250720401334e-02 1.030082248698134e-02 2.024032174095341e-02 -2.992819926392523e+00 1.528197222236560e-02 4.872637361404986e-04 -7.222915037346933e-03 -4.062066620434505e-02 -2.830926263960068e-03 -2.876179571290494e-03 3.258250720401333e-02 6.711199261211629e+00 1.039764517142865e-02 4.005387084447645e-02 2.172802929767635e-02 -4.816682312934147e+00 1.102700411159002e-02 -3.312561022424630e-03 -7.886545928552012e-02 -1.357435641099274e+00 6.666138330592082e-03 1.030082248698133e-02 1.039764517142865e-02 8.581695491146586e+00 8.274007506760944e-02 4.926028645385475e-02 4.634935884571235e-02 -8.390645724441924e-03 1.881503482996926e-02 1.610045098671389e-02 -6.523767590897887e-03 -1.942547935069122e+00 2.024032174095342e-02 4.005387084447643e-02 8.274007506760947e-02 1.079859641478532e+01 5.628147638180633e-02 1.008706116029093e-02 3.984714863302649e-02 1.380305045094445e-02 -2.117000946103429e-02 -1.601487972991647e-04 2.136389564967237e-02 -2.992819926392522e+00 2.172802929767636e-02 4.926028645385473e-02 5.628147638180633e-02 1.340305522688100e+01 1.666129406559488e-01 8.535042061956275e-04 1.781504585339647e-02 -1.076373166063347e-02 -5.211142116137408e-03 1.782524863608912e-02 1.528197222236567e-02 -4.816682312934145e+00 4.634935884571238e-02 1.008706116029094e-02 1.666129406559488e-01 1.907147647452560e+01 -1.956408207812466e-02 -9.457730837078112e-04 -1.090317779659741e-02 -6.287563999445224e-04 -1.221590910596213e-02 4.872637361404983e-04 1.102700411159002e-02 -8.390645724441930e-03 3.984714863302646e-02 8.535042061956287e-04 -1.956408207812465e-02 9.022331943005863e+00 -5.081783887800526e-02 6.759659121228138e-02 -1.283373023847867e-04 7.296174367390171e-03 -7.222915037346933e-03 -3.312561022424593e-03 1.881503482996925e-02 1.380305045094445e-02 1.781504585339646e-02 -9.457730837078419e-04 -5.081783887800524e-02 4.320042731859135e+00 3.739484306094403e-01 -9.054037423976133e-03 1.556886264437813e-03 -4.062066620434505e-02 -7.886545928552020e-02 1.610045098671389e-02 -2.117000946103429e-02 -1.076373166063348e-02 -1.090317779659734e-02 6.759659121228138e-02 3.739484306094400e-01 4.130341649393210e+00 
      </Matrix>
    </Transform>
  </Transformations>
  <MVAPdfs/>
  <Weights>
    <Layout NLayers="3">
      <Layer Index="0" NNeurons="12">
        <Neuron NSynapses="19">
          -5.1600640489833272e-01 2.9037802872748539e+00 9.8910858530278145e-02 1.7680076761184571e+00 -8.7542008262765902e-01 -9.4993135751144953e-01 -7.4632897663017450e-01 1.4831322047551854e+00 -5.4456448857247235e+00 -3.5723555044540118e+00 -1.3736346373898431e+00 -4.0694655279926162e-01 -1.1562119874473151e+00 1.1235816620101371e-01 -3.3300864258846435e-01 4.6768145994659988e-01 -2.4422867142913068e-01 1.4255938932816707e+00 2.2516055698547305e-01 
        </Neuron>
        <Neuron NSynapses="19">
          7.9700728674908683e-01 2.0399428041721332e-01 -4.5199221338875967e-01 5.0061650918516254e-01 7.6951514135031418e-01 -8.9793081416452003e-01 -2.6217241038929886e-02 1.0503833399732592e+00 -3.1990618901750312e-01 -3.5525716450408557e-01 -2.5479409094603288e-02 1.8608764747246645e-01 1.1506581295155012e+00 -3.9530877151393412e-01 -1.2536593231079557e-01 4.9082469744189261e-01 -1.9293829581646321e-01 -1.4529357012757236e+00 1.1590471021174773e+00 
        </Neuron>
        <Neuron NSynapses="19">
          -1.4237828317491052e+00 2.3667243836090721e-01 6.2671837183594148e-01 4.5421134310200673e-01 1.3650739303747286e+00 9.3078147897851449e-01 -6.5253502061006008e-01 -1.0179968694111718e+00 2.3937369248790918e-02 -9.5832568625998205e-02 1.1071495447310236e+00 8.8693953404584325e-01 1.4668679015886001e+00 1.5469101859362404e+00 -1.3041183765732700e+00 8.9984809595211090e-01 -1.2128529107905335e+00 -1.2995084226031219e+00 -9.5023356626019784e-01 
        </Neuron>
        <Neuron NSynapses="19">
          -1.0474629872913235e+00 -2.4382226298857196e-01 2.9013390976057890e-01 -1.3427625829395557e+00 2.7537679563038509e-01 -2.4104238511707621e-01 2.2125207290543583e-01 1.3840059046461395e+00 -8.7673384227324833e-02 8.3901902960995022e-04 -6.5497162365120465e-01 3.6857209875936059e-01 -4.6419530836057904e-01 -5.0586315120637249e-01 -6.3377007488708759e-01 7.8638803168525095e-01 6.6611756143147105e-01 4.5440149737988872e-01 -1.4988047881411293e-01 
        </Neuron>
        <Neuron NSynapses="19">
          -1.4422886751036368e+00 -8.4520203368031221e-01 2.6336213745683018e-01 -5.5345588538090228e-03 2.4021949775248088e+00 5.1234044931117484e-01 7.2425818133218711e-01 -3.8093121590071632e-01 -1.3091841950716818e+00 -9.1156001929112696e-01 9.2946246663291543e-01 -7.6901766424620654e-01 -1.0234033324161780e+00 -1.1362722223764479e+00 -2.3864172529046557e-01 1.2563321987214376e-01 1.4350317105043779e+00 -7.6529443460747626e-01 -6.6377516920040336e-01 
        </Neuron>
        <Neuron NSynapses="19">
          1.0734659292314150e+00 -5.3807438716713007e-01 -9.5942049941587659e-01 -8.0017356088513336e-01 6.2270681095500890e-01 -1.0555443509483287e+00 -1.0718289383567192e+00 4.2538473739904026e-01 -8.0086470570360016e-02 -5.3620344418443870e-02 1.0779565690354473e+00 -5.7215505052910942e-01 -4.4224070842549407e-01 2.2551377666810687e-01 3.4476166165678174e-01 -1.2862513998174914e+00 2.1603783802256751e-01 4.1544436191413869e-01 3.1887733783676625e-01 
        </Neuron>
        <Neuron NSynapses="19">
          -1.3328915732648032e+00 2.2924024361608137e+00 1.2094348139413599e-01 -4.6179412543786136e-01 1.3475814790361007e-01 -6.8937874162862689e-01 -5.6259690557346331e-01 -2.0895291424197424e-01 -5.7282542408001583e-02 -1.8146770003487751e-02 3.2954817531293057e-01 1.8879393183327439e-01 -4.0656796676139317e-01 1.9628319471932976e-01 -1.1344412012159339e+00 6.1844143596581236e-01 -8.0564489276373968e-02 -2.0108005570308363e-01 3.2633451604979535e-01 
        </Neuron>
        <Neuron NSynapses="19">
          -5.9909688670791938e-01 -6.6370957464612312e-01 8.3576603250639603e-01 1.3429775997762976e+00 -5.4379963482615212e-01 1.8027044592523450e-01 7.1773742491729675e-01 8.2063694239252938e-01 -1.2020956810232719e-01 -1.9643662339265297e-01 1.7810959977743249e-02 -1.1511270252804284e+00 6.5564163650943763e-01 5.7641082361006335e-01 -2.9062340733034081e-01 -1.5630305593111307e-01 4.8250531593823663e-02 -1.6440300955423210e+00 2.0188740556140797e-01 
        </Neuron>
        <Neuron NSynapses="19">
          1.8415471385418427e+00 -1.0016591690784907e-01 2.2063384652469940e+00 -2.0785238862879590e-01 8.7699238877438523e-01 2.0606820327658419e+00 -2.0385235924076914e+00 -2.7384772733168954e+00 4.0908152572577955e-01 -1.6960010495745526e-01 1.5610186075319039e+00 9.0612606400722995e-01 2.7569539308737663e+00 -8.4079547289563503e-02 2.0419281088698913e+00 1.6775120546373039e+00 1.4612919372955457e+00 -6.0259806057566245e-01 1.6057012030996822e+00 
        </Neuron>
        <Neuron NSynapses="19">
          1.5929419084764425e+00 5.4756393532858638e-01 2.3723829070306297e+00 1.7591593356360864e+00 -1.6498404206527735e+00 1.1124412914010393e+00 -1.2211324183499572e+00 -4.9163740470286516e-01 9.2758658773109112e-02 -3.7645501302906464e-01 1.3333276924487210e+00 1.7002272762117940e+00 -8.2176700362028576e-01 -3.6031708373541876e-01 7.3802404827465840e-01 9.4880322486098034e-01 2.0759874131236584e+00 -6.3845483832107663e-01 1.3411493938930654e-02 
        </Neuron>
        <Neuron NSynapses="19">
          -4.1325467684692163e-01 2.1200673651116642e-01 2.4024765529139924e+00 1.7567008274067394e-01 1.5930420852256003e-01 -4.7232834457044827e-02 -2.3689669779724838e+00 4.9555491697712634e-01 2.2027616060529698e-01 -3.4758173333338208e-02 -2.8724722874347852e-01 4.3255599051472415e-01 6.7572911396000346e-01 -1.7487149115923366e+00 2.1750591352936230e+00 1.0733882462321211e+00 2.9181745135975951e-01 -2.9610274321272922e-01 1.5519232356683741e+00 
        </Neuron>
        <Neuron NSynapses="19">
          7.8082035208612532e-01 6.1300258372370797e-01 -4.5182320839672913e-01 -1.6711028981193226e+00 -7.8443648917322728e-01 1.3721982935863408e+00 1.6222248437897546e+00 8.9534876487101900e-01 -3.2831482231824696e+00 3.1223725780680383e+00 -1.7557938867122727e+00 -1.3087084980653758e+00 -3.1064578438502777e-01 -1.4726113265481144e+00 5.1290959558003435e-01 1.2509263394393506e+00 -1.4380712840680614e+00 5.9164283766465764e-01 -2.4251332703169975e-01 
        </Neuron>
      </Layer>
      <Layer Index="1" NNeurons="20">
        <Neuron NSynapses="1">
          -7.8123368297275253e-01 
        </Neuron>
        <Neuron NSynapses="1">
          -1.6674860453408341e-01 
        </Neuron>
        <Neuron NSynapses="1">
          -2.8743180978927391e-01 
        </Neuron>
        <Neuron NSynapses="1">
          4.3678171858850201e-01 
        </Neuron>
        <Neuron NSynapses="1">
          -1.5439361484058828e-01 
        </Neuron>
        <Neuron NSynapses="1">
          1.2560121559898435e-01 
        </Neuron>
        <Neuron NSynapses="1">
          -2.2271524693413361e-01 
        </Neuron>
        <Neuron NSynapses="1">
          -7.9705815961992865e-01 
        </Neuron>
        <Neuron NSynapses="1">
          9.3083053173028207e-01 
        </Neuron>
        <Neuron NSynapses="1">
          1.3095481224152397e+00 
        </Neuron>
        <Neuron NSynapses="1">
          -2.6863624867702673e-01 
        </Neuron>
        <Neuron NSynapses="1">
          -2.1656232885873591e-01 
        </Neuron>
        <Neuron NSynapses="1">
          -5.7351728957940651e-01 
        </Neuron>
        <Neuron NSynapses="1">
          6.9335601040613815e-02 
        </Neuron>
        <Neuron NSynapses="1">
          -3.1678771388659310e-01 
        </Neuron>
        <Neuron NSynapses="1">
          -6.9703629804360556e-01 
        </Neuron>
        <Neuron NSynapses="1">
          -1.6976334881309202e-01 
        </Neuron>
        <Neuron NSynapses="1">
          4.2414504409828158e-01 
        </Neuron>
        <Neuron NSynapses="1">
          2.1352481725699746e-01 
        </Neuron>
        <Neuron NSynapses="1">
          -6.2236841625966888e-01 
        </Neuron>
      </Layer>
      <Layer Index="2" NNeurons="1">
        <Neuron NSynapses="0"/>
      </Layer>
    </Layout>
    <InverseHessian NElements="61504" NRows="248" NCols="248">
      <Row Index="0">
        4.0187565072557170e+01 -9.0044680171022157e-02 8.1303813929893295e+01 4.3051183971573759e-02 -1.1336004262678671e-02 5.2514878119934039e+01 5.0226431191317573e+01 -5.4342199612553865e-01 2.0405212647816201e-01 -8.0961466508210636e-02 1.6514135068168354e+00 -1.0738211910058739e+00 4.6364605782023610e-01 -1.6980436507203420e-01 -8.1666353041816774e+02 -2.9581160305733434e-01 2.3013825711496872e+02 7.1439505578590034e-03 -1.1314627004546084e+01 -2.4650730292327385e+01 -3.9348894547526991e-02 1.1946948064606265e+02 -2.1258675366066337e-03 7.5760979245467937e-05 4.9251061754418259e+01 6.4233127803178434e+01 5.1731591094417584e-01 1.2360906540211129e-02 -8.0719644752936994e-03 3.2629041843513278e+00 -2.8990833367451763e-01 -6.2248245015313253e-01 -5.7888384766450161e-02 -1.4825788132957405e+02 -2.1219421987207023e+00 2.6375414834022592e+02 3.5719426420968078e-02 -6.2951753028035860e+01 1.9502316240052600e+01 1.0267630301295919e-02 5.7260497705182473e+01 5.4754064296589659e-03 -3.3648694409421691e-02 -1.4888466962169961e+01 5.6240041962359186e+01 -1.3794900232465050e+00 1.7998489247436451e-03 -9.2482525152110182e-03 -2.5806539600729060e+01 1.8261998840652169e+00 -2.8630322453885784e+00 1.8782863221852078e-01 -2.9295758580627148e+02 -3.2981144338349724e+00 -1.6848163403082603e+02 -1.9791219548988527e-02 2.2623722236198851e-01 2.5905272821655586e+01 -1.1772069523294851e-02 1.2322253844678266e+02 -2.4227549194109649e-03 3.1711814734953110e-03 2.1572235511611947e+01 1.2938582202839916e+02 9.9756733920770180e-01 2.2083772187627766e-03 -7.4910431549716390e-03 2.5793327333949286e+01 1.5021173204782912e-01 2.8864672692081850e-01 -1.3041237657550847e-01 -4.1626694158779173e+01 5.5973148865724770e-02 2.1240332134117193e+02 -2.2419128711820842e-02 -3.4479823916464785e+00 3.4638919506288204e+01 3.8699913010564024e-02 -1.0001018865513402e+01 -2.3159213619190988e-02 -4.0612492735867381e-02 -1.5345464076069964e+01 -2.1535995606460759e+01 1.5456089962139239e+00 4.2942926361258460e-02 -1.9844870834415346e-02 -9.0137589135789042e+00 1.7086361210449557e+00 2.5646458213899410e+00 -4.0653533555539156e-01 5.2356973675509676e+02 6.4133802864658485e-01 -1.2752522287389598e+02 3.8383592179711032e-02 5.3678825712290443e+00 -3.9980718017298926e+01 2.6967657129347244e-02 -3.6225535646400715e+00 3.7544966119617794e-03 1.6156457635824878e-04 3.1213268940543237e+01 -2.7493351340484139e+01 2.6227257254955205e+00 4.3679619220849389e-03 2.0069451181836326e-03 -1.0802643975509753e+01 4.3272805314570562e-02 -7.5048313057142702e-01 1.3741924836431416e-01 -2.0169968020204351e+02 1.2245590039967813e+00 -2.1430773546628353e+02 -2.4052349870867837e-02 -2.1508700000681948e+01 3.0005081832553390e+01 -4.4427761575935983e-02 2.8490814175397998e+02 -7.2083523177042946e-02 -4.5301630376701006e-02 2.4235241780001022e+01 3.7752760638177449e+01 -1.9495315146707863e+00 8.5400059599161256e-04 -7.6696984494876840e-03 -5.0260176375136938e+00 5.8996144755980495e-01 -1.7185306611905395e+00 -1.0438714328454832e-01 5.1714019580128922e+02 -7.7719392133209375e-01 9.3256208105613382e+01 2.4602205190970193e-02 -1.8771253162878757e+01 1.6246161731288197e+01 9.4926013051539151e-02 1.7193628900313843e+02 8.9158618289600158e-03 1.0121095800884244e-02 -8.5800502038357394e+00 7.9799498723281204e+01 9.3840088484393047e-01 1.6316684074019053e-02 -2.6231813368577323e-03 2.6849053704860420e+01 -6.2966812889950763e-03 -7.6847503919324378e-02 -1.6295927138105576e-01 3.4370194637332918e+02 -6.1534367484231378e-01 -3.0862284084413488e+01 3.1672681598197805e-02 -2.9367109642112652e+00 -4.2029573414083600e+01 -1.5400344985956689e-02 -4.9131282547801675e+01 2.5283473193750548e-02 3.9404764322468776e-02 -4.6478860671180357e+01 -7.9056536234680408e+00 -9.8262389245101334e-01 -7.8968275963826658e-03 1.1228638679073370e-02 3.7757750720604655e-01 4.1743781837141114e-01 3.4402293606310774e-01 1.6938144527073881e-01 -4.6158077586766360e+01 -6.6847217359802991e-01 -5.3606416148474153e+01 2.9969579800509738e-02 -2.4389279985457346e+01 -5.2887060088029507e+01 -1.3901909772757971e-02 -1.3726999677391157e+02 -1.7127180152466115e-03 3.4841236561122008e-02 -4.0243078368327751e+01 -1.0128374801523080e+02 1.5275159153749662e-02 3.5922818207062080e-03 4.6377908279834493e-03 -4.8812783473322270e+00 8.6026232412148484e-01 5.2030038258452649e-03 -2.3030728398025502e-03 4.6095573000262476e+02 2.3375619224609800e-01 5.9161901667479512e+01 3.3728975894011103e-02 9.7531204464007395e+00 1.0841126502687185e+01 -8.7575637257946634e-03 -4.8270854029308239e+01 2.0243442322175468e-03 1.7009220513761841e-02 -5.0156121843668018e+00 -1.7039960878496515e+01 1.2127095035982158e+00 -5.1452138927610197e-03 7.4205237938652887e-03 3.5385804192603807e+01 -1.8290778074960556e+00 2.1886364519132862e+00 -2.1653048234953098e-01 -1.6450670332984822e+02 -8.2737869332241765e-01 -2.1259717317031834e+02 3.9256500643233848e-02 -6.1034011450663883e+01 -1.1639116548113304e+02 -1.6149631832677661e-01 3.8644687229594851e+01 2.1550465884215317e-01 5.6846741085613905e-01 -1.0201364872949279e+02 2.0626726013405218e+01 7.3853719050346065e+00 1.2227087715685400e-01 2.2302885096786690e-01 1.5249420470922325e+02 -3.5504656251966367e+00 9.5417868549955109e+00 1.4307045889156811e+00 5.5555917158822126e+01 7.3091813643433170e+00 1.4105831762908838e+02 3.3137163330545039e-01 -1.3712905957303676e+01 -2.3133051374785893e+01 -3.7952494996244738e-03 4.9078600383673972e+01 -1.0110902743142202e-02 -6.9991155107438762e-04 1.9751917513958475e+00 -6.3619671622826424e+01 -6.2415498261259106e-01 4.3816743884769402e-02 -3.5147541579273987e-02 -5.2257326479761446e-01 -3.7106599526028339e-01 -4.2398528730416030e-01 -5.4562350468375913e-03 -2.2314914593172631e+02 -1.2756580821020851e+00 2.0636980368086884e+02 2.3158173265005180e-03 1.3152744867242998e+01 6.4282548714165230e+01 
      </Row>
      <Row Index="1">
        -9.0044680797593202e-02 3.2430035295142345e+00 1.7711170742112898e+00 -2.5062902208073525e-02 -1.7940950998873423e-01 4.5642733757520126e-01 1.9915553928901204e+00 -3.3747802298254435e-02 1.6862724590071104e-01 1.3817374514693313e-02 7.8703691010458243e-01 2.9941675793895284e-01 5.1202757029420010e-02 -1.3410864610401185e-01 1.3629474943521274e+00 -1.1349747885732953e-01 -4.8778517706094249e-01 2.1357512323255737e-03 -1.4187317680856459e-01 7.5937938108400771e-02 2.6795281336560950e-01 -1.2693249591795279e+00 -5.1553936691678542e-03 1.2560310051913923e-01 1.1018338166214336e+00 2.9325621839299449e+00 -1.1584057998596853e-02 1.0062294831186725e-02 9.6708612540967308e-03 4.9700705436690623e-01 -1.0765584134514139e-01 -1.1849521601514368e-02 2.1825890926081531e-02 1.9296153045270970e+00 1.1853622145470921e-01 -4.4104128248251051e+00 -7.5522722576978896e-03 -6.8602231652362455e-02 1.3135208170722168e-01 2.9336612462758904e-01 1.2663754300701249e+00 -6.5774265302709287e-03 1.4358874638797420e-01 -1.3701473753894362e+00 1.1395715297882578e+00 -4.4804664261780557e-02 -1.1119877785855667e-02 -4.7778728608866457e-03 4.0251099253147515e-02 -5.4560147112525903e-01 -1.2155115828328933e-01 1.4976826461045034e-03 1.3120602394428245e+00 4.7140121903822774e-02 5.7978700141684953e+00 1.5049160389574564e-03 3.3486663479555645e-01 -1.6973807909786753e-02 -2.7179498117236650e-01 1.6675321962679845e-01 3.0425506581756162e-02 6.7421390142145769e-03 -7.1602621494861296e-02 3.0311617259251591e+00 -5.3400403429147536e-02 7.5545855520483592e-03 3.8365957739142430e-03 -1.7071134312128167e-01 -4.0854402626022690e-02 2.0391375921157806e-02 2.7704955182334012e-02 1.3936255481285116e+00 2.8015549881804436e-02 -2.6496087681429827e+00 3.0255886182855019e-03 -6.2684388927141566e-02 1.9606642653026585e-02 -8.2960768329150525e-01 -4.3418174752321192e-01 4.1424341907461415e-03 -8.0645656472665833e-04 6.9874893314324904e-01 -1.5627991400833139e+00 -5.6624272414635746e-02 7.9513986380065571e-02 3.8133309635917247e-02 3.4240844021573480e-01 3.9968506513397273e-01 1.2810292543173585e-01 -1.9808106414577134e-01 8.3699310848956188e-01 1.5745573432825832e-01 -1.0771111459127614e+00 -4.3147932152324764e-02 4.8488016466606609e-02 5.7631241356469243e-02 -5.8188473545891595e-01 -7.8872411244529417e-01 3.3146978557913452e-02 -3.9019456525281750e-02 5.9259760118436589e-02 -2.5347164118563050e+00 1.3642546673563682e-02 1.6270239118449662e-02 1.0153512980303939e-02 -4.4028556202135860e-01 1.6381482090860189e-01 -1.3728508988055221e-02 -1.3113516331916902e-02 -4.3650547967706643e-01 -1.4906498867458406e-01 4.5944379273919367e-01 -3.2461287427219820e-04 1.3441200304207257e-02 -1.0889055524711019e-02 2.6452197653528193e+00 -2.6959623103820718e-01 -6.9772959986192165e-03 1.3140937234725145e-01 1.2772782842052273e+00 -8.4842294833753726e+00 1.0788524171041707e-01 -3.5569526865800831e-02 -2.9897794263286780e-02 3.5213969357468161e-01 -2.3842289981671178e-01 -2.0928886682005265e-02 -2.6601694650705299e-01 1.6691386062503568e+00 -1.8861490693157013e-02 2.0263401004805424e+00 -3.0682423619072551e-02 -1.1142020210100423e-01 7.0237118712832003e-04 -7.3818433476921907e-01 3.9641419537483671e+00 -2.4934758903690728e-02 -9.2001026882933365e-02 2.5329765438968366e-01 5.9164048950297001e+00 -2.8070530805554661e-02 1.9875397026945772e-02 1.7328497438886471e-02 -1.9913364096113639e-01 3.4867321837270188e-01 -1.8614164963618410e-02 1.5968454066533122e-01 -5.1972767298259281e-01 -5.7495113363627226e-02 -1.3900161079245663e+00 2.5936717375201904e-03 -2.4403662167475204e-01 1.9157941843080728e-02 -1.1550437456939978e-01 -1.2412826206575289e+00 3.1600525624235470e-03 1.5361708141609501e-01 -1.1426667785326927e+00 3.2894981447389000e+00 2.6937513811884830e-03 -1.9676298234665428e-02 9.1604246855118941e-03 -4.4028112948071030e-01 -2.2581598068209008e-01 -6.2725861827832574e-02 -4.9430442490723439e-02 -1.0022740991223742e+00 2.2256352746065677e-01 -2.3442641421595312e+00 -1.9253153734165505e-02 -3.6270493551741367e-01 4.4427686781926434e-02 5.7772768132218932e-01 -1.8979950179847833e+00 -4.2842202778036763e-02 -1.3952449733068270e-01 -1.7056068565649696e-01 2.4182642383614734e+00 4.3353138799337998e-03 -1.7835047843924652e-02 8.1168589867090767e-03 -3.0856866955025453e-01 -7.4143828533235823e-01 4.9744883199723589e-02 2.7698461861999035e-02 2.8159626306005237e-01 1.0984763023385025e-01 -6.2448967961533697e-01 -7.5157749637905138e-03 -1.8258696120537010e-01 1.6094992404251346e-01 1.7794632215832729e-01 -1.1567408383852253e+00 1.6159512179030840e-02 1.8197406107706832e-01 3.8416900591581182e-01 2.2694132610806399e+00 -3.6633829678791585e-03 -1.4304560567733299e-02 -3.5208243104981867e-03 -6.2667693328104512e-01 1.8090859768804357e-01 5.9159961528772342e-02 -1.4997801981025863e-01 1.8460815544971751e+00 2.0438436123272208e-01 -1.0703945406612512e+00 -2.6124293490023716e-03 -1.5044485465698898e-01 5.2106015190524246e-01 2.8270726840296173e-01 6.9330295735099412e-01 3.6668889242327252e-02 9.0146168903910495e-01 2.7923116097348810e-01 -1.3161946186522755e+00 9.6916957578265794e-03 4.6089318122446016e-03 1.8063772005277062e-02 -3.4738262885449842e+00 5.9996638043398320e-01 3.9940207493441182e-01 -2.1468385264450518e-01 6.1181146317055664e+00 8.9286961118410346e-01 -7.6215042689462109e-01 -1.2355613201227600e-01 -1.9344117199544542e-02 -7.4159905572369733e-02 8.8039446047542297e-02 -1.7951040243945897e+00 7.8921961293955123e-03 2.1064359510079012e-02 -4.1565769790814500e-03 -3.3554979338576469e+00 -1.7532075688561445e-02 3.6219971126320596e-02 3.1324984266875432e-02 -3.7794411421844476e-02 -4.5528428397674237e-02 -1.0247915501953031e-03 4.1771757288713851e-05 -7.4524385304169982e-01 2.4093799217206779e-02 -3.6308108843434184e-01 -4.2745662187555142e-03 -2.2819133351450915e-02 3.2919063522486165e+00 
      </Row>
      <Row Index="2">
        8.1303817084997718e+01 1.7711170902402955e+00 9.7446681468463014e+05 7.4739979027564585e-01 3.9084725688658138e-02 -8.1370408657936900e+02 -1.1127893049441278e+04 -9.8466819297077791e+01 2.6411283512927142e-01 -1.1847658688549152e+00 -1.3802372734546989e+03 -2.4585531104365742e+01 -1.0275930632434893e+01 -3.5744686348421544e+00 6.0978906952112084e+02 1.1957638903880103e+02 -1.4910739443574530e+03 -7.8198520789091974e-01 -2.0271715326558652e+02 2.0729403939266149e+00 3.6377215669686347e-01 -1.8927520795783494e+02 1.4166248993235087e-01 5.6501149658129246e-02 -1.5475094943525028e+03 -1.1602822884948240e+04 -6.2780297380959496e+01 3.9533828192995779e-02 -1.7393652103778251e-01 -3.1343899937932122e+02 -3.7986351719092454e+01 2.3755941742692720e+01 -1.2020056482438779e+00 2.1852559920534686e+03 1.8900505109925416e+02 8.9476741382485070e+03 3.1904909839414564e-01 -3.7537684238322595e+02 -3.7697191340887656e+01 -1.7008235460388765e-01 -2.0673194413140343e+04 1.9262885806552227e-01 2.2637729496832526e-01 8.8028148635021694e+02 -1.4356067175119126e+04 2.7071343522654814e+01 2.7821767979541903e-02 -5.2052293746365885e-02 4.6061960707212484e+02 1.3811128642473861e+01 1.6369734163438601e+00 2.9637780192205474e+00 1.1779803221525744e+04 3.1115218802350967e+01 4.4369034763896852e+03 -4.8671381769703492e-01 6.5435819429902665e+02 7.4883968562635758e+01 -5.5842744947781220e-01 -2.1049030889269445e+04 -1.1668362103064045e+00 -1.9642091260286465e-01 -8.2515640161482861e+02 -2.3525019040796797e+03 -1.6661067815849162e+02 3.4866436528085402e-02 -1.4397171585626062e-01 -1.1059185023983414e+03 1.2836468294356575e+02 5.1316840627929068e+00 -1.0450914063571319e+00 7.7191615909464545e+03 4.8840155093232688e+01 -8.2434950967472032e+03 -1.3744646845171253e+00 -1.0034700208008189e+00 3.4485744193172408e+01 -1.4217426696374239e-01 5.1605942624594318e+03 -3.8303999723253290e-01 2.3319061266254737e-01 3.7318684221242177e+02 5.4925494608010631e+03 5.8055556613251262e+00 5.7244509625773599e-02 -3.2880424524800844e-01 6.8344796767019329e+02 -3.7478939240894761e+01 -9.9982324865772370e+00 -1.8936367442756623e+00 -1.9763959009257367e+04 4.8043751520535920e+01 1.9582035967963311e+03 1.5277425040814308e-01 -2.3232507950324361e+00 -4.2468114170630919e+01 4.1461563859602313e-02 3.3887203859782603e+03 -2.9065310420344664e-01 -1.5141350154351585e-02 -1.8931804123827319e+03 4.8837321295131114e+03 -6.8406516440820297e-01 4.6405131915871922e-02 -1.9114443204270151e-02 7.9880493919581272e+02 -3.6569875464918404e+01 1.6978670796504232e+01 1.9787788223738838e+00 6.5226187951907532e+03 -1.8641982207313200e+02 1.2636996467257282e+04 -5.0450471458904311e-01 -4.6865204927440573e+02 9.6105566450617079e+00 1.8215377284600562e+00 -3.2464716566808871e+04 -6.0816567013506884e-01 -1.2522029146584243e-01 -1.9637582367661862e+03 -4.9263093054424044e+03 -2.8700000811089556e+01 -1.1162567290845044e-01 -9.2301925002708729e-02 -2.0208947331471143e+02 8.3545254840384011e+00 2.1615224315114006e+01 -4.3820689503697174e-01 4.2406075037381852e+03 8.7648841402143773e+01 -6.1371975503919093e+03 -7.8204299637478325e-02 -2.6073344615971644e+02 2.5320388666337415e+01 -1.4428070144271210e+00 -7.3470513701333795e+04 2.3884188738717982e-01 1.7727376004755868e-01 6.9274975257244114e+02 -8.2400165691774455e+03 -6.8181189341639282e+01 -3.3525189990781801e-02 2.0789669710778363e-01 -2.0451248175741989e+02 -1.1646040495566297e+01 1.2709520517919024e+01 2.4334555971837091e-02 3.8804172279445720e+03 -3.7527118780731485e+01 -2.5042112380516710e+03 7.8673626095169125e-01 9.9459218427053031e+00 -1.0654614082014774e+01 2.2954274737304164e-01 3.9908427354200583e+04 -1.0291360705389025e+00 3.3001090954772827e-01 2.0469320914140919e+03 1.6566195032153482e+04 2.0277035841342948e+02 -1.1252152655404947e-04 6.0779475985622319e-02 6.3023080568921068e+02 6.7598007526283595e+01 2.7500323747317879e+01 -5.1673172544915280e+00 -9.6826326640132702e+03 2.4208424239732938e+02 -2.9679681068672608e+03 -1.6015722184019530e+00 -3.0373706643201757e+02 -6.8461562516630067e+01 4.7084820046957437e-02 3.1670435987367582e+04 1.3019288144059815e+00 9.0319375721468226e-02 1.8380094137105509e+03 7.0803569196396420e+03 4.8057489280541070e+01 4.2655923127166720e-02 -1.0554627352200252e-02 8.7454642577445975e+02 3.0733771660567868e+01 -7.0638237119788840e+00 2.6274768681501204e+00 4.3682907909668274e+03 2.5207337446340087e+01 4.4325341485783144e+02 -5.1208425154489889e-01 -7.0891655936367385e+01 8.8226416205353715e+01 1.7848120831912007e-04 9.0362092123189832e+03 -3.2770135495225217e-01 4.4319723088949353e-01 -3.7429211982265355e+02 1.4169094430796031e+02 -3.2812523472415876e+01 -5.8369259463454198e-02 1.3777656027890189e-01 -5.7167878551584909e+02 1.7991659094215998e+02 2.9957474145451414e+01 -5.2913278708225500e+00 -2.1662844737556416e+03 2.5090029959140753e+02 1.5526620163918335e+04 -1.5894638979995970e+00 -4.1357814889682163e+02 2.0208884177465202e+02 7.5936485725973535e-01 -1.1195469491004102e+04 -7.3567338314937238e+00 4.0995088443475973e+00 4.4699921862448919e+03 -2.5429568137929723e+03 2.1781360679347949e+02 2.6415673236836490e-01 1.7505540422970398e+00 -1.7926441176761509e+03 6.9259364019593090e+02 1.0780497712153010e+02 -3.7887573482234075e+01 -5.6923760108021161e+03 5.1261858504265217e+02 -1.0696633223641054e+04 -2.0942785500227181e+01 1.2415943984507374e+01 1.3559192745439454e+01 3.9283607832853326e-02 4.3413273356746067e+03 -4.0874690838281980e-01 2.8559735504197770e-02 -2.8351684487868357e+02 1.5132233538408933e+04 -1.0226315701452206e+02 8.9809011492454849e-02 -9.4394411404432443e-01 1.6446252812345702e+02 -1.0915052518980398e+01 2.7232880887241109e+00 -1.1938415604288038e-01 -1.0201955602599530e+04 9.5354347854338272e+01 -1.0452930407371656e+04 -1.6866485835920830e-01 1.9980017595588350e+02 -1.5028791952534710e+04 
      </Row>
      <Row Index="3">
        4.3051183995653108e-02 -2.5062902214950444e-02 7.4739982509230174e-01 9.7545920617523307e-01 4.1571605120480026e-02 -4.8293056247725596e-01 -9.8778590224469554e-02 -2.4589357589246495e-02 2.0241283610462422e-02 -8.0797066163659517e-02 -6.2629207340736492e-01 -9.9030709585505861e-02 7.8015215396014526e-03 -1.8234411875862333e-03 -2.7893627297152364e+00 3.3195575549531675e-02 4.2198238498326646e-01 1.2887121724619316e-01 3.6206196327368545e-02 -5.4673120544338261e-02 -5.7888335047384526e-03 2.5840150136728255e+00 1.6584062653316636e-01 -2.3375286750656719e-02 -9.1541611500605313e-01 -2.6500447649291736e-01 -4.0462042515425622e-02 4.0735463936005314e-04 4.2548033585870716e-04 5.8507957610664518e-02 4.7297797104768335e-03 -6.8316893878344942e-02 3.7836286658611405e-02 2.9645747894087862e+00 6.0921412934549224e-02 -1.9501203187768823e+00 -1.7578643157820606e-01 -2.7993061452383033e-02 6.6391969305829246e-02 -1.3161500463238827e-02 5.3773458964526100e-01 1.6535599691429201e-01 -4.9402317044729915e-02 6.3930193507275135e-01 1.6682541702663229e+00 1.7776267306324249e-02 5.4149756136700426e-04 2.9155645971873654e-03 1.9518127402479024e-01 1.6909218350838184e-01 3.5219357711392396e-03 1.4957028316637727e-02 -3.3214453702643283e+00 2.6743301991804191e-02 -3.6791323696255205e+00 -1.5333689496421787e-01 -3.8007437398146493e-02 3.0537257373713711e-02 8.1419682645680058e-03 1.3865309812588293e+00 -5.3489409243485531e-01 -1.5218078948832481e-02 -5.6878293701218752e-01 7.7006151522903110e-01 -1.1922151689634974e-01 -7.4173617842409958e-03 -8.8619289473387160e-03 -2.3278031789969234e-01 7.8776842985689655e-02 2.8784419169674280e-02 -3.9444011554939928e-02 -1.4045524702226446e+00 1.3634225894185170e-03 4.5444096720056706e+00 -2.1477682728597403e-02 -5.8091384460041695e-02 7.1499773494772337e-02 -1.5659258238973767e-03 -2.7389312928710297e-01 2.4834607728523750e-02 -9.7525655461076818e-02 1.6733433273908449e-01 2.9619551121919585e-01 2.2131362902886531e-02 4.3189666518891785e-03 -1.5352095129681163e-02 2.8077149941536561e-01 -4.5599615179014563e-02 3.0752071145698778e-02 4.7240293367951242e-04 -1.5351829444185920e+00 7.9779520801591453e-02 -3.3353932724517747e+00 -1.3704287310843116e-01 -1.3585382065917173e-01 -3.7976946466649508e-02 1.6412173771305799e-02 8.9044411452493932e-01 -3.1397415225740427e-01 -2.4755241855035658e-02 -1.0616149574471194e+00 7.3070392058404821e-01 -6.6924257564990874e-03 4.0373879580053035e-04 -4.8993114260825442e-03 4.3491138112034378e-01 -1.4275893407033280e-01 -1.6448742829789698e-02 -4.1739173099305207e-02 1.7861801224029250e+00 -1.4766408086095950e-01 -2.4682507048174784e+00 9.3278697980661851e-03 -1.8446932072043865e-01 6.7110038838548769e-02 -6.2240924651718876e-03 3.8108502724698923e+00 -1.9097290368185699e-01 3.7621663296064627e-03 -5.6191251352422711e-01 5.3462221805675902e-01 3.5041567180682485e-03 -1.9159955945137058e-03 -2.9991177235053541e-03 1.3610570027359270e-02 2.1585601160311718e-02 4.0556598249326031e-02 -9.4424633086214182e-03 -1.0258670378953214e+00 -1.2084620259489531e-02 3.1423955406471542e+00 -5.2588909711164915e-02 -2.0486772211497306e-01 5.8557436752976755e-03 1.6427760188321879e-03 1.9145007730639918e+00 5.2064879404942888e-01 3.5604722689534601e-02 5.6030185358463669e-01 1.0924698905291734e+00 -4.5836370292727135e-02 4.0670463878939214e-03 4.0263228798338383e-03 1.7599423624839261e-01 -2.0003062562675636e-01 -2.4600712791305671e-02 3.3493444723472765e-02 -8.3056552305343523e-01 -1.4383667339902928e-02 9.0387114937977913e+00 -1.5122456036203882e-01 -9.2343653750937449e-02 -6.7079348269790451e-02 8.0113412803438071e-03 -5.6683572100846957e-01 -1.0056945214563959e-01 -3.2446469738746882e-02 1.1581737549971605e+00 2.5397242283837400e+00 4.5718438883398098e-02 -1.0464315218982074e-03 -1.7914780920556487e-03 4.1039754610570001e-01 1.5881627878411919e-01 -2.4511457801833059e-02 -1.4283070021526631e-02 4.3870692233333024e+00 1.1493197750656087e-01 3.2077003660700711e+00 -8.8105696039862999e-02 -5.5530064603889429e-02 -8.6507803662541294e-02 -9.7920367826540705e-02 -8.6357572520290304e-01 6.5593391857609773e-01 1.0244237297794248e-01 5.1248471839814158e-01 -4.8019857595930624e+00 1.9953746713451626e-02 3.9890213324890868e-04 3.7537618573983134e-03 4.5984842873839682e-01 2.3859349523841034e-01 1.7242794889926749e-02 9.6510906412424352e-02 -2.6563907314684272e+00 1.0409094974986788e-01 3.3347745359062699e+00 3.1346212250498023e-02 -3.9222558180724931e-01 -8.4392344789618878e-03 -1.9848239208448418e-02 2.8847465817474927e-01 -1.2478821220006833e-02 -8.2923535163897250e-04 -2.2578034798058777e-01 -1.9827586856333266e+00 -8.2446982592685458e-02 6.0052310571595555e-03 3.9786645978474589e-03 3.5857988294059684e-01 4.0147567844558274e-01 5.8396161917058043e-02 1.3332825649653327e-01 6.4678322780195856e+00 1.4058093519385284e-01 -2.8407880153532243e+00 9.6086140434581968e-03 -1.7862656601458582e-01 -2.2364958596386941e-01 -3.3096056571347299e-01 1.4134455759187148e-01 -9.6417734349621542e-01 2.3828760411185773e-01 -1.3475035022365489e-01 8.5922686934004844e-01 -2.9957583682599420e-01 3.6017014675826006e-02 1.2055430424445707e-01 1.6015583180368509e+00 1.4894578045661788e-01 2.4251751545808942e-01 4.8736205207380667e-01 -1.9446015117213804e+00 6.1847912793321824e-01 2.1304923125706452e+00 2.1022715810316667e-01 -1.5574850800706344e+00 -4.3249112146057422e-02 4.9152884257115149e-04 1.6103777186108061e+00 -8.3456717791461965e-02 -5.1232587974134646e-03 -7.1415899861241527e-02 7.2735603618362243e-01 -3.2171729818786556e-02 6.7784367653023203e-04 -1.6068382949243155e-02 1.5076889684704109e-01 1.2609061125970822e-02 -1.5641203872839848e-02 1.1789945416477380e-04 7.9028470575272536e-01 4.8211208342382017e-02 7.8471305824873738e-01 -4.7977707826241327e-02 2.1075891253169665e-02 -6.2755908210179934e-01 
      </Row>
      <Row Index="4">
        -1.1336004272066713e-02 -1.7940950999318317e-01 3.9084747869615910e-02 4.1571605120529459e-02 5.0405402302372104e-01 -5.5613565311858792e-02 -1.3770878445283898e+00 -2.8937499963117282e-02 -5.4882783571791591e-02 -8.7527876349815403e-02 -4.5595986221183438e-02 -3.2642187267187595e-02 1.6137253375463345e-02 -5.1690276050550210e-02 8.4619745914454825e-01 2.5363826676898071e-02 -1.4645757083839612e+00 -1.0803650874776222e-02 -2.3748460246440839e-02 -9.3733779107481041e-03 3.2253702618621760e-03 1.4814419038407323e-01 1.8031999977166820e-02 -1.8013056386696946e-01 -3.1030977629184520e-01 -1.6237376624351638e+00 -2.4677256878252507e-02 -7.2909025175045550e-05 -1.8198572050555552e-03 -2.1004205267244200e-01 5.2403979908172360e-02 4.9859770929683300e-04 -1.7100389597696775e-02 7.5154989621569257e-01 1.2010644032502960e-03 1.5982037180704509e+00 -1.1097500799725536e-02 -9.1701751051847330e-02 7.7186335890619961e-03 -1.4880876197980675e-02 -6.5698103950975195e-02 1.8618772286599514e-02 -3.4169684173682235e-01 2.7384923940483219e-01 -2.0267855444720340e-01 6.0944318879402548e-02 4.7980891679504818e-03 5.2702607662522202e-03 5.9067034979491950e-02 1.5049074567316545e-01 3.4359087842567249e-02 3.5115520972020142e-02 -3.1016176382021499e-01 1.8485439876771537e-02 1.0233899910177229e+00 -1.5470744949009883e-02 -1.0725579205170988e-01 -9.0763591269693578e-03 1.5443420392705617e-02 -1.7071854448772683e-02 -3.9603676960143212e-02 -6.9825979416370504e-02 5.7255420006953273e-02 2.5083592253616871e-01 -3.8259894320508359e-02 4.0603116331249488e-05 -9.3270579425256588e-04 -3.5227913086611373e-01 -1.5034163257354294e-02 3.0404410511537527e-03 4.1388063928423091e-03 -7.5949138779192538e-01 -1.5767726364841028e-02 2.0337753345829270e+00 9.1927421462827397e-03 -4.7814227718312452e-04 8.6506760342223155e-03 3.1568873707067874e-02 -1.0857100244288631e-01 1.4476560854042253e-02 -5.3349452084867077e-01 -1.8603549059396274e-01 7.9285655385046994e-01 6.7250050531875161e-03 -1.1227759770215931e-02 -1.6018224711012042e-02 3.2032286162708568e-01 -8.9135256292934173e-02 -1.8410136916415798e-02 4.4536616862096562e-02 2.3689971107425087e+00 -2.3306644192317094e-02 1.5615081079538946e+00 -7.1698278338986621e-03 4.0164808274678165e-02 3.7334231618462166e-03 3.0376194296302797e-02 2.9222444438829598e-01 -2.7418406261081076e-02 -1.4611954629895163e-01 -4.4021818843425109e-01 1.0049793731115386e+00 -4.5502086390259322e-02 2.4127397719936744e-03 3.7200076789232345e-05 1.6628631350336720e-01 1.0763527472985146e-02 1.2311970390648241e-03 -2.5810983586707636e-03 -1.0925483884654170e+00 -5.5668030904287846e-03 1.9366675660652959e+00 1.5694042961386073e-02 3.9016687868134170e-03 6.1094643825462536e-03 -1.4904666373399583e-01 3.7045755217591037e-01 -1.3377953974747850e-02 -3.6212742736929884e-02 -2.2306908431331962e-01 -3.4176760735775247e-02 3.7796313628563935e-02 2.6701478508015875e-04 1.0533085981432398e-03 6.2724528495352927e-02 3.9868507459912106e-02 8.0973271978331263e-03 7.1051149237936206e-03 1.1077562811826738e+00 -1.2416558982165427e-02 1.2203278365012569e+00 -4.4699374680268406e-03 8.4036524197836915e-03 -1.7230261719338169e-03 4.4900865698009315e-02 1.0846035471458890e+00 4.2490381640102846e-02 1.5165176146431847e-01 1.1238955828378039e-01 3.3125524047682120e-01 -2.9073373470930530e-02 -4.0458879492989014e-03 -5.6069848623182044e-03 5.3165265981249377e-02 -7.5200976169663036e-02 1.9955434154822482e-03 -2.4639226641796963e-02 -1.7968039919004264e-01 -3.3630511499036952e-02 1.7331845540314248e+00 -2.5499919427673736e-02 3.0329067458282566e-02 -2.2774212476981415e-03 1.4966507729962416e-02 3.5958055799497401e-02 -2.5365307233708115e-03 -2.2372794908224947e-01 4.4755778845741268e-01 1.3138736379095519e+00 1.1280088886399231e-01 9.5497869891802353e-03 3.4594675585783267e-05 3.4469650928576573e-01 3.9454404573177726e-02 1.5576911097490154e-02 -3.5909475336547607e-03 2.1444302585283026e-01 -4.6873167552802242e-03 4.2932188472815369e-01 -7.8502535056913306e-03 7.3940735567803451e-02 -1.2967100733628278e-02 -1.7145125336979525e-02 -2.3316043596078373e-01 5.8621648833922194e-02 4.2286003885638129e-01 2.7758063776908193e-01 -1.3394117315618814e+00 4.2304172018570840e-02 -2.0290370770045807e-05 -1.5719341090121245e-02 5.1383989982405831e-01 1.8109617863568594e-01 -1.7410935897361535e-02 5.0899451518135047e-03 -9.2432816195445433e-01 -4.5701262156001565e-02 6.0209982521284200e-01 -3.6137941527793642e-02 1.0642864933242802e-01 -3.2792748328335564e-02 1.6189284013745878e-02 -1.8569971209533020e-03 1.7952642263726459e-02 -4.0064535526398631e-02 1.3543899301209805e-01 -2.2409375877197490e-01 -2.3242942100509811e-03 7.3686878462485752e-03 2.0299703738015534e-03 -1.1443769729422204e-01 3.8829246857182587e-02 -2.8708332904838763e-03 3.5981630729692224e-02 -5.6640366173596490e-01 1.5325105548892548e-02 4.9845159936211192e-01 -1.3858541760298326e-02 8.9132536331412382e-02 -9.5551157614030213e-02 1.3115240082643789e-01 3.6936941070869977e-02 2.1648928174751517e-02 1.4070946808946083e-01 1.2361769613096749e+00 8.1230961489609399e-02 1.3009888510879009e-01 3.0421820033276335e-02 6.8828790597131484e-02 6.5799173607317840e-01 -1.1502136643135863e-01 -5.4233737693686557e-02 8.9281694625416463e-02 -3.9495763947987683e-01 -1.2829653148613940e-01 2.1172843156820420e-01 -1.1176210258861352e-01 6.1764104940756681e-01 7.6125364737742625e-03 -3.1157346725339211e-03 -3.9086940840295270e-01 -5.7404943611969973e-03 -1.7338496918533737e-02 -3.4497191423064066e-02 3.7138626675869951e-01 -2.7324582796847317e-02 -9.3179883205359235e-03 -2.9842368361081787e-02 5.8769349408943183e-02 1.0115242108487209e-02 2.3393025944651313e-04 6.7720455235507253e-04 7.8805947412797650e-01 -2.2459065761162300e-03 6.2967659635044981e-01 -3.1476754809910417e-03 -1.0599490760017594e-02 -3.0724440342283110e-01 
      </Row>
      <Row Index="5">
        5.2514878114870726e+01 4.5642734224202286e-01 -8.1370410960034246e+02 -4.8293056254864186e-01 -5.5613565263668258e-02 2.8756625518001006e+03 -2.3490177277231783e+02 1.9480785449213889e+02 -1.9737133946367713e-01 -1.8757075535516016e-01 9.1330182454494320e+02 1.0429628421559485e+01 1.4433191081142530e+01 -5.5141111532387344e-01 -1.5536844407579720e+03 -2.5742079368681800e+01 -7.6520627901898774e+02 1.0008758582197377e-01 -1.7296841445484731e+01 -5.9626286028484046e+01 -5.2453324952477287e-02 -1.4644562554341505e+03 -2.1934991675502658e-02 2.8472441186044711e-01 1.4997116812132538e+03 2.2379714945777778e+01 3.5234721787384089e+01 -9.3328199890496677e-05 1.5368276655731775e-02 -1.5041539365106610e+02 -6.2368795375729746e+00 -1.0038065395330436e+00 -2.2834205677923355e-01 -2.5830597355869111e+02 -2.5055274804135781e+01 -4.1869932330450354e+02 3.4890631128218341e-01 -2.7269650216828245e+02 5.3707080842286574e+00 3.6261817672355834e-01 -4.0313160237352349e+02 6.1106994022868399e-03 3.0269370461610379e-02 -9.5779407479553856e+02 -1.3011300601302703e+03 -4.5506000685258208e+00 -9.3652474196949699e-03 -1.5764410747852037e-02 4.2376604955281050e+02 -3.1653694150332662e+01 -4.4877389395979606e+01 5.3108671638192251e-01 1.0507183862288634e+03 -3.4469624080953544e+01 2.4950394595036460e+03 -3.5975787880378973e-02 -8.4349263764224489e+01 3.6897684255141002e+01 -2.1000620674245751e-01 -8.6206145839060082e+02 1.8639092632141274e-01 6.5102322116050493e-02 -1.0467039973552505e+02 2.7795301399106927e+02 9.6387112577110642e+01 5.9962074684086477e-03 -2.9753966488999847e-02 2.6289493289463996e+02 1.4880667476768645e+01 1.3436980849073475e+01 -4.6734419089540064e-01 1.0274613783988370e+03 -4.6019856106578828e+01 3.0990162909916307e+01 1.1648183884244645e-01 4.2898254169473027e+01 8.0180096640519110e+01 -8.3082762642792407e-02 -3.3433726983258396e+02 -1.5244993963007003e-01 3.1649734538865137e-01 -1.3553746755940163e+03 -1.5196407610896244e+02 -1.0422419860252322e+01 -9.0325415870609951e-02 -4.7340094553506101e-02 -1.4578957901898599e+02 6.0957175045846910e+00 3.0944126431187673e+01 -1.0272285869074240e+00 -1.4096954969456594e+03 -4.4758520249596174e+01 -1.6409056828284467e+03 -1.1007083009656388e-02 1.2874061700141195e+02 -9.8225089760326654e+01 -2.4550290604349873e-01 6.6398347002947048e+01 4.7595013545532916e-02 -1.2273281785943266e-02 1.5911794957832749e+03 -5.3074391978117967e+02 2.0289238051872189e+00 -4.1258003820344238e-03 1.1900632912002402e-02 1.2992717096281183e+01 3.1315737526879133e+00 1.4158118289817468e+01 1.0393413673576317e-02 2.7874709599458220e+02 2.0869864999780866e+01 2.2479586356397255e+02 1.1791666390539868e-01 7.9364837722634547e+01 5.4443358423970039e+01 4.1316694819296507e-01 -2.6150776412460496e+03 -6.2634903205731327e-02 -9.3114840812244058e-03 1.9997139772558942e+03 -1.6846537480625066e+03 -1.5506957239273232e+01 -2.6127461488262567e-02 -7.7553387065445612e-03 4.4748040906767164e+02 -3.8843851427923681e+00 -3.5000489602771481e+01 -9.3732850056702910e-01 1.5398775772960187e+03 -4.3767015136948970e+01 -4.2525245548745636e+02 1.8221277125256796e-01 -1.4477624543554453e+00 3.2163626712061479e+01 -1.6917371623710054e-01 -1.3102615892474478e+03 -1.2289835906476573e-01 -1.4682908388552318e-01 -7.7429897390044869e+02 8.9895352070811168e+02 8.2905110265966130e+01 7.9617613012673283e-03 -2.7237612207371641e-03 1.0203519451173139e+02 1.8169191295691064e+01 -5.4787234605325796e+00 -4.3960102543744206e-01 1.3896249435621744e+03 -2.7991262035470044e+01 -4.7534230863173798e+02 1.9233412787753472e-02 -1.3158805021972842e+01 -8.2454138464220676e+01 1.1462867417088276e+00 -1.3552025957531581e+02 5.5453703377557235e-02 6.4621050059962148e-01 -2.5160799259375144e+03 -2.0600695330997848e+02 -1.5457779517016033e+02 5.9743861147429071e-02 -1.5347200688934316e-02 1.2837318922252814e+02 -4.8968588836295794e+01 -4.3564971331196205e+01 2.7714586934656453e+00 -1.1218903888757625e+03 -1.4430885853343604e+01 -1.2730368346253113e+03 -1.2279488875504776e+00 -5.6498346370978318e+01 -1.1662459936743485e+02 8.8854138506097635e-02 1.2111543652973933e+03 -1.9491119124899736e-01 -2.1194985545758172e-01 -1.8217270582887318e+03 3.0851685684405984e+03 7.7588465836517102e+00 -4.2328163572766080e-02 -2.7222926531976610e-02 1.9682439380956293e+02 -3.1616629773339625e+01 1.8740128828302687e+01 1.5581327330699772e+00 1.2847324417723000e+03 -5.4094974351740994e+01 -2.2968040557238564e+03 -7.1489428715012759e-01 6.9108933354203032e+01 -2.4084846388012583e+01 1.4671163613812210e-01 6.3567109995299165e+02 -3.3051898802974690e-02 1.7591212979580911e-01 -1.0137971650290211e+02 1.8211265131121838e+03 -1.3504776938756251e+00 1.2799471157914306e-02 -2.2049755517012916e-02 6.0045345062321047e+01 6.9600953255447337e+01 1.4655602651834370e+01 -7.5986349606695258e-02 2.7822587135744925e+01 -3.6140785783061318e+01 -1.8568619830946218e+03 -1.6736649814935417e-01 1.3202213950853540e+01 -4.2137306058676791e+02 9.6178331353139370e+00 -3.0258255936497426e+02 5.5652945345712235e-01 4.5539563062989501e+00 -3.6446261590382906e+03 -7.3853939623655879e+02 1.0925294060551028e+02 2.1986793252212600e-01 -1.9570079212348901e-01 4.7612886830594158e+02 -2.4686036626648308e+02 7.7056032390068495e+01 2.9750734209357688e+01 -3.5039627271818472e+02 4.5447936348375606e+00 3.3950498523313081e+02 -1.2636114890732870e+01 4.3526159367288602e+02 -4.7653101271412929e+01 1.6315642677759631e-02 -9.5462757012342399e+02 3.8221089870708880e-02 1.6278130065079950e-02 1.6701711555450106e+02 -4.9610308320334372e+02 8.3927271758679595e+01 -4.6308907939728826e-02 -1.4293573705968846e-01 -6.7913795583897851e+01 -1.5517461229068015e+01 -6.5734707486257511e+00 -2.7360577661068128e-02 -1.7915065593112913e+03 -4.3558001109261141e+01 4.4277327754774728e+02 5.1538215068339444e-02 1.4620888501408530e+01 4.1227588128008119e+02 
      </Row>
      <Row Index="6">
        5.0226425610395381e+01 1.9915553940518294e+00 -1.1127893192830961e+04 -9.8778530518251362e-02 -1.3770878043307664e+00 -2.3490181342846745e+02 9.1147773066433042e+05 -9.6252293561792058e+01 -6.0788594893873356e+00 2.4264937286264696e+00 7.6692185016890915e+02 -2.4994675347509951e+02 2.4335622790842706e+01 -1.2280614338146467e+00 -1.1341295918434262e+03 -8.9201075077108598e+01 1.2691748422163098e+04 -2.7035309401690992e+00 5.5577356206632999e+02 9.5527978499318863e+01 -7.0838476325363020e-01 -7.0393348460445268e+03 -1.5021976226396716e-01 8.2765733388077134e-02 -4.9833197225812819e+02 -1.1323363461143133e+05 -1.9029669051166013e+02 -4.8504376143686523e-02 1.3405921660804582e-01 -1.0678941381664481e+03 -9.9959730689140315e+01 4.2173021013955598e+01 -3.8284742483205196e+00 -2.2434858385802108e+03 5.0956594834900415e+01 1.0807606430288688e+04 1.4257134124060160e+00 4.4677599827158447e+03 -3.6153427871686375e+02 -4.9540497564263930e-02 -1.1053445454125525e+04 -8.0768182560835877e-01 8.1489195814356208e-02 -1.4062893024222171e+02 -7.1417588070455153e+04 4.0895304940785167e+01 3.6029460840584582e-01 1.2449083428991647e-01 -9.6415720270128622e+03 3.3097967561699141e+02 -4.3539305133926348e+01 -7.5153515046924149e+00 1.7391240076866579e+04 5.6912966928769379e+02 1.6483346694689058e+04 4.7611634565428451e-01 1.1001908680174281e+03 6.1558975112341130e+01 -1.2805334400998269e+00 -3.4237086261316617e+03 -3.7251871607759046e-01 2.3791210287387887e-01 -3.2172222614944621e+02 2.4353347109945258e+04 -2.1664213614991615e+02 -4.6568767570642711e-02 -3.6507849085351451e-01 2.9849180822554385e+03 5.2044824928863136e+02 1.8675462958360953e+01 -3.6588649885546332e-02 -1.0855248867789433e+03 2.0870980345039655e+02 7.2091907526507239e+03 -1.4420081404969096e+00 -8.7306778482097229e+01 -7.2303366539096515e+01 -3.2644921393560322e-01 3.7822247578384995e+03 -8.4245269832837755e-01 -1.0146690700117973e+00 3.7484660306986939e+01 4.4294389762615057e+04 1.4800924163158072e+02 -1.1799297405203870e+00 8.1538654509586550e-01 -4.3532834605931230e+03 -3.0498090071606543e+02 -5.2149718746821527e+01 1.0748418851397084e+00 -1.9658525216603232e+03 2.2423724023489206e+02 2.8950417918199892e+03 2.8213678466651650e+00 -6.8363041708631772e+02 7.2980803583675922e+00 5.2717206774921865e-01 3.9625175937946478e+03 5.4930808680410115e-01 4.1892380666211348e-01 4.8025606412742934e+02 6.1360521954924843e+04 1.9023720425379707e+01 2.7683993342459057e-01 2.4594612071183306e-01 -5.1793032645436269e+03 -4.1829763495306076e+02 2.8973279667794856e+00 4.7622248695094180e+00 -1.3457460602741985e+03 -3.2324414898875665e+02 1.5007879944035776e+04 3.0712319403958923e+00 -1.1191381174744765e+02 -9.8534494090221770e+01 3.6272508591928654e-01 -1.7169063619137742e+03 -1.5077670879311156e-01 9.2544634370410650e-01 -1.4664876692467351e+02 -2.0710184008229815e+04 -1.6081725108073076e+02 9.6746292719468996e-03 2.7424587991612626e-02 -1.2299680877838728e+02 1.7666765788262239e+01 -2.2386102631203499e+01 -5.7154976882622499e+00 -2.3886060088355407e+02 1.9404071661669940e+02 1.1973201122587052e+04 1.6368717361977694e+00 -8.7250402706106570e+01 6.0478607466960668e+00 1.7679719203587485e-01 -9.8134287106844822e+03 -5.4204458520699828e-01 -2.9779763499897705e-01 -7.3335897127736644e+01 2.9152811159036122e+04 -1.5473904093661517e+02 1.5239736526959913e-01 4.7235364535897739e-01 -4.8462678548767508e+02 -4.1734169211406095e+02 -2.1994999534722346e+01 4.0970091625627951e+00 -7.7969298517118841e+02 5.6212647545937841e+01 3.9411827239700424e+03 1.6886267844491416e+00 -1.7423171805191993e+02 2.2508039380120977e+00 -4.9923990162722920e-01 3.4719799983949386e+04 1.2531346006232216e+00 1.0786574030662435e+00 -1.1163541362805213e+03 3.9669876077777582e+04 3.8821520874048366e+02 1.6034073882344384e+00 1.4788402459203126e-02 -5.6958916982790270e+03 1.6468749913269812e+02 -8.7688226330648860e+01 1.3015520534225811e-01 -4.0740412956193522e+03 6.0880671155698940e+02 -3.5954138363434122e+03 -1.4168385477120227e+00 -1.4490543439753958e+02 1.3140351580306543e+02 5.2590452461567050e-01 -7.9118725787126368e+02 1.8887825224704002e-02 2.8354657167369873e-01 -1.4398621239969336e+03 2.6352546349724151e+04 -8.8065702796306027e+01 3.8300850767401451e-01 4.1489064839343637e-01 -6.3492115509682199e+03 5.9360191854141488e+02 3.7579063361470219e+01 -3.1807947784336932e-01 -2.5415264631603568e+03 -3.5155459103245335e+00 -3.0297908535177994e+03 1.2576201157327915e+00 -4.9025789193308270e+01 -2.2298037699070863e+02 -1.2552083811911485e+00 -8.6466001011384924e+03 -3.3292352495799843e-01 3.4234540200864377e-01 -1.8506744567254727e+03 4.0065866349161937e+04 -6.3310611676222550e+01 4.5935635601860547e-01 7.1664406043062193e-02 3.3457007913222519e+03 6.3004489749521042e+02 -4.5553235552910081e+01 -3.1155421310603879e+00 5.9626016291095630e+02 4.0456942421723409e+02 -2.6569105998175655e+02 -3.1033189653232971e+00 -7.1997263484523410e+02 -6.9780996297988213e+02 -6.2382392054524471e+00 -4.8893282577762125e+02 1.0211779929536803e+01 1.0518861100535476e+01 -1.3032565248642090e+04 -2.1611109510145285e+04 -2.9429789827903886e+02 9.5948619577550378e+00 6.9828452367374894e-02 -5.2041556413974995e+03 -4.4490884191147620e+02 -1.2880432892259233e+02 -2.0833129492942589e+01 -1.3829717164633064e+04 6.1245261744995139e+02 1.6865409525526193e+03 -2.4848184868413867e+01 -7.3425583725875040e+03 3.7167400758542726e+01 1.8289736239897103e-02 -3.0491752504727996e+04 -2.5349864527190313e-01 -4.7558978547943276e-02 -8.9674439484020922e+00 -2.9594477736685414e+04 -9.1026121080340772e+01 -1.0599656749746165e+00 1.8248445848769932e+00 -1.4618415600564019e+03 1.7029462434466083e+01 -1.4609718755641921e+01 -9.8320452254696614e-02 -3.4206507528185739e+03 1.7211869629399104e+02 5.1621874987996125e+02 -3.4844739600824814e-01 1.1628451951412660e+02 2.9684219029004762e+04 
      </Row>
      <Row Index="7">
        -5.4342198274531484e-01 -3.3747801086605023e-02 -9.8466824802393234e+01 -2.4589357739263178e-02 -2.8937500063334544e-02 1.9480785461910105e+02 -9.6252283087294416e+01 7.2054813716772699e+01 -1.1330213495517327e-03 1.0649117763124131e-02 9.1621287473816537e+01 5.0701967701342996e+00 -9.8334987003842436e+00 -3.3702390579358324e-02 -1.8281531194917474e+02 -1.3041133173979729e+00 -1.1164525486199409e+01 -1.5464398063178675e-02 9.5896538037491386e-01 -8.2460213156508977e-01 -1.1515588248271334e-02 -1.9768472703822439e+02 -1.1754720298068630e-03 3.0625464590051575e-02 1.3633129604833613e+02 -9.7218524559619254e+01 2.9288907644335282e+01 -6.2294597928251030e-03 3.9800974405176945e-03 2.5051186853051604e+01 1.6319334733894402e+00 7.1441424462332659e+00 -1.4032154980770050e-02 4.7757810207510865e-01 4.8348345992398789e+00 -4.1817377511726633e+01 -3.0656051649005991e-02 1.3578406946284296e+01 -1.2334746134451407e+01 3.2412132329412174e-02 -1.0336940270167247e+02 6.0851529949354465e-03 1.3358740064632002e-02 -5.3425602088521501e+01 -1.6437266532387386e+02 -1.5922072351943868e+01 -3.7919108901486274e-03 -2.5382167744950833e-03 7.1663120672202680e+01 -4.8855508599163837e+00 2.0462598972331603e+00 1.4145341122055582e-01 1.2800484395057765e+02 2.8525813688970851e+00 1.8539452684914653e+02 -1.4829546318794368e-02 -4.0807348141843827e+00 -2.4285432267937708e+00 -1.3546951406844056e-02 -1.5884387396977490e+02 3.3680155396486361e-02 1.8058050353771431e-02 -4.2115887347803636e+00 -2.9645971957894488e+01 5.7605562754724602e+01 -2.9663540453557426e-05 -2.0453675005251580e-03 1.0545338419321898e+02 2.7015755047462688e+00 1.2045796756341813e+00 -4.8424705988805113e-02 7.4450321350112333e+01 -1.4505713400450524e+00 5.5688192595426045e+01 2.5204142069924274e-02 2.4356451736878273e+00 -1.1146029856688280e+00 3.6295886546079861e-02 -1.9947265527582900e+01 3.4443872121618846e-03 7.6375808091423844e-02 -1.5217338059645465e+02 2.2951300472746468e+01 -1.1272551733234421e+01 1.6616592048630924e-03 3.5605668776907732e-03 -3.5266304050347294e+01 8.4820411849764810e-01 -4.2778386396828543e+00 -6.6370301629641457e-02 -1.2492856966664625e+02 -2.3076715067658764e+00 2.1309524501330117e+01 -1.1778057374941361e-02 9.2806984518504709e+00 -1.5907166087175633e+00 1.2937379885880326e-02 -1.8946795780661809e+01 -1.8381438332571668e-02 7.2090140640201717e-03 2.5970720718845803e+02 -1.0030763651479447e+01 -2.0548855996324544e-01 -4.2213497952792878e-03 1.3355934810972167e-03 -4.1066968637630907e-01 2.0156979454947406e+00 1.2184589197904339e+00 -4.5958424268176604e-04 1.8478558303758706e+02 -1.9005560302195024e+00 2.5034295488579087e+01 -1.7514151707491765e-02 1.8669353458452896e+01 -4.4045925079549342e+00 -3.3157009575689927e-02 -3.6558478988102792e+02 2.1867005064372832e-02 6.4006371680173544e-04 2.3559413076303477e+02 -9.3101539039910108e+01 -4.5673326606081446e+00 -2.1279979346193914e-03 4.6069417939444699e-04 3.0486343863012145e+01 -3.4425916692284075e-01 -9.9587878381525012e+00 -1.4425454952682173e-02 6.6121044141274865e+00 -3.1752327609967429e-01 -6.9570891282951663e-01 1.1025261170218176e-02 -9.4922029346871473e-01 -6.7291385129543735e-01 -2.0382020233086721e-02 -3.0882219836107856e+02 -1.3996720340230025e-03 -2.9261193350797972e-02 -8.2241181857587279e+01 1.6669862063962455e+01 3.7378471629265931e+01 -1.9995167324889668e-03 2.2464934278049382e-03 1.3052506130087608e+02 4.1097867256660034e+00 3.3779077357013318e+00 -2.8102459078562764e-02 1.1205497298553919e+02 -6.5853160645496978e-01 -5.8994682964271703e+01 -4.1446040803265950e-02 -1.8938650698070436e-01 4.9770905981549012e+00 -2.6883554230002289e-02 9.7300738758667194e+01 -8.0303147098492136e-02 1.8773345473717812e-01 -2.0876531793173504e+02 -3.0285520174102345e+01 -9.1419767258535771e+01 3.2425293487527734e-02 2.0904445101556150e-02 1.2231070177149633e+01 -5.7236371748435886e+00 8.1511828805489337e+00 -2.4600918609746433e-03 -5.6534868559939390e+01 4.5926347739947460e+00 -2.8622456519431871e+01 -5.1450419161970740e-02 -1.8242790075862558e-01 -1.1205238993091449e+00 -7.8065877931561434e-03 1.6680406158796944e+02 -1.9622384249459328e-02 -4.2041704599229901e-02 -2.9686752932264716e+02 3.2128305005599975e+02 -7.2621896339836773e+00 -1.4297053038773971e-03 4.9933627745751266e-03 -3.3515267627385015e+00 -4.9124356323950487e+00 2.0678060792607980e+00 6.5129377783393533e-02 8.9116354732219335e+01 -6.2728175222825691e+00 -5.8617779124663627e+01 -9.2128275918202579e-02 8.3060391276001404e+00 -5.5504504149099212e+00 2.0589769976044652e-02 7.0406281813536509e+01 3.3378075410040460e-02 -1.2425828721760870e-02 -8.5851714094959604e+01 1.8579262217775704e+02 1.3917644421304743e+01 -6.5030335483768752e-03 -9.1857383434990388e-03 6.6650758643451127e+00 4.2012274905324443e+00 5.3725803187293861e+00 1.2995320514124581e-01 9.8774794812314951e+01 7.1479284864180581e+00 -1.4451298153983615e+02 3.0616651830637248e-02 2.8687421640897846e+00 -2.0718959005164738e+01 -1.3845048677575097e-01 -4.9678511129509971e+01 -5.9428194452581617e-01 1.2324434006600415e+00 -8.6100744708116724e+02 -7.7825150782792434e+01 1.3530166127864049e+00 2.0631608047242311e-01 1.7763557203552693e-01 1.3260292666315280e+01 -1.9080787362095094e+01 2.6898104914759170e+01 7.8145658412790908e-01 -8.3154330547429709e+01 -6.3037645369470674e+00 2.6881164752408864e+01 -5.0922315498468862e-01 6.7980269317064312e+00 1.5418676234525561e+00 -1.0415368923498039e-03 -6.8288473353585232e+01 9.6880587509469828e-03 3.4380753270904707e-03 4.2575675254339956e+01 -4.9801262667144442e+01 3.9060256763064466e+01 3.6971333588302533e-03 4.0958930528361429e-02 -4.5682081639721588e+00 -1.9074802832172715e+00 1.3397835870067523e+00 -4.5112005644117464e-03 -1.2742970542435062e+02 -2.6730438040521545e+00 1.2638024809497892e+01 1.2116166204071299e-02 9.1815398388010261e-01 1.0692137422546958e+01 
      </Row>
      <Row Index="8">
        2.0405212620005386e-01 1.6862724593086753e-01 2.6411267994492960e-01 2.0241283612625702e-02 -5.4882783568869234e-02 -1.9737134087447927e-01 -6.0788592254044715e+00 -1.1330225307375485e-03 1.8604726531645248e+00 -3.3778097207949709e-01 1.0035521159245127e+00 -2.5145395811593296e-01 2.4417614900211770e-02 2.4141589126844926e-01 -3.0345358983101335e+01 -3.0162477927468068e-02 4.8228711290049660e+00 -5.2428281749708538e-02 -2.3488152003771123e-01 -4.0058009040968723e-01 -1.6933152309908692e-02 -1.9575849421493388e+00 9.2842985200769883e-03 -6.1631671804049356e-03 -4.8761219084695995e-01 -8.1078957086956507e+00 2.5554790283195850e-02 9.6945935246268031e-02 -3.3138758306169372e-02 5.0744834081513090e-02 -3.5882322274946876e-01 -6.8780608752409877e-02 2.8613118744156407e-02 -1.0543868691128733e+01 -5.3870311591167841e-02 -2.9664810328485416e+00 6.0311601545512621e-02 -1.5483712312065983e+00 3.1619579058457470e-01 2.6259510622600606e-02 1.6256680052506738e+00 -1.3057581938509255e-03 1.3425876956148386e-02 6.0278264179253149e-01 -3.8140086886575659e+00 -3.0286255939012219e-01 -9.8381276358098999e-03 -7.8336514176402198e-03 -3.1582220477169187e-02 7.5720837682104580e-02 -1.0441386989328606e-01 -2.0160392973822500e-01 -8.2692513626551722e+00 -1.1107074998591404e-01 -2.4192778201204703e+00 4.7417300962444106e-02 -7.1790561346902981e-02 5.3449763193443234e-01 -3.2796208287842958e-02 1.6576767971768334e+00 -1.5463983764892554e-03 -4.2560597912443647e-03 4.2181790677469166e-01 1.3547010575460376e+00 1.9418226864985910e-01 2.7689817267684689e-02 1.4007057690458543e-03 1.1389989540048795e+00 -8.3158113570704018e-02 6.8239657464015391e-03 7.9926755786139586e-02 9.1471332167644519e+00 -7.8263003141879062e-02 1.1375472784816054e+00 -2.3603477997937716e-02 1.6292989526695223e-02 3.3087262669695416e-01 -1.6256790972094332e-01 1.4358816641818066e+00 1.2798293910658971e-02 3.0885658945623142e-02 2.0352874795030544e+00 2.6674996075527702e+00 -4.5404055211264449e-02 4.4636127529863012e-01 -8.3350870830169732e-02 5.8721906657731782e-01 -2.0974942789340645e-02 -2.0376819415265091e-03 2.7467460358600870e-01 -7.0703232641756131e-01 -2.2788917023290622e-01 -1.2280600261346436e+01 1.6404343168879548e-02 9.0842924895532917e-02 -4.9957498638446241e-01 -6.5338298808623602e-02 -9.6524318263212194e-01 4.3871011668607171e-03 -5.0812335326122157e-03 -5.5404413990475554e-01 4.8803745544904871e+00 -2.6460968056720935e-02 2.4668380553435551e-02 -5.1924553661724243e-03 -6.9800117492937375e-01 -7.5675451308905739e-02 -1.8040480854567081e-02 5.8636420268765033e-05 -3.4673386983667740e+00 7.1323089660713213e-02 -6.5845261500050896e+00 -1.7618029328122162e-02 -1.1981202042926284e+00 4.2497284680879310e-01 2.4039393590022851e-01 -4.5959742729368536e-01 -2.9336498314624119e-03 1.9687213951482589e-02 1.5591448076969501e+00 -1.5352041513577142e+00 -7.9393057479130343e-03 1.3715454954874586e-02 -4.4574803960002714e-03 5.0719363780152016e-01 -8.2916708761206603e-02 3.2869167369843896e-02 -5.7419253225117269e-02 5.6724644024542581e+00 -7.2247290103146108e-02 1.7480831085304986e+00 8.1269474451727258e-04 -1.0136235966825302e-01 2.3051416963995180e-01 -7.7183990290682902e-02 2.4940805876308332e+00 9.3618590203153537e-04 -1.0615117904439891e-02 2.0034939010234609e-01 4.9158826565608251e+00 7.2338503813491606e-02 4.1508145364128127e-02 -1.6158664425086223e-02 -4.2603036729485666e-01 5.5486170367033738e-02 -3.9234728224407323e-02 -9.8070538025498255e-02 1.2421208059338859e+01 -5.8469958262469923e-02 -1.3586946281730405e+00 6.5652341462328068e-02 -1.0229984687190097e-01 -5.7384306493400405e-01 5.1575641665180492e-02 -5.7967238986740046e+00 -1.2170404526124225e-02 3.9976570726693680e-02 5.2148294071203349e-01 1.5991869940567938e+00 -5.5033359779077462e-01 -1.1844250863044604e-01 -6.4161082745469713e-03 -3.6660073955011008e-01 8.6814274358602006e-02 -1.4820524794206946e-01 -3.3483037825787411e-02 -7.6192324528989559e+00 -1.2451200925833916e-01 -1.3450352987574234e+00 3.3663888400186880e-02 -8.6814282390093034e-01 -6.7061415938997104e-01 6.2548822348270972e-02 -6.8749105732183580e-01 -1.7196575762049859e-02 3.9027440882450214e-02 8.5264752779976050e-01 1.2866705391031985e+00 -9.6804690285548389e-02 -2.6844165721168375e-02 -3.0571295905879613e-02 -7.3763684130869933e-01 5.5352952136765055e-02 6.5937838508288493e-02 -6.2748827649291294e-03 1.3836153431573681e+01 -7.4937784732702184e-02 -4.7726662769024415e+00 2.5407766134953116e-02 -2.8780286930521548e-01 5.6611139713004510e-01 9.9997348271511341e-02 -1.8986167810244226e-01 -1.9660623245812834e-02 6.7543796442818105e-02 -7.8798394941391336e-01 2.3372852143364469e+00 1.3618047833825520e-01 -4.2563199160978130e-02 9.2959770657800034e-03 4.1955356247636644e-01 3.8715665094272822e-02 -6.2343485927175202e-02 9.7095355283007390e-02 -8.7310255686698213e+00 -6.9535916825088862e-02 -4.9585699432110850e+00 1.6404020024269828e-02 -1.1776376540647320e+00 -4.1421388074238230e-02 8.1162823626020808e-01 8.1081541083960929e-01 -2.0222300472568341e-01 6.1587882051671827e-01 -3.1163776225121183e+00 -1.3251591214439031e+00 -9.4616685305833670e-02 8.3391822503880164e-01 2.5931240734097677e-01 1.1553430667957514e+00 1.4459388675125240e+00 9.2760977505773834e-02 -6.6641580172437997e-01 7.4222452852740162e-01 -5.6502433925049722e-02 6.1544216527917683e+00 7.4969314036643198e-02 -4.3039151947060361e+00 -2.1166083935512059e-01 1.3522408854235959e-02 4.1077520154675540e-01 4.5382852183456848e-04 -2.0057722683384832e-03 1.0625472284852755e-01 -4.9452225396838152e+00 8.7140487156073726e-02 2.7926452456202494e-01 -1.2597430040720947e-01 -1.4016856992273397e-01 -5.4925446283121356e-02 1.1658599582658802e-02 5.3013345791719313e-03 -1.0315035005751156e+01 -2.6563743308271270e-02 3.6792122029346501e+00 8.4198864798351418e-03 1.9781744560308923e-01 4.9423548812185292e+00 
      </Row>
      <Row Index="9">
        -8.0961466467513565e-02 1.3817374515718628e-02 -1.1847658754064163e+00 -8.0797066163370013e-02 -8.7527876350554007e-02 -1.8757075586594540e-01 2.4264937380136171e+00 1.0649117650912476e-02 -3.3778097207672697e-01 7.4604267063934582e-01 -1.1179975011948429e-01 2.5618506522998352e-02 -1.0390623156216838e-01 1.3694728497864395e-01 4.4768196039076980e+00 -2.6944859571603530e-02 -1.3355600970423183e+00 3.1924442929301529e-02 2.2400041065004017e-01 6.3490052222351157e-02 -9.9641020116882778e-03 1.7635943048275919e+00 -2.5402480542028930e-02 -5.1456855020962462e-03 -1.7923326083455748e-01 2.8342740199866512e+00 -1.1136199076062780e-03 -1.8736214107787297e-02 6.1720408416701823e-02 1.7702391560138153e-01 -2.5951951325179134e-02 -6.8937138189650859e-03 -1.7577991939807459e-02 2.6037516569496759e+00 -3.6760383392671070e-03 -5.4783483229897421e+00 2.4798507639991450e-02 3.4704646388091015e-01 -4.0849444966514145e-02 8.8598928997664275e-03 -1.1007845671593639e+00 -3.0350445237503566e-02 -8.5507907931514637e-03 -3.7966387812088342e-01 -1.2509397873855157e+00 -3.6637015046873556e-02 -4.0593566891479948e-05 1.7321460850977924e-02 -5.0006015068596454e-01 -2.5970504629531899e-01 9.4647764793844846e-02 1.9201040079902232e-01 2.6924834122565242e+00 9.4878452063582697e-02 3.6617289796885402e+00 1.2336964719516477e-02 9.1826880255674759e-02 -9.1081013716236559e-02 -1.5509773526302981e-02 1.7546636118797210e-01 7.4232595162965168e-02 1.8148128328837471e-03 3.3209392899673063e-01 -9.4740604320277555e-01 -5.0955870056459594e-02 -3.9248394895065502e-03 4.1614604937071052e-03 1.0653232224230391e-01 -6.0039208644819819e-02 2.1962845671167686e-02 -5.5001789395163550e-02 -2.0866809379895841e+00 9.7684429095013625e-02 -4.2289478270173220e+00 4.7941408071316971e-03 1.1037699154545536e-01 -4.4076298220736380e-02 -1.4039694463926256e-01 -5.1108793860464630e-02 1.5708126969338342e-02 -1.6136910841684244e-02 3.7020678910066590e-01 -8.7993624837753259e-01 5.0725977666410405e-04 -7.7496102859093238e-02 1.8529843004717159e-01 2.2859980637231025e-01 1.9386844507991441e-01 -9.3052126024768533e-03 -1.3347500857210513e-02 -1.4143710427206493e+00 4.2302387488206417e-02 2.7919054954349001e+00 3.9772501975718084e-02 3.2133633017166829e-01 8.0680041235586919e-02 -4.4492472319400789e-02 4.2043282532000603e-01 4.9109014140773184e-02 2.1878566010781648e-04 -4.6179331688946768e-01 -1.4045454034177194e+00 -2.8231632616386504e-02 -4.2682825902642108e-03 1.2946213046630675e-02 9.7062454415501875e-02 1.0088206070612671e-01 -4.5155894488063675e-02 6.3196371695227169e-02 2.1276721214526333e+00 -1.0373973896995325e-01 4.4599194308209462e+00 4.6231154695836607e-03 4.5390391545250530e-01 -6.2201426279973965e-02 1.4989450711747346e-01 1.8851464052665889e+00 2.0698964950747592e-02 2.0490454266772574e-02 -1.4475187548366542e-01 1.6707991954319406e+00 4.2240366920002922e-02 -6.5927063629646803e-03 2.5254355690517011e-03 -4.3286377912242446e-01 -5.0486919604566083e-02 -3.9044393255435322e-02 -3.2797058222280961e-02 5.0812315552377640e-01 5.5519844326335721e-02 3.6172583651195893e+00 -8.1910526449217452e-03 5.7979865390198726e-02 -3.4127904128656711e-02 -4.2519994852053086e-02 -3.9040531284072131e+00 -7.8166069516952943e-02 -1.4373854331130469e-02 8.1071272126227001e-01 -2.5931825558882338e+00 -1.9760345431534265e-02 -4.8649874329835148e-03 3.8350962297274728e-02 7.3557836319693948e-01 2.0351495295858330e-01 5.7646924692766818e-03 8.1792950850983703e-02 -2.1493269080026134e+00 -5.3551802136113658e-03 -1.1674323657935304e+01 1.1840154891231089e-02 1.3448796235607219e-01 5.9787168784437100e-02 -4.6581793515070392e-02 4.8707243053223488e+00 2.4615487738188703e-02 -1.7888933997560238e-02 1.7616169056350706e-01 -5.7781449480517537e+00 8.3138845341113904e-02 1.6540787397490705e-02 2.8734301694282895e-02 1.0204743393322779e-03 -1.7687764844639275e-01 1.2411848375974444e-01 2.4575325648575001e-02 7.5429804474254070e-03 1.7858011776464733e-01 1.7947869106476588e+00 1.4852746034083627e-02 -1.6100712076800505e-01 1.2331049042839076e-01 5.3444077898934454e-02 1.1016436182014644e-01 -8.3784468385525696e-02 -4.6234939529907773e-02 4.9904008200097394e-01 4.1927921849673169e+00 5.1843931662046261e-02 -1.6820130481224813e-04 6.5653338673645659e-02 6.8159143501532071e-02 -4.5699058531812586e-01 -7.0160979671609391e-02 -2.8348544339791171e-02 -1.8977352459045278e+00 5.1161784630416651e-02 4.6541002935798303e+00 1.0178597975737533e-02 4.6296650205506751e-01 -1.3409456131905007e-01 -2.1270175646641822e-02 -5.9408400142107354e-01 6.5252531324628054e-03 -2.4710532897289878e-02 2.3190919893766804e-01 2.0118203442218814e+00 4.5678620901927758e-02 -1.9996763348669247e-04 -4.9237028843386243e-03 2.4211024804735803e-01 -1.3858391214753674e-01 3.7805844271165512e-02 -2.2493614649321186e-01 -9.6191534433540937e-01 1.5497811708395659e-01 6.7078607997639139e-01 9.3463282013152120e-03 -5.6743049797752576e-02 -1.4813407063903128e-01 -2.6302533770711400e-01 -2.7560356607448711e-01 2.2794654380234758e-01 -3.7847935175967828e-01 2.3550746926517618e+00 -2.5267139608935452e-01 4.0655154308065011e-01 -2.6131052976896307e-01 -3.1400149483450268e-01 1.7370945280097132e+00 -5.7447413462429253e-01 -3.9952247273835950e-02 8.9671740517125897e-02 9.5072764385990638e-01 3.4630055073388810e-01 -2.0858218082117688e+00 1.0568194340721332e-01 1.3359420738720686e+00 3.5017883911207082e-02 1.5850460132790796e-02 -1.0187177863451042e+00 1.7487792969062960e-02 3.6816903451699278e-04 -3.9809570881701006e-02 4.5821661634586092e-01 -3.3641664192459460e-02 -4.0506000827726145e-02 3.3677828394006948e-01 5.9722530735741131e-02 -1.5722811529937486e-02 1.2108626163363480e-02 -4.9301291546810615e-03 1.6286118130740306e+00 3.3764172256220193e-02 -1.0283912992499609e+00 -7.1748323559880445e-06 -3.2951718569207422e-02 -7.4758041038286138e-01 
      </Row>
      <Row Index="10">
        1.6514132928869003e+00 7.8703691702321521e-01 -1.3802373131375755e+03 -6.2629207130731146e-01 -4.5595984635287981e-02 9.1330182310683210e+02 7.6692191031110383e+02 9.1621286937810510e+01 1.0035521089061916e+00 -1.1179975023677052e-01 3.6600082328299145e+03 -4.0717022005437812e+01 -3.1677445793444692e+00 1.6079436194374047e-01 8.0385546376951334e+02 -6.2931547863408923e+00 -4.7838721986852361e+03 9.8776963330800238e-01 -6.4341207002623648e+01 1.8074761559448433e+01 -3.4700446971728333e-02 -1.7699341829285904e+03 -1.5365678656498097e-01 3.0386516960327629e-02 2.8607857362984606e+02 1.6128643884127960e+03 -3.6017782123629978e+00 7.6764167121895419e-03 3.4082859801002244e-02 2.3921560918680188e+02 -1.1237850070107203e+01 -5.8621661915173373e+00 8.9020219858037930e-02 6.0113002987901450e+02 3.5968344954709778e+01 4.9286372859479491e+02 -5.4707105938787337e-01 -3.5966841328534849e+02 -8.5249227240291333e+01 7.9535067670185977e-02 -6.0718080042768270e+02 -6.2565895997892029e-02 -4.5202629968116526e-01 1.6177534205631343e+02 -3.0677344099000557e+03 2.8251978992588754e+01 3.5064786697752884e-02 -9.0646548302699866e-03 -1.3863390789987104e+03 4.4735261321954283e+01 -2.2010161754357036e+01 -8.0951309976636399e-01 2.7487623386655841e+03 -2.1058204601879844e+01 -4.3622062305649833e+03 -3.7669642666574232e-01 -1.9482228350195836e+01 1.1955239223568679e+01 7.5402105519654344e-02 -1.2343900248448626e+03 6.0605575204841977e-01 -2.0790281701037389e-01 -6.2041642420330618e+02 -2.5236807666465916e+02 8.4245711809461383e+01 -1.9840918665188209e-02 -3.0786258504409161e-02 1.1777052597725644e+03 5.6900128557025475e+01 8.2384245863615053e+00 3.5211724836006958e-01 1.9020004464316207e+03 -3.7827626489192911e+00 -1.7181857918782985e+03 4.3452424608403817e-02 2.7271328317834275e+01 -2.5951343068223263e+01 -3.9131001727937337e-01 2.0743311133478636e+02 -4.3555829752533484e-02 -5.2727064626220321e-01 -2.4850542447155846e+00 -6.3274673471661163e+02 -3.7677064901983357e+01 2.4568048305721149e-01 -6.0166649134875344e-03 -1.3963325314479264e+03 -5.0439523182749468e+01 -1.0929882660858915e+01 -1.0180485018827197e+00 -5.0662665615135638e+03 -9.4233153684646268e+01 -2.2517163238154308e+03 -3.7856045941688406e-02 1.3058485918736795e+02 -1.3469063671383392e+01 -4.5242644702929063e-01 -1.4430345059000570e+02 1.3090066656754423e-01 1.2486283257789914e-01 7.3894080909847935e+02 -1.3240861483555659e+03 -9.6796261835338910e+01 3.8721100393240747e-02 4.8448328948471897e-02 -2.0769154842475727e+03 -6.0792825570552040e+01 -1.1274349254821637e+01 -1.3821807197824569e+00 2.7324001351594925e+03 -1.8278114550806233e+01 -4.8971830607376733e+03 1.8273679308743387e+00 1.0148722121499628e+02 -3.2984015308378702e+01 3.8872488757865709e-01 -3.2922856296898608e+03 4.1306184212207719e-02 7.8123350583382573e-02 2.1027848519295007e+03 -4.4559411075984090e+03 2.9764826686148190e+01 2.6566819609993075e-02 3.0549797310820193e-02 3.4115073573943715e+02 7.7633853734992968e+00 -5.1730801632280787e+01 -1.3573148208215930e+00 8.2827299997721298e+01 -4.4929067949731305e-01 -3.5599032642527422e+03 2.6144654428725783e-01 -2.3528166767938067e+01 1.0052929749215160e+01 -1.4708037625205339e-02 -2.1060858285040085e+03 -4.9568517186751476e-01 1.1458622463148771e-01 -1.4728225203475864e+02 -1.0264656098542619e+03 4.1302479646287701e+01 2.9670873114884755e-02 -1.2372501561426989e-02 3.8467050230679206e+01 -7.7884710738553778e+01 -8.8900493331204995e+00 6.5245205301413911e-01 5.9823173098311986e+02 -8.6036438831726514e+00 -6.5434993454194137e+02 -5.4555235219708631e-01 2.1799810357233447e+01 3.2936382256553344e+01 -1.0017717169606147e-01 2.2952783157546096e+03 -4.7730788642502470e-01 5.0962244713615734e-01 -5.1736231894011041e+02 -4.5314507422030101e+03 -1.1143648049615670e+02 2.0917541832882816e-01 2.6444840812680673e-02 -1.6673637282278589e+03 7.2812362422967453e+01 4.8523410205718474e+00 -2.3239177776683193e+00 -1.6170440749528320e+03 2.5792442051807765e+01 2.0963398367987634e+02 2.5104107455841795e+00 2.0339060643829441e+01 -4.1147194462056049e+00 2.0742995833124836e-01 9.0654860235387150e+02 -4.5404514497296988e-01 4.1610273830253736e-01 -7.1440362392255520e+02 8.2501166393792992e+03 6.3054337531378906e+00 7.8156692308646358e-02 -5.3902921223372369e-02 -1.6141763642766296e+03 1.1740060649888163e+02 -3.3168543921890024e+00 -1.4381845955245582e+00 -1.5235027881196856e+02 -1.7808602289062243e+00 1.1576194606267491e+03 1.0911333502515197e+00 3.7867316457350455e+01 4.1245982738908111e+01 -1.2928594048851266e-01 -3.1730546783458885e+02 1.8978581213497164e-01 2.5312682934065983e-01 -2.7717656425482699e+02 5.0825788590955126e+03 -1.3821211808867728e+01 1.1768006405516880e-02 -5.0566484578879772e-02 7.6023409522134182e+02 6.9464270840939108e+01 1.9586794933185612e+01 -7.0536816867768171e-01 1.7649380578619730e+02 4.7705733621180656e+01 2.4249876456468792e+03 -2.3824684842743782e-01 1.3665369853365490e+02 7.0554792000416569e+01 -7.4780479792932431e-01 -2.2851039721646799e+02 -2.8116693930941601e+00 6.6785634538902876e+00 -2.5378807810190647e+03 -1.8642175095528285e+03 -2.1713322927280518e+02 3.1871453405375529e+00 -1.1367602747698768e-02 2.9514913001671730e+03 2.4073913259032477e+02 1.1304920814432379e+02 -2.5038045082128519e+01 5.4026173724508362e+02 1.3392799093872128e+02 -1.2469041290599559e+03 2.6451724937188033e+01 1.0981912823277505e+03 2.3344218016694022e+01 1.2798380668818176e-02 -3.2667671236797182e+03 5.9493214471169543e-02 -2.2252197024003672e-02 1.4303288047122925e+02 -1.8240088260633659e+03 1.0158932507119509e+02 6.0515119047464233e-02 4.6787608893232246e-02 -3.3365606263893477e+02 9.3973437970170703e+00 2.0436273212442551e+00 3.1529079825305673e-04 -1.4748959630732866e+03 -2.0972762235601721e+00 -7.4278998275348931e+02 -3.3260635631320312e-02 8.4826133286617988e-01 1.7223914656726390e+03 
      </Row>
      <Row Index="11">
        -1.0738212356577606e+00 2.9941675810164270e-01 -2.4585533122858237e+01 -9.9030709102918377e-02 -3.2642186951140406e-02 1.0429628092382998e+01 -2.4994675234169603e+02 5.0701966809258465e+00 -2.5145396013373977e-01 2.5618506459684887e-02 -4.0717022421510890e+01 1.7633014720625752e+02 2.5370426732857965e-01 1.3243177806003419e+00 6.2062281385161960e+01 3.4926021690480411e+00 5.6408398451407265e+01 -7.6974716598729342e-02 4.2924479054709437e+00 1.9780184096454021e+00 3.3911379324628926e-02 -3.8029362291277351e+01 -3.1459465193285019e-02 1.2114199605843383e-01 5.6669324932830719e+01 -3.0993766030506231e+02 5.3663196601328025e+00 -2.6197055509938866e-02 -7.0418978820590778e-03 5.8931590105266878e+01 2.2660491889715409e+01 4.4541777650565679e+00 -4.8515444649447723e-02 -5.5779212408539877e+01 3.6115484829214104e+00 -1.4086576002020860e+02 1.3766137987932892e-01 1.8050090042407042e+01 -2.4358026265173724e+00 1.2598114119532039e-01 3.3420109115580999e+01 -4.3787932601896881e-02 1.7026066356265801e-01 -1.7200955696927110e+01 -1.5305821317925114e+02 -4.1959051231729934e+00 -1.2148671848228380e-02 2.4345595556247317e-02 9.0202764443138079e+01 -9.4626831372855435e+01 1.6030197935384987e+00 1.8996787940610749e+00 8.2008085847547534e+01 3.8943384501481155e+00 3.2018967562384626e+02 8.2944998334953945e-03 6.2832040903985327e+00 5.4399209625353784e-01 -3.0872874119401428e-02 8.1200249696022183e+01 1.0643225377453662e-01 4.8822642147350340e-02 -1.0798949524201453e+02 1.3414747670368902e+02 -1.3680467709980166e+00 -1.7385542374682542e-02 -7.1919063246801765e-03 3.0464106375989655e+00 -7.4277672445197595e+01 1.2739308378594858e+00 -2.8658503904996901e-01 4.3165409964626178e+01 7.2866069766751949e+00 1.8250997256043001e+02 -1.1133150783280144e-02 -3.8446482544029692e-01 -2.5134060850439033e+00 -5.3700196036474260e-02 4.0099051386220935e+01 4.6792904124507990e-02 4.1490252977620135e-01 -1.7228080700003069e+01 1.0802474041967184e+02 -6.3218057274782136e-01 -8.9140474683412713e-02 -2.3296485743436058e-02 -2.8149512217446201e+01 6.0341734407651970e+01 -2.4229283296496424e+00 -6.8583786773346156e-01 -3.4417611439221247e+01 1.7720192944865367e+00 3.7015192187887010e+01 2.7368188843895969e-02 -4.9891621545485805e+00 2.1378105696048930e+00 -5.4899650088648291e-02 -5.0403084842460174e+01 2.9946104751591568e-02 1.1109157757164770e-01 4.5456542427707681e+01 1.2294588606620081e+02 6.2561529931096072e+00 -1.2068248099876104e-03 -2.8986714389549798e-03 1.2120752153710693e+01 1.1526207799543332e+02 -8.5603925233836797e-01 2.8895304776180375e-01 -1.2071030794084072e+02 -6.6009497632402852e+00 8.8809153267174224e+01 -2.6427453861819272e-02 -1.0773981182007333e+00 -1.7666420365430735e+00 1.7792490759120672e-01 8.7121137600127668e+01 4.7636412706713406e-02 6.5648020531923063e-03 -4.9227629161480166e+01 -2.9719160593575771e+02 -9.3891534355583310e+00 -3.2969229406251445e-02 -2.5308771278700730e-02 -2.7598737485724971e+00 -7.1996255528613879e+00 -3.3679577759540824e-01 7.0938697476386681e-01 -8.6308059179813924e+01 4.5791535056658672e+00 1.3217946985145215e+02 5.3497988650999806e-03 4.0602590985827405e+00 4.0329147972180512e-01 -5.1365107016284517e-01 -5.2551409038392194e+00 -1.8786604349350443e-02 9.3257522349824234e-02 2.6137749263260503e+01 3.4228904979280378e+02 1.3111775098699161e+01 2.9147564559075120e-02 -3.4770885313691491e-02 2.7254022708915556e+01 1.4605718880489752e+02 1.2747306213284204e+00 -6.4124794779533056e-01 -9.5927004416775237e+00 2.6286010948446012e+00 7.1520660106202740e+01 1.2786660114617740e-01 -1.8829992464548519e+00 1.6616728447872937e+00 6.2030345830176255e-02 3.6745577442218135e+01 -3.0732511200519397e-04 1.6132678059739702e-01 -4.8638440350349143e+01 1.5905267590706853e+02 -6.0859861832565993e+00 2.7576519359769548e-02 8.0319168933474273e-03 -5.6318070867972736e-01 -9.7445535695098172e+01 1.7825292399094625e+00 -1.5820921560039358e-01 -4.3598078164886772e+01 1.0809186874540320e+01 3.5078305428655028e+01 2.0508305903597538e-02 8.1652026223866159e-01 2.3736565780860843e+00 -7.9422040411375669e-03 -9.4782067624000334e+01 -2.4626318925966277e-02 -2.5429336715269352e-01 -4.0297123989440649e+01 2.4502019146567227e+02 1.0124482217036475e+00 2.8280293618603711e-02 2.7611882149219877e-02 -2.7757023406887527e+00 -2.2288357841119944e+02 4.4235183964384817e-01 -6.3075901063532591e-01 2.5939372857490284e+01 -4.4452312066363557e+00 8.5736549148397359e+01 6.3837920066411216e-02 -3.7023164369490260e+00 2.1710144627790764e+00 1.6050870519024976e-01 -9.8086770585795449e+01 1.0614929592620062e-01 2.9313929509836814e-02 -8.8119737856186688e+01 2.3307125282270295e+02 4.5023915691789878e+00 2.1505315517426765e-02 -5.9439201194855015e-03 -8.1920794594077151e+01 -8.1075503986771437e+01 8.5532770680482340e-01 -1.1537948527278039e+00 -6.8025203260865510e+00 8.9646627683199327e+00 -1.4819715160617511e+02 -4.2299056345863131e-02 1.2038394673619579e+00 9.3993567260165438e+00 9.8429025387190006e-01 3.9186677519878700e+01 2.7897048681978531e-01 1.2188189161215823e-01 -3.4566826546759438e+02 -1.1368678865799539e+02 3.2309409233569959e+01 2.3295320008769960e-01 8.0418448719829116e-02 -3.7284206501790533e+02 -5.9290296742901262e+01 2.7584610223505059e+00 -2.2286243753075041e+00 -1.5447362640439906e+00 -1.7067305258257882e+01 1.0292411678793846e+02 -1.1000429620444585e-01 -3.0492177364779991e+01 1.4083472057675015e+00 1.5351893258427004e-02 -1.4885180970530479e+02 1.9447674521412918e-02 2.4125978561537316e-02 1.1374240557101274e+00 -2.5171772214537961e+02 4.4789701493967833e+00 -7.5076774796618825e-02 -4.0657836143325035e-02 1.4523486526243019e+00 -1.6080892278496044e+01 6.2527614019809052e-01 -3.0147473724156569e-02 -3.2557134840178207e+01 3.3776573672688741e+00 1.0888985116489266e+01 1.3790036267194328e-02 -7.1971836376115661e-01 2.4728141837923087e+02 
      </Row>
      <Row Index="12">
        4.6364604989008740e-01 5.1202756771886015e-02 -1.0275929519470822e+01 7.8015216263590051e-03 1.6137253421089688e-02 1.4433191024757363e+01 2.4335620361093774e+01 -9.8334987080332610e+00 2.4417614383318631e-02 -1.0390623152339530e-01 -3.1677447436169590e+00 2.5370424701662575e-01 2.7588829915730372e+01 -4.5847417742461621e-02 3.3791785819945829e+01 6.8885383356246166e-01 6.0904138764537606e+01 1.3440604963072644e-01 -1.4737796011248117e+00 3.4244195608699290e-01 -4.9896283076077087e-03 5.8989220915125230e+01 -1.0031171514956843e-02 1.9189567671670536e-02 4.9970641241869458e+01 5.0237471921645920e+01 -1.3521012527562193e-01 6.9645034418108504e-03 -5.7261161176795959e-03 2.2160826593125535e+01 -1.1583058591907669e-01 -1.4742870852088894e+01 -8.7894968319294303e-02 1.3993230619472996e+01 -1.7331340575443628e+00 1.1770905173252977e+02 -9.6616631757462698e-02 3.9918370692270448e+00 4.3650777456846050e+00 1.5121214219632750e-03 -1.1228594183080020e+01 -6.9774517380117836e-03 2.1181260378853040e-03 -5.2651694593330776e+00 1.7009917748135621e+01 1.0727924244787119e+00 4.9482781261925212e-03 8.4919895429355109e-04 2.7059375759064544e+01 -1.7714984807812710e+00 -2.3147198495556871e+01 -7.3820886397189034e-02 1.1701041221569032e+01 4.7504525337233696e+00 -4.4683528549510605e+01 -8.2522884481517067e-02 1.0266922197262597e+01 1.6027588302623681e+00 1.1688070988172219e-02 1.1662290820379042e+01 -8.6430352874768863e-03 -5.8494832990315850e-03 4.0292160252574831e+00 6.2083868500838037e+01 1.2754208464188403e+00 -2.6438276946541186e-03 -7.2206670835872951e-03 -1.9914878264261432e+01 -1.8224162970854429e+00 6.4590668555314696e+00 4.4666400950024415e-02 -2.5632537796143296e+01 9.9781850342151934e-01 -1.2013212268901382e+01 2.9724553041774016e-02 1.5309152535163140e-01 -4.8970449410405636e-01 1.9177586081700199e-03 -1.6703965746417680e+01 1.9219439017075131e-03 -4.0578439920776505e-02 3.3112563217083654e+01 -1.6787521742401793e+01 -1.1485947181298939e+00 2.0668190456277066e-03 -3.2029691130588393e-02 4.3711784924726501e+01 1.4035754004764058e+00 2.2127890115316838e+01 3.0392718622714726e-02 2.0963948625929469e+01 2.3035904425639853e+00 -3.5845841493698252e+01 -7.2809547355602217e-02 4.5221853807882288e+00 1.2284752060474596e-01 -8.2510867618315539e-03 2.0234457883536635e+01 9.9020803105863398e-04 -8.8295928118159381e-03 2.8253491232845509e+01 -2.1258787862908921e+01 3.6352478403862003e+00 -1.5317759541081492e-03 -3.2218173915836163e-04 9.4269315010082835e+00 1.2862982515929895e+00 3.5119101498218814e+00 7.8975777257653257e-04 1.7772264446131885e+01 -4.3977462291859197e+00 -8.9773295975095095e+00 1.1721408492055135e-02 3.9049689203847020e+00 1.5593268224923422e+00 2.7532086199077439e-02 7.8948008423779072e+01 -4.7585782375178191e-03 -9.1014924211663510e-03 1.5499447766810077e+01 -7.8839170069858710e+01 -1.1768501788995034e+00 -4.5846891617284165e-03 -5.7961957543451754e-03 -3.4829635263146095e+00 -4.4170586125341949e-01 5.9184909302303739e+00 2.5533531846272023e-02 -2.1919599977259594e+01 2.3270894700373730e+00 -1.7330381387685208e+00 -3.9609412677127358e-02 -5.5658804586448838e+00 7.8037404044559300e-01 -1.1528892176104998e-02 -2.8773510126233759e+01 -9.9185026434050923e-03 1.0399666486079401e-02 9.5167506087309448e+00 4.5119960010475552e+01 -5.0069175289349377e-01 2.1185099138126794e-03 -3.5151483403845179e-03 1.0942096154258522e+01 1.8353660047270182e+00 -7.8717940603340564e+00 -3.4269586932310719e-02 -3.6897586296458428e+01 -2.8312139803690322e+00 -9.0724138304986241e+01 -1.0929345293577158e-01 -1.5874450414336092e+00 -1.2565173248900128e+00 -6.7702281477887413e-02 5.5845670347040134e+01 -2.7930008109096467e-02 1.0223698203308872e-01 -2.6080743224041129e+01 5.8924595890023355e+01 5.1020986701650202e+00 1.5874755098162614e-02 2.3115485113269437e-02 6.9135166986580963e+00 -2.4833094319000253e+00 -3.9716366765654044e+01 -4.3341222572399501e-01 -1.4517506802722998e+01 4.7158971652617661e+00 -9.8740469299278146e+00 -1.7773729079079013e-02 -1.2548379937765546e+01 -3.3092337524627080e-01 1.6481114963477334e-02 -1.8206443877137559e+00 1.4751681769211572e-02 -4.5980260192303984e-03 -6.6090930352132219e+01 -1.5918009425889522e+01 -2.3012973348041288e+00 -5.0567721701649786e-03 -1.4228922200347858e-02 -5.8522928087051014e+00 -3.7557801346728690e+00 7.3416762756610776e+00 3.3057204633818227e-02 -2.0260263303006653e+01 6.3427764770547324e+00 1.9381133776846941e+01 -6.0435208646150006e-02 -4.0414089718658630e-01 4.6540936834969671e+00 -9.0631490512737105e-03 -5.7291004159787349e+00 -8.1138953118445531e-03 1.5936041970488781e-02 1.3369253534557998e+01 -3.0694590550405323e+00 2.5837644019302779e+00 3.5717873806707257e-03 -2.8951213615037311e-04 -5.5163856371525640e+01 -1.4436534913509833e+00 -1.1409764340035133e+01 -8.7297923195900518e-02 -7.8790362665589441e+01 5.2751543746100609e+00 1.9029353231074829e+01 -3.7598586798548411e-02 -1.1391054538936771e+01 1.5257552340050395e+01 -5.2679845313994511e-01 -3.3280468582774176e+00 -1.8789455678160499e-01 8.7478568134320511e-01 -1.9347509073038464e+02 -4.9716125870173187e+00 -2.3385367903213847e+00 1.6061604058935269e-01 1.9934964064813254e-01 -2.5531504824758218e+02 -1.4034444069765613e+01 -3.1146054212610252e+01 -3.6368362289925749e+00 1.8814644147885019e+01 2.3266709364361859e+01 -5.3206598665872349e+01 -1.9768816865601391e-02 -2.8273422924325899e+01 -3.1352866486816566e-02 8.3192733121774647e-04 1.8125468076921663e+01 -1.0092166962397859e-02 -3.3026605356112592e-04 2.8719566895568178e+00 -1.5113244717097638e+01 2.1866601746807895e-01 -1.8013559781784724e-03 -7.7571796902597190e-02 1.7020835866007591e+00 -3.1093562097896144e-01 -3.1617066594632424e+00 -1.7606966553945034e-03 4.5360935752777948e+01 1.5079998469771185e+00 -1.4295055786897876e+01 -2.9874044376121497e-02 2.0052254715354181e+00 1.5001991215044375e+01 
      </Row>
      <Row Index="13">
        -1.6980436558489398e-01 -1.3410864613585560e-01 -3.5744684890509575e+00 -1.8234411813925974e-03 -5.1690276047866288e-02 -5.5141111932100273e-01 -1.2280617156195035e+00 -3.3702390819140504e-02 2.4141589122800997e-01 1.3694728498242226e-01 1.6079434587670960e-01 1.3243177782281164e+00 -4.5847417928763345e-02 5.5268427208940398e+00 4.0013793052945630e+00 -3.8390657261970773e-02 -3.1635213693284918e+01 -4.3946960172705232e-02 1.1574373915941472e+00 -8.0082888647594802e-02 1.7212426427087174e-03 -3.3282501561407116e+00 -5.8628077801657734e-03 -4.2649650024884932e-02 -2.1193000191787092e-01 -1.2513370208375818e-01 -5.0692659597387113e-02 1.7007857904100809e-02 1.9649598709590051e-03 -7.8843544951258693e-01 7.4672650841421273e-02 3.4493440742576098e-02 1.2173568598336565e-01 1.6750780022684097e+01 1.1458001400854645e-01 2.6224784084920998e+00 7.4225410492423483e-02 3.2025805072133895e-01 4.8105510505152882e-02 -6.1915605264408091e-02 -1.6886977183783074e+00 1.1288067701730256e-02 1.2309295771488493e-01 1.0710687731932467e-01 -3.1833496774506216e+00 6.0041655169676078e-02 -4.4581977433403683e-02 7.1903028868860602e-02 1.6678153488404632e+00 6.9237867786682727e-02 1.1944199410340417e-01 1.3534410098559113e+00 1.5225313033747909e+00 -2.1832005569989121e-01 2.2222184459518530e+00 -6.6261590601521814e-03 8.4948412933623629e-01 2.0440187884993399e-01 7.0623669829668528e-02 -3.2311946863660523e+00 -1.5346329026690864e-03 4.4054472427126443e-02 -8.0061192315770313e-01 -1.1599795203537724e+00 -5.9847548944462758e-02 7.0395390547855468e-03 -7.8719008422520678e-04 -5.0709081528836464e-01 9.2920488803542867e-02 -4.2069397980981194e-02 -4.2799303248960285e-01 -3.1884794114085935e+00 -1.7733753164899468e-01 1.2518013002035559e+01 1.5047291113070571e-02 2.9678514124318767e-01 1.2916770367164032e-01 1.0856441539149914e-02 1.3078917427073975e+00 9.8013710001443044e-03 5.7665281077280750e-02 1.2108324701970954e+00 1.9072846891549489e-01 2.2400236627040826e-02 7.9698384768992922e-02 1.1605877216102305e-02 1.5419155136390685e+00 -1.1302729285932855e-01 -4.5438382460833537e-02 -4.3323349592155730e-01 2.5177984768010617e+00 6.5048104410386998e-02 -2.4210590419752208e+01 2.3187055821340508e-02 6.5019330682758891e-01 -3.4857180240781993e-02 2.1943273079407799e-03 -7.1083398104121898e-01 2.3024705890140190e-02 1.9878979434788918e-02 5.6996879731627814e-02 -1.6910709399750488e+00 -1.3347443532656023e-01 -1.6459560132839890e-03 6.9484978745965216e-03 5.4519028407571568e-01 -1.7696299153169548e-01 2.9743750822606163e-02 1.9773301626049022e-01 -1.1274083952012006e+00 2.1880075817414557e-01 -7.0701762750702528e+00 -2.2304565350248884e-02 -8.9807442370316437e-01 1.1106501805487656e-01 -2.0001011241993438e-01 -7.3184178813951632e+00 2.8294528220337956e-02 -9.7789655881462441e-03 1.5766530676122272e+00 -8.9221177005545940e+00 3.4948474081153411e-02 -8.2947454556213593e-03 9.7764135400199761e-03 4.8171118624284248e-01 5.8552668970067501e-02 8.2027842440502874e-02 2.3641266144980566e-01 6.1413009743422435e+00 -1.0003723546511978e-01 8.0029751657957142e+00 -6.6152191506280711e-03 -2.1446597433592229e-01 9.9520575185360061e-02 2.0268509257478140e-02 -7.3173715155862737e+00 -1.1771694347893380e-02 -7.7295699689435504e-02 1.8754373566434879e-01 -1.7044798020979215e+00 -5.2742423482874834e-02 2.0354630016150427e-03 2.0764718868476539e-02 -9.3109639666090516e-01 -1.8706453782052268e-02 2.9978621499765712e-02 7.0431743783607281e-01 -8.0346606781903933e+00 -1.0588368545089821e-02 1.3651975247516248e+01 2.9980831256431487e-02 -7.6082869433489009e-01 -2.0994423538659390e-01 2.3011698496016551e-03 7.6281524914343635e+00 9.4439235395468168e-03 2.2588943911625421e-02 -7.1788086212893099e-01 2.5989675002019510e+00 4.6164838216834106e-02 -2.1062213128412551e-02 7.1923537590518408e-03 6.2969705554852362e-01 3.4473380698088363e-02 5.7190194556419272e-02 -1.5933112351314377e-01 3.2007488110914721e+00 -4.1419621871905488e-01 -1.4239982256844996e+00 2.0125879903141266e-02 -1.6728460086197146e+00 -7.1727481816123095e-02 -9.7147228990035230e-03 1.6756705853352685e+00 -4.4414507959700339e-02 -3.8326750529243434e-02 7.2321774983655729e-01 7.4930944770816268e+00 -4.8242923227315160e-03 -5.3282103759637392e-03 6.1299281831519647e-03 3.0929623049917154e-01 -4.1374153538104252e-01 7.2363351414228561e-03 2.0653675356914813e-01 -9.6625141924006996e+00 -1.6389403722991558e-01 1.4009267515243096e-01 2.3413853119635803e-02 -7.6082396306379607e-01 1.1346923121020258e-01 7.9207303535193646e-02 -2.1356558636565071e+00 -6.9912236467663535e-02 -4.5785901124782244e-02 -5.0707392765487569e-01 3.7194403392988420e+00 -7.3038671184598947e-02 3.6679098996255294e-02 -6.3370010510631541e-02 -9.1492641523417184e-01 8.9286659583768468e-01 -6.0033285725248575e-02 -1.5361939017508153e+00 7.0487857442790300e+00 5.0843036007101716e-02 -1.2956211890797391e+01 9.8813166950916159e-02 -3.5952158429800818e-01 1.1352570092771685e-01 3.5634674547006673e-01 -2.7772299099746078e-01 -2.0505702635265599e-01 -1.6044754111630166e-01 -2.2073509812312295e+00 -2.2417011432645637e+00 -2.4768607937802400e-01 2.3484371115278710e-01 -2.9697857380615622e-01 -3.9323915663577509e+00 -4.0596939612710514e-01 -2.1293590323210007e-01 -4.8237390362284316e-01 -9.2341627703581253e-01 -4.5107134796016624e-01 -1.8125618685660925e+00 2.8919280761590827e-01 -6.3647357091378751e+00 4.6169915984428461e-02 -1.6149515441360941e-03 -8.2876866555041602e+00 9.3605284051393040e-03 6.8733012570195437e-04 -6.3597394139321750e-02 5.1233903577169537e-01 -6.5373310827044728e-02 4.2422600818502493e-02 6.4845879804836581e-02 -4.9419273476157599e-02 3.7138145530893896e-02 2.3322914836677811e-02 -2.8169222271280998e-02 2.7856768437881385e+00 -1.3026869036748323e-02 6.4515014151993455e+00 1.3318845676921902e-02 5.5582329417962484e-02 -4.9865145982157871e-01 
      </Row>
      <Row Index="14">
        -8.1666353223426086e+02 1.3629474306198972e+00 6.0978934272245624e+02 -2.7893627099498404e+00 8.4619747009461688e-01 -1.5536844538906107e+03 -1.1341301607719708e+03 -1.8281531364452530e+02 -3.0345359108789808e+01 4.4768196199746919e+00 8.0385542320459638e+02 6.2062276430868280e+01 3.3791785773646041e+01 4.0013793452526443e+00 1.2275589064016202e+05 6.4813610730692744e+01 -1.9186871436121262e+04 6.1408857763281921e-01 4.2846067273725964e+02 7.6772246434624662e+02 1.6420065842272074e+00 4.1736202482205681e+03 -6.2387493397022020e-01 -6.4252124729812599e-01 -9.7486900415654236e+02 -6.7859984557051212e+02 -3.4238075302505138e+01 -1.9667198218582203e+00 2.6575320610630926e-01 -3.0717904036688560e+02 1.9161289024223212e+01 1.0388176826990642e+02 6.2617997347285099e+00 4.9073090957792607e+04 2.6110618898541095e+01 -8.5636539092681796e+03 -2.7205634593401737e+00 -6.7755384771354670e+01 -6.7330172668226248e+02 1.3741949454731039e+00 1.8500839372551563e+03 -9.1781840707772933e-01 1.3784017821308225e-01 2.7158367971998691e+03 5.7224509446986458e+03 6.2291893704248025e+02 4.6048853629667555e-02 1.2539788857473111e-01 -5.4442197234065998e+02 -2.5348981194919922e+01 -9.0127522205545930e+01 -7.6087317073814695e+00 9.7335299417396527e+04 4.2008409908952729e+01 -7.6316270003500540e+02 -1.9657021965855814e-01 -3.0529851750437126e+02 -5.1176392464462970e+02 2.5246856584229631e+00 1.6355369747585355e+03 1.8551074693500704e+00 -1.5902418539828516e+00 -5.3699754372239113e+02 -6.1365299409689615e+03 -4.6226786632166437e+01 -3.4951978487634189e-01 -3.6309100412985240e-02 -9.9118617432580993e+02 -3.3429579690762480e+01 3.2214469808921860e+00 8.2451794460595398e+00 3.3675498634842428e+04 -9.9920128240809589e+00 -1.6315715189064360e+04 7.7517347779939882e-01 9.4580665340977589e+01 -9.1724190861249633e+02 9.2884444828873058e-01 -1.5139964798975266e+03 7.6668473386122860e-01 1.2110720934397295e-01 1.6891787871671966e+03 7.0566399686860404e+02 7.1824003194279129e+00 -7.5108480511830402e+00 1.0279381270146575e+00 4.3859162306740933e+02 1.8426316272008307e+00 -9.3352137888732329e+00 1.1819417357593407e+01 -7.4180197202387586e+04 -1.9609076372385417e+01 7.9324646024256435e+03 -1.3558093636792385e+00 -2.5002649140681518e+02 9.0693412278158280e+02 -1.0420550677585472e-01 3.2754983047402493e+03 1.3507000921738332e+00 2.2028379114740293e-01 -1.9940467897183441e+03 -6.3089224672364981e+02 -4.5168816204536725e+01 -5.0966851776579825e-01 5.3610992069178937e-02 -2.9811416815426725e+01 6.3896184421785136e+01 4.3314290050311143e+01 -4.4104500674178011e+00 3.7468434438943863e+04 -3.6625267726359212e+01 1.1734776087849228e+04 8.2351680517311621e-01 2.9973634657990158e+02 -7.3348702812915235e+02 3.1082148859440184e-01 6.2672680709168435e+03 1.0296770447274497e+00 4.5010544130763941e-01 -1.0701978171286000e+03 -8.9507294443365681e+03 2.2911046275802460e+02 -5.0078330871105581e-01 1.9829578528836725e-02 -8.2783936861728961e+01 -1.7315088083200408e+01 -5.5142746901744438e+01 4.0246232191176698e+00 1.4017564769917364e+04 2.1855485232274006e+01 -2.6198174693434812e+03 4.3650407591691254e-01 5.0882728259274174e+01 -3.1006322991922360e+02 8.2283385735063086e-01 4.6029770325317368e+03 -1.6526676820640742e+00 1.2576071974027689e+00 3.9824900651723146e+02 -3.4914691878765352e+03 -8.4354292126407657e+01 -1.0250549002711888e+00 1.4157317645099882e-01 -1.0382628379724920e+03 7.3708680237902115e+01 2.3881821517633959e+01 1.0023898543076133e+00 -2.1594272054403831e+04 -1.6350119569839897e+01 -8.0299301416259732e+03 -1.3582983837311997e+00 6.3201928914092946e+01 9.0875568773049599e+02 -3.7187979670617772e+00 -7.5760425658307631e+03 6.8812179326301826e-01 2.5367437146556315e-01 2.6717321716273195e+03 -6.7608065877372119e+03 2.7380589679521313e+02 1.8617707312356375e+00 -1.2179292924469276e-01 -4.0708921635484296e+02 -8.1202417658032573e+00 -5.1709446174014793e+01 8.8216127118060061e-01 -4.2445923017583860e+04 3.8832317600458168e+01 1.1480755697705255e+04 -7.5793335844114496e-01 5.7372989199523261e+02 1.4033246449213379e+03 4.5496315998941661e-02 1.6713903026596654e+03 -2.1630198794312712e+00 -1.4289864187755006e+00 2.1461863070935415e+03 -1.3077344625340411e+03 -4.2959695125122337e+01 3.2381514465266764e-01 3.4672189877796744e-02 -5.8500730834748720e+02 -2.3079300427467842e+02 -3.3523606781633390e+01 -2.1351837185956128e+00 -5.5152937765235365e+04 -3.1008307525699806e+01 7.5655194165810863e+03 -1.1287698295141213e+00 -2.1761721297733288e+01 -5.1371467886473624e+02 -1.9395342052778055e+00 4.1170266395542021e+03 1.4039397923493380e-01 7.8874962906048396e-02 6.4450922762415530e+00 4.1802389947160591e+03 -3.2167740117952400e+02 1.1971785935722297e+00 1.7469518034117526e-01 -3.5032416257135833e+02 6.0904186172081040e+01 -5.3034622568548841e+01 4.7217065964308347e+00 -4.4466885677157607e+03 2.7048289774438501e+01 1.6011719192241449e+04 -3.2829238669746332e+00 1.2653806108213280e+03 1.9770909288097637e+03 -3.6542977937551051e+01 -5.0118072614106131e+02 6.2178673656566721e+00 -3.3849516139460256e+00 3.3747318146425532e+03 5.6905811795392765e+02 -1.5899956909782022e+03 -6.8051097780807410e+00 -5.9496241319821852e+00 -3.5627148715040003e+03 1.9834448764372939e+02 -4.0884479493687138e+02 -1.4799453990722213e+01 2.2928061300270347e+04 3.4189615280258749e+00 -1.2850957865716346e+04 -1.0304124693171104e+01 3.1470693360914684e+03 5.0594892894115344e+02 -2.3503131482639203e-02 9.2821478337468834e+03 4.1866133905164282e-01 7.2909356898369540e-02 -2.4723365324734380e+02 -3.1420204459963079e+03 -1.2056521339768261e+02 -7.4335924161315727e+00 1.2683661166573217e+00 -1.1427959791135689e+02 1.5131474599555890e+01 -1.0683988897145442e+01 4.5700423138747920e-01 -8.1736010692362015e+02 5.4410006936726745e+01 -1.7612811505887687e+04 -2.0104428019302190e-01 -1.6233264754086167e+02 3.2613167023433966e+03 
      </Row>
      <Row Index="15">
        -2.9581164244893898e-01 -1.1349747916517572e-01 1.1957638961207456e+02 3.3195575983122665e-02 2.5363826957080036e-02 -2.5742079672085691e+01 -8.9201077949483647e+01 -1.3041133898593671e+00 -3.0162479942359294e-02 -2.6944859629242496e-02 -6.2931553358166612e+00 3.4926021357128807e+00 6.8885384645265413e-01 -3.8390655510738725e-02 6.4813613900575575e+01 4.4687946589896455e+01 -4.3390305257395107e+02 6.9647353497033590e-02 9.5968592396462995e+00 1.9138901920694458e+00 2.3741069095998237e-02 2.6142767005038206e+02 -8.0191932779341540e-03 -2.7247295285151574e-03 -1.0131238935739941e+02 -8.2398145693237893e+01 -5.6163887534953201e+00 -9.4610249345366253e-03 -4.5677973959069879e-03 1.8533393872567103e+00 9.1872796484822727e-01 -2.9944602714443116e+00 6.0957815365008883e-02 -1.2071847042689654e+01 2.0962881025688592e+01 -2.2697486522134676e+02 -9.6772497944041053e-02 1.9499097722557455e+00 1.4543500689721306e-01 4.1934803726877912e-02 1.0846091440636064e+02 -1.5432126959630428e-02 4.6884167535608867e-02 2.1644400661533378e+01 1.8246943945807277e+02 -9.3083529918240870e-02 -6.4043960155553137e-03 -9.8597517559304709e-04 3.8735341916162803e+01 -8.4821680555899412e+00 -3.2853498882877394e+00 -1.6526598438494500e-01 -6.1885129116631717e+01 1.2466227572040347e+01 1.6486480173975349e+02 -3.5893988113076952e-02 6.2906954636663315e+00 2.2932029047440050e+00 8.0909349834906066e-02 2.2682738524760919e+02 6.8570080851543272e-02 -6.2476235130466365e-02 -1.1690964635740966e+02 1.1909152006843516e+02 -1.1928313237371643e+01 -1.9287329953191434e-02 7.1385230183200702e-03 4.7606508975616059e+01 -2.9131630918735851e+00 7.8979430100948211e-01 2.0349596375962159e-01 -8.0727481564261751e+01 1.0268648427586058e+01 -5.0256045877181577e+01 -6.7400306945273769e-02 -3.0067563804827984e+00 -1.4253669618245191e+00 3.9878479597607916e-02 -2.0423717702298177e+01 7.3734653122822305e-03 7.3774821905378235e-02 2.5060805872217301e+01 1.7106637486338627e+01 2.6279156544794464e+00 -1.4026004215629988e-02 -1.1999366693974651e-02 -5.2102945209768023e+01 3.9300025676041628e+00 1.9412075632527999e+00 2.0378226063704133e-01 -1.9691083724093602e+01 1.7526221538312248e+00 -7.6460124067788030e+01 -4.7611369650040737e-02 -1.7019639212047416e+01 1.9880500779611849e+00 -7.9887602648995998e-04 2.0582334051535341e+01 1.5111150922641930e-02 2.2329262296943795e-02 -6.5557486850683446e+01 3.9837823674273508e+01 -2.1164927061783261e+00 1.9934403289842740e-02 -1.8975356330173392e-03 -1.1948522066697478e+01 5.9366543214561727e+00 2.6076424167309207e+00 -1.1125405072525110e-01 3.3579652093350887e+01 -2.4631873181242568e+01 1.9388994397928218e+02 -3.9518864167107842e-02 -5.8343319019620017e+00 -9.0316779010020609e-02 -1.1406808544315218e-01 5.6087404168456396e+02 1.6649997958005612e-02 -3.8725970672443120e-02 -5.5694434680133952e+01 -3.2226963189054493e+02 -2.9339785088127703e+00 -2.2461104024898551e-02 2.5688589762377506e-03 4.5085678734929404e+00 -9.0304780921542971e-01 -9.4902929989937990e-02 8.3527760670847551e-02 -7.7042650270355423e+01 1.5779962055758535e+01 -5.0399981264725398e+00 -1.6743080328712703e-02 1.0537509635932983e+01 4.3417976584120244e-01 1.4670111976242017e-02 3.0264830258098618e+02 -3.6717887469772260e-02 7.2681020606075869e-03 3.8625481514376588e+01 3.8315287114833518e+02 -3.9608249822230572e+00 -1.0955792453979653e-02 -1.2089924251198998e-02 1.8652290878584608e+01 1.0204811151257271e+01 -9.3490857201301669e-01 -9.2438131159402442e-02 -6.6736431184410947e+01 -2.9877838797107437e+00 1.7862949802934907e+02 3.6809554090844562e-02 1.4677474221162718e+00 -1.2511848281188200e+00 6.9593771428312343e-02 5.7541939687228215e+01 3.3010438284194511e-02 -4.9859139713410633e-02 9.3009513487902638e+01 2.8824456983407174e+02 8.3022643960150653e+00 -9.9434359568448781e-03 -3.6238339005381908e-03 -6.8646886274859220e+00 -5.2192420535309267e+00 -3.8011222430147082e+00 1.6761382830013680e-01 6.9234021998209514e+01 2.4372611962455469e+01 -8.5371237823010986e+01 -1.0263797817372187e-01 -2.8449549872519952e+00 3.2455744743045649e+00 -4.7703953987151541e-02 -2.9571451186867148e+02 -1.4547988555860314e-02 -2.3019587237389273e-02 6.5048434681827686e+01 -1.3564990717955038e+02 3.6876243272246843e+00 8.4308888034355656e-03 -9.1612461991684001e-03 -3.1609016194932465e+01 -1.6917987037293493e+01 3.2168833484029609e+00 7.2829137800359878e-02 -1.1596976944853651e+01 3.3137689686060812e+00 -3.0994526270015092e+02 -3.2930011624645317e-02 -4.4222732687629502e+00 2.8364405104342878e+00 2.2898061033362456e-02 -1.1652011552741280e+02 9.0595184422569586e-02 -4.4940093137282207e-02 -6.4540863879621597e+01 -1.4626809258850392e+01 -6.2644655954244666e+00 -1.1307176193438045e-02 -6.6453431403828609e-04 3.9473038642174174e+01 -8.7762668787554832e-01 -5.3352408561743481e-01 3.5282810877506288e-01 1.9220983808188777e+01 2.5997750956315315e+01 -3.4171075310095819e+02 -2.2117724768537922e-01 -1.0509294949116866e+01 1.0542392568030870e+01 4.7026467548442502e-01 7.2818926302644655e+01 5.6219931775499754e-01 -6.2241329870758166e-01 3.4479018909767802e+00 -2.0555600206515493e+01 -7.3360893294509086e+00 -8.0406703913120103e-02 -3.5894960606494219e-02 3.8982881443129500e+01 1.2342722421148174e+01 9.2732547078005023e+00 1.8219339102346055e+00 -3.3347976705805635e+01 -5.3058137814294195e+00 1.1176980750368335e+02 -1.2017184065424833e+00 -6.9021558746457458e+01 3.1393806714498362e-01 -3.7599468190703924e-03 -3.1533482175182158e+01 3.3418864355341136e-03 3.1708983149051854e-03 -1.3047374654308454e+01 -1.7840300016317201e+02 -2.4793262540004282e+00 -1.3198882833068176e-02 -2.0692839539184407e-02 -5.1298636060135721e+00 -1.1152934262074981e+00 -1.4259923777694756e+00 5.8281642400764061e-03 6.1652960548904062e+01 1.5040887815076873e+01 1.3411416750355329e+02 -7.1882285609659105e-03 6.3518804787521788e-01 1.8090388047352639e+02 
      </Row>
      <Row Index="16">
        2.3013825733087833e+02 -4.8778512935314211e-01 -1.4910741834129603e+03 4.2198238315137038e-01 -1.4645757079210122e+00 -7.6520627741509850e+02 1.2691748855365675e+04 -1.1164526303316961e+01 4.8228711618594389e+00 -1.3355601079878849e+00 -4.7838721801272250e+03 5.6408401965594578e+01 6.0904139300566143e+01 -3.1635213665314950e+01 -1.9186871315179436e+04 -4.3390304952859879e+02 1.8995874810433388e+05 4.1267853969002566e+00 -8.9563240688806516e+01 -1.5168059824959010e+02 -2.6509795121597239e+00 1.5701237878108675e+04 -5.2586712875973785e-01 -9.9027027176496218e-01 9.9392731095380520e+02 1.6101978123882785e+04 3.3395832385987177e+01 2.7267605211439422e-01 -5.6730200323733659e-01 2.3222161819902249e+02 4.7134395213199525e+01 2.5948913348256848e+01 -3.3867878555026270e+00 2.6982566145814503e+03 -4.2142601510113280e+02 6.0817519960237769e+02 -1.1663485345416469e+00 -1.9061702065170175e+02 -1.7832300947884741e+02 -2.7974935629570483e+00 7.9189356607173831e+03 -1.4282726406991970e+00 5.5046446050982922e-01 7.6240772750814028e+02 2.5262160866995775e+04 -5.2389513455298669e+01 5.7869917869922127e-01 -9.8793951287181792e-01 -3.3971631886277050e+03 -1.6175528317088752e+01 5.2280864908747205e+01 -7.9550453583256520e+00 -1.7267083643609212e+03 1.1222534102102998e+02 4.0765827633187306e+04 1.4183062796323933e+00 6.7046096233632477e+02 1.8558400968279170e+02 2.3020564242381170e+00 1.0962629054937701e+04 -1.0260576616597195e-01 1.2458218687049651e+00 1.0643381636142731e+03 -1.3502274403481220e+04 -5.5476971890236797e+01 -1.8250367839573881e-01 7.8060796191394566e-01 2.2580096718869476e+02 -1.1999219322778850e+02 1.1668293743650185e+01 3.2569964860431924e+00 -3.9914117695070536e+02 -1.9709289465074406e+02 1.7765546193197370e+03 1.4701298896688968e+00 -1.5828047715154844e+02 2.0942078820365981e+02 -4.7076451066830283e-02 -9.6864541878613381e+03 -2.5741118290442566e-01 4.5248989708069287e-01 -8.7655533094343832e+02 -8.7159568972419529e+03 3.6975229512034247e+00 9.5432133219376403e-01 1.6593628796332477e-01 1.5981942188702455e+03 6.7954297242338868e+01 -2.9850244603637421e+01 -2.6447214581294407e+00 -2.3599543855369899e+04 3.1359517425105321e+02 4.2553694697596904e+04 1.3772885509851003e+00 -2.8179125582632412e+02 -2.9964644405592730e+02 1.2335283197575435e+00 1.5579006303032002e+04 -4.7530848309438567e-01 3.1894467921022285e-01 6.1041945596952883e+02 -8.0083833278643815e+03 3.0365412965843134e+01 -3.6021253173099277e-01 6.3017066498711194e-02 4.2318925234675407e+02 9.1669587423290238e+01 9.7750584666783595e+00 1.2581344056961097e-01 2.9951527073621750e+04 4.2470922894593792e+02 -2.6433008923260109e+04 5.9315924105284168e-01 4.1210430766308320e+02 9.8702533568595868e+01 1.6956490912241433e+00 1.9618850207376629e+04 -6.5633254810136973e-02 -2.0468753050712751e-01 -9.1722546623313815e+02 5.5848725467280601e+03 1.5343111946710152e+01 1.6515974006289025e-01 -2.2771838404719136e-02 -4.5142147282257770e+02 2.0523906366610447e+00 3.7201280034931841e+01 -1.4913793217333327e+00 4.8226294749672379e+03 -1.8369195886294528e+02 4.2754290704797706e+04 -2.4157297468033345e-01 -1.0881609981505146e+03 1.2051411437479894e+02 -2.4585313382768796e+00 1.7697407636931912e+04 -6.5871771400686563e-01 -2.6921514086061649e-01 -1.0039994929358363e+02 7.3203985907215392e+03 3.0183053407254910e+01 4.3495609355905707e-01 -7.8854194384629028e-01 1.4237466110810637e+03 6.8385395976168567e+01 -1.8576458505732987e+01 -6.6854047632432643e+00 5.9033029855983223e+03 1.3011335085221342e+02 1.0513005722774295e+04 -6.1292802922813638e-01 -1.6645756208466014e+02 -1.4162765990086680e+02 3.8789434052704066e+00 -3.5916146881423905e+04 -3.4663373110135731e-01 2.3216566362576607e-01 -2.5444255872925640e+02 -7.5500225996701447e+03 -7.8506099751176720e+01 -8.1023234200557426e-01 1.1471866929653969e+00 8.3711531179244105e+02 -8.7141629224876851e+01 -4.5125563255513271e+01 -1.9399491976070895e+01 3.2850969994952707e+03 -5.3328245820892289e+02 -3.4214452019359305e+02 3.9049421877773272e+00 -1.9312968459269377e+03 -3.9116839664273550e+02 1.8517603348010505e+00 1.1611915217135271e+04 -4.5335232479406784e-01 1.3977139500027487e+00 -1.1740806821461069e+02 -5.1301894281463683e+03 8.4950865743964982e+01 -8.4130766881285357e-01 1.6622054714329555e+00 3.1343028473091813e+03 -9.3122321223139807e+01 -5.7813563192803358e+01 -1.3648119413905228e+01 7.4054673355412251e+03 -1.0159317562891948e+02 4.7298777998924867e+04 -3.2070797328389999e-01 2.3326564909584283e+02 1.3076293742179391e+02 9.4597732634133724e-01 2.0444898932891469e+04 2.9825822093063641e+00 -9.6009595795581759e-01 -1.5522022283811432e+03 -8.3876171212275149e+03 -1.0701333263873835e+01 -5.7827929177449844e-01 9.9205472693809338e-01 -6.0544058905285397e+02 -2.0109501492749317e+02 -2.2926627585696934e+01 5.2421819207184512e+00 7.4949938857922934e+03 -7.9125067739634119e+02 9.1151599742041901e+04 -3.0341179164254681e+00 -2.1828110390568754e+03 -5.5565459541211715e+02 4.0478602263088277e+01 -2.9633976805095176e+03 6.9021801892746026e-01 2.6253939333380920e+00 -4.1990715700358378e+03 3.3512175872660919e+03 1.9286305152297604e+02 -6.3544242913975122e+00 1.9874780708020058e+01 6.3549479604350181e+03 -7.1341553993301204e+02 -3.9753383594695435e+02 -2.1245134093502202e+02 4.7885277413986660e+03 -1.6119592890986669e+03 -4.8001157935269301e+04 2.5360734666510851e+01 -7.6330847052764148e+03 -7.8837669221150662e+01 5.7412996019926263e-02 2.9445463163426226e+04 3.8493653708449815e-02 -3.0463778908840795e-02 1.3255138955370103e+02 -3.8844587750780884e+03 8.3189740712270662e+01 6.3471811668910982e-01 -3.8393398845289894e-01 2.0976195846588541e+02 -1.3960639435242271e+01 7.2863562484002387e-01 1.5379202737589365e-01 -6.6610488857765349e+03 -1.6058381552512833e+02 -4.9415810651524473e+04 -3.3802110069280789e-01 6.1955810318063641e+02 3.8017875516395293e+03 
      </Row>
      <Row Index="17">
        7.1439500227050701e-03 2.1357512246691357e-03 -7.8198518335852185e-01 1.2887121725185230e-01 -1.0803650871132175e-02 1.0008758191396616e-01 -2.7035310088078859e+00 -1.5464398851563033e-02 -5.2428281778354874e-02 3.1924442929012226e-02 9.8776962514292510e-01 -7.6974717250312352e-02 1.3440604976312898e-01 -4.3946960152567272e-02 6.1408860912800378e-01 6.9647353277105140e-02 4.1267853587632999e+00 1.1000768626401713e+00 -2.4623259686313403e-01 6.8743070540246975e-02 3.0859719169562583e-02 5.4155715022830009e-01 -2.1974696020967001e-02 3.2505600783912042e-02 1.9486761184496970e-01 -2.9678101840454474e+00 -8.1692194419338726e-02 -6.3745586925030955e-03 -2.3456963230579844e-04 5.5440289604221960e-01 4.5154102306414146e-02 -1.6783111670734063e-01 7.6865739761668689e-02 1.7362768210170008e+00 1.7339500397972429e-01 -9.9135674560240261e-01 -6.5381185651224261e-01 2.0904425090137096e-01 -1.2102794884718326e-02 1.6399470752306276e-02 4.7096683564758024e-01 -3.8393432305578734e-03 2.2376069503877716e-03 -1.0009565225675487e-01 -1.7505424438197110e+00 9.1187269150640043e-03 -1.3270432442523857e-03 -8.6373405336104894e-03 5.9477716621780274e-01 -5.0126242861081138e-02 -1.6203438029978023e-01 -2.6294427387636460e-02 1.7896591965797093e-01 -7.8945308848450857e-02 -2.5209139245771439e-01 -5.6909447738101304e-01 2.3946129870832422e-01 -1.3540694050924396e-02 -7.9503771440572607e-03 1.0413104806276010e+00 -1.2256831064536673e-01 -8.4803881747016474e-03 -8.3389388455543667e-02 2.8588486131166810e+00 -7.6331095828248485e-02 7.6557514292597585e-04 1.3341514063130253e-03 5.5300761971856183e-02 -9.2840672052965090e-03 5.3590176595522898e-02 -1.6395690524610318e-02 -9.0471672550849647e-01 -1.9794177818240577e-01 1.9505931023076073e+00 1.9237179975988283e-01 1.6650558189908793e-02 -2.3705743183244699e-02 6.5209512955903548e-06 3.7550038570361721e-01 -4.1126243496387674e-02 -2.6661335529547376e-02 1.1802724048196283e+00 1.1969614423605321e+00 5.9489510281692692e-02 -1.1813940500247826e-02 3.8299470425274137e-03 7.7552164655364297e-01 9.1248898091649266e-03 2.1838395976796038e-01 4.0311493636945757e-03 -4.3037056612702722e+00 -3.5279514530721201e-02 2.7133745840792827e+00 -3.2875717733772325e-01 3.3333384063354288e-02 4.3210589327524251e-02 -1.2911784316094750e-02 3.9134185521808362e-01 -6.4821107851075435e-02 -2.1450070070562655e-02 -6.0830195666045661e-01 1.4609242671816620e+00 3.7936244292423593e-02 1.0512319577202318e-03 1.0667165431257910e-03 -4.4875637486984488e-01 4.3603549914104006e-02 -2.7395804848073767e-02 -2.4233129693828140e-02 8.7763164463685825e+00 5.7750816142839445e-02 4.7037003548279586e+00 1.6051582772921980e-01 9.6425569722029536e-03 -2.4566018791154332e-02 6.2841022878463802e-03 8.8915279886225562e-01 -5.1220819948223251e-02 6.0278668907988711e-03 7.0912571429697691e-01 -4.2311930323842404e+00 -3.2454296743557598e-02 -1.6194417261776706e-03 -4.0529568732223416e-03 1.4364940286539180e-01 -3.0348595341357365e-02 9.1399771864294960e-02 4.6426838422517786e-03 -2.1418896353198491e+00 -5.7461000578395094e-02 -7.5257834328348849e-01 -1.0021055942305726e-01 -2.6511838107479591e-02 -1.6681382121577992e-02 2.8371958400363051e-03 -7.9707493482885639e-02 4.9877543625049814e-02 4.2582766496172889e-02 7.5565861409813806e-01 3.0987242523226541e+00 -3.3763571276768767e-02 -8.0595802724415730e-03 -9.2897193576703188e-03 1.0089584187462606e+00 6.5393345482637533e-02 -1.0051706054348106e-01 5.3795982423065686e-02 -2.0744974755046339e+00 4.4846062487300387e-02 -3.0462738207714608e+00 -7.3496555365989902e-01 3.8179885718974127e-03 3.3885031125401310e-02 1.5446581053788987e-03 4.4690270022380396e-01 -4.4816006198653641e-02 -8.7009318448523672e-04 3.5205560735610408e-01 3.9904925084362119e+00 1.6758267028048845e-02 6.6265035346291896e-04 -2.5596847702454998e-03 -3.4523750585167140e-01 -2.2528338042043572e-02 -3.2845266840581866e-01 1.4532646050585287e-02 2.4581005220110939e+00 -1.4561859336803196e-01 1.6825831303124161e+00 -2.6792782963640910e-01 1.5560502623261030e-02 1.0827114208511238e-01 1.7237234187947707e-02 -5.6051901100063262e-01 1.3156244395874683e-01 5.7112582766005282e-02 -6.5244092180796720e-01 3.6219224157687613e-01 9.6872474468072678e-03 -2.6983645220303924e-03 1.0407668120402567e-02 -8.7882785492088189e-01 -1.5468431258300752e-01 1.2027385426286619e-02 2.6590068751619622e-04 -2.1833985130488109e+00 -1.6768229462253353e-01 1.0996908443084443e+00 -2.3854373794861436e-01 -2.2783155786500719e-01 1.3218022023465503e-02 2.1029066479139828e-02 1.7932772726949153e-01 1.2575054695295948e-03 1.7341453746434671e-02 -1.0961853466147764e-01 2.1094826117786454e+00 -1.5521225278433093e-01 4.5527707920759407e-05 -4.9349600971830285e-03 -9.7704879535888489e-01 -1.7401905998222064e-01 -1.5551066313101103e-02 1.2582915045237802e-01 1.9516392313499105e+00 -1.7060445953172854e-02 -3.6064229496537807e+00 -1.1746397368805905e-01 -1.2145396365459060e-01 4.1854047288936147e-01 1.2673853601234830e-01 1.4673959864707342e-01 -2.2576897430658827e-01 2.6150881327658404e-01 -3.9789777339785815e+00 -1.2368825442486298e+00 -6.1944438238896815e-01 -6.0177487288961787e-02 8.1594035902962936e-03 -6.8049456664755148e+00 -2.6634638597487026e-01 -2.2669202257630694e-01 3.4966133520321963e-01 -1.8560647457797472e+00 -2.6791850509922099e-01 -1.8496214102459083e+00 4.6479918488850380e-01 -1.0607876806113872e+00 3.9981684029589848e-02 6.5539245392883081e-04 -1.7632338122088242e+00 -4.1145142753156935e-02 -3.1245439269500744e-03 -3.5552567386921474e-02 -2.0126615933809937e+00 -1.3430463220113148e-02 -6.8877146931169463e-03 3.3466439943523718e-02 -3.6995017710264144e-02 4.0112038899264291e-03 -4.5444373734374544e-02 2.3212137130616357e-03 1.4772822877644103e+00 -2.9985426870195342e-02 -1.8889613361713486e-01 -8.0006759171433947e-02 6.7905412534893017e-02 2.0691160386046819e+00 
      </Row>
      <Row Index="18">
        -1.1314626968516791e+01 -1.4187317682524281e-01 -2.0271715228214262e+02 3.6206195970110336e-02 -2.3748460486309568e-02 -1.7296841192704015e+01 5.5577356221933587e+02 9.5896544233710301e-01 -2.3488151832468596e-01 2.2400041063335310e-01 -6.4341206613762211e+01 4.2924479150830237e+00 -1.4737796159461141e+00 1.1574373897528858e+00 4.2846066903995523e+02 9.5968592233257368e+00 -8.9563237860798836e+01 -2.4623259729924030e-01 2.8729885137872492e+02 8.5641540312530164e+00 -1.8260805545544717e-01 -5.5952282209512293e+02 1.4747552630183230e-01 1.5877322102805853e-02 -5.1686249224876136e+01 7.3840756473084912e+02 6.6016698124807682e+00 1.7673481976818797e-02 5.8942700495418429e-03 -8.8830270043820747e+01 2.2776949850221411e+00 -3.0170136511374910e+00 3.3487054551119994e-01 -5.1013549067975066e+02 -9.6338296893090813e-01 -7.3645760343598045e+02 1.2788319392948486e-01 3.2256628638985580e+02 7.4056718861442121e+00 2.1051558078549121e-01 -1.9808838834611925e+02 -2.0319677995160609e-01 -4.7900034594931640e-02 -4.4694250251337166e+00 2.1768063161126622e+02 -1.0840092136684039e+01 -3.3012546180651026e-02 7.7447938365412416e-02 9.6751857403219034e+01 -6.7121240718432489e+00 1.0287355830262980e+01 -2.1600165518054430e-02 9.3106821853015020e+00 5.6219495212708441e+00 1.3916681903203516e+02 1.5930555056856649e-01 -1.9466616905645350e+02 -7.9144208230402810e+00 2.4726903635209344e-01 -5.3868905425328649e+02 -8.6496889268184510e-02 3.3563131999577597e-02 -5.3463255595415831e+01 -3.3664165620732831e+02 8.5575116031654517e+00 -3.9530114421204438e-03 3.3724494760431857e-02 -5.3848436577680715e+01 -3.0432622368532734e+00 -4.2351359663641386e-01 3.2072816748707655e-02 -1.5785435008176091e+02 6.3203854988500350e+00 -9.4973563419191805e+01 -2.2779028331569862e-03 1.6482818973050982e+01 -1.1530101673742626e+01 8.8690750872408880e-02 8.2919097699047370e+01 -4.1864588619233367e-02 -1.1557449916339119e-01 3.6687408358107589e+01 -3.0579294017543043e+02 -2.0545259167840157e+00 -3.4003303289020591e-02 7.3137827526176535e-02 1.4285386168909596e+02 2.6911240701356718e+00 1.4975053464053376e+00 1.0441434731625904e-01 -5.6684403621004435e+02 -3.3927743239063268e+00 1.2443754703154391e+02 -8.2180146467394993e-02 -1.1576633671771685e+02 1.6363723789440705e+01 9.5136338708386947e-02 -1.8731255700650684e+02 -2.5215663517185724e-02 -2.7580735423507988e-02 6.2484348056496692e+01 -4.9821315987886635e+02 3.2832557089339680e+00 -1.2333562800862966e-02 1.3987612837786646e-02 7.6720011182129383e+01 5.0482988194287071e+00 1.6467958172403621e+00 2.1818058136135560e-01 -3.3488641038537025e+02 -5.9921878260930983e-02 -4.7988501979257160e+02 1.9170720624064906e-02 -1.7501079639926189e+00 -8.2548435722415103e+00 -2.1867912630743694e-01 -1.2888043091371619e+03 1.1965968032668423e-01 -9.9748205391888348e-03 1.0423910586447261e+02 -4.7497655298072505e+02 -6.7383347520627552e+00 1.4743249799490696e-02 -5.4785536559455172e-03 1.9849049075995417e+01 2.6602086019561710e-01 1.0531088779497058e+00 1.1923392256950671e-01 -1.1912723733493531e+03 3.3821105759797607e+00 -2.2750907443369721e+02 -1.6456341134974115e-02 4.6849224897010174e+01 -7.3290972089642299e+00 -1.6398181975253728e-01 -7.3399248401153091e+02 -1.4450915190848332e-02 -7.8560861739718324e-02 8.4674939082469791e+00 -4.8108950799468676e+02 5.0265067711499336e+00 1.0276084866338700e-02 7.1667187561288825e-03 5.3202204029075801e+00 6.5885307046780186e+00 3.3587336772094134e-02 1.6765240902222533e-02 -3.7732244536048182e+02 4.6321110828276213e+00 2.6739363045932555e+02 1.6948981466494811e-01 1.1629198690307359e+01 1.4053183949084065e+01 -3.4257151855822188e-01 -4.3445284154223287e+01 3.7548570156120559e-01 -3.9967297830778792e-02 -7.4995891324233355e+01 -1.9559263776080888e+02 -9.7092119726959396e+00 2.3741937654464567e-02 -6.4833485144135783e-02 6.5436178681250894e+01 -3.2144335636765504e+00 -1.2405269150360212e+00 8.0153726639033962e-01 2.7412225260899896e+02 -2.0368442016558568e+00 2.2377167922516176e+02 -8.8472241672590185e-02 1.6856230238124692e+02 2.0477463173711797e+01 -4.8444596269968027e-02 5.2343104058560493e+02 4.6491350146379284e-02 3.0457953254316897e-02 -2.3450824973484870e+01 4.7098569361960813e+02 -3.8739626153277484e-01 -1.3177012100382177e-02 2.3547797559914804e-02 1.1223614748445249e+02 -1.2291644695212049e+01 4.2897638368598656e-01 -2.0380741986015716e-01 2.8669495864805185e+02 -1.9330417146061230e-01 3.0240365531435214e+02 1.9542894737831815e-02 -5.0606274775952826e+01 4.6885264392849537e+00 -2.3877731009949654e-01 1.3803073633479215e+02 2.0927251478132247e-01 -5.9601130954294333e-02 -6.1126378349070634e+01 -4.4302965853180112e+01 8.5980142249173870e+00 3.5639677968740339e-02 -5.9629796719492700e-02 -1.0683125131894107e+02 6.9878939890549994e+00 -7.9416759290902874e+00 5.1674858629887921e-01 4.2009032018974506e+02 -1.2099092954577507e+01 4.4285376245813353e+02 -8.5414320311756858e-02 1.1019337025168660e+02 8.2668308849547074e+01 -3.4136739892930112e+00 -1.3258067840615823e+02 3.4541549170696388e+00 -3.3228473770879208e-01 -4.1105388827100444e+02 -2.1024999075745882e+01 3.5913137616398927e+01 -1.6387293004748710e-01 -7.6395784177688064e-01 -2.5943948600806402e+02 1.1186783491803169e+01 -3.0540616389687713e+01 6.1538928007845897e+00 -2.6710854861592463e+02 -6.2371611743448341e+01 -2.2627794270813220e+02 -1.5417245181589907e+00 -5.7397239669362489e+02 8.3297121299556096e+00 -6.8476700813440271e-03 6.4917304063253425e+01 2.1862396083366431e-02 -5.1331810086835683e-03 5.8338155906245532e+00 1.9156027729188997e+02 3.8624399193542627e+00 3.5160347495335947e-02 1.7359098531441031e-01 1.0326315234440656e+01 -1.1667354308480380e+00 9.7452545236499599e-01 -1.2684281201196202e-02 5.2228860698436961e+01 2.4734979730943358e+00 -3.7694578262871028e+02 1.7873659145559502e-02 -4.4877896111384644e+01 -1.9558648510212009e+02 
      </Row>
      <Row Index="19">
        -2.4650730289529335e+01 7.5937937896114249e-02 2.0729416175390014e+00 -5.4673120587757147e-02 -9.3733779384092206e-03 -5.9626286009706355e+01 9.5527976528088459e+01 -8.2460212091945095e-01 -4.0058009044133697e-01 6.3490052332884905e-02 1.8074761512645249e+01 1.9780183945954359e+00 3.4244195211795159e-01 -8.0082888965534949e-02 7.6772246340833476e+02 1.9138901759288274e+00 -1.5168059795536101e+02 6.8743070304208231e-02 8.5641540444630664e+00 5.0493353880734887e+01 1.6467487392538935e-02 8.0149090092328308e+01 -1.8021061810127713e-02 2.6355049982628494e-02 -3.5244098130924961e+01 1.3728290531507810e+02 -6.5656476626275639e-01 -2.6971588691011621e-02 5.6824558209957604e-03 1.2752989445061758e-01 8.5933530496614563e-02 1.2193172410514266e+00 -8.6832703364213282e-04 -2.0307155328787324e+01 4.1547342113407275e+00 9.3952952600372186e+01 -5.6818835663228574e-02 7.9354033533413258e+01 -4.9534691421674189e+01 -5.7682766602154042e-03 2.4784583544750831e+01 1.3537989118603849e-02 4.8987169924657792e-02 2.5785214489144856e+01 9.1656986381283957e+01 1.4616548967118563e+00 5.2293711900354683e-03 -2.4185402156689422e-03 -2.9326863656682086e+01 -1.8798477801864464e+00 1.2310893718737481e+00 -1.8686231790974764e-01 4.6918936069331090e+02 4.2733340051991338e+00 -1.0537965608700506e+02 -4.5984096459045526e-02 -3.6804624339642311e+00 -3.0817505932862169e+01 1.2771163359818328e-02 2.7790600133854412e+01 1.4823183645512708e-02 -2.4302062183551958e-02 -1.7851309583289549e+01 -1.6678214240117768e+01 -4.3766540747985827e+00 1.9570002331918109e-03 1.5652293822836214e-03 -5.5946744723274877e+00 -1.7199617459029160e+00 -1.3377905728085981e-01 1.2619137394367297e-01 1.3629060556607664e+02 1.0876985604706291e+00 -1.1244624344498999e+02 8.2643292498687515e-03 -1.1967033613614388e+00 -5.8861649818378467e+01 2.5999574835518964e-03 -2.9464324382629414e+01 1.1262448174204397e-02 1.1230223147366242e-01 7.1633809149666249e+01 -4.3788003002885439e+01 -5.3504262262526903e-01 -8.4298038530297520e-02 1.5546923476756855e-02 -2.4977018043885742e+01 1.8727687634139956e+00 -2.8966425574975916e+00 2.6847366557557989e-01 -6.9940126224400876e+02 2.7960720376208621e+00 2.0017909912821324e+02 -5.6497267234747212e-02 -1.0086589354293139e+01 5.2788678905864202e+01 -2.5050362884195255e-02 5.8419217610876160e+01 -1.4653313370303204e-02 3.3460852944774792e-02 -5.8717039591711675e+01 -6.9833752844549224e+01 -9.2513594587419357e-01 -1.7501059211272724e-02 -9.5906953931718260e-04 -1.0537627677898854e+01 2.5283256734734296e+00 -1.1028261401676061e+00 -2.7507797264801653e-01 -3.7969761224463582e+01 -2.3701240795778151e+00 1.6362155068019888e+02 3.9181969732861505e-02 2.4641300333655337e+01 -5.1552054316687261e+01 2.8824147081946448e-02 6.8463831188756188e+01 3.1051846784425866e-02 6.6038850152650513e-02 -4.9536717571814577e+01 -3.2409952737237006e+01 1.6201993465270919e+00 1.4662281214485493e-02 7.3581323933151711e-03 -1.2547988251483970e+01 -8.1663681834206536e-01 1.5205376399876749e+00 1.1273379401387301e-01 -5.6897742727514890e+02 2.1562096345149353e+00 -1.2371310854026517e+02 -3.0242442979736512e-02 1.8910607166895801e+00 -2.1217747322575232e+01 -5.5140741586816547e-02 3.8541835735415361e+01 -1.2753614056410140e-02 -1.6591139194210625e-02 1.7874433686258271e+01 -3.5535318370562663e+01 -2.4974584486072371e+00 -1.6403718583971577e-02 3.0225701322666018e-03 -1.3411826503404882e+01 4.4053466521853011e+00 -5.2531550031870500e-01 4.6083945189777847e-02 -3.4319666122854346e+02 1.4379160346379747e+00 -1.1483144230060216e+02 -6.1965709511986412e-02 6.9029742824464435e+00 6.6109838163782797e+01 1.6300249308140950e-02 -4.2349848344289427e+01 -8.1486020632470318e-02 5.4446441390054341e-03 6.7998922124206743e+01 -4.2183263760396393e+01 3.0227186880260244e+00 9.5550141984548191e-03 -1.6983847080120611e-03 -1.7361086963561590e+01 -2.8012819529422117e+00 -1.2646282129901620e-01 -5.7515641250498983e-01 -3.4256718001105759e+02 1.4872751109920053e+00 1.1839615699690754e+02 1.9789366938409585e-02 2.7473409080619454e+01 7.7970685638250728e+01 2.9606208509290193e-03 1.8608946725487055e+01 -2.0207486363528038e-02 -5.9975572376829704e-02 5.4434356906773871e+01 -5.0394952199928227e+01 -1.1293174389668037e+00 -1.0636535778275587e-03 8.1773697786901300e-03 -3.3592082873971648e+01 -1.0348096923363542e+01 -4.9410922202628260e-01 -1.9578911967531309e-01 -1.3709449078890256e+02 1.6005969482744564e+00 1.3764190521168968e+02 -1.5898590114829934e-02 4.7343555369977617e+00 -1.7753829441770591e+01 -1.0152187954285199e-03 6.0071415501921862e+01 -1.6645544449141519e-03 6.0454556506477734e-03 6.9032066994096750e+00 -9.3263617875822220e+00 -3.3142581332801675e+00 1.0099711040185793e-02 1.2002787037722678e-03 -6.8334136253600661e+00 -3.6703744647692451e+00 -1.0231354040521556e+00 2.1853659202933196e-01 -5.3548554881607413e+02 2.4406470343790838e+00 2.0651042492487215e+02 -9.7679789217182730e-03 2.4653669745862512e+01 1.5858195220906887e+02 7.8830843481873913e-02 -9.3807241268555543e+00 -6.8932016785509709e-01 -2.8354428303702361e-01 8.7868415916444377e+01 2.1314140366341505e+01 -1.7278009701428580e+01 -2.8142078791698072e-01 -6.1586570994414919e-02 -5.3658445755787653e+01 -1.1102292754919466e+01 -6.1569626196117309e+00 -5.4230437371330993e+00 7.0686922059375945e+01 -8.8003949701398163e+00 -1.8795460218160562e+02 4.0102534063231632e-01 -8.9381897806848372e+00 3.3415038045146787e+01 1.6091065486133474e-03 5.0958856156215461e+01 2.1120010091144319e-03 4.0799057624184391e-03 -6.2433036609708195e+00 3.8450508984859823e+01 -2.1276346833323942e+00 -8.9665569616367680e-02 1.8290829018448557e-02 -5.7262545708004549e+00 2.2238578182159441e-01 3.2214316503036955e-01 6.4249466228421233e-03 1.0416158212870523e+02 1.8553399259812111e+00 -1.9237026503775701e+02 -7.9054405838649144e-03 -4.5158028066933857e+00 -3.6339458961976057e+01 
      </Row>
      <Row Index="20">
        -3.9348894687629921e-02 2.6795281336306198e-01 3.6377216609418639e-01 -5.7888335031665208e-03 3.2253702628289149e-03 -5.2453326019396229e-02 -7.0838478566056651e-01 -1.1515588459950710e-02 -1.6933152317732084e-02 -9.9641020118328167e-03 -3.4700449408742839e-02 3.3911379109385686e-02 -4.9896282798727043e-03 1.7212426478252496e-03 1.6420065913502846e+00 2.3741069003335724e-02 -2.6509795222664252e+00 3.0859719169171740e-02 -1.8260805531144797e-01 1.6467487454292495e-02 2.5650293130105767e-01 -7.9088122144784734e-01 -6.0666156883817275e-03 -1.4224527517322685e-02 -1.8857266492480562e-01 -4.8947197164375211e-01 -3.7517385496424804e-02 8.1045095213805197e-03 8.2836880742750609e-03 1.3692080903041415e-02 -2.9288768852278935e-02 -1.7856059313603234e-02 4.7628211470004005e-02 1.2637194508793872e+00 4.7561971425948979e-02 -1.6304484121213818e+00 -1.8865377925371130e-02 -1.1701006532307655e-01 4.3542472874081056e-02 2.9572771819640985e-02 3.4445702321424676e-01 -1.9907351710610633e-03 5.0410615759791000e-02 -1.6164976524921570e-01 -4.1879884809121748e-01 -2.4000497867497153e-03 -1.0784225621009505e-03 -1.3250774423437858e-04 1.6603285917050847e-01 -2.3648254287543136e-02 -1.1773341474215937e-02 6.8430604023548613e-02 5.5902842670332575e-01 1.3873286510097671e-02 3.0649945396434006e+00 -1.5529891226993539e-02 7.8310190551191317e-02 -3.0372554989756662e-02 -1.8781736840710137e-02 -1.4493382146871170e-01 2.0477204216963751e-03 6.2781322432949316e-03 6.5627799598587444e-02 1.1526892420502861e+00 -5.9888079075855249e-02 4.1416798504805702e-04 2.7269978397043539e-04 7.6537201757780338e-03 6.9536169515629354e-03 -2.3521196404872047e-03 -1.8982795472066306e-02 4.7032571169251014e-01 -8.8389252177545896e-03 4.2512718418134199e-01 5.5785287589458221e-03 -1.4374741185660789e-02 1.2143850564385286e-02 -4.7286570798264975e-02 -2.0086472772540276e-01 -8.4356230414731753e-04 6.8992456297698221e-02 5.5374633885327457e-02 1.8729481054287334e-01 -3.3743396714332463e-03 7.2036453609791631e-04 2.0491270151600438e-03 4.2660517402429932e-02 5.2811174805100336e-02 2.8875446974066299e-02 -8.0501449334795777e-02 5.2184108007987984e-01 -1.3619556036768232e-02 5.7174143936321897e-01 -1.9148861764856868e-02 3.9903554817630749e-02 3.6686058682843692e-02 -5.0605397477918132e-02 -3.4422370547133596e-03 5.1001123472446674e-04 1.1124453337642729e-02 -3.7864600514467428e-01 8.1992801516363123e-02 -7.0865898244300563e-03 1.9562883700009279e-03 2.0568944672901676e-03 8.7428686223574914e-02 -1.1718966821535393e-02 -8.4949618702913621e-03 -6.0078806343747118e-03 6.3634562617517076e-01 -2.7366399118647466e-02 -7.3116833597894981e-01 3.5492284338448331e-03 -5.1574323065231908e-02 -5.3384047668151441e-03 2.1124644525342517e-01 -6.3601660145725702e-01 1.5869086150454466e-03 3.6669199963498249e-03 -2.8884250971883851e-02 -1.8324870361274819e+00 5.2658613727140063e-02 -6.7775503392299942e-03 -5.5704563505229975e-03 1.2920752141746100e-01 -2.4140503044891792e-02 -2.0581292109082255e-02 8.6484957604416463e-03 2.7953035451349706e-01 6.6379170978227986e-03 1.5104063420097233e+00 -1.7286514648250416e-03 5.5956585615153154e-02 -1.2498123793479851e-02 -5.9890922923610812e-02 1.8500894643773336e+00 -5.7684855367874203e-03 -1.4158563155457972e-02 1.8989483909308547e-01 1.0173728112190474e+00 -3.2763106061204028e-02 2.8806646752807087e-03 2.9029103643962023e-03 2.3298936286209937e-02 2.3422648869322715e-02 -4.1586044989107979e-03 3.9897049979624288e-02 -7.8065921653041581e-01 -7.5429428215179062e-03 6.2764672942628863e-01 -2.3082338626701390e-02 2.2680188896702091e-03 7.9816638068850448e-03 -2.9157206304507082e-04 -6.9169686087886717e-01 7.9917433837910700e-04 3.0141993528940664e-02 1.3534946354555322e-01 2.1085698416651359e+00 3.2401598439180085e-02 -8.9075229268194560e-04 3.6009382876126884e-04 5.4267928082393002e-02 -9.8956420416440594e-03 -1.6619664539399004e-03 -1.5068986559061155e-02 4.2508149350600988e-02 3.3888528804737278e-02 -5.1250260429035865e-01 -1.4311061654701151e-02 6.0809977192576525e-02 3.2779341866876532e-02 3.7974648746003627e-02 -3.3676742968116180e-01 -3.5554599278048195e-03 -4.6743900604961461e-02 2.1767045634831828e-01 2.6093729362568041e-02 1.2385341133885563e-02 -1.2100319050005262e-03 3.3794416729502415e-04 8.7179071542635711e-02 -4.8930943137159844e-02 -1.5399764311515018e-03 4.4297227849158967e-03 -1.3358112984677133e+00 -8.9210156974632859e-03 -1.4141342604127751e+00 -3.5823515665891685e-03 -1.3363045731694445e-02 -4.4807702031295707e-03 2.3699622374415794e-02 -2.2257416047334821e-01 2.8638942796502817e-03 2.0921381084853256e-02 2.5583877601499827e-02 2.1920748030692927e-01 -2.8329828106284261e-02 -1.0090968810040082e-03 -2.7275825032137147e-03 -7.2329649037097710e-02 -2.8505843865559433e-03 1.6775695975503879e-03 -7.1154605088996681e-02 1.3540969199375894e+00 1.7246602028540892e-02 -8.5822306324797071e-01 -7.9575331970180158e-03 1.3494789602870760e-01 8.9046436915618088e-02 5.7570253077334696e-02 1.6810601925662461e-01 2.0025362825338143e-02 6.5734534015631396e-02 5.6631053257348185e-01 -3.1899516857775723e-01 -9.3972011589907201e-02 -2.1274165383374767e-02 5.8824890183360786e-03 -7.1167860743271660e-01 1.9856571989149607e-01 1.6264334905448777e-02 -8.1859971202422610e-02 9.4973041126925750e-01 1.3464109616496051e-02 -1.7789676725419667e-01 -1.8726143169356613e-02 8.5981467591427041e-01 5.0099734982787941e-03 8.3795395157968966e-03 -9.5714922267726621e-01 -6.5354763426276599e-04 4.4737881142587355e-03 -4.0209881004367343e-02 -4.8282664420530758e-01 -2.2724701617027648e-02 -1.2820425321101371e-03 3.6027403135462108e-03 -6.0864258807749594e-03 7.9270270312391256e-03 -5.4209058871296512e-03 -1.7693597413972523e-03 3.2764592896053557e-01 1.2001123341438102e-02 4.9021257746809965e-01 -2.8395393859587071e-03 -2.9448270346298600e-02 4.9994617812977582e-01 
      </Row>
      <Row Index="21">
        1.1946948236013850e+02 -1.2693249746080255e+00 -1.8927509279364313e+02 2.5840149943535367e+00 1.4814417745523806e-01 -1.4644562425982540e+03 -7.0393349691164776e+03 -1.9768472331609519e+02 -1.9575848701073397e+00 1.7635943138724759e+00 -1.7699341694927029e+03 -3.8029362940305589e+01 5.8989219993352890e+01 -3.3282502546207979e+00 4.1736200313757072e+03 2.6142766816914082e+02 1.5701238016128540e+04 5.4155711655039340e-01 -5.5952282119542360e+02 8.0149089537560940e+01 -7.9088123142719269e-01 9.4444805208440218e+05 -2.6561800388244794e-01 5.5389705077063478e-01 -2.3334192457044387e+03 -8.3021841719709337e+03 -8.9524453682068412e+01 -7.5086694332876042e-02 3.4552342479687220e-01 -4.4306774548743851e+02 -3.0957539216771636e+01 2.3709316117150536e+01 -4.1946935372971641e+00 3.0818368385087747e+03 1.1438216748182752e+02 1.3799150282681258e+03 2.4856049408763692e-01 -1.1039562364122482e+03 -1.0477894458327212e+02 1.0948835570334170e-01 1.5022312604314066e+03 8.5189996593377781e-01 -5.0392749661114067e-01 1.2508770323659144e+03 -7.6635937437002849e+03 2.2697359269877080e+02 1.5663982537120016e-01 -1.2812918524548778e-01 3.7152696898752697e+02 1.0557735959142533e+02 -3.5529036172227002e+01 -1.1262505533144371e+00 6.7053794061653116e+03 3.4343653361122762e+02 -1.8824455848772259e+03 -1.0897069371541606e+00 1.2184535954135545e+03 8.9145801505627617e+01 5.1546982344221970e-01 -2.3165519890036638e+04 -4.7034210478919025e-01 -9.8081705653745432e-01 -2.9943561809659004e+03 -6.9348232157507264e+03 -1.5982318147292102e+02 -9.1389805999323115e-02 -2.8055700253607940e-01 -3.4898406929513148e+03 1.3186761130361913e+02 6.7297730635473840e+00 1.2577594760376121e+00 2.7335569016718973e+03 2.3110964403596802e+02 -5.7978056517748337e+02 -1.5177114948164672e+00 3.1868096322827455e+01 -6.1258950642980487e+01 5.0361420752530406e-01 -2.1885845798502851e+03 -5.0333372387563147e-01 2.9120873932685187e-01 2.3574143035400871e+03 2.4933596983471061e+03 1.2345580864526852e+01 -4.5873582753375847e-01 6.6500728655450481e-01 2.5066114595894232e+03 -5.8906616365998843e+01 3.7684667192896605e+01 -2.3265926672095092e+00 -2.8948631319290389e+03 2.6855584651758448e+01 -8.2617871867102986e+03 1.0113852717538159e+00 2.4908345670228209e+02 1.5036341554859483e+01 5.3900523528065003e-01 -8.7202792281863549e+03 -2.4056263210423953e-01 6.5278138738454283e-02 -2.5817643767560357e+03 1.3345191651768682e+03 -1.3176095933864602e+02 -8.9342218426455233e-02 8.5740791767385138e-02 1.2005280592441559e+03 -6.1689603553682673e+01 1.8544793637351788e+01 1.2796576283784487e+00 -3.1531705503463745e+03 -3.7094617337931282e+02 -1.3720725527916278e+04 -7.2545622262215015e-01 -8.0378948788603884e+02 -4.8014304809893332e+01 -1.4849954812728514e+00 -7.7203782073991271e+04 -8.1648649059364864e-01 4.2300070628172570e-01 -7.8322737991452414e+02 -7.8373093159862365e+03 5.3558723645939715e+01 -8.1769923750237006e-02 -1.8490903705492334e-02 2.5681217523352956e+02 1.6751344328389436e+01 7.4026412699117813e+01 -5.7594206342104215e-01 6.1802379357026530e+03 2.5761194152234395e+02 1.3068538119897637e+04 2.0732521729651632e-01 -5.0207403580608798e+02 2.1639163452051005e+01 4.4308993695031287e+00 1.8105305171002474e+04 1.7243883706826240e+00 -1.8062067528714074e+00 -1.2447323842793703e+03 -1.7881080752094334e+04 -1.1227045055946988e+02 -8.5139037075678825e-02 7.9437373537061595e-02 -3.5507160300910473e+03 -4.0500556040102190e+01 -2.6846482155765123e+01 1.0565108339217630e+00 8.7373392524119879e+02 -1.3473089442884088e+01 -3.7130975207795864e+03 3.2530856176820788e-01 -2.5021278276907537e+01 7.8007613557735283e+01 1.7378981299876504e+00 -3.8653625068047098e+04 -9.5248474609810285e-02 -1.3073822301373932e+00 2.8333831305042054e+03 1.5126281208231714e+04 2.7752757593865147e+02 5.4256127479593963e-02 6.2895930587026361e-03 1.1061602473056973e+03 1.1939193828279213e+02 4.9167723480845922e+00 -5.5652435752356704e+00 -7.6806824095460124e+03 5.1280715901134306e+02 1.2122884303562755e+03 -3.9486403380378690e+00 -1.1750330109033289e+03 1.3159726077364823e+01 1.1301143272964403e-01 1.6266670172539985e+04 1.6325082369610175e+00 -1.8644386997201473e-01 2.9756207008477450e+03 1.0977186040772576e+03 6.6864800252929541e+01 -3.6784529448128586e-02 4.2428768846732878e-01 1.6211218845823050e+03 1.3155334510439809e+02 -5.3638196471058066e+00 -2.3597549015984204e-01 2.2456290197653525e+03 1.0639277950583912e+02 -4.3073772131319947e+03 -8.9770262330783246e-01 -3.3332856727304232e+01 1.4801233531135378e+02 6.1321690588693600e-01 4.8993095907913521e+03 6.8941253394575785e-01 -6.6308884843060523e-01 -8.2309537772830640e+02 -4.1613560845025604e+03 -1.5410133102187132e+02 -1.3658196435408687e-01 1.3000281282185419e-01 -1.4201508347469967e+03 -7.5644453105954170e+00 6.0323726414978680e+01 -2.4440996915149311e+00 -8.2562090051631294e+03 5.8767313431825823e+02 -6.2042920512816127e+03 -1.1420132724325391e+00 -1.3467357556944814e+03 6.8311337374128470e+02 1.6995041499848263e+01 -6.9621178699472694e+01 2.6207635418646849e+00 -1.3470478679670551e+01 4.0106445862306682e+03 -1.1405825805317218e+03 -3.3899909704194283e+02 -1.9840943583328947e+00 1.8651693336395532e+00 -4.0808298420449146e+03 9.0835155375878082e+02 2.7223169385893220e+02 -4.9824274036162933e+01 2.3903800314438167e+03 9.4621488335638628e+02 3.9267294541377896e+03 -3.5700293443618818e+01 -2.1376919434577503e+03 4.5077231228863667e+01 -7.5634958610102110e-03 -2.1447309581172231e+04 -4.6344743382707732e-01 5.8517657844416125e-03 -3.7210065232624356e+02 1.0636435956781541e+04 -1.3248629356826663e+02 -4.7241046060189085e-01 2.1915082216993906e+00 2.9005570602433431e+02 1.6644003901563249e+01 8.5640800302909827e+00 3.2129123458992589e-02 -3.3656542146103748e+03 2.6288233979722753e+02 2.4410114851804756e+03 1.6780090869478514e-01 4.9003567088827543e+02 -1.0506309013381209e+04 
      </Row>
      <Row Index="22">
        -2.1258675551560913e-03 -5.1553936677473100e-03 1.4166248196182352e-01 1.6584062653345444e-01 1.8031999977439473e-02 -2.1934991838577389e-02 -1.5021974903778812e-01 -1.1754721197996254e-03 9.2842985200409719e-03 -2.5402480542764522e-02 -1.5365678633440027e-01 -3.1459465094004102e-02 -1.0031171485934465e-02 -5.8628077778344334e-03 -6.2387492716655668e-01 -8.0191931713216036e-03 -5.2586713137861807e-01 -2.1974696019361417e-02 1.4747552621065552e-01 -1.8021061807303340e-02 -6.0666156879527477e-03 -2.6561800720173778e-01 1.4103845141642454e-01 -2.2316958699051991e-02 -1.8858547194120945e-02 -1.6027806929423605e-01 2.5940197109877161e-03 -1.6236355086234437e-03 -1.0035053122482865e-02 -7.0476992036031305e-02 -1.4304231438345472e-02 -9.4926874177732046e-03 3.4981729139949864e-03 -7.3588557249820497e-01 -2.5590702094285156e-02 2.4891820506122997e-01 -2.2720202448335614e-02 -6.4383919485739127e-02 4.2591377726594243e-02 -5.0136544802025628e-03 -3.6918880027209333e-02 3.7675719027692171e-02 -9.5908220052454141e-03 -1.5487538572262149e-01 -3.8248385114081884e-01 -1.6325016628996363e-02 -1.0558624530096237e-04 9.7685858867892694e-04 -7.7021321923943731e-02 4.9653471065580962e-02 1.2934646080246498e-02 7.0906639107655503e-03 -1.0530830992706417e+00 1.3742528616957933e-02 4.2513802240500098e-01 1.1674514137960675e-02 -1.1943847541130459e-01 3.4164435286735850e-02 7.0193762718966345e-03 -3.3649449058060554e-02 -1.2922669718758517e-01 2.0764582209523499e-03 -7.6398907676775707e-03 1.7094011105719886e-01 -6.5494876713099170e-03 -4.9123097110678228e-04 -3.1148254158171250e-03 1.0552863352894404e-02 3.8736482084826385e-02 -6.2103622565590766e-03 -2.4393051441437361e-03 3.3749757488130872e-01 9.3034657247360181e-03 -2.5375598803543653e-01 -4.7940607291643289e-03 3.7927187019330899e-02 4.0426162192362294e-02 1.7595895652442167e-04 -8.2520651532334455e-02 -8.6234896154840576e-04 -2.4842991755280736e-02 -3.1621169975452473e-02 8.8113123148723105e-02 2.8723329834693667e-03 2.3068629403030518e-03 -5.9754077211166181e-03 -5.8507614058088464e-02 -2.6123851994537262e-02 1.0461319434434513e-02 5.5123465034154565e-03 6.9141005932875732e-01 1.0680604106704017e-02 2.1698901856782715e-01 -3.0124136571422246e-03 7.8445675598402431e-02 -3.5306446999177829e-02 4.3492166512970236e-03 -2.8464836711208363e-02 -6.8942729141215978e-02 -5.2772075949694946e-03 -7.9420380411084679e-02 1.9544740023205653e-01 1.9447664921172919e-02 3.0618492781200185e-04 -2.1323128932823239e-03 9.9610980527359061e-02 -4.4790183186368404e-02 -8.3605994305070708e-03 -1.3113179129097347e-02 -1.9733361189428251e+00 -2.3893424837281463e-02 1.7336935296926725e-01 -6.4128731980936755e-03 -2.8736922945483911e-02 4.0081947352941100e-02 2.9125618376775898e-04 -3.2402685793848462e-01 -4.4007591170428399e-02 -9.6404820392033646e-04 -3.7179514160585736e-03 -3.6046494826608211e-01 -5.4277591372836843e-03 -2.2787039898831832e-04 -9.9579206324105054e-04 4.4138598266464213e-02 1.0350277739916258e-02 6.8555719789458319e-03 6.2131786751929569e-04 -1.5080780931781668e+00 7.6943228329978131e-03 6.8246607920071511e-01 -8.9936487580665608e-04 1.2844582771609270e-02 1.9214553904208887e-02 -1.4196972576473502e-03 8.3393378745313385e-03 1.3124302763112544e-01 4.2425371879908861e-03 9.3296551730190913e-02 2.3816973064458580e-01 -1.5165774436857737e-03 1.2602051809740681e-03 2.2824975924327783e-03 -1.2784161389845394e-02 -6.2206128366544128e-02 -5.7517994906522395e-03 -6.1215739877058806e-04 -4.7739694591617976e-02 -2.5422103873338209e-03 1.1614358604835218e+00 3.4237064042140042e-03 1.9621892295932586e-02 -5.0481888674040340e-02 2.6088065066157164e-03 1.4183282020596644e-01 -1.8496424294880104e-02 -9.2462548341962561e-03 1.0084483624219576e-01 1.2659181775106187e-01 -8.9992173473640554e-04 6.1153850147150962e-05 -1.3261864638683422e-03 7.6857808983022607e-02 6.0631867406627293e-02 3.7671460970983839e-03 2.5484355833621194e-03 9.9605389781799225e-01 3.2624072577815952e-02 -4.9147856406884216e-01 -3.6592391786217145e-04 -3.9654618988226864e-02 -5.5992170941875356e-02 -1.8916026395947132e-02 6.6676931788512306e-02 1.6015885592483869e-01 2.4445660907978856e-02 9.5902997347828034e-02 4.2621193467481078e-01 -2.1768509879842302e-04 7.1286954497980887e-04 7.6406572368542102e-04 8.3438194898173501e-02 8.7895456498172195e-02 -9.8469249606996656e-03 3.0315889168921425e-03 2.5187295879344429e-01 5.1580753174173710e-02 -1.0968024996631680e+00 4.7555953234239348e-03 2.3497855926206235e-02 1.8006874431532788e-02 -5.3590252446897328e-03 -1.4530794130956082e-01 -5.4164589092336665e-03 -4.3126966906102682e-03 1.9228566077965370e-01 2.2371516359364563e-01 1.0629575674585112e-02 1.0728404148321357e-03 3.3863796018118223e-03 5.9683419312032221e-02 1.1225706548627967e-01 -2.5351351385310972e-03 3.8234913062743875e-02 2.0566813078212842e+00 1.7883528424322614e-02 -3.2349681070130787e-01 -1.3071692844114687e-03 -4.4740558359918747e-02 -8.5579680304537664e-02 -5.9143496174016409e-02 4.3804106097602435e-03 -1.7573130633443970e-01 3.8254686606671293e-02 8.4725806112516011e-01 -1.8545090055884472e-01 5.5406071456282513e-02 1.6103163798099090e-02 4.0927273975942424e-02 2.0654609629751575e-01 1.6372636723987610e-01 -6.0854290485697959e-02 7.3120066426541008e-02 -2.8453969048440930e-01 2.1895611752458088e-01 6.3130781276794834e-01 -6.3292823147814703e-04 -1.8927332297883015e-01 -1.4305308326038726e-02 6.9339519755873291e-05 -2.4096815544864203e-01 -1.7824406750944616e-02 -1.1094920191125060e-03 -2.5359067371786281e-03 -2.7702616712525957e-01 -5.9589409748810615e-03 1.0192728943747300e-03 -7.4132409540545955e-03 5.1429022315221951e-03 2.0517138656492850e-03 1.0553421309618151e-03 8.7360370118007616e-05 -2.5964238569211062e-01 2.7720995778122287e-03 2.4272525734600947e-01 -2.5429728570286469e-04 -8.0569236024618240e-03 2.9143612611090641e-01 
      </Row>
      <Row Index="23">
        7.5760881616870890e-05 1.2560310052009460e-01 5.6501142314784758e-02 -2.3375286749611719e-02 -1.8013056386626877e-01 2.8472441117680525e-01 8.2765742893005978e-02 3.0625464391698998e-02 -6.1631671840301598e-03 -5.1456855026965689e-03 3.0386516293596566e-02 1.2114199611054666e-01 1.9189567723515211e-02 -4.2649650019441765e-02 -6.4252123453032350e-01 -2.7247294192420668e-03 -9.9027027911506593e-01 3.2505600785881938e-02 1.5877322055075638e-02 2.6355050016263704e-02 -1.4224527516731200e-02 5.5389705021480040e-01 -2.2316958699208911e-02 4.0946238914920574e-01 1.2651261639193834e-02 1.9278901545476401e-03 -6.7511270415208102e-03 9.1353670029720828e-03 6.0875338015725436e-03 -9.9527658423461673e-03 -1.2553080535276706e-02 -1.3640780659911589e-02 -6.9544486749250400e-02 -3.9190461227086359e-01 -3.6283697079273480e-03 2.5415195922683154e-01 -1.7027412742963165e-02 -2.7143781567375361e-04 2.3729502022426643e-02 4.1192838456142425e-02 -1.1713817113120939e-01 -4.5188842410174871e-03 3.6270630357434186e-01 1.2014376649466030e-02 5.0290713659633468e-01 -2.5143804362131122e-02 -6.8139568556534399e-03 -4.3149246337546169e-03 1.5105220657822915e-01 -1.5928872171688724e-01 -3.8582690714830725e-02 4.1722728545391066e-02 -8.4247197989200084e-01 -7.2474755174883887e-04 -6.3685929357753146e-01 -2.1227795604044589e-02 -7.8052817254393281e-02 -6.1067321624919124e-04 -6.0199415739577919e-03 5.8747303134714990e-02 2.3419547671054586e-02 7.2163273714905898e-02 -6.1086974757927237e-02 8.2262923613171779e-01 4.9797830612063887e-03 -1.3165152163067168e-03 -2.8076584052317308e-04 -2.4118025742738664e-02 6.3220828428223186e-03 6.9215237107548844e-03 -3.0973683508037649e-02 2.6873274593833685e-01 -1.6297095326300942e-02 -7.0432782346306055e-01 3.2511180788787897e-03 -8.7277744851325459e-03 4.5585525099982515e-03 2.4256604910589615e-02 3.5871441332608356e-01 7.5060545969417962e-03 6.0851333142312636e-01 3.4286486922240691e-02 -1.2419667707000315e-01 -5.3448393608726552e-04 -1.3543920958562522e-02 -1.0736406620868569e-02 -9.2385686791776500e-02 1.0815964242617682e-01 2.9714705313195811e-02 -1.0352643463439422e-01 2.1712481633114800e-01 -1.4247933653297861e-02 -3.2521814442286772e+00 -2.5896451137689600e-02 -6.1393631075072896e-02 8.9227670742575427e-03 -1.6299916982375762e-02 -3.3816584931169302e-01 1.4764039439287713e-02 1.4845536462529840e-01 -6.5366161419047941e-02 -1.1929641624274323e-01 -7.6700943992527026e-03 -3.4853041390673061e-03 -1.7906281128651754e-03 1.1790851032128558e-01 7.7945666705248051e-03 2.8267334724350057e-03 2.0202123544247289e-02 -2.4733539205044508e-01 -1.1311412018955025e-04 -2.7792160880591297e+00 -1.0032961379917021e-03 3.3722756405794030e-03 3.3961736058753383e-03 1.1353466884435146e-01 3.2323221148661219e-01 5.5405174071170606e-03 4.5637413730717023e-02 1.4910460221098720e-01 -1.5058331189548455e+00 -1.4147127615380882e-02 -2.9829698752737387e-03 -2.2509331310090054e-03 1.7640495861942551e-02 -4.6644973738759532e-02 4.8079387282503865e-03 -2.4073606062905137e-02 -7.8892569021160597e-01 -1.3455808570757122e-02 -3.0100291715202161e+00 -6.0469921753077503e-03 3.6943052955452638e-03 5.8681636588982927e-04 -3.5929939725056370e-02 -1.4572185247984635e+00 -2.3172771619721987e-02 -1.5455520992039112e-01 -1.2542148676993747e-01 1.3490673199348748e+00 1.4034442741730269e-02 3.8075997636407956e-03 1.7647088239220630e-03 1.3626305523757765e-02 1.1494207456900270e-01 -7.0977206601676428e-03 6.0060018247786978e-02 -5.2181909752508915e-02 -1.5617890901135724e-02 -6.2973260634714734e-01 -1.5679946211068843e-02 -2.4905457394970298e-02 -6.3569807822178269e-03 2.0778427324097442e-02 8.6605472066816880e-01 3.0472723263238223e-03 2.2526288125801652e-01 -2.4278401403442051e-01 1.2753805459109415e+00 -3.3859602874916260e-02 -5.2048668294407538e-03 -3.6844330131583863e-03 2.3819397750812765e-05 -7.1838679905733116e-02 -7.2730909155788392e-02 -2.8955863765476150e-02 7.0220234960836336e-01 1.0240732719717205e-02 -9.0176067821974115e-01 -1.1132243289724061e-02 1.9511084623025088e-01 1.2703520705247384e-02 -2.0728255264069434e-02 -1.2975892419302859e-02 -3.4047207858102724e-02 -4.1524697578822561e-01 -1.2541611687245596e-01 -5.0239153669996028e-01 3.1127334926795425e-03 9.4601858644636876e-03 3.3927881123041832e-03 1.3114052788787589e-01 -2.3084985219907153e-01 4.8569575201250492e-03 -2.0251703570811696e-02 -3.1264998489932228e-01 -7.3259276801020928e-02 -1.4995987521761229e+00 1.1243460450858479e-02 -1.3245113104286821e-01 1.5809076400835259e-02 2.6693052826366408e-02 -2.0713529198369240e-01 -5.7367849983777407e-03 3.6332705535082131e-02 -3.6308167965454441e-01 -3.0028488593870861e-02 3.4739670607777384e-03 -2.3161299402146519e-03 -2.8253619561505955e-03 -1.6009880747298988e-01 -7.6283245951435097e-02 -4.2593367801248228e-02 -1.1925672680485354e-01 6.0372222884802262e-01 -1.9914818707955639e-03 -6.7910615278371034e-01 -9.4496482368015000e-03 2.2198647552187722e-01 5.9813342825458693e-02 7.9478506969043225e-02 -7.5944608872040575e-02 4.9655908276218172e-03 -1.6143079742546496e-01 -1.6868085025403570e+00 -1.2980036542306905e-01 1.7063729200876843e-02 -2.4615344752594210e-02 -1.3615732591163388e-02 -2.2601884411078643e-01 -1.2963327650102663e-02 -1.7400797162775894e-01 -2.8658283986907152e-01 -2.0167532232042618e-01 -1.1771581452739710e-01 8.5281643983321942e-01 3.6909249045410944e-02 3.0023119231435658e-01 -6.6770641990806651e-03 6.3629319332105449e-03 7.5703844968586154e-01 1.3405749195767574e-03 2.1279306632735182e-02 1.8181321027398223e-02 -5.9712381373512080e-01 1.5304507761179803e-02 9.6139037869490704e-04 -1.0050527570771711e-03 1.4622042306027816e-02 -1.7862563922799168e-02 -4.2332034758490907e-03 -2.4545924075725241e-03 2.1938012548395136e-01 -8.6230390005104240e-06 1.9079935022006111e-03 -1.4527195809982984e-03 -2.4660730229971950e-02 5.7491474645667062e-01 
      </Row>
      <Row Index="24">
        4.9251061910851945e+01 1.1018338229562232e+00 -1.5475095215260858e+03 -9.1541611687936275e-01 -3.1030977746141014e-01 1.4997116825339629e+03 -4.9833191693356298e+02 1.3633129623164314e+02 -4.8761218102444737e-01 -1.7923325959942110e-01 2.8607857748104448e+02 5.6669325425970072e+01 4.9970641247695312e+01 -2.1193000479252078e-01 -9.7486900360851109e+02 -1.0131238902627956e+02 9.9392732182145119e+02 1.9486761509142525e-01 -5.1686249552993104e+01 -3.5244098218157887e+01 -1.8857266417398932e-01 -2.3334192672227509e+03 -1.8858546569845203e-02 1.2651262817598763e-02 4.7974502490847708e+03 -4.2623256530018989e+02 2.2018080103253342e+02 2.6858249726907327e-02 -4.9875475772298811e-02 1.3324465529205136e+03 1.9053632671980338e+00 -4.1300131682324279e+00 -1.3446816451425492e-01 -7.9263425065758815e+02 2.2711797962072765e+01 1.5818424043945388e+03 1.1887158295361633e-01 5.0699857080741754e+02 9.4681794720354677e+00 1.8691503685158917e-01 -7.0111092623323839e+02 -2.0536919264904432e-01 -1.7502006790437008e-01 -2.3303213753896525e+03 -1.5098797744973097e+03 -8.7452752515268472e+01 6.2978800654556744e-02 4.1195473678347659e-02 1.1845110627510080e+03 -1.1573030433010162e+02 -8.7167752847924746e+01 1.6472236011814985e+00 1.8793144043926764e+03 2.4066594032992008e+01 1.5905533584979648e+03 1.0514963694216349e-01 1.5362214240097467e+02 3.7306443854723526e+01 -5.8240700274911472e-01 -1.5057920898848338e+03 4.1582477733432488e-01 1.6364672316281961e-01 9.6146257746405900e+02 5.5719234853196804e+02 2.3252862931423329e+02 3.4613353838745019e-03 -6.5774776264740389e-02 7.8062549552005055e+02 -3.1165834045447301e+01 2.7767507508821030e+01 -1.4052338188307896e+00 6.9309675130388587e+02 -6.9114242452743440e+01 -1.4461106016435042e+02 7.1006195386325999e-01 3.5767449727605914e+01 5.9053875414839531e+01 -2.7574127142361493e-01 -3.8614464513068049e+02 -1.8602619372056689e-01 -1.7177960525167560e-01 -5.0847146612021402e+02 5.0393090958933954e+01 1.2403726429019017e+01 -8.8250104329088197e-02 -1.8427394702698937e-02 6.8411541158101772e+02 8.9140071341176252e+01 4.4143150705380698e+01 -2.3926075929945032e+00 -5.1969820745962750e+02 6.7159070611259779e+01 -2.4469034587315809e+03 3.4764544444670537e-01 1.8265476164833458e+02 -7.6662233848552916e+01 -3.6889786485168519e-01 6.2106689098606012e+00 6.3311367460224643e-02 -1.3758232152546387e-01 3.1536662862313510e+03 -2.1469395571906338e+02 1.8649942173057087e+02 -3.2920869824891175e-03 -3.3500851251557426e-03 -6.0106567305512726e+02 7.7548527064992072e+01 -3.0851052624045323e+00 1.0548683696855110e+00 -1.1393832958340645e+03 3.2519659914191458e+01 -1.9960957370589313e+01 5.1506328528937273e-01 2.9202894622738387e+02 4.3196217859260663e+01 9.1931721300932923e-01 -4.7018644023975503e+03 1.9600462119474145e-02 8.5158027588749019e-02 2.5108614593760194e+03 -1.9009836746490298e+03 -2.9914362653735509e+01 -1.8800246515683662e-02 -5.1248235514072323e-02 2.1850657481500889e+02 -1.7808484486453501e+01 -6.0054850576713228e+01 2.5975364015927171e-01 -4.4897983134556398e+02 -3.2661856950819214e+01 -9.7435470593062848e+02 2.2199198882635449e-01 -1.7519667450982379e+01 2.9272981142602738e+01 -3.5889305423501405e-01 -3.1575356390248890e+03 -2.1125887835762652e-01 1.4392196310898320e-01 -1.8374046558653936e+02 -1.0587739662386593e+02 1.6272646381721955e+02 -1.9153256761673315e-02 4.9760794147855215e-03 1.5820435197881889e+03 1.2559137712630987e+02 -1.7384433522390665e+00 1.5314390199983691e-01 5.8422947273476746e+02 8.2388433941578327e+00 -1.2798115998633866e+03 -6.5813085779423275e-01 -5.2840372362582556e+01 -6.6213155408760926e+01 5.6570420562057389e-01 -7.7759518380548184e+02 1.2610096629319711e-01 1.1989004898109856e+00 -3.6826689413749486e+03 7.5167216180776677e+02 -3.0935237354800807e+02 1.6570302602604831e-01 8.5420605532662508e-02 -2.5901540886971270e+02 -1.1524803602210568e+02 -9.6377182132409771e+01 2.0664260774537784e+00 -1.5093519749030415e+03 -4.1113251355389338e+00 -1.2563576085554930e+03 -2.0991911529416049e-01 -1.1422142945344541e+02 -8.5699153497130567e+01 3.2072037750257065e-01 2.4812410177295651e+03 -5.6023824288578217e-01 1.0197049890654178e-01 -3.1660149417673624e+03 1.9295880359951816e+03 -1.8201897184711626e+01 -6.1139587153002516e-02 -3.8173746185340467e-02 -5.1144608050962916e+02 -2.0229460866994518e+02 3.3550119076954026e+01 1.7001257622046184e+00 1.5340860231786473e+03 -1.4046094272603398e+00 -1.5904414180945278e+03 -5.5998374023643938e-01 1.2202694973373596e+02 2.6790171350360978e+00 2.1276259983625240e-01 1.4570000788897369e+03 -3.6337284236398187e-01 4.6107852359177215e-01 4.9192473835026544e+02 1.2720602866242450e+03 1.0064491581211993e+02 2.6933890533800256e-02 -2.2981000707960074e-02 -1.5306684212387681e+03 -2.8393466229387343e+00 -2.2536473220845153e+01 -7.6271284307804477e-01 -9.7371708842653152e+02 -1.2533050888253683e+01 -5.1308495422972646e+02 6.2649541087485816e-01 3.1523628123077927e+01 -2.5732317605784993e+02 5.9893595223834692e+00 -6.6202121994097774e+02 -1.3527809974321103e-01 1.1198672023000295e+01 -5.8343172945567385e+03 -6.0966941857835013e+02 3.3515492061554698e+02 7.8922234327527896e-01 4.0140047240753063e-01 -7.8882979418223777e+03 -3.5080881298846759e+02 -4.8425074922473790e+01 2.6507070866793583e+01 -4.8548474052870370e+02 1.6521628035200632e+02 -2.0773511068682683e+02 -1.4713844923674202e+00 -9.5037323996630221e+01 -3.6993954804888787e+01 1.9290669998449674e-02 -4.2702945258246837e+02 8.6978556748193117e-02 -1.5522851469808020e-02 3.0911457148623242e+02 1.9492288324215252e+02 1.5977608756488735e+02 -8.1080854313823808e-02 -2.5522289350641580e-01 -4.8718842659467072e+01 -3.6584002955632116e+01 -1.4342588295320919e+01 -7.4442529698458798e-02 -1.2125764828130980e+03 -6.7809460666979817e+01 -3.9788566117378923e+02 9.6819169439354980e-04 6.2567854208569429e+00 -3.5438090085509225e+02 
      </Row>
      <Row Index="25">
        6.4233119677781360e+01 2.9325621810276061e+00 -1.1602823076992208e+04 -2.6500438860098796e-01 -1.6237376038750209e+00 2.2379655501143702e+01 -1.1323363464797143e+05 -9.7218539715337101e+01 -8.1078960953679022e+00 2.8342740055229529e+00 1.6128642992017581e+03 -3.0993766212463379e+02 5.0237475335597992e+01 -1.2513329181820154e-01 -6.7859902936202707e+02 -8.2398141741752625e+01 1.6101977489471436e+04 -2.9678100855089724e+00 7.3840756487846375e+02 1.3728290823101997e+02 -4.8947193939238787e-01 -8.3021839741468430e+03 -1.6027808911167085e-01 1.9278756226412952e-03 -4.2623264541649269e+02 8.4960758707435429e+05 -2.4002411784226223e+02 -1.7545942497024558e-01 1.8902893045447880e-01 -1.5181696201779414e+03 -1.4277129591535430e+02 -8.7557364308382120e+00 -5.1219332147989860e+00 -3.0999090498939677e+03 6.3317561798274440e+01 1.3162478260853442e+04 1.5286610863827477e+00 6.2977967880628285e+03 -4.9542135991319822e+02 2.8269699872033205e-02 -1.2923739238003502e+04 -1.1125344968785396e+00 3.1030384264886379e-01 -5.5708732799904692e+02 -9.3798693332456547e+04 3.2906394021594792e+01 5.0139981079008000e-01 1.8929662468836472e-01 -1.3430086747186215e+04 4.0526829002704920e+02 -9.5988144592886925e+01 -7.5284878052504176e+00 1.8239798331039132e+04 8.2680108619937653e+02 2.0746114292673847e+04 5.8816250778647650e-01 1.4344539141617149e+03 4.8722119201941780e+01 -1.7651806965655452e+00 -1.8873340451198892e+03 -3.3927014103824438e-01 1.5938972513578609e-01 -7.5481002378463745e+02 2.4516271517762885e+04 -2.5549717604826239e+02 -1.1630895531475205e-01 -4.5326859727665153e-01 4.7135806948147201e+03 6.2543264719503031e+02 2.3751369318884372e+01 -9.7369921300852980e-01 -4.6219222329790073e+03 1.6651356146105101e+02 1.1981285062963379e+04 -1.6467019626870751e+00 -1.5069736008247799e+02 -1.1429530237949969e+02 -4.0483544898801660e-01 4.2657992573621159e+03 -9.7964379488178532e-01 -9.8912559471592498e-01 2.8890727486992228e+02 5.8108085423132085e+04 1.8074273456993421e+02 -1.6745680292624945e+00 1.0094086330177108e+00 -5.6208074881391658e+03 -3.3231759164160212e+02 -3.5793172781204305e+01 -1.1165103071732929e-01 1.9852017913058130e+03 2.6409640823322729e+02 3.3737058832989405e+03 3.9171813328235259e+00 -9.6824808645696976e+02 2.6242168852716702e+01 4.1310480263722926e-01 5.4556463961220215e+03 5.5877080082191832e-01 9.6490024697568755e-01 9.3882902660723505e+02 8.3113467468809424e+04 1.3071138616103383e+01 4.5322539327427736e-01 3.7763417379159381e-01 -7.3498703110218048e+03 -5.0587885602530775e+02 -1.5546991690671398e+01 6.8207977652098366e+00 -3.9908089618682861e+03 -4.6160631486552671e+02 1.7648191925972333e+04 4.7126075629052275e+00 -2.3091481151370161e+02 -1.4309670201802700e+02 1.3842970414300630e+00 1.4679669420363425e+03 -1.9058768505196877e-01 1.4175580870128854e+00 8.8454559865463034e+02 -3.3014091979898512e+03 -2.0390575296572251e+02 8.0281536847887525e-02 2.7413082984646731e-02 8.7232654439567796e+01 2.6329389269045578e+01 -8.9424878334432762e+01 -5.9255139823442349e+00 -2.0857466172603126e+03 2.7558869102523181e+02 1.7684161916078025e+04 2.5223961307426714e+00 -3.3594064610577732e+02 -5.5946247018393649e+00 -2.0522040142637721e-01 -7.5764158443420311e+03 -6.3322613923059512e-01 -5.2411187020060268e-01 1.3224722075462341e+02 3.0703779212066904e+04 -1.6615185079863963e+02 8.4677024278498436e-02 6.1634752563763651e-01 -2.7495581424236298e+02 -4.8520102736619867e+02 -4.0598547025695382e+01 6.0409980708037949e+00 -2.8949078416049474e+03 9.8444136161151619e-01 6.6701661113835144e+03 1.7670733983931772e+00 -3.0713871597843973e+02 1.6505465138614113e+01 -7.1521796312647168e-01 2.7570228164783723e+04 1.1368034487077283e+00 1.9219887546041126e+00 -1.8562773852765690e+03 2.8554736985863568e+04 4.1650617401821370e+02 2.2591985931873371e+00 -1.1327397375286485e-02 -8.1013662375647391e+03 1.7675149501937972e+02 -9.9123899764696461e+01 2.9563155153764331e+00 -2.0897052517574748e+03 8.2163959408281426e+02 -4.1455354021327621e+03 -1.9472574898628239e+00 -3.8009793032845505e+02 2.0759380506228075e+02 5.6985976848810882e-01 2.2371641108037493e+03 -4.6295478115406485e-01 4.9559331024847531e-01 -2.2663103085426528e+03 3.5052798408629147e+04 -9.5826379528629786e+01 5.5204891840794557e-01 5.1595453513750056e-01 -8.9299263100349981e+03 7.0681053642342670e+02 5.2172653915071493e+01 -1.1898026513345989e+00 -3.7821677281751508e+03 4.5802344966822659e+01 -5.6114546111786149e+03 2.3262549154370973e+00 -1.4313228668884548e+02 -3.6975229917570408e+02 -1.3328204635962460e+00 -4.8534439571679031e+03 -1.0665844098491848e+00 6.8306436566342632e-01 -2.5867459463054856e+03 5.2548522849587382e+04 -1.0655604592746725e+02 7.0895319798142697e-01 -6.2178174033704708e-02 4.5220382287798093e+03 6.4486700194905291e+02 8.9900936791858612e+00 -4.6567084725233041e+00 1.4471996673710637e+03 5.9813172511746586e+02 -4.8566841477384551e+03 -4.3844916645221508e+00 -1.1995094533759191e+03 -1.0828673106250558e+03 -8.4288503500292187e+00 -1.4387195272253211e+03 6.4460043816850687e+00 1.8779401393316654e+01 -1.8981443248430860e+04 -2.5911374432815250e+04 -5.2991707716742087e+02 1.4582082434170323e+01 -5.0972341534843091e-01 -8.4205721721500413e+03 -7.8876393999610127e+02 1.9484245568467094e+02 -2.1690990618867545e+00 -1.7217662344963763e+04 1.2083733381952084e+03 6.0531751842162530e+03 -2.9728664080902590e+01 -1.1385489385656134e+04 4.4881282281406214e+01 3.9513330239542593e-02 -2.1529576068487371e+04 -2.7480708934905040e-01 -4.4976460623199280e-02 8.3994170070183387e+01 -4.2806756051494114e+04 -6.6357269440849237e+01 -1.6208619913951108e+00 2.2759444114974805e+00 -2.1319328334241668e+03 1.4758678726239495e+01 -2.4556052394186239e+01 -1.6005379179590118e-01 -1.4976171223429865e+03 2.3198114020138013e+02 3.8953944658161927e+03 -4.6347617200427749e-01 1.7893640323845966e+02 4.2871560593142058e+04 
      </Row>
      <Row Index="26">
        5.1731592188696496e-01 -1.1584057315410234e-02 -6.2780300508505903e+01 -4.0462042635205572e-02 -2.4677256969086139e-02 3.5234721896306169e+01 -1.9029668473522179e+02 2.9288907654605403e+01 2.5554791159335233e-02 -1.1136198194105001e-03 -3.6017778432265981e+00 5.3663197119312827e+00 -1.3521012263663579e-01 -5.0692659656078831e-02 -3.4238074773890332e+01 -5.6163887140210136e+00 3.3395833152811974e+01 -8.1692194039987953e-02 6.6016697780069080e+00 -6.5656477406082558e-01 -3.7517385394380653e-02 -8.9524455872073304e+01 2.5940197726868064e-03 -6.7511269241293803e-03 2.2018080097631821e+02 -2.4002410934339059e+02 4.0754369665363299e+01 -1.0207986801214850e-02 -2.9832143461080473e-03 6.7562628810253273e+01 1.4723556188450555e+00 4.0162869372589078e+00 -1.7241133489915829e-02 -1.0215991235514524e+01 -1.5917764094193436e+00 5.5063316686288388e+01 3.3621463606806852e-02 2.7060790628442966e+01 -3.3680319155224989e+00 9.4519324513161664e-03 -8.5973633643461909e+01 -1.2510790798567541e-02 -2.4544388171534592e-02 -7.2130255099345675e+01 -1.1731812106910873e+02 -2.0984067313932567e+01 -6.2436655022682919e-03 -5.6952758284747407e-04 8.1720090341278620e+01 -7.8212257245697474e+00 1.1973218216880015e+00 3.4937643215820113e-01 1.0072946278076689e+02 1.1438849524787513e+00 6.6035829089159620e+01 2.8026481259247272e-02 -6.5451430240396444e+00 -7.9065244917158117e-01 -1.9983896169933339e-02 -9.2805582982278921e+01 4.9096185235452269e-02 -1.8954719530975888e-03 4.8620424345892388e+01 6.6172916851054708e+00 4.9350321079392891e+01 -1.2731368321227329e-03 -1.9122033838783652e-03 3.9908301710212093e+01 -1.7293124266810149e+00 1.1126749168305428e+00 -1.1044797590668406e-01 1.3602896712317438e+01 -2.9977063916549898e+00 7.1659651927120336e+01 -5.3805011933718561e-03 7.0957080693913488e-01 -6.1727315692765150e-01 9.0626870920022069e-04 -1.0689983404157289e+01 2.5946975257097899e-03 1.6488884362636080e-02 -2.5031827182547964e+01 8.0722620709582685e+01 -1.1818009139788041e+01 1.8568147116625683e-03 -4.8574659229398790e-04 5.9702638887240262e+01 5.5400229979289790e+00 -1.3813623337690242e+00 -1.6162332581846978e-01 1.4506287472855593e+01 -6.2707164523219072e-01 3.4160246284119943e+01 2.3419257823740616e-02 -1.8112812113078824e-01 -7.0084411163182492e-01 1.5699311125533418e-02 -1.4332437734226104e+00 1.1842864107758284e-03 3.6663603770381655e-03 2.3255547318887099e+02 1.0063446170861806e+02 1.7084069654826209e+01 -4.4373341617723345e-03 2.6104697195788182e-03 1.1668420034286100e+01 5.3813111553202688e+00 3.5526969402957198e-01 5.1510414898982726e-02 2.4554755792021751e+01 1.5818513204065785e+00 4.9844686424374544e+01 -4.6709699874117744e-02 6.3051697205993538e+00 -6.5113008375502357e-01 7.4423186034619756e-03 -1.7827834544814084e+02 2.5535062126512031e-02 -7.9112415198731734e-03 1.4774785190553337e+02 6.0208102890392070e+01 -5.3260376452194391e+00 1.6278716971085683e-03 -2.3273299317234175e-03 -9.7504378984289666e+00 -1.0166243626168885e+00 -5.4486270860001165e+00 5.5684404462749582e-02 -6.2101120419905598e+01 -2.4590630480223887e+00 9.3332403093531120e+00 -1.5812715855920163e-02 -1.1954034444832442e+00 -2.7332407832379668e-02 -2.6959733745256970e-02 -2.4566549989882890e+02 -1.4965941686466996e-02 -3.7836226565975441e-02 -2.9631853297425550e+01 6.8939349349079862e+01 2.8781444333981511e+01 -3.8500176143840513e-03 1.6426590369822680e-03 1.3113016962137772e+02 8.6308877908758497e+00 3.1791181167017681e+00 -2.9896774076042659e-02 1.1716418476889693e+01 -1.3836483091236440e-01 -4.9762438588305741e+01 2.5801213278651633e-04 -8.1844919031660623e-01 1.4732971560813729e-01 5.6490321189745524e-03 6.9392168912023521e+01 -7.4773210697531983e-02 9.9723944758441499e-02 -1.5897209050354664e+02 1.3497500402671341e+02 -6.6118638108418537e+01 2.1536931628338349e-02 1.5283157742408498e-02 2.1642732519701170e+01 -1.0348744937909998e+01 2.4511507636023988e+00 4.0231639392469690e-04 -3.9463934954823891e+01 -4.2162995410646964e-01 8.4260115962056190e+00 1.4898271514325490e-01 3.8923647012964153e+00 -4.9235820407625841e-01 4.4125832163298753e-04 1.2323979831920113e+02 -2.9483428203133683e-02 -1.6034187346119836e-02 -2.2420922261599083e+02 3.3875050388297197e+01 -8.2913876396241779e+00 -1.7552442389329262e-03 2.5543479864722281e-04 -3.2492997696274557e+00 -1.3729187275068208e+01 -1.4541692809835105e+00 2.6742965921271684e-02 3.1762450147450267e+01 -7.6258233295458067e-01 2.4881706620937649e+01 -1.0378441438616848e-01 3.3946232327891082e+00 -3.2407854329246231e+00 9.0399385901392473e-03 6.2309866936275675e+01 1.9399556380075372e-02 -2.2027369522483776e-02 8.7165749174944551e-01 3.5278732523875384e+01 2.4383564228947421e+01 -7.6620954165212644e-03 -6.9594237885132783e-03 -6.4489508104517682e+01 -9.8911143865344542e-01 1.2316247568671828e+00 -5.2044680200444483e-02 -1.0808354623011951e+00 -1.5344619808239974e+00 -1.0023940875553362e+02 4.2615409699468233e-02 -1.8821571634567524e-01 -1.6211934982256707e+01 1.0581599669142339e-01 -3.9012230252220043e+01 -5.7018778129388759e-01 6.2594505284260227e-01 -5.0080461942138709e+02 -2.3828411475646249e+01 4.6129146598145610e+01 1.5898077601676341e-01 1.0331631785319617e-01 -3.1831442640015143e+02 -4.5222266727453402e+01 -2.0607953184841366e+00 6.6666465460616564e-01 1.9720000415617534e+01 7.2915613476094521e+00 1.7547416578720419e+01 7.6363275350016835e-01 -2.9026492056125932e+01 -4.4104539363677647e-01 -8.3940175661014870e-04 3.7829995136025758e+01 1.3849419092448658e-02 1.5446973550622522e-04 2.9362489212948446e+01 -8.4654155575858816e+00 2.7693526250083924e+01 -8.2078078370078646e-04 6.3769696869462027e-03 5.9492077412889497e+00 -2.5320160836141534e+00 2.0126767455958792e+00 -6.2740541450079790e-03 -9.9366061530424759e+00 -3.4208526265285939e+00 6.3473528285469456e+00 1.2954743434765215e-02 -1.1306120355992562e+00 -1.9240658305455870e+01 
      </Row>
      <Row Index="27">
        1.2360906533688043e-02 1.0062294832826835e-02 3.9533820028815114e-02 4.0735463937264388e-04 -7.2909025078821306e-05 -9.3328223652378028e-05 -4.8504361628147308e-02 -6.2294598436498649e-03 9.6945935246587372e-02 -1.8736214107858480e-02 7.6764171531689129e-03 -2.6197055402008118e-02 6.9645034652694449e-03 1.7007857905834811e-02 -1.9667198159528496e+00 -9.4610248304434208e-03 2.7267605099768844e-01 -6.3745586910410879e-03 1.7673481884912690e-02 -2.6971588693072590e-02 8.1045095217824326e-03 -7.5086698308950872e-02 -1.6236355086030052e-03 9.1353670031941725e-03 2.6858249265544920e-02 -1.7545940387674364e-01 -1.0207986842942773e-02 1.4829750053547430e-02 6.5807817012797972e-04 7.3159110786757964e-03 -6.0977661505685621e-03 -1.3428909994539360e-02 -3.1702934176508296e-02 -7.8934267972274785e-01 2.4159340898188830e-04 1.2056653288835051e-01 8.6366355690613399e-03 -2.7785296967799109e-02 3.5845733994069678e-02 7.3677188026242241e-04 6.9507549470491981e-02 -1.5978058154261787e-04 -7.5328733423152272e-03 -3.5566110162284836e-02 -1.1106703685359687e-01 -2.1535647899197461e-02 5.2322372685724558e-05 -3.0948423029634629e-04 1.0835869241962648e-01 -4.6690599374166197e-03 -1.7154131851226134e-02 -3.2639840723171443e-02 -5.2521806183213227e-01 -4.1366763583550181e-03 -1.4187704491977371e-01 1.3870969570022753e-02 -3.1205844420358120e-02 4.5419583160918792e-02 -1.7964263385927691e-03 8.4449404213906121e-02 -3.1177112210270660e-05 -1.6254927669985214e-03 7.9231094019633019e-02 -1.1615096694973914e-01 -1.4207257531094752e-03 1.9633769053251262e-03 9.0918885503652120e-05 3.4732945842869789e-02 -1.0786979979577893e-03 3.1325312624277957e-03 1.0878140929131919e-02 4.7088831816447729e-01 -4.9307260115285245e-03 -1.3862405381465770e-01 -5.2852497575024415e-03 -5.6239763629160056e-03 2.9790253961579055e-02 -9.5053449129524400e-03 1.1365275059780799e-01 1.5340082970118291e-04 -1.4816833094432422e-02 1.1405064238094897e-01 2.7268228823615459e-02 1.9921209488042851e-03 2.6252507164281926e-02 -3.9339886160274255e-03 9.4231417420565067e-02 9.9793172679252251e-03 1.7616585361495692e-02 3.3286156807852352e-02 -3.9351330160417941e-01 -3.6301812035128833e-03 -1.0133523459901257e+00 1.1764755439786343e-02 -2.3825703357759576e-02 -3.4597834090682039e-02 -3.2520377031112629e-03 -1.2164805121094702e-01 4.7730401007287440e-06 -4.1629376970978406e-03 -2.6745761525426737e-02 1.3619796857405042e-01 -5.3125939736223260e-03 1.8655474788891494e-03 -1.6489455887132678e-04 1.0411864275738481e-02 6.1078237794766066e-03 -2.3581311220316203e-03 -2.5764531374202829e-03 -2.7928383280232083e-01 5.7728093190887453e-03 -1.0297487092066930e+00 -4.8230279661146784e-03 -6.0132661945200283e-02 3.6708892981197672e-02 9.9574622654126296e-03 -4.3812655231126818e-02 -3.5848866737953717e-04 -1.2973635170173515e-04 1.7833855816256050e-01 6.8789642045493871e-02 2.6034417822629855e-03 1.0675765174377565e-03 -4.1655858965723854e-04 6.7561480907245217e-02 1.0643264326763574e-03 6.5111531502641427e-03 -3.5098363528113380e-03 2.1029484406514909e-01 -5.8712028545467101e-03 2.1238644721039357e-01 2.5581113900645519e-03 -1.2326171388367557e-02 1.8121247870127997e-02 -3.6182311545305268e-03 -9.7881344826532768e-02 7.5755756221053579e-04 1.4988020428415016e-03 2.3262731815748339e-02 2.2483483394796622e-01 -1.5386739958410944e-03 3.3587284899333266e-03 -8.2357560518777891e-04 -6.4962863162008944e-02 2.4144146875077682e-02 -1.0907751917349849e-02 -1.4219560807023496e-02 7.3281404119251503e-01 1.3159269634608339e-03 -9.9050335404882617e-02 1.8311352016432282e-02 1.4777496422353487e-03 -4.6508155001330098e-02 2.6257786772384016e-04 -2.1445483662442477e-01 -3.1622783606256486e-04 -3.8298159018359491e-03 -1.3177508953207021e-01 -1.7101574164374256e-01 -1.7186586183516855e-02 -7.2415178977297450e-03 -1.4371880953568711e-04 -4.2609601092405136e-03 -7.2000218651901982e-03 -3.6011867639030193e-02 -7.4856209953509329e-03 -5.3154891705247032e-01 -7.8753897984941562e-03 -1.4232267284321409e-01 4.6930699410573868e-03 -1.6243079427748056e-02 -4.9324637150612645e-02 5.1200409581734800e-03 -1.5030899825234201e-02 -2.5736891558237121e-04 1.1511631179253022e-02 -5.9144627885738821e-03 2.1397050538420181e-01 6.0056710730183038e-04 -1.9016507538857884e-03 -1.7868495288669902e-03 4.1834162601013247e-03 -2.3266253743699172e-02 5.2697238390295720e-03 9.1658621647800111e-03 1.0990941232326841e+00 -8.4526990594456786e-03 -4.8674824688803398e-01 8.9861027060460421e-03 -2.1917484503731655e-02 5.2812417412426815e-02 5.0637041717913230e-03 -6.6502900934983566e-02 -1.0386345770593238e-03 -6.9669967109458599e-04 -9.0011303239118545e-02 4.0900524965360674e-02 8.7813954775549097e-03 -1.6347166989495545e-03 8.7208002686422624e-04 -1.0463844854004928e-01 1.5846847596742375e-02 -1.3828832372282329e-02 2.4226735920363000e-02 -7.4311325845875409e-01 -1.1199129866086288e-03 -2.8978471787341292e-01 2.6951394132905728e-03 -5.8304488664092435e-02 4.4421409053347405e-02 3.2681917239869858e-02 3.5647950203689938e-02 -7.0896268456565803e-03 1.7147066683457009e-02 -5.6445055803082766e-01 -3.2238830273871422e-02 2.6584764800776206e-02 3.0826113143663680e-02 1.6118514860960859e-02 -4.6415406209548493e-01 1.0911878647232376e-01 -4.7687350767275954e-02 -5.3561868246265631e-02 3.2485418112464970e-02 -8.1730385015303941e-03 6.6721089914833254e-01 -4.5727405328197523e-03 -3.3434550375126404e-01 -1.5835295557730902e-02 5.3040810127818376e-04 1.2197678143389101e-01 4.4976590361052319e-05 -8.8666143138881135e-04 5.7686063818547240e-03 -2.2041708120131306e-01 -5.7875679690259311e-04 1.8781369725936470e-02 -6.6752428092041833e-03 -7.1423551498253079e-03 -5.5329915095232527e-03 -2.2986016995599212e-03 1.1550364744314094e-03 -6.9085050716994445e-01 -9.6387221841309767e-04 2.6025513499092767e-01 3.0843088459449031e-03 8.7700215490520428e-03 2.2244718794041327e-01 
      </Row>
      <Row Index="28">
        -8.0719644812299457e-03 9.6708612537870220e-03 -1.7393651988273184e-01 4.2548033600519415e-04 -1.8198572050618081e-03 1.5368276517268131e-02 1.3405921376488550e-01 3.9800974151504298e-03 -3.3138758306626402e-02 6.1720408416762705e-02 3.4082859537517329e-02 -7.0418979089481581e-03 -5.7261161225312662e-03 1.9649598707887073e-03 2.6575320426228588e-01 -4.5677974114255449e-03 -5.6730200286983745e-01 -2.3456963251078378e-04 5.8942700748616517e-03 5.6824558149770610e-03 8.2836880742429564e-03 3.4552342527638302e-01 -1.0035053122450899e-02 6.0875338015560221e-03 -4.9875475908994105e-02 1.8902892650989145e-01 -2.9832143609382911e-03 6.5807817010155034e-04 1.1684731729722626e-02 -2.0248208463757855e-04 -3.3528098261745853e-03 -2.3582662214921557e-03 -2.7286981897988123e-02 3.4877269824387547e-01 8.4361894304589846e-03 -3.1593615208375780e-01 5.4297405238764793e-04 4.5619528132166846e-02 5.1889024281415730e-03 8.1192947435127904e-04 -1.3887111078923930e-01 -4.7185687725255412e-04 -8.3364292234289206e-03 2.4750168117525284e-02 -2.4072462578777021e-01 -6.3206596854923573e-04 6.4194176565812906e-04 2.4732277879480104e-03 -1.5881885166956877e-02 -2.6681427341794794e-02 6.3103130373996508e-03 7.5505967228623044e-03 1.3153532562514347e-01 1.3337531141362116e-02 9.9976643615685923e-01 -2.1194498386383435e-03 -3.3387576697243126e-02 -9.8420050458086217e-03 -2.5584689901848312e-03 1.0232272674888065e-01 -4.8714510291211852e-04 -2.0208181952409607e-03 4.7220428822583926e-02 -5.2693908874605455e-02 -5.3157731455038826e-03 -3.9381534038417326e-04 -1.1868956734699583e-04 1.4618185494947283e-02 -2.6573852556397437e-03 4.4397394645407928e-03 -2.6213058145470765e-03 -3.0627702922029210e-01 6.1353974387841625e-03 6.4559179377994269e-03 3.9875361645203000e-04 2.7223599797158715e-03 3.8661890854468917e-05 -1.5250046798478726e-02 4.0308406941470309e-02 1.4279013563803233e-04 -1.8773880097704441e-02 1.3235388622701932e-02 -2.2088834046300576e-02 -1.8731638783123228e-04 -6.9251574678931335e-03 1.7437275087185792e-02 2.1623660892789776e-02 1.4597934689586367e-02 5.2346979466760257e-03 -1.1779432754453929e-03 -3.2910733947515636e-01 2.8236901071195808e-03 8.0321055831827887e-02 1.3725762051218851e-03 1.1856389805149803e-02 7.1313500678199804e-03 -5.2530413205291596e-03 5.5203218652316366e-02 -9.5153672544278246e-04 -4.3193501475700209e-03 -5.3093359180203858e-02 -4.1707436273295428e-02 -6.9100860195882297e-03 -1.3105378783766436e-04 1.4553702138446220e-03 3.0186883801206932e-02 1.0787927874777115e-02 -2.5853407806111228e-03 4.5594536032159119e-03 4.6409058868084685e-01 -1.4880908060044051e-02 3.0723328260204141e-01 4.8718073912774884e-04 5.6172042492550922e-02 -1.4648953825697648e-03 2.0521549425164005e-02 4.0782482163737033e-01 -9.0820305713351125e-04 1.2552613967223929e-03 9.5105736932352691e-03 2.7675343155426946e-01 7.7671840488995839e-03 -7.4256606879208244e-04 -2.6299196942724634e-05 -2.9605017344151649e-02 -3.4868943346752501e-03 -2.2055629519295654e-03 -2.3789619935168232e-03 4.1434873492825375e-02 3.8437113907915932e-03 7.3061509776291800e-01 -1.2906391790304850e-03 1.0351655584529371e-02 -2.6586726807297720e-03 -6.2229888449888242e-03 -6.0346440572652682e-01 -4.6512637117728894e-04 2.8897262798139546e-03 8.8667432944788516e-02 -2.1977178923589236e-01 -2.0540563424636948e-03 -4.9685139326780382e-04 4.5560865760096939e-03 8.0533308679662241e-02 1.6878906547509259e-02 -6.5213314961616586e-04 3.4912598247434090e-03 -2.6779435110159211e-01 -5.6475319796864820e-03 -1.0012729434268408e+00 1.8401350500910443e-05 2.1561449157260881e-02 1.9041444378498371e-03 -5.0080019434332662e-03 7.9304035261995565e-01 8.4859717657794712e-04 -7.1427831329486137e-03 6.3687436201730618e-03 -5.9596644501472862e-01 9.5138799141251847e-03 1.8308092004612724e-03 3.2540504611308467e-03 2.0004238913105959e-03 -1.7937565489591023e-02 1.8161616486809251e-03 -2.6119872211514299e-04 9.2028777330737555e-02 2.0487809080618962e-02 1.8729253683601321e-01 -6.7712346220719078e-04 4.1113018412780589e-02 9.2335444824543852e-03 7.8297654374841260e-03 -5.7493820047175737e-02 1.0469946370036992e-03 8.9745083203177679e-03 1.9171666999392212e-02 5.3876883597896619e-01 6.4760347356513093e-03 -2.2542245210671109e-04 7.2223697133645065e-03 1.6737916013755960e-02 -3.9801207591019107e-02 -5.1269933246147958e-03 1.0202532704552646e-04 -2.0965214625754447e-01 1.0077442321700103e-04 2.8082297095358655e-01 2.9171844131231522e-03 4.8046479644160422e-02 -9.9113227164591561e-03 -5.2622808469931521e-03 -1.2352263743747316e-01 2.5020593591956325e-03 -3.9480114027406598e-03 -1.6270486134573048e-02 2.5870490556856929e-01 3.7337459043738086e-03 -2.0246567428685365e-04 -4.9302146781525047e-04 1.1991158968417792e-02 4.1419529718728088e-04 -1.0202050324424616e-03 -1.1097825102072354e-02 -1.1576671738139810e-01 1.9279510803114436e-02 -2.9669296590565586e-01 7.7645311500206286e-04 3.7439126955792545e-02 -6.6114206596429304e-03 -3.0990099726614911e-02 -2.4669530277102059e-02 1.5474028820629182e-02 -2.1660644811078909e-02 1.4451035831230641e-02 -5.3426974327839716e-02 3.7573581316718063e-02 -2.5419145821598373e-02 -9.8856790604195527e-03 1.2683772733409926e-01 -5.6357226083075584e-02 -2.1989562849190625e-02 2.0040728342696212e-03 8.0458785890719753e-02 2.2713028164312199e-02 -6.7814732910390585e-02 5.1363241389254105e-03 2.2456685143386812e-01 2.1899994042912894e-03 1.6025878507044261e-03 -1.9787136178746323e-01 3.2654605649105672e-05 -7.4302440935324835e-04 -3.8973952425324088e-03 3.1921108029340742e-02 -2.1062063092473901e-03 -3.9050608070613385e-03 3.5298192488237679e-02 6.0562458466484059e-03 -1.8377943998723473e-03 1.2890569360787720e-04 -4.2025343969742841e-04 2.1878346006380411e-01 5.0609070073206891e-03 1.0743226797296757e-01 -5.0524408131909682e-04 -7.5776078794315138e-03 -6.2991215080432122e-02 
      </Row>
      <Row Index="29">
        3.2629041675324117e+00 4.9700705405285817e-01 -3.1343899749421848e+02 5.8507957695238533e-02 -2.1004205272707649e-01 -1.5041539369212259e+02 -1.0678941428307444e+03 2.5051186856186689e+01 5.0744832827548159e-02 1.7702391652125196e-01 2.3921560897748597e+02 5.8931590076652355e+01 2.2160826592065860e+01 -7.8843544898882101e-01 -3.0717904052599727e+02 1.8533393714460544e+00 2.3222161729633808e+02 5.5440289570697132e-01 -8.8830270009289961e+01 1.2752989956061356e-01 1.3692080861801514e-02 -4.4306774416938424e+02 -7.0476992083399637e-02 -9.9527659103273436e-03 1.3324465529303998e+03 -1.5181696261935867e+03 6.7562628813204356e+01 7.3159110356755264e-03 -2.0248198233662786e-04 1.5669362923578449e+03 2.2966698633055746e+01 -8.3328482406357409e+00 -3.9805497865552730e-01 2.9364277148892552e+02 1.5381751141589605e+01 -1.2027809018025955e+03 -3.0469133866699716e-01 1.3604985601811254e+02 1.5072907458771718e+01 -2.4356850499493651e-01 -4.1378350942436850e+02 -3.2017328695613897e-02 1.1113527213865382e-02 -9.1298553092570231e+01 -1.9924765016087758e+03 -9.7894719908967431e+00 6.9549499279257840e-02 -7.1472418742150878e-04 1.2992646431624455e+03 -6.5245073087330809e+01 -2.9270389602455939e+01 -6.0878159106795282e-02 4.3594126823452763e+02 3.3151169718858988e+01 -1.0141154340813057e+02 -1.6104109874781153e-01 2.4458362882630885e+02 -6.9036759221337016e+00 -5.8859847313992048e-02 -7.5129518077380817e+02 -6.9886789501500721e-02 -1.3580477680324335e-01 -5.6661327458685264e+01 -8.8837565374771657e+01 9.9896426646192982e+00 -2.0407073847554146e-02 -3.7925755477937188e-02 5.4201114287870155e+02 -5.0701869130361608e+01 1.3383019191931931e+01 -3.2453250255484201e-01 -9.0124263237468284e+01 3.0893200231840677e+01 2.2243517532368378e+02 7.4921647878909425e-02 -1.0815704665033685e+01 -9.2872783128251477e+00 -1.5213579077034900e-01 3.7773759335083741e+02 -7.8364384934447084e-02 -4.4183601610729324e-03 3.6727585584909042e+02 7.2658136897699342e+02 1.8723468086121908e+00 3.7004646822352244e-02 5.6897606674467686e-02 1.8525247161494551e+02 3.9588107203879019e+01 7.1752684545030654e+00 -7.6910680718271895e-01 1.2412602581747988e+03 4.8386627536430701e+01 -7.4830520488005106e+02 3.5634139090887784e-01 7.9775818194758870e+01 6.9419515466285073e+00 -2.0750931337215120e-01 -4.2118670303836893e+01 -1.9559880464477294e-01 2.4147908078215080e-01 3.6341361681994488e+02 1.2630146583131038e+03 4.5875210366068288e+01 2.7167642567275621e-02 2.3312488761532382e-02 -3.4558427071943879e+02 6.4542397416450598e+01 -3.4481390060089637e+01 6.5069792610841781e-02 2.6773578705079854e+02 -3.2692973619033289e+01 -4.0320537221934637e+02 9.8419582483204671e-01 8.6653746341525107e+01 -3.4439022894468621e+00 2.6169123451362319e-01 -1.0253390099307348e+03 2.6336957841258946e-02 3.1560157290984450e-02 4.1815146511643593e+02 1.4123172913161025e+03 3.7503752284239106e+01 -1.1947000638416704e-02 -3.4391968916891669e-02 9.1299308549598464e+01 -1.0214204847922003e+01 -2.9148183556594148e+01 5.1754881495010396e-02 1.1697108076546874e+02 1.5021093924273236e+01 -3.8094338355938009e+02 -4.9428184067099513e-02 -1.3147687085622106e+01 -3.6500602327942362e+00 -2.5414060741938843e-01 -1.9059710231359713e+02 1.2899144463013176e-01 1.6134892561307568e-01 3.9031754825721146e+02 -1.6156900657228471e+03 4.0367408683245557e+01 -7.0446606698080907e-02 -2.1067969788265733e-02 6.8098362026986433e+02 7.8606065187804674e+01 -4.4991656830485836e+00 3.6135782183186738e-01 -1.1318862232294446e+01 5.1975852972672492e+00 2.5960298353577605e+02 -2.9742145704548484e-01 -1.9979330584910358e+01 1.8523005281727492e+01 -4.8405158889574967e-01 1.1942508153474514e+03 6.3236116636343570e-02 5.1839747259958058e-01 -1.7998656267165595e+02 -1.3845487182640311e+03 -1.0563824990934476e+02 9.2204580812103740e-02 3.0562080384715133e-02 -3.6666669055151573e+02 -7.3097983851446543e+01 -9.7594367176230623e+00 -5.6813619354745537e-01 -2.5860455999502472e+02 6.4423035491855700e+01 8.6356380830491958e+01 3.7018166601641289e-01 -4.5557410319294256e+01 9.6802131281242043e-02 5.7895351798364955e-02 1.6734109500302924e+02 -6.6492361519140841e-02 2.7007164962897112e-01 -7.2199231784138169e+02 9.8385207833606182e+02 -1.2697297984687101e+01 5.2330265309153568e-03 5.0108978164300495e-02 -6.3908248481423584e+02 -1.1968666783125775e+02 -4.8333048617722110e+00 -5.3892933908597085e-01 -3.1702384259831490e+02 2.0078398656778432e+01 4.9255353144563742e+02 1.7777555757678054e-01 5.2805178692641164e-01 2.6453093935423208e+01 2.0734557097650388e-02 -3.6828372516838840e+02 -2.1027523847387039e-01 1.6768104740935161e-01 -2.4823646111414561e+02 8.9327241573723950e+02 -1.1696469624153197e+01 -3.7832433180759045e-02 7.3204794105505835e-03 -1.2035192539220570e+03 -1.4259227510570510e+01 9.7633650613815899e+00 -6.3904162759303640e-01 -7.1299084786232174e+02 2.5678183243736168e+01 -4.5102565076288192e+02 -4.7691902298178851e-01 4.9430591097827275e+01 1.3598063252118268e+02 -3.7653060679139712e+00 -9.7656240872419602e+01 -5.9099344981237900e-01 5.6921231071278644e+00 -3.2476900152699554e+03 -3.1432584059740225e+02 -2.4586152729572643e+02 7.8826167868234620e-01 3.8684732402253630e-01 -6.5284788358084134e+03 -1.5709307551958162e+02 3.1495543700207850e+01 -6.2140353311785930e+00 3.5736309997141814e+02 1.0893311031565071e+02 -2.3389104228637086e+02 4.0668409059918389e+00 4.7225576681676910e+02 6.8775902087592993e+00 1.6009576526112717e-02 -8.3508050508451367e+02 -2.6300467160342747e-02 -9.2712226109202146e-03 8.2686280256330392e+01 -4.7514563844392562e+01 6.9388540777579820e+01 -2.3546330015066414e-02 1.4929301936036332e-01 8.8981758211665039e+00 -1.3626579325680838e+01 -3.7101468564889517e-01 -1.9151424046507562e-02 3.8809948907184076e+02 2.5238085502503225e+00 1.3085241850935745e+01 -1.0808843888782993e-01 9.5385241841438528e-01 -2.1905614304605418e+01 
      </Row>
      <Row Index="30">
        -2.8990834722648628e-01 -1.0765584134611572e-01 -3.7986352093793045e+01 4.7297798528538534e-03 5.2403979999717097e-02 -6.2368796347540467e+00 -9.9959730736911297e+01 1.6319334479092049e+00 -3.5882322338395389e-01 -2.5951951310738321e-02 -1.1237850215027738e+01 2.2660491886548698e+01 -1.1583058035466820e-01 7.4672651524451794e-02 1.9161290377746411e+01 9.1872797202086076e-01 4.7134394172579050e+01 4.5154102458127454e-02 2.2776949849794619e+00 8.5933535126969218e-02 -2.9288768796504883e-02 -3.0957538893679157e+01 -1.4304231469623119e-02 -1.2553080558291185e-02 1.9053631313145161e+00 -1.4277129591247649e+02 1.4723556041717529e+00 -6.0977661853485188e-03 -3.3528098154330128e-03 2.2966698640357208e+01 9.1794423875614157e+01 1.4437702706107565e+00 8.2722980696566029e-01 3.5214641474399273e+00 -4.2110598034923896e-01 -3.0365854045696963e+01 -8.0488926409828479e-02 -3.9789099713344198e+00 -8.6013959324402789e-01 7.6453029413043272e-02 3.8404438114230743e+01 -8.7855675027011110e-03 -1.5090574265786927e-01 -6.2299282754626155e+00 -9.4971107192156410e+01 -1.8499784388070883e-01 -1.6959311812212471e-03 9.8160410670511070e-03 3.5515318730823793e+01 -1.6373742708152850e+01 1.0217455887479983e+00 -6.6253847251281650e-01 3.7654270179099186e+01 -2.3458323063627340e-01 1.9965564805472440e+02 4.1623044135940764e-02 5.1970748339255035e-01 -4.1574197035029564e-01 -1.9921011860027697e-02 5.8284074084157851e+01 -7.0906284584988134e-03 2.1779073165063383e-03 -5.6597113475203514e+01 2.9550079214053543e+01 7.0380409420428369e-01 -3.5699888083001712e-03 -1.9513907879174369e-03 -5.9699475274949299e+00 -1.2120811156222704e+01 3.0829265728980881e-01 1.5189500190949137e-01 3.0711094888202268e+01 2.6555387660796264e+00 1.6759586149957499e+02 3.7628033915098058e-03 -1.6685374515041929e-01 -6.9696076262878703e-01 1.3144930722365205e-02 2.6899222075422234e+01 -9.9477777832997945e-03 -1.8151250790804713e-01 1.2452047946031801e+01 3.8856822398968418e+01 -1.3055929224007186e+00 -8.3217530356789179e-02 -4.1744570405748034e-03 8.6993454978939297e+00 2.2820809091373562e+01 -3.9731300917619139e-01 4.2210070311279385e-01 2.6267598311573380e+01 -1.7920938706742897e+00 -9.2667324765088779e+01 -2.1537587213274402e-02 -3.6591530813586530e+00 1.0995792215875380e+00 4.2500813562449349e-02 -9.9215319228708800e+00 -7.8539479388229326e-03 -3.9140848221426217e-02 9.1008644208412259e-01 4.9059942723087616e+01 -1.2941708966953938e+00 3.6672087500972091e-03 -1.4540435667164536e-04 -5.6502527277916670e-01 4.9950923412606727e+01 -5.6767292539989622e-01 8.1722633375554465e-02 5.9909196421504021e+00 -5.3162687805537356e-01 -2.4474991120272591e+00 -1.0827490089426767e-02 -5.0587324411532677e+00 -7.6427394500215762e-01 -1.0716959893855195e-01 2.3743697158679453e+01 -3.0582626787326117e-03 4.6143645280788667e-02 2.0243407097854220e+00 1.7562059051151351e+01 -6.6979253607172684e-01 2.6938606328060825e-02 6.7687490560316031e-03 2.7026854769752351e+00 1.2401760484361638e+01 -4.3600359019238577e-01 -2.7636498140218368e-01 2.1331861527755223e+00 1.1087739313801652e+00 7.4659877054112030e+01 -8.5834544828976359e-03 2.7430678174847607e+00 -4.0327765714299557e-01 -4.1662058874682006e-01 -8.2181156096748964e-01 3.5839900227271800e-02 4.9137730218894490e-02 2.5537777484336402e+01 1.6940933783838568e+02 2.9067384894539625e+00 -6.1805341420668403e-02 -4.3329455575110323e-02 4.1082209374289960e+00 2.0560468395644246e+01 8.9456172794415956e-01 3.2570855629825990e-01 6.4044070052633657e+00 1.1009695140144196e+00 1.6131213109169835e+01 -7.8090328555973226e-03 -7.7433014374223053e-01 9.8427102313766757e-01 4.2332965100171295e-02 -1.9078793473218653e+01 -1.3830785218233483e-02 -7.6031280298802059e-02 -4.1862020736338010e+00 2.1262734018500808e+01 -4.4297655008790828e+00 3.4024196040068413e-02 2.9611140754704788e-03 2.0339580387753653e-01 -5.0522435576329201e+00 2.4096699982354788e+00 1.9729307139140451e-02 -1.8947296972399499e+01 1.6830925971845394e+00 6.0683105051386619e+00 -2.3441906146207364e-02 -6.6480271701501037e-01 8.6830384602890875e-01 -7.5790916108723835e-04 -2.4361097399059247e+01 3.5968436080750565e-02 1.1159003868104843e-01 -2.6586632119793840e+00 1.5612365237284919e+02 1.2375255467327242e+00 -1.8560207615224041e-03 7.3091444455532163e-04 -2.0175559372954126e+00 -3.2295360386745891e+01 6.3097745208689382e-02 -9.5877095025741238e-02 -3.2498082978652285e+01 -4.1578485212191003e+00 1.6335072115306656e+02 -1.9183340844727385e-03 -3.6735885399725010e+00 1.4367051025067445e-01 7.4650111736144692e-02 -5.4234436880811813e+01 2.4218644087071152e-03 -2.8300132499151420e-02 -5.3268214441759667e+01 7.9122505351471204e+01 -6.2479251412809900e-01 3.1823655550266568e-02 6.9670964797296535e-03 -3.4452252063198337e+01 9.9234718765040029e+00 8.7527061170008835e-01 7.0726278991106772e-01 -1.0838523396666258e+01 1.5907177541514033e+00 -1.6509159851696441e+02 -7.1496644608867621e-02 -4.5771398028286292e-01 2.5452081147278935e+00 7.8559377149242482e-01 2.4461267405300461e+01 -9.0256129299839005e-02 -1.6302659934887642e-01 -1.9833617661028313e+02 -3.8603330782042178e+01 -9.7467103394719246e-01 7.2793300096546942e-02 7.3497477686097101e-02 -1.6803250894450341e+02 -8.1399037953980766e+00 5.4584725585645906e+00 -2.5454075337050597e-01 8.5772204247580532e+00 -1.7248100229185116e+01 5.0115788222882486e+01 -2.8092290014668642e-01 -1.8228683589890650e+01 7.2081798111354656e-01 -9.0119858529672074e-03 -1.1339794082388300e+02 -1.9949797123027871e-03 -9.2544405017083980e-03 7.8451189937574028e-01 -7.1542800911120267e+01 2.4627619097906428e+00 -1.0180009199022745e-01 -1.7307117970347799e-02 9.4820600238874397e-01 -2.0598789134365889e+00 3.2216475423373703e-01 4.8096375756590528e-03 3.4088825657075006e+00 7.8968797891606846e-01 6.9692044528858332e+00 -1.3378768212935314e-02 1.2644149328250798e-01 6.9116132288511153e+01 
      </Row>
      <Row Index="31">
        -6.2248244912939654e-01 -1.1849521603007673e-02 2.3755941768020477e+01 -6.8316893889152727e-02 4.9859770009544682e-04 -1.0038065285279263e+00 4.2173021015012637e+01 7.1441424492865124e+00 -6.8780608699220966e-02 -6.8937138050718149e-03 -5.8621661790241077e+00 4.4541777659178479e+00 -1.4742870852547640e+01 3.4493440686333088e-02 1.0388176814553080e+02 -2.9944602718423994e+00 2.5948913439176977e+01 -1.6783111672251039e-01 -3.0170136505985283e+00 1.2193172405932273e+00 -1.7856059319115047e-02 2.3709316070613568e+01 -9.4926874138678841e-03 -1.3640780659621043e-02 -4.1300131547614001e+00 -8.7557364073618373e+00 4.0162869390187552e+00 -1.3428909991503701e-02 -2.3582662205688435e-03 -8.3328482405260900e+00 1.4437702707073186e+00 3.4407929512762699e+01 1.6735090142969519e-02 7.0962829761448702e+01 -1.2125360212739906e+00 -2.9260602887187240e+01 7.6285897013406156e-02 -1.4814757396687268e+01 -7.8694251030306162e-01 1.4324926036921530e-02 -4.6123796946789071e+00 -2.9452076169586928e-02 -7.1592983921959785e-03 3.1233710361551761e+01 1.0917724663409345e+01 5.5455981979298752e+00 -6.8739943372362689e-03 2.5491006077926854e-03 -1.7233648017579743e+01 -4.2088476877764736e+00 2.2193656792127602e+01 1.5406773626373785e-01 7.7349178342641153e+01 -2.1558767123424234e+00 -1.1845282938618450e+02 7.5184582368884201e-02 4.2348875292160244e+00 -1.6811557341924075e+00 -4.6115271453001275e-02 -1.1450792518897345e+01 6.8159420072462062e-02 1.6005177743333383e-02 -2.2004452164401300e+00 -7.4417799853008006e+01 3.3840446473738606e+00 -7.0088359520440618e-04 2.0146367189116383e-04 5.1134903507513307e+00 -3.2163842377638456e+00 -2.7127494926396607e+00 -9.7878818539009343e-03 2.8465137877516039e+01 -2.0508031192630352e+00 -1.0096632267532019e+01 -2.0532415695697637e-02 2.2229491229957232e-01 -1.0798677394294229e+00 1.1359039672305841e-02 -7.0815402558857556e+00 7.8297234646605984e-03 2.2185809628018256e-02 -3.7934461306191380e+01 6.2628658295016351e+00 -4.2828608799563552e+00 -1.4768304134837462e-02 -1.5464935006935349e-03 -2.4441734691319418e+01 3.9408557430301858e+00 -2.2025486598485415e+01 -6.2577261165418258e-02 -3.5128112580555921e+01 -3.5008953520125976e+00 1.0832397192946228e+01 6.6882920814110458e-02 3.8078322344867708e+00 1.0169786982050080e+00 7.2164120912859920e-03 1.0523179165109227e+01 3.0868950303075092e-02 6.3239229916970466e-03 -1.5598977937277082e+01 1.7113137739654533e+01 -1.2491478648880827e-01 1.5600691821370228e-03 -1.7101244668692394e-03 -1.3327404372277670e+01 4.9120061100952110e+00 -3.3157902333283422e+00 -1.8132552483435337e-02 6.6897144468268380e+01 3.0702215944915721e+00 3.5494639295272989e+00 -1.0919156446478956e-02 -3.2343394290907881e+00 -1.0212515074570849e+00 1.2043329155017862e-02 3.9299701814758677e+01 1.5726852402937759e-02 1.9690123411219590e-02 -4.8194656976771363e+01 -9.6569255298524936e+00 1.4517851441217089e+00 5.4933623024049846e-03 4.9792650357302875e-04 -8.6561137117719369e+00 -8.6288120974256444e-01 -9.3811460433807738e+00 1.1659619665025628e-02 4.9157960236458393e+01 -2.7304621917745409e+00 -8.3454179214123592e+00 2.8474255451542731e-02 -1.7726275042089494e+00 -8.6514877526150558e-01 -1.5027803206608265e-04 2.8493271136319891e+01 -3.2636554430613904e-02 -1.5362344588271383e-02 -1.9484591189597268e+01 9.9259721860470904e+00 4.4273746121192321e+00 -1.2084608281892438e-02 -1.5380015657799895e-03 2.1562354953166505e+01 6.3493824751601453e+00 1.1620073220826468e+01 5.0013111523709852e-03 -1.7634482453785189e+01 -3.1020848624277875e-01 2.7733816729626398e+01 9.9841047972986929e-02 -6.6956308141910537e-01 1.5320281459774832e+00 6.9487787031726644e-02 4.8000833848075736e+01 -1.0091893918910533e-01 -5.8262844667938268e-02 2.2758465934537483e+01 -1.1809393773330552e+02 -6.6384112605482120e+00 -2.3033988581320101e-02 1.1102605107430122e-05 -1.2293486801207752e+01 -5.9541817513068001e+00 4.1599476322030746e+01 1.9611539593218594e-01 -3.9522378229706391e+01 -3.4756196228897798e+00 5.2200083166878201e+01 3.3578515208290749e-02 -6.7265729388884345e+00 2.0757413735004215e+00 5.8071733519896550e-04 -3.2231198373920172e+01 -5.6120050158181167e-02 -3.5864646396265604e-02 4.7434665929507226e+01 -2.3146813531646188e+01 -1.9969133295674122e+00 6.0188360113030076e-03 -5.9491061842026295e-04 -5.8398548395348939e+00 -9.8602554783436798e+00 -1.7406712643018800e+01 -8.7175055993082867e-02 -1.0238374645329984e+02 -4.6475681708484329e+00 9.3182874897351780e+01 3.5793410241164385e-02 -1.7591487802755505e+00 -3.7354651098302463e+00 4.1106640891313002e-02 -9.4134835508249708e+00 1.3465530254741179e-02 -2.1866371767586327e-02 -3.0763479480443571e+01 4.4389145009710141e+01 -3.0298811592942654e+00 -1.9728421496155203e-03 -2.1176354020916548e-03 4.5982749056219738e+00 -4.2459184322715373e+00 1.5881593111193574e+01 -6.3657196362634505e-03 -3.1214793012748082e+01 -2.6684138858755668e+00 4.7520503007299723e+01 -7.6412998357668835e-03 -5.4306633940205575e+00 -2.8263461633803892e+00 6.9639046518414116e-01 5.1975838834935644e+00 -7.9361537345747890e-01 -7.0875508784679997e-01 5.2212694019122736e+01 3.0856444909565539e+00 -1.0783675571990706e+01 -2.2543325418389382e-01 -2.3691725601101721e-02 1.9162394710294620e+01 -1.9535132133491246e+01 1.2183781893432384e+00 1.5829431787038715e+00 -2.3741885067319203e+01 -1.2138986809207852e+01 -9.3778755302640384e+00 -2.3586407461572145e-02 8.3539382999840157e+00 6.5447869979888695e-01 -2.7125817628113614e-04 -1.8103967480387809e+01 1.7004318922507398e-02 1.5916098483927869e-03 -1.8578260077263489e+00 5.3122743616922738e+00 1.8995757806045659e+00 -1.8837006505253974e-02 -1.8039717997352517e-02 -1.4545471680264295e+00 -1.0328020721737943e+00 4.9411881974311518e+00 1.6657336708961932e-03 1.8793788709980355e+01 -2.3971728367265310e+00 -1.6960464686984267e+01 2.6437338617624973e-02 4.8188130376151150e-01 -7.2221073712893480e+00 
      </Row>
      <Row Index="32">
        -5.7888384562396311e-02 2.1825890928414804e-02 -1.2020056573313695e+00 3.7836286657149262e-02 -1.7100389598592780e-02 -2.2834205530429941e-01 -3.8284742226533126e+00 -1.4032154669956221e-02 2.8613118757897037e-02 -1.7577991944024249e-02 8.9020222920294323e-02 -4.8515444404984009e-02 -8.7894968361979409e-02 1.2173568597529538e-01 6.2617997223180737e+00 6.0957815441270213e-02 -3.3867878410383128e+00 7.6865739762169483e-02 3.3487054535407879e-01 -8.6832712395334966e-04 4.7628211469763926e-02 -4.1946935502364795e+00 3.4981729146803531e-03 -6.9544486748596590e-02 -1.3446816313080490e-01 -5.1219331785098348e+00 -1.7241133326024283e-02 -3.1702934175829256e-02 -2.7286981898498555e-02 -3.9805497864906769e-01 8.2722980702601490e-01 1.6735090136876352e-02 2.8132447819655604e+00 4.7168177616229272e+00 -5.9874271002627211e-02 -5.6362528229669806e-03 -1.6538809393218647e-02 -3.6575419476684279e-01 -6.4478552665445055e-02 6.8995715061611951e-02 -1.5120472894680255e+00 2.1600748878885696e-03 -4.1065311829800777e-02 -5.6755668285523342e-01 -4.5444627554651333e+00 5.8208479693663780e-02 -3.1797036456377666e-02 -1.1512111831886381e-02 -1.0187797121179116e+00 6.5653888130161597e-01 1.0832003978415483e-01 -3.0698416310168009e+00 -1.8395367397541007e-01 -7.8605804628738341e-02 5.0691636744944901e+00 4.9129503933839025e-02 -5.0767505085096032e-01 1.4905639822280081e-01 -1.7896861004109327e-02 -2.8176091692704688e+00 -1.4056813899438594e-02 -3.1784640013411108e-02 -5.6178242485111696e-01 -2.7420344318864807e+00 -6.2747631904192414e-02 8.6201827971963269e-03 8.8312383062730555e-03 8.2586773322443241e-02 4.1399879066587708e-02 -6.9397951450744788e-03 1.0153439511116384e+00 2.3121809184695863e-01 -7.9454412447043987e-02 1.4038172788686339e+01 2.2900838342820862e-04 8.8651721429002794e-02 4.9605960662613136e-03 -3.5577528589998131e-02 7.2425109599799953e-01 4.7379947100898087e-03 -9.5511560677974630e-02 6.6275482469310032e-01 2.2800495924848576e+00 1.3561134982448306e-02 1.6083216597379164e-02 5.8851601155748643e-03 -1.6235033394791643e-01 -2.5089588866619827e-02 -6.4021722776191448e-02 2.3999654288385619e+00 5.1173610348140040e+00 -4.6929464550455435e-02 7.1331430328763687e+00 -6.1602642124344610e-02 1.3766058656267699e-01 -3.8444183172442137e-02 2.1811799387169845e-03 -1.0655758957590677e+00 -6.2081690022731950e-03 -1.3058434437002338e-02 -4.3050813338859850e-01 2.8214215136313214e+00 -2.1714941048954439e-02 -4.3255717901393402e-04 -5.1166158815356432e-05 -4.0358492721134098e-01 1.5991837609762527e-01 -2.5333881884677834e-02 -3.0113421227794823e-01 6.3267906271212269e+00 2.1293012604643580e-01 2.6902406828614573e+00 4.4751472279934285e-03 2.4989825962349244e-01 9.6077574381284586e-03 3.2310847421443710e-02 -5.5870411252567891e+00 -1.0315627416449806e-02 1.4531989075873082e-02 -3.9289281975117429e-01 2.8073320321059954e+00 -2.1386894770707210e-02 -4.8512937249245852e-03 2.0229798730959426e-03 -3.8260910431902523e-01 2.3691371471839862e-01 -5.6542048070633372e-02 -3.7824073785198775e-01 -4.6645129538235608e-01 -3.5814305402717572e-02 9.2670259524763630e+00 1.1690398748353353e-02 3.7785834498506410e-01 5.4156714105828688e-02 1.9780464393998543e-02 -8.6954905222410162e-01 1.8736190762246646e-03 5.9452681733888214e-02 1.2852630267616405e-01 -2.5083355400529399e+00 -4.6305946834728107e-02 -6.8912580223325680e-03 -1.0746351253650525e-02 6.0380785294000816e-02 -2.0040227419741560e-01 2.2014332998683883e-02 -1.1083804707461653e+00 -3.3600474121155557e+00 3.8159754182623296e-02 3.2039284226329414e+00 -3.1479261050418539e-02 -1.0346177950612834e-01 -9.0173494520291997e-02 -9.1307432825614484e-03 3.0680992113153307e+00 -1.3027048336239746e-03 -3.5067605140745077e-02 6.4092745114454464e-01 -2.1730263768336897e+00 4.4088711680477642e-02 -4.2679233137689430e-04 -1.4696142668437547e-04 -2.6941170192228325e-01 1.1562213369005203e-01 1.9843714628666811e-01 1.4394937396103960e-01 7.1742513752595087e+00 -2.5768688665341538e-01 7.0220668783823967e+00 -1.3598824405414534e-02 7.0811446789015298e-01 5.7168751806551121e-03 1.6516870341271535e-02 1.0951460926583323e-01 4.9126789974638790e-03 5.2752392982214853e-02 5.2258727070910460e-01 5.1071632003060685e+00 -1.8866740656672931e-02 -5.1587191696140589e-05 -4.4698605514414888e-03 -5.3810041129966102e-01 3.8310488895827699e-01 -1.3783143380375229e-02 7.2791408546765257e-01 -6.1623279715335046e+00 -2.6987584342427312e-01 1.1371076624937189e+01 -1.0259441890959186e-02 -5.3192290320876356e-02 7.6270263015166928e-02 -7.8300069947765283e-02 -1.1709685073537699e+00 2.0837506713438430e-03 -1.5476656773657185e-02 8.4996671290583414e-01 2.2767290201027635e+00 -9.8790495588209043e-02 3.0244704575610588e-02 1.3191901463545066e-02 9.6505511051777948e-01 1.8571389979371755e-01 9.4201501810823651e-02 3.5065304993219590e+00 1.4235207666786273e+01 -2.0752991250494990e-01 -4.3283305340825926e+00 -1.0304292530559647e-01 1.8361972714511223e+00 6.2873046185916159e-03 -2.4335795020475243e-01 -4.2940555612712927e-02 -2.3478632731693989e-02 -2.2212398360808544e-02 4.6483888241722013e+00 -1.0354082507438633e+00 -3.5356560853518337e-01 1.3404639411918026e-01 3.6266996419074791e-02 3.1163005646470481e+00 -1.2902465217337173e+00 4.2303493313236862e-01 3.6493528511595423e+00 2.1496629975355859e+00 -1.1834808649154844e+00 1.2213596352891187e-01 -2.4570242381033508e-01 2.9891724069916705e+00 -2.2636834642105308e-02 -1.0916807455214591e-03 -4.9628158470927346e+00 1.8515848416384532e-03 -4.0966494315108747e-03 -1.2947078457608008e-01 7.3160238636625263e-01 -5.9225266275797099e-02 2.7893691176518408e-03 -8.1650833909143895e-03 -5.4929868852492625e-02 6.2920070652155338e-02 1.7550194278498264e-02 6.1222158096976315e-02 2.1081922235454442e+00 -8.5687806782526188e-03 2.0554185807006320e+00 -1.3062200923524562e-02 -1.1189413457306641e-01 -7.0501984397569128e-01 
      </Row>
      <Row Index="33">
        -1.4825788372482566e+02 1.9296152237966453e+00 2.1852563408947417e+03 2.9645748148650939e+00 7.5154990983797432e-01 -2.5830599069201747e+02 -2.2434865657091141e+03 4.7757584244027385e-01 -1.0543868852314450e+01 2.6037516757891073e+00 6.0112997754018090e+02 -5.5779218733310699e+01 1.3993230588734150e+01 1.6750780076603405e+01 4.9073090962752045e+04 -1.2071851022541523e+01 2.6982564561367035e+03 1.7362767809536308e+00 -5.1013548593595624e+02 -2.0307154115289450e+01 1.2637194420094602e+00 3.0818371185362339e+03 -7.3588558137998916e-01 -3.9190462787519209e-01 -7.9263425207138062e+02 -3.0999100964032114e+03 -1.0215991973876953e+01 -7.8934268727607559e-01 3.4877270037660546e-01 2.9364277171459980e+02 3.5214624330401421e+00 7.0962829915806651e+01 4.7168177767307498e+00 8.5803006664097338e+04 -4.3568110838532448e+00 -8.7192482516759319e+03 -2.9291556435705086e+00 -4.3472743507318010e+03 6.0208603040330772e+01 6.5733198887682087e-02 4.1449798137425387e+02 -8.5628710832100052e-01 -7.4682339685386978e-01 1.8058250530005248e+03 -1.7945448276432578e+03 4.2623313197183609e+02 -3.4722090983391452e-01 3.2133000782716165e-01 6.5295051817410149e+02 1.5265506285367348e+02 -4.6332125956616380e+01 -8.2797460606250386e+00 6.0381018985919669e+04 -2.1026295881295030e+02 -3.0931989746871568e+03 -4.6666831676094471e+00 8.6514051408393868e+01 -9.2778330624246223e+01 -2.6857417659583471e-01 1.8752809993329870e+03 -1.1913595578214584e+00 -6.9445648365455526e-02 -5.4319916015863419e+02 -6.1943973876928103e+03 3.6685017328884783e+01 -1.0890087934844370e-01 2.0014167526100693e-01 -6.0500523993661068e+02 -7.0286582891191145e+00 8.0148975645083294e+00 6.0084595987264873e+00 5.8055064582716259e+03 -2.4176420171057806e+01 -1.7771657397526724e+02 4.2998819658532739e-01 3.0542246498066106e+01 9.3894453917553093e+00 3.6491396543519711e-02 1.4593035546307008e+03 1.4615166544570418e-01 -1.0511498673316191e+00 7.2206177183056570e+02 1.4801525299958678e+03 -4.6449115830732012e+01 -2.5425199817540225e+00 6.0441705355764752e-01 1.9909257532547290e+03 -3.8673009982158732e+01 -3.5960417694081954e+00 1.1247765083988110e+01 -2.8646947708572090e+04 -8.9712602081568988e+01 -4.1525582684344117e+03 -2.8932410219524787e+00 5.6202817799723186e+02 6.9934994920171292e+01 -3.4030421255976739e-01 -1.1989613567335050e+03 2.2128066934330048e-01 -4.4998949009115208e-01 -1.8046853791250824e+03 9.0086714800033315e+02 -1.5063245094841139e+02 -3.2406747170971595e-01 -5.4311734720863238e-02 4.6847592711448669e+02 -5.8381875183126191e+01 1.2754893448390021e+00 2.0798785435445660e-01 5.9333730473041534e+04 5.3119824598779957e+00 -1.3957580419783724e+04 1.2653149608278964e+00 -5.9296763145399822e+01 -3.2895596934729898e-01 1.3029436862597648e+00 7.0097086095246959e+03 -8.6831954608045714e-02 2.6047604283547682e-01 7.1338319023386703e+01 -5.5262084204505518e+03 2.7142615887490200e+02 -2.9399785007640761e-01 1.6891117575232403e-01 2.2924791631083599e+02 1.5015576049060051e+01 -2.0028880719186173e+01 9.9269923095921708e-01 8.3014453374290330e+04 -8.1019928041196522e+01 -8.3705719430868048e+03 -2.5293798578239817e+00 -5.2194731254374722e+02 -5.0211494558423709e+01 1.6788100233999406e+00 4.1236603055908636e+03 4.8337695840279105e-01 1.0814541313795560e+00 1.8096920055896044e+02 -2.2882985043866156e+03 -2.6313176350637317e+01 -3.6133697689261290e-01 1.0735400912687731e-01 -6.8649441435933113e+01 -1.0774915274608784e+02 1.3401718399429832e+01 -1.8754290718620386e+00 -7.7293212713940056e+03 -7.3993693144888809e+01 1.4514242045558951e+04 -4.2637195112029307e+00 -9.8604777322199084e+01 -2.2989602568682816e+01 -1.4361277713753915e+00 5.4638175524315338e+03 1.3690455168845816e+00 3.7268784949311073e-01 2.1431190324515278e+03 -1.0740802085854615e+04 1.4381372475814072e+00 5.6735033759229048e-01 -6.2066706189586873e-03 5.8180041082149000e+02 3.3789782631871731e+01 1.9641139491926992e+01 -5.2995114449744536e+00 -2.5766307843395050e+04 -3.6257775887724719e+01 -4.1271788933996850e+03 -5.7288311655734170e-02 -4.2525851264836956e+02 1.7835159338098947e+02 -2.9310569894194438e-01 -6.6721796211680012e+03 7.4079332268408393e-01 -3.3280587640346637e-03 1.7376326572116168e+03 8.4426618428779402e+03 2.9116078317125471e+01 1.1905610598381798e-01 2.1676273913005151e-01 1.2178585132810767e+03 1.4002965724128259e+02 -3.5606035584228948e+01 1.6275174125427512e+00 -4.9976031332268183e+04 -4.8823140769344441e+01 -3.8037118153650945e+03 -1.5544393240000558e+00 1.8590477644937562e+02 -2.4415378614564540e+02 -1.1539800100365187e+00 -4.3977299139792267e+03 1.5423568397494518e+00 5.8354121870498199e-01 -2.9470139096317729e+02 8.1280704782994635e+03 -2.5221962266925786e+02 4.6532581551580343e-01 -4.6636945164423999e-01 -5.2534503960022647e+01 -8.5491950850379681e+01 3.2646450278433832e+01 -3.7780758269953107e-01 -4.0100431067557511e+03 6.9240940361401044e+01 5.6682932702862636e+03 3.8298628958450078e+00 4.4800768224343568e+02 -4.4671449442845324e+02 -1.8282464079649976e+01 1.6901160727549932e+03 1.4423040120610507e+01 5.1433596832111768e+00 3.9433700727782625e+03 -1.5193343481819861e+03 -1.2764823332368514e+03 -2.7078222921525343e+00 -4.1399932946367493e+00 1.9823515533337045e+03 -4.9317842143737244e+02 -5.0695037391341202e+00 -5.6557480810973743e+01 1.7106543419882270e+04 4.7770648658713856e+02 5.2511485015901753e+03 2.4593993221346722e+01 9.1773256080673927e+03 -1.0130734024075093e+02 9.1828743612000649e-02 -4.3490951239747210e+03 -4.4969613554043927e-02 1.8402421025698952e-02 -1.2584696432888751e+02 -4.3727224395526782e+03 2.5071775236782106e+01 -2.6116773552209382e+00 9.8620617648573550e-01 2.3332262433464922e+02 3.7486707600084472e+01 3.6657640034224457e+00 2.3791954142885469e-01 -2.2472572639322425e+03 4.6303873381723122e+00 6.5966940369670556e+02 -4.6752936260475053e-01 1.6117150044765100e+02 4.3469431097700499e+03 
      </Row>
      <Row Index="34">
        -2.1219422314266581e+00 1.1853622128916186e-01 1.8900505117510886e+02 6.0921413292680401e-02 1.2010646366120816e-03 -2.5055275049706211e+01 5.0956593118607998e+01 4.8348345392248575e+00 -5.3870313202633469e-02 -3.6760384093662652e-03 3.5968344533875431e+01 3.6115484596230090e+00 -1.7331340464297682e+00 1.1458001550272456e-01 2.6110621709940517e+01 2.0962881031562574e+01 -4.2142601760476828e+02 1.7339500421985576e-01 -9.6338295843452215e-01 4.1547342245467007e+00 4.7561971518007340e-02 1.1438216881919652e+02 -2.5590702178305946e-02 -3.6283697852468322e-03 2.2711797667667270e+01 6.3317559506394900e+01 -1.5917764431796968e+00 2.4159332588169491e-04 8.4361894426635727e-03 1.5381751149165211e+01 -4.2110598459839821e-01 -1.2125360211939551e+00 -5.9874271091757691e-02 -4.3568075176162289e+00 5.4489239935064688e+01 -8.0744670502572774e+02 -1.2812660705992018e-01 4.0385143045812832e+01 -1.2232526723278856e+00 2.0837401464260528e-02 2.5635169312292010e+02 1.7438354757552749e-02 -6.0579370556297363e-03 -1.2921498933931719e+01 2.7293560612964683e+02 5.7023025235904545e-01 2.7746981768138933e-03 -2.8132115517628016e-03 7.4237260277623463e+01 -6.4887351920138636e+00 -2.8057866809036502e+00 -2.0193510108664287e-01 -1.6319927749342921e+02 1.3717803061971026e+00 3.6265972292956673e+02 -1.2296000780936765e-01 2.4120373312898181e+01 1.5790937498740976e-01 -2.8891169881064827e-03 3.9037934316860401e+02 4.6983206669502481e-02 6.9268703082321116e-04 -9.3563312763348222e+01 1.3654482147305521e+02 -6.8704672091334889e+00 -1.2488556481686413e-03 -8.9253835176394541e-03 6.3462056413720916e+01 1.7906317896512309e+00 -5.2459959209868523e-01 3.5404350295577758e-02 -1.5439642501931738e+02 7.6781496614890550e+00 -1.3467668284764619e+02 3.5711978156541591e-02 8.0875601713087342e-01 -3.4273010927264247e+00 -1.1053854483159818e-02 -3.0976759514446826e+01 -2.3998505057912810e-02 -8.7729062155156370e-03 8.7696030520130662e+01 -5.3085824767355348e+01 4.0474410157740931e-01 -6.3625537423477249e-03 3.1314019353658792e-03 8.5742584794695048e+01 4.4569895194296585e+00 2.2011826450666940e+00 7.8526349357536496e-02 1.3008733047163912e+02 9.3388673592376445e+00 2.9191791786363666e+01 -3.7974800640611754e-02 1.6527055829088031e+00 4.3254211232933359e+00 9.9983748122447064e-03 -9.7708818997827251e+01 -2.1525594770836994e-02 -1.2886309489602269e-02 -3.6803193558282956e+01 -4.2675123557799559e+01 -7.1119868637893813e+00 1.1544868668383296e-02 1.0975563018295418e-02 -2.4414747670292854e+01 3.2951651654762131e+00 4.8279083452296341e+00 1.0470688514488352e-01 2.4283643402159214e+01 -3.0753124959723401e+01 2.4568467608215437e+02 4.0370157451765531e-02 -1.6889736268808932e+01 -2.4931569337804600e+00 5.0851408453944827e-02 4.4314648603028775e+02 -2.6763704883370279e-03 1.1988671381631615e-02 2.1259324252284735e+01 -3.5228123105977011e+02 1.2996094428099947e+00 -1.7895440352792991e-02 -1.0552700202522110e-03 4.1403637122439370e+01 -1.3823186514040957e+00 -3.5024813938998687e+00 -1.5089412565087668e-02 -1.8888487534387923e+02 1.1297225818711301e+01 -1.7987733139557855e+02 1.1546133395000033e-03 2.0295481768848695e+00 -8.8184354808926602e-01 -3.5342830553865300e-02 2.5546408293102866e+02 -5.2306353164055588e-03 5.5004461050397219e-02 5.0086392802069895e+01 4.0331085006973876e+02 -8.1015569028146672e-01 -3.5380016015383042e-03 4.6155942623490927e-03 4.4913321065250784e+01 8.1378409708087727e+00 6.0190893089118180e-01 2.1987762833596269e-02 -1.2190564694721252e+02 4.6133200371252139e+00 3.6802579014071307e+02 -1.5745603224388058e-01 -5.6594193654167668e+00 2.9344699645044994e+00 -4.7021024840625467e-02 -2.3738177943226967e+02 5.2805027606213015e-02 2.5812080178048119e-02 7.5619463574286144e+01 3.3961608235625437e+02 5.0349572331957049e-01 4.0327353561954663e-03 -2.2224580002204619e-02 -2.4573816161467761e+00 -8.4814283802732149e-01 -1.0813127402659308e+00 1.1459637240074533e-01 1.5425209442212795e+02 3.2721277950565430e+01 -7.2638762294406519e+01 -1.0110037039596721e-01 -7.9250885085074732e+00 6.3546217989511433e+00 4.9916764819742492e-03 -4.1739567368636574e+02 1.4743706822600965e-03 1.7611735586133853e-02 5.2253097133065211e+01 -2.2105126368910305e+02 6.2563916643947000e+00 1.1377986002041895e-03 -4.5271276732893346e-03 -1.2276939898722702e+01 -1.3320294772309321e+01 1.9039340165213099e+00 8.2837548779902487e-02 -3.5583735403048848e+01 1.1126386502474071e+01 -1.2021056100277602e+02 6.7231616870547656e-03 -6.1558332326652732e+00 2.2713438179465619e+00 -1.1260548024042409e-02 -1.6750134934673383e+01 5.3106372950731090e-02 4.5305739373896745e-02 -8.5082056843630625e+00 -1.0107749374708510e+02 -4.2219685806324714e+00 -5.3259847082003774e-03 -1.7769221814219548e-02 -1.8196983484838810e+01 -5.3763380745678937e+00 -1.6397672613948391e+00 1.3212679898743387e-01 3.4899129871952645e+01 4.4670250886824206e+01 1.0282426525985402e+01 9.9679342817967448e-02 -8.6930053246624706e+00 2.4740279172898035e+01 -4.3767458274912513e-01 1.1002968797800006e+02 6.0881927888063625e-01 4.1982580161249627e-01 1.8142103570490622e+02 1.0023144727038016e+00 3.1904159458509085e+00 -1.1407456847811276e-02 -2.4635882668169679e-01 -2.2255582995481669e+02 2.8952709524810015e+01 5.1761618524336583e+00 1.2309898903373337e+00 -3.1650049943674802e+01 7.4243696956836772e+01 2.9987940106567493e+01 1.6293222624046722e-01 -7.0831138382780750e+01 2.6011256790173176e+00 2.2881700620228647e-03 -1.2052958041319994e+02 -8.4935495257525764e-03 6.5014097625349125e-04 -8.9117826880455091e+00 -1.5545830016718571e+02 1.3665263870793745e+00 -1.1159241059290427e-02 3.5790689858187300e-03 -7.8814698220840675e+00 -9.4242346460321402e-01 -7.3969059072742072e-01 -2.3525938520212323e-03 1.5110498323637802e+02 1.3302851280147472e+01 -1.5976138412036562e+01 -1.5137271972195269e-02 6.9538500853900587e-01 1.5410341982368993e+02 
      </Row>
      <Row Index="35">
        2.6375414700863621e+02 -4.4104128337748989e+00 8.9476741530973704e+03 -1.9501203047807989e+00 1.5982037269857472e+00 -4.1869933309690185e+02 1.0807606340408325e+04 -4.1817379780783085e+01 -2.9664810986231362e+00 -5.4783483250222345e+00 4.9286371089894158e+02 -1.4086576108634472e+02 1.1770905214548111e+02 2.6224784678779542e+00 -8.5636538027867027e+03 -2.2697486514225602e+02 6.0817509937286377e+02 -9.9135673785349354e-01 -7.3645760291069746e+02 9.3952953137457371e+01 -1.6304484087741002e+00 1.3799150862991810e+03 2.4891820145421661e-01 2.5415195597452112e-01 1.5818423937559128e+03 1.3162478141151369e+04 5.5063315421342850e+01 1.2056652948376723e-01 -3.1593615160543187e-01 -1.2027809013123624e+03 -3.0365854278206825e+01 -2.9260602872818708e+01 -5.6362562463618815e-03 -8.7192481160050374e+03 -8.0744670511037111e+02 2.1542030630439514e+05 5.9858076526627313e-01 4.9744391116025563e+03 -7.4655300989992350e+02 1.6463676327555929e+00 -5.3136482031826745e+02 -1.9045701138374660e-01 -2.4949342879990581e+00 5.7688177587898303e+02 2.1801104753407584e+04 1.3312394123010336e+02 -1.0208273727053546e-01 4.6182694683710485e-01 8.6939546761729844e+02 5.7885285356988334e+01 -5.6539659383545114e+01 1.0728148930492939e+01 -1.4089558333647590e+04 1.1883635872756395e+03 -8.0943928055182099e+04 5.7248015139344384e+00 1.7415967446371592e+03 2.2283398388784173e+02 -1.3052747555184161e+00 -8.0195895907162412e+02 -1.6463877923930068e+00 9.4179378970603977e-01 3.3589152692854404e+03 -8.9882141839199321e+03 2.6198759705592283e+02 2.3479777388723189e-01 1.0388414845470040e-02 -1.0988182304547338e+03 -2.2019331118576929e+01 5.6661401080695313e+01 -7.3986314154944068e+00 -1.8036430074203450e+04 -6.1312659741120058e+02 -1.2247292751780064e+04 -9.1918078076560050e-02 1.8295690445726188e+02 -1.0259913815656462e+02 1.6339991979720097e+00 5.4316044015185907e+03 2.4254904201880167e+00 -1.7945710806493582e+00 -3.2074863555291463e+03 -7.6041017499648460e+03 -6.0029172567524171e+01 -7.4000795488579429e-01 -1.6326134673554096e+00 -3.5080344312071843e+03 2.6580266565559441e+01 1.9522659689169345e+01 -4.4058333092500312e+00 2.4000844864958926e+04 -4.4556730923611406e+02 -3.9965898250474595e+04 -1.4197246026913253e+00 1.4375123384635131e+03 -1.4091800988082457e+02 2.0826076018918949e-01 -1.1675672913234070e+04 -7.7091524460669869e-01 3.0755670278080904e-02 3.5048978013734131e+03 -1.0319386905988911e+04 -2.2627055832609322e+01 -5.3641293648399579e-01 -2.8485675449960851e-01 8.6150902646780014e+02 -4.4416287906199756e+01 -2.9180452108968716e+01 7.9741606018983369e-01 -2.3493385139703751e+04 5.0057583813413567e+02 1.4116914579140048e+03 -3.4763266219299869e+00 1.0616179389357567e+03 -2.0034545087769291e+02 -3.1495041557914645e+00 9.0393238109457670e+03 -6.4891893629559771e-01 -1.0857178051092702e+00 -1.4436081426285325e+03 -1.7007318645177642e+04 -5.6166164342796392e+01 2.1774883794595667e-01 -1.8800032607241501e-02 -9.6522668271841644e+02 -3.6324882485449450e+00 8.0294318891797346e+01 4.5526223944843496e+00 -1.0586742196662308e+04 5.2377465586384503e+01 2.9927211506877818e+04 2.0202022230931327e-01 -1.9146825826457007e+03 1.0564248504954070e+02 2.9973100534982819e+00 -2.1820934004025185e+02 8.3636533408100755e-01 -6.8549998549848823e-01 -5.3352986754849553e+02 1.0382023618394567e+04 7.3336434369927460e+01 -2.1825171507047259e-01 -2.8628803668273328e-01 8.5293321694433689e+02 -8.9178313328339243e+01 -2.2210365324211359e+01 7.8968673159357143e+00 -6.5251940634250641e+03 1.2675031760963293e+01 -1.9010415541056231e+04 4.3770741474675612e+00 -7.0758584677461477e+02 1.8823886748638782e+02 -2.6729807962729950e+00 2.1230675156165831e+04 7.2403499274577499e+00 1.5208656068121451e+00 -3.3070013448567083e+03 6.2721603733050742e+03 -1.6113142748995855e+02 -2.6589897160202081e-01 -3.6375558143283537e-01 1.9934737920462550e+02 9.3823485764476914e+01 -1.3987194130422461e+02 -1.1416735341515214e+01 6.4886545216608365e+03 -7.8328650163596558e+02 -2.4115837873875083e+04 2.4993072676026968e+00 -3.8488840213752633e+03 -1.1580850703162179e+02 -9.6818337591883086e-01 -1.7621487977013010e+04 4.8706610200778355e+00 1.9964710665738796e+00 -5.1500204998265817e+03 -2.4460661791670282e+02 -2.3329964974915799e+02 3.3831561463092630e-02 -6.1931332967008190e-01 -1.3682817425056937e+03 3.2758237860136546e+01 6.4853409473028847e+01 8.6678791636016950e+00 1.8016927347748864e+04 -1.0188978149843572e+02 -3.2614097901161156e+04 6.1524466081958407e-01 9.9255649105077009e+02 1.3692329186324466e+02 -9.2602389635884275e-01 -1.9752966366493729e+04 2.7950897916172921e+00 -9.6588104356953608e-01 -4.4790887862477845e+01 -5.5787540086206518e+03 -9.1073938303770205e+00 -5.9622368326294917e-02 -3.3344529446590720e-01 -2.2890276817003059e+03 -8.6878007115977255e+01 8.1251886238736688e+00 -2.8073670752317721e+00 -1.1387154847857277e+04 -9.8053627004990312e+02 -1.1318406526182287e+04 -8.0739784125687315e+00 -4.7843186394954873e+03 3.5665981444661156e+01 -2.5637788469129521e+01 5.0513448945743476e+03 7.6121493485905617e+01 1.9099223719498845e+01 -1.7927326874730858e+04 -4.9152677831092501e+02 -1.0582785823188392e+03 -4.8037240691662566e+00 -2.1781489027614764e+00 -8.5131500242483708e+03 -1.2677459917170353e+02 1.7097531322464678e+02 -3.3175257717122349e+01 9.8813005844209983e+03 -3.8755281139782310e+03 7.3205140860259016e+03 -1.3384899719452491e+01 -2.0278759771802859e+04 4.4411492570451649e+01 -2.4002821446011285e-01 -9.3498614551140854e+03 -2.9561969597627202e-01 -8.2749902273989151e-02 4.5890101504787458e+02 -6.0642981715960295e+03 5.5234494652586243e+01 -9.0051101139104739e-01 -3.8098015532024210e+00 -8.4998562835533789e+01 3.0798089220397891e+01 -1.3001921919285110e+01 1.6932084702203085e-01 7.3589389753202668e+03 -2.0944580400181906e+02 1.8600778567661429e+04 2.0573544099683927e-02 1.2608450004513631e+03 6.0128101327218337e+03 
      </Row>
      <Row Index="36">
        3.5719426863660253e-02 -7.5522722489127503e-03 3.1904906536973954e-01 -1.7578643158274881e-01 -1.1097500802636554e-02 3.4890631438429409e-01 1.4257134916842915e+00 -3.0656051089810177e-02 6.0311601570466569e-02 2.4798507639290573e-02 -5.4707105194477901e-01 1.3766138059145305e-01 -9.6616631833967404e-02 7.4225410477737341e-02 -2.7205634792405391e+00 -9.6772497601705254e-02 -1.1663485036697239e+00 -6.5381185651004614e-01 1.2788319343326293e-01 -5.6818835883859720e-02 -1.8865377925109783e-02 2.4856045937849558e-01 -2.2720202446876669e-02 -1.7027412740906911e-02 1.1887158478202764e-01 1.5286611985634408e+00 3.3621463862800738e-02 8.6366355702836017e-03 5.4297405215628439e-04 -3.0469133893727474e-01 -8.0488926227189950e-02 7.6285896994022551e-02 -1.6538809393239262e-02 -2.9291556684259139e+00 -1.2812660673989740e-01 5.9858077675744426e-01 8.6549649210002155e-01 1.8595887979244158e-01 5.4379936158015063e-02 -1.3900708700914730e-02 -2.2040468763667533e+00 -3.9307714566846706e-03 9.7330527522885291e-03 -4.0871378712609641e-01 1.6118556155733472e+00 -1.1189970626988562e-01 9.2393383659816180e-03 5.9740283910657299e-04 2.5426112364032960e-01 2.0578609725188990e-01 1.1332450523339777e-01 5.6549004948143605e-03 -1.5549649835664887e+00 -2.4987861774344644e-02 8.5167396271976514e-01 5.6370110414717789e-01 1.8276379545333621e-02 2.8636321888987210e-02 6.5737769908454161e-03 -2.7574665017514519e+00 1.0699573237880447e-01 1.4747600758992362e-02 7.9779113217955455e-01 -1.1753926296933770e+00 5.4513699660394543e-02 -4.0086081360220941e-03 1.7855059557708901e-03 -4.4665747952497892e-01 1.7335035635639651e-02 7.7780937860721863e-03 2.9492624813815174e-02 4.6404536974052135e-01 4.5320457212018550e-02 -2.1091155119236440e+00 -1.8109622847237006e-01 -9.3668363623583772e-02 1.5722910959352965e-02 2.9505398298708789e-03 -2.9064831022083126e-03 1.7377710310001487e-02 4.2642601915799730e-02 -6.2875690258099171e-01 -9.2599610975925373e-01 -4.4898116487127243e-02 1.9591798725785183e-02 5.4785241938227237e-03 6.6753031445758282e-02 1.0802477456724857e-01 -9.8357309623688938e-02 -9.4127302246060918e-04 1.9394622412985889e+00 -6.3635778079424554e-02 -4.0403847174328167e-01 3.9391672557067986e-01 -3.1137108234338484e-01 -4.9750243501022154e-02 8.0119097749703893e-03 -9.3010594040896599e-01 5.4364954047674698e-02 3.2518916405384728e-02 4.8635572200707378e-01 -1.0178278892714951e+00 -1.2601766682608928e-02 -3.8658850909350528e-03 9.0623480629115386e-04 7.4077872764610220e-01 -1.7736930230671330e-01 -2.7965159187340674e-02 1.2042832994217760e-02 -6.1894002197077498e+00 1.4163359446607565e-01 -3.5950968223051945e+00 -1.3274299543507589e-01 -7.0244916714727879e-02 3.6801092964830875e-02 -2.6378498944675859e-02 -1.6369074428475301e+00 4.1929780137195054e-02 -8.6988737998678779e-03 7.1416003146867402e-01 4.0730537264906950e+00 1.8425027071535184e-02 3.1275165287145594e-03 1.4908175285946001e-03 2.4506353639637724e-01 5.8668757991809532e-02 -3.4542826280193617e-02 -1.9464149083103302e-03 -8.8997108022432769e-03 -3.5772269920322675e-02 2.9552544738440085e+00 1.0118121461308385e-01 9.5901455155388421e-02 3.0641356254398087e-02 -8.5144277376882765e-04 -3.4912184683031455e+00 -6.8457999184893564e-02 -5.6333199198729804e-02 -5.4443481783437164e-01 -1.1413989478131157e+00 -2.9312043414384537e-03 2.2122166219192753e-02 7.1859863499973134e-03 -1.3032192488844885e+00 -1.8042184362411037e-01 4.0706972583570339e-02 -1.0379876902456997e-01 1.7790303697966010e+00 4.3272333188091316e-02 1.2822642954756702e+00 7.5030352112937904e-01 6.2672886710089415e-02 -3.6640198591329415e-02 -2.9924640715121142e-03 1.4713004643205503e+00 2.7300152173465760e-02 1.1507523262996727e-02 -1.7587803636367225e+00 -3.7658097666959023e-01 5.0718733161938243e-02 5.0386235752250237e-04 2.8960924282038017e-03 7.2437767163653211e-01 1.0785645241872643e-01 1.3688621549047320e-01 -3.1170659027761033e-02 -8.9477077809553585e-01 -9.1775181800027972e-02 -9.9526985730777184e-01 2.6715773736147841e-01 1.7599047461838357e-01 -1.0149918641551653e-01 -4.2792427933889864e-03 1.6630576641571899e+00 -1.2308648456132135e-01 -8.5163781360432289e-02 1.2591384045257736e-01 -1.6053310125387554e+00 1.9499513000243329e-02 4.2217603116550418e-03 -1.9856780784794107e-03 1.1331755557279450e+00 3.3030407845551502e-01 -3.0654364463952533e-02 -3.3613034741880876e-03 3.9845302910646319e+00 7.5729143007727262e-04 -1.2795062994215414e+00 2.5461592605153915e-01 1.2177093770508352e-01 4.8331099473160916e-02 -1.4659892966696602e-02 1.1907709303642133e+00 6.2018002616929220e-03 -3.0833114254758438e-02 2.1292978668949081e-01 -2.7965434538587797e+00 2.1194415624267493e-01 1.0638921800155268e-02 -5.9677894233761014e-04 3.6188875252742392e-01 1.1668998397258679e-01 -4.1344089963457398e-02 -1.2039491268654159e-01 -1.6241568394260497e-01 -2.4152862491322136e-01 2.2835090985016122e+00 7.9075541587453252e-02 -2.7038850849395502e-01 -1.2762626495670548e-01 -5.9361348303125200e-02 -1.1095723829036857e+00 2.1042318499617563e-01 -3.4472003943423690e-01 1.6507566497132800e+00 1.1499898692677277e+00 1.0313494540706074e+00 1.1840644296198261e-01 -2.6512857301205121e-02 4.1330421034416744e+00 -1.4591192587328550e-01 -1.5165197202584024e-01 -5.9731391568638692e-01 7.4219230522373891e-02 -4.6358060914387700e-01 1.1971585727763170e+00 -4.2362193828587569e-01 2.9232681290888518e-01 -4.3491694235123085e-02 -7.0582601712336534e-04 5.7911829377584141e+00 3.1079177776608576e-02 4.4122086312290117e-03 4.2174771616226181e-02 1.4199439065381738e+00 -2.2456115332743692e-02 1.2006630983355172e-02 5.2347219984425234e-03 4.6844949693644278e-02 3.8341737385461441e-03 3.2631977987126609e-02 -1.6907651691314496e-03 -2.0889446466502761e+00 -7.4935243395772622e-02 -4.1636052050080252e-03 8.1676012224595390e-02 -5.5560863873163058e-02 -1.4814520997448801e+00 
      </Row>
      <Row Index="37">
        -6.2951752604049034e+01 -6.8602229333919240e-02 -3.7537684371872126e+02 -2.7993065763480734e-02 -9.1701753775189854e-02 -2.7269649916893763e+02 4.4677600052356720e+03 1.3578407633231109e+01 -1.5483712093458386e+00 3.4704646294735630e-01 -3.5966840799567393e+02 1.8050090305507183e+01 3.9918369166553020e+00 3.2025803127908148e-01 -6.7755420916328148e+01 1.9499097224324942e+00 -1.9061698818206787e+02 2.0904424785112496e-01 3.2256628624349833e+02 7.9354033372364938e+01 -1.1701006644580048e-01 -1.1039562536478043e+03 -6.4383918328530854e-02 -2.7143682382302359e-04 5.0699857416749001e+02 6.2977968172943220e+03 2.7060790985822678e+01 -2.7785295817011502e-02 4.5619527798407944e-02 1.3604985564548406e+02 -3.9789099171757698e+00 -1.4814757404383272e+01 -3.6575419365544803e-01 -4.3472743967234583e+03 4.0385143050923944e+01 4.9744391103535891e+03 1.8595888395078697e-01 3.7619615537333066e+03 -1.9614019834291959e+01 -1.3458029411047515e-01 2.1175120238308591e+02 -1.9874324005591310e-01 1.6866658683284186e-02 9.9384921987979737e+00 4.5622470815534361e+03 -4.9729099014861340e+01 3.2817293838226520e-02 -1.4036834535565496e-02 8.3997084282064225e+02 -5.5456981588309390e+01 1.3410577121290844e+01 1.8221224129290858e+00 -2.6561541344624898e+03 1.8506875403958929e+02 -1.7039435388120896e+03 5.5437294307363860e-01 -6.8056246409734307e+00 -4.9795267006564174e+01 -3.8175960096499248e-02 -9.9227223941024261e+02 1.8604656158525415e-01 -1.8514243949385001e-01 2.2566617856919765e+02 7.5250032914497569e+02 3.8745500058755006e+01 -4.7002481284160062e-02 -1.3649230237599903e-02 -2.6462806667615848e+02 -1.9015599652942754e+01 8.8067710860830459e+00 -2.0104088904728044e+00 -3.3882438081334667e+03 -6.8346507057627610e+00 2.3534619182933648e+02 1.5321624846546911e-01 -1.1410932409427593e+02 -9.6756286393892310e+01 1.4430809856263604e-01 -3.8300087811481649e+02 -3.5530206260580399e-02 6.9679193618511964e-02 -1.4014804682255533e+02 -2.3925967042615739e+03 -3.6084527303981395e+00 -3.6181945906845064e-01 1.0049234941167810e-01 -1.6559185997311792e+02 3.0006567769053987e+01 1.2496113923633349e+01 -2.8487463724021493e+00 -1.9571937512776180e+03 9.3876195204275206e+01 2.8597740176474817e+03 -9.7244095660790092e-02 -4.5179203481443278e+02 1.1035213780629377e+02 1.5051331409220367e-01 -1.1219062992484055e+02 1.9403331644178118e-01 -2.1851959692361589e-02 9.1147176745750517e+02 -3.6602347407858401e+03 1.5856901697557886e+01 -5.0833862002318694e-02 2.7190864378056671e-02 1.8864931279420853e+02 3.2808964432581462e+01 1.5458756365487890e+01 1.1698493133498256e+00 -3.5693311642408371e+03 -1.7530767267340384e+01 1.5733171312554998e+02 -3.8933901262397974e-01 8.2778403078019619e+02 -8.2181609916667952e+01 -3.3400113050034469e-01 -3.7033866061319422e+03 3.1503544081825274e-01 8.7934547694917015e-02 1.7688409734039226e+02 -3.4165260559054041e+03 -3.8863606169311041e+01 -1.3498972787605472e-02 1.9565853693888899e-02 -9.0649681705221965e+01 -7.8260722060449410e+00 -8.5062378655091493e+00 2.0319914535615822e+00 -1.1466554270329243e+04 5.5131749749997404e+01 -1.9181564728159683e+03 -3.3819892187847006e-02 1.8236240098851138e+02 -3.8453654154633789e+01 1.7548151135498891e-01 -1.9057312490885961e+03 -2.6554854282016771e-01 1.2712864328376794e-01 1.1553465118631721e+01 -1.6686471363758756e+02 3.1874116986798416e+01 -2.4536776982252442e-02 4.1658482694418950e-02 6.2643508007749915e+01 5.3447829394205073e+01 -4.1593845471468427e-01 2.8228060553642251e+00 -3.3599919687714428e+03 5.7900007654655994e+01 -2.1767914590483169e+03 2.6469690058769668e-01 3.6143269490620284e+01 1.3261354055718687e+02 -7.1577741428253211e-02 -3.4152180336452775e+03 6.9201583852830306e-01 -4.3482769191532933e-03 -8.4589746056894819e+02 3.2611793896521954e+03 -4.6917729848525937e+01 1.3687835431955078e-02 1.6702840628950125e-02 2.1169225345085442e+02 -1.4708277057656119e+01 -3.1895776269828911e+01 8.9868432687089346e+00 3.9557671077128271e+03 1.7194874138514002e+01 1.4205302594501381e+03 -5.1352808379782000e-01 7.6023954715825960e+02 1.3316106172024240e+02 5.9374986159504928e-02 2.4705675798686430e+03 -8.4432753389909410e-02 -2.3598340211975982e-01 -7.9314444603526476e+02 -3.3839327382359588e+03 -1.8289867414677499e+01 -1.0870298442756842e-02 -1.0000653474845220e-02 2.7863458208567977e+01 -8.9353055707547995e+01 1.4797043362082603e+01 -1.1039572896944589e+00 3.6188123431684271e+03 6.8827173472749507e+01 2.3719029275121279e+03 -2.6675256924077823e-01 1.9732206407039888e+02 6.7563290700296136e+01 1.2579294095764432e-01 2.0423995648679445e+03 3.0384872492914106e-01 -4.6891515561294006e-02 -2.7851258932036666e+02 -3.3298213650184671e+03 4.5118448237346556e+01 7.1294227848403002e-02 6.3262961335207694e-03 -8.9791000574252939e+02 -1.2825714741691797e+01 -3.4696371717794328e+01 1.3908525187969398e+00 4.2590764387892850e+03 -3.4546722140347754e+01 2.8276829862586260e+03 -5.3780387107629535e-01 5.4309273092258195e+02 6.7244508502671147e+02 4.1301689782515716e-01 -5.9864915133012028e+02 6.8995409362491555e+00 -1.2035321781346873e+00 -4.1765928002051869e+03 1.0461819260455418e+03 1.3532846245538570e+02 -1.1341306162768574e+00 -4.7595372148303561e-02 -2.7955485602208937e+03 1.3547706372655253e+02 -9.6433354825736828e+01 7.3980022217970145e+01 -5.2076937313068593e+03 -2.8755148266197335e+02 -1.9547995850697932e+03 -7.7898336872039522e+00 -2.4519258026244652e+03 6.6494014844122617e+01 -1.3495971787315552e-02 2.7137091875691212e+03 -1.4558571075496407e-03 1.4863405594485605e-03 1.1435222005820586e+02 1.9969795396303498e+03 2.1192348032935993e+01 -3.3765875575179205e-01 3.6571303274052053e-01 5.2379130884097499e+01 -9.5890754116447461e+00 -1.1781545454665108e+00 -8.1102630602658932e-02 9.2972079344723215e+02 1.8473149983003676e+00 -2.4857816316216454e+03 -7.4554045591456897e-02 -1.8407090965359271e+02 -2.0183622354443526e+03 
      </Row>
      <Row Index="38">
        1.9502316205668933e+01 1.3135208125629561e-01 -3.7697190010552077e+01 6.6391969698188502e-02 7.7186338343492519e-03 5.3707078252560656e+00 -3.6153428264334798e+02 -1.2334746189561201e+01 3.1619578883894972e-01 -4.0849445167143096e-02 -8.5249227761925127e+01 -2.4358026664704084e+00 4.3650777549482882e+00 4.8105511885296437e-02 -6.7330172438878640e+02 1.4543499541468918e-01 -1.7832301204651594e+02 -1.2102794812562934e-02 7.4056719101499766e+00 -4.9534691407228820e+01 4.3542472909393837e-02 -1.0477894248999655e+02 4.2591377628014015e-02 2.3729501909201645e-02 9.4681792445480824e+00 -4.9542136537434999e+02 -3.3680319436825812e+00 3.5845733903897781e-02 5.1889024214233359e-03 1.5072907475527245e+01 -8.6013960256241262e-01 -7.8694250938133337e-01 -6.4478552694708924e-02 6.0208605935744202e+01 -1.2232526860898361e+00 -7.4655301030073315e+02 5.4379935939385358e-02 -1.9614019684237185e+01 1.6942565552777805e+02 5.2969980980766759e-02 -8.9154649411352239e+01 -2.8712676783175503e-02 8.8567680463711440e-02 -6.0106979429153995e+01 -5.0749015345190566e+02 -3.4231776036472468e+00 -1.5614338270059716e-03 8.5395127869303152e-03 1.1095121453059568e+02 2.2126677867187747e+00 -2.2766849071304360e+00 1.7514945848140476e-01 -7.3062154610562311e+02 -2.3006408438702621e+00 1.9747751798222944e+02 1.6917195284605755e-02 1.5070563157961400e+01 3.7354933742874536e+01 -3.6990914788237128e-02 -1.9946157672984270e+01 -2.1934789737071615e-02 5.6684529108105293e-02 -1.5564457923173904e+01 -1.6548501688501571e+02 -3.0011376642272189e+00 -5.9333383282444462e-03 -2.2543949824116493e-04 -9.6918322524867804e+01 4.5944959969705952e+00 1.1894110971912559e+00 -2.2652797920499229e-01 -2.6361456467526779e+02 -3.2312470011475036e+00 -1.4245943697482687e+01 -1.1080814339948120e-02 -5.2528883811188329e+00 7.9438202911918538e+01 1.5607792007949579e-02 9.5350674694982274e+01 -3.1850411215944598e-02 1.0238715083763054e-02 1.6996934509702907e+01 1.8511442837126316e+02 2.8550512007125501e+00 6.6929918967330401e-02 2.9256286914320362e-03 1.3548024908261669e+02 3.6557031994273466e+00 1.0923715635533668e+01 -5.5800662842504956e-01 9.9058456444601211e+02 -1.4159782334029889e+00 -1.0013483341945008e+02 9.2364880201628100e-02 -1.4535097796620697e+01 -5.0684255022223176e+01 3.6789406942508755e-02 -7.3006411335765691e+01 3.3512563426357535e-02 -7.4760796270472926e-02 -2.1261314724999540e+01 2.8461142041544781e+02 5.7295462291942902e+00 2.3791005579291112e-02 9.1173921919303277e-03 3.1632191661745310e+01 -1.3742517380036652e+00 -1.0210765603816117e+00 4.6068566452887350e-01 1.3475531750917435e+02 1.2452127781499907e+00 -2.1938265458069222e+02 -8.8374890519298005e-02 -5.1384953763335943e+00 9.0478197783397945e+01 1.4063973527127205e-01 -3.7640928771396432e+01 -5.3616274090752564e-02 1.5316551959767305e-02 1.1551798108803156e+01 3.4863373816702386e+02 -4.8372535096432490e+00 -3.6532038761297764e-02 -5.1972413609555675e-03 3.1186909131305129e+01 1.1984667090667838e+00 -3.0804764005879975e-01 -1.7879861284239540e-01 6.2024099724866869e+02 -3.4374554085638409e-01 -4.3619223113049316e+01 3.7890484849853204e-02 1.5950660420470033e+01 2.6410516967067437e+01 2.6446539529730612e-02 -1.0020935040203130e+02 6.6363604717714353e-03 -2.8122438863637605e-02 1.9607477793004364e+01 1.8478976392258346e+00 -7.2443936782581053e-01 2.6231754506011288e-02 5.1466406350908775e-03 -3.2048373696394265e+01 -7.5696275999250751e-01 9.4076547982065861e-01 -1.4190268405451481e-01 2.3118400188267697e+02 -1.0310941508505493e+00 4.4619273714130941e+02 6.6926520411032836e-02 -1.9309615697970601e+00 -9.6541606817726702e+01 -7.2447687200672392e-02 4.6870634868770617e+02 6.3079474420058068e-02 5.8378103161956657e-03 -2.4815636541148752e+01 -3.3939456111424312e+02 1.0277827022481526e+01 2.7228213631667808e-03 1.8310864166796073e-02 2.7007067254915828e+01 8.0403895722541563e-01 -1.8248351667678779e+00 7.1377264997750500e-01 4.3445127109983429e+02 -1.0601787793571837e+00 -1.9048390216831277e+02 -1.1410694629692754e-01 2.7509668577182573e+01 -9.1898176223580180e+01 -8.1943794489702029e-03 -1.3696441024095225e+02 -3.8691510239292626e-03 -9.6798784658696808e-03 1.6463990575294574e+01 6.4804165581919938e+02 -1.3110392956384087e+00 1.2138386779439408e-02 -5.5306777616986828e-03 2.7432834461772131e+01 2.2323968624523260e+00 -5.2320978803799552e+00 3.6468621096007359e-01 -1.9417350569664222e+00 -2.5452832455884900e+00 -2.0986208518154780e+02 -2.0874287859064915e-02 -9.9469319225382584e+00 7.5746738723310983e+01 -1.7118133262891883e-02 -2.2664885684028627e+02 -2.5953120498660217e-02 -2.9929489483638376e-03 1.4549804149013942e+01 3.1711600337570314e+02 4.9621966252168779e+00 -5.5186568099327513e-04 -7.0117090800596305e-04 -1.5708224971679090e+02 5.6739936426057307e+00 1.7061203097682869e+00 5.6647074641274331e-02 3.1478693010926952e+02 -4.5916932392716525e-01 -1.2411776993587634e+02 -3.7573323340144127e-02 5.4242635263733440e+01 5.5486208506263097e+01 -7.1752288563181321e-01 3.9635971172010329e+01 4.4994888881679229e-01 -7.6801753550451490e-02 9.9145402962648660e+01 -1.4720948748245883e+02 2.8318134154006792e+01 4.0639681491377189e-01 1.7858345171996293e-01 -8.2169455613145146e+02 -2.6408050094049145e+00 -1.8850362721455966e+01 8.0554509645104702e+00 -1.5075265607507555e+02 1.3281628909956410e+01 1.0909536363056006e+02 -1.4011615792800205e+00 2.8641979191853488e+02 -4.1089043608825165e+01 9.7570655422946715e-03 -4.6015436758257476e+02 -2.4277970864571693e-03 4.2468878790454826e-03 -1.0046549112195095e+01 -1.3786523779824751e+02 -7.2868375788649615e+00 6.8719324000629287e-02 1.1734364712159509e-02 9.6317495483172877e+00 -1.5052386322823894e+00 2.4964579830651212e-01 -9.0136140889025204e-03 1.2526853610518336e+02 2.4860694519993203e+00 2.3069490163181189e+02 1.1269561952501742e-02 -2.0120010019696931e+01 1.4513019386062064e+02 
      </Row>
      <Row Index="39">
        1.0267630221830082e-02 2.9336612462746503e-01 -1.7008235554734341e-01 -1.3161500462342565e-02 -1.4880876197445179e-02 3.6261817613481284e-01 -4.9540499501745217e-02 3.2412132182965792e-02 2.6259510618809906e-02 8.8598928996189603e-03 7.9535066719028102e-02 1.2598114116281067e-01 1.5121214496502944e-03 -6.1915605260686846e-02 1.3741949524703472e+00 4.1934803754202221e-02 -2.7974935686797835e+00 1.6399470753128753e-02 2.1051558080171162e-01 -5.7682766323523538e-03 2.9572771819928789e-02 1.0948835785802657e-01 -5.0136544803729421e-03 4.1192838455997194e-02 1.8691503610898508e-01 2.8269696891811691e-02 9.4519323674830957e-03 7.3677188005660810e-04 8.1192947438268881e-04 -2.4356850498057803e-01 7.6453029408185103e-02 1.4324926036294983e-02 6.8995715061408447e-02 6.5733207683086547e-02 2.0837401476455852e-02 1.6463676334533375e+00 -1.3900708701860970e-02 -1.3458029416826253e-01 5.2969981027558788e-02 2.4487641823102535e-01 1.5994204222819697e-01 -1.7113674069331106e-03 1.1442238883446976e-02 -2.8130776077986752e-01 1.0500197795789035e-01 -1.7340410386742812e-02 4.3208244344087061e-03 2.7693879494928800e-03 1.8454578493096818e-01 -5.8895831754615990e-02 -1.2674747525046617e-02 -1.4699666901065037e-01 7.5352268780719633e-01 4.9226873689519612e-03 1.0954552528191357e+00 -1.0784716219339220e-02 1.5178674494323696e-01 4.4057044199439011e-02 -2.9175144486291490e-02 2.6629570287841631e-01 1.1443205396903262e-02 4.6273946903988119e-03 7.8935101530078100e-02 5.9685420364770181e-01 4.5205082519611361e-02 1.0524208793094188e-03 1.1227205279903825e-03 -1.4942749640623143e-02 -3.5082478177283605e-02 1.2106814782057107e-02 6.4196599623559003e-02 -6.5120245361384832e-02 -6.5549296499728960e-03 -3.3106876510514027e-02 5.8953564493116062e-03 3.5056733416647057e-02 2.9004028782718599e-02 -7.5162993319985383e-02 1.8216857655022523e-01 4.6338942089032067e-03 6.7393659945012882e-02 -1.5517153918568038e-01 -1.3591020992593883e-01 -6.3315392800430415e-03 8.3793289190540327e-03 5.2965822453205453e-03 -4.1148357475956798e-02 9.4949748022372660e-02 2.7258384568357386e-02 1.4142456749095628e-01 1.2520744849630905e-01 -3.8572018921867013e-02 1.0765354100222035e-01 -1.5019075858974794e-02 5.9451394639992827e-02 -3.1038044962687278e-02 -6.1677726173042347e-02 -1.0427812254304669e-01 9.1371753925579627e-03 1.1572736156958904e-02 2.7595316103054301e-01 -4.5448067487361943e-01 1.0844099173407562e-02 1.1433256699134864e-03 5.2785677600865333e-04 1.2183092617124203e-01 1.1224658054153158e-01 2.3772340018322624e-03 -2.0070515554295048e-02 1.0195453181222547e+00 1.4668266540671493e-02 -9.9250852764355812e-01 3.2710440835796769e-03 -9.4099170717527159e-02 3.3834800508271333e-02 2.8514504854123113e-01 2.0281437971692995e-01 1.9948163765923267e-03 3.6724766658044458e-02 7.4997708992105672e-02 -1.6374810696131297e+00 -3.4956476701766215e-02 -4.3296045866392128e-03 -3.3731960096416752e-03 -1.7757277662663495e-02 -5.3648169324262973e-03 -2.1840591117907385e-02 -6.2024214104927672e-02 2.0504588601940377e-01 1.1420542077463472e-02 1.5129134294293345e+00 1.1041672480567432e-03 -1.9436165300216190e-03 2.2572842034179967e-02 -7.6422125324403747e-02 -5.2234730075599600e-01 -1.1254021959224744e-02 -2.7123371746167465e-02 -1.0078078682158775e-01 1.0400287657637364e+00 2.6567080252392142e-02 1.2424957304392522e-03 8.6019086420864978e-04 2.4458845801063944e-01 1.2583421540918077e-01 5.1329770559000974e-03 -5.3886510919041231e-02 -6.4430549787812197e-01 6.7020845235674642e-03 7.8505041815628829e-01 -1.5658235578273234e-02 -7.3050392452982393e-02 -4.9435391142623422e-02 -5.1673633202798464e-03 6.0685107788181192e-01 2.3665352343239013e-03 3.6906760756532125e-02 -4.1059289738000626e-01 7.9434034238992801e-01 -3.0261463273555361e-02 -3.2035768387242624e-03 5.3158350219570773e-04 8.3194308583063953e-02 -8.6427555209646012e-02 -2.2767586144341712e-02 1.6082479162819029e-02 -2.1950238492491536e-01 -2.8732821536215647e-03 -1.1372053322502182e+00 -8.4978939805066978e-03 -2.3129910010718735e-01 -3.6173982030306029e-02 4.8457273923389457e-02 -2.5000428334142644e-01 -1.4763609324160099e-02 -5.3638836170488063e-02 -3.2878762877419021e-01 4.9979819003772441e-01 -1.6462351041879320e-03 -4.3121168979239234e-04 1.8271713668040867e-03 7.6030180873427611e-02 -1.9561974966321599e-01 7.4816598660362166e-03 3.9351890461752879e-02 3.6921651726529703e-01 -5.5095293494260733e-02 -2.1827693122613123e+00 -6.7666197815217186e-03 -9.3662525675975772e-02 5.1964010869544761e-02 1.9587766508174200e-02 -2.7038994132903116e-01 -1.2232709218479602e-03 1.2626747416390388e-02 -5.4810344677951095e-02 5.5310887891747207e-01 2.5466456477596378e-02 -1.2096700405268973e-03 2.1239321028461971e-03 -5.8440043931562990e-02 -7.8883884186629283e-02 -2.1173865712005968e-02 2.1550001380816353e-01 5.0657660975885577e-01 -7.9979728556829333e-03 -1.2141880091917254e+00 -7.3257508494095217e-03 -1.8666192036651807e-01 4.9012926030363335e-02 5.2415742732248499e-02 7.7284309065861478e-02 8.1940848114928702e-03 2.4756843007717383e-02 -6.7096287075756855e-01 -2.8552252997746308e-01 1.4620359098796420e-01 8.8164089059728380e-03 4.9741458726352758e-03 -1.4639698988226968e-01 -1.7417317992401626e-01 -7.0020783315702315e-02 2.9376983773871457e-01 1.7975752147434889e+00 -2.0310707754793378e-01 1.7134660784770706e-01 -1.9458179633225214e-02 -6.2909892318225369e-01 -2.7824847378662483e-02 1.0248092734779697e-02 -6.9757189526015750e-01 2.3510286027879873e-03 5.5477809265699028e-03 9.9361934014279285e-03 -4.0013388551916251e-01 1.4129942063162799e-02 4.3386889464642866e-03 6.1619738039700549e-03 4.3876117340125309e-03 -1.5680870937114899e-02 -2.7347954984074940e-03 5.4217982728830575e-03 1.5827264168876809e-02 -5.0902780531769665e-06 7.8543195750870609e-01 -1.9255044491407051e-03 1.9640798272835602e-02 3.6918249838137379e-01 
      </Row>
      <Row Index="40">
        5.7260499037249247e+01 1.2663754322129535e+00 -2.0673194407911244e+04 5.3773457491115018e-01 -6.5698113655244750e-02 -4.0313159241524363e+02 -1.1053445437669754e+04 -1.0336940016646258e+02 1.6256680686925691e+00 -1.1007845629504531e+00 -6.0718078407225755e+02 3.3420109629631042e+01 -1.1228594705462456e+01 -1.6886977831600234e+00 1.8500838123111280e+03 1.0846091381460428e+02 7.9189357643127441e+03 4.7096682107076049e-01 -1.9808838861063123e+02 2.4784583050757647e+01 3.4445701865479350e-01 1.5022312287688255e+03 -3.6918876750860363e-02 -1.1713816861447413e-01 -7.0111091315746307e+02 -1.2923739220559597e+04 -8.5973632216453552e+01 6.9507552922004834e-02 -1.3887111119765905e-01 -4.1378350997058442e+02 3.8404438182711601e+01 -4.6123796924948692e+00 -1.5120472842245363e+00 4.1449781902720815e+02 2.5635169288516045e+02 -5.3136483383178711e+02 -2.2040468594521800e+00 2.1175120666721682e+02 -8.9154650249518454e+01 1.5994204214075580e-01 9.7349984322312870e+05 1.0525474326206177e-01 -1.0448137455387041e-01 1.8424358205099679e+01 -1.2283604174496024e+04 5.0440892624104428e+01 -2.9413938554937052e-02 -4.7710135547540555e-02 -4.9952521326825661e+02 -1.1913503779538814e-02 -1.5003853235996061e+01 1.1398909485951316e+00 3.5581448694874207e+03 6.6146075749429599e+01 -3.7483875912657231e+02 -1.6200385689188384e+00 5.6723895080562284e+02 4.9514692001298755e+01 -4.6299306423757547e-01 -2.7003497698662177e+04 -6.5410707491572739e-01 -4.6463527030865603e-01 3.3883574700355530e+02 -1.3405332760195888e+03 -1.3218930778387832e+02 3.6318611602077416e-02 -1.2930753866421305e-01 -5.6152332596641804e+02 2.2512756070604382e+01 5.0757135445701982e+00 -1.0637723424927623e+00 3.7158137420821622e+03 -6.8475871808282989e+00 -2.1802979563913354e+03 -2.2753357945475727e-02 1.0454778146092991e+01 -1.0225373269045834e+01 -3.3408060226000980e-01 6.3410599186842883e+03 -3.9536518759174410e-01 -1.4820340900843967e-01 5.6265011584616923e+02 5.4280460113401332e+03 1.4190083233355953e+01 4.0225347022567409e-01 -2.4291760159065418e-01 7.4707410796161321e+02 -2.0745013500630535e+01 1.0076857611475617e+01 -1.2233939254607449e+00 -2.5622226421005516e+03 9.9149709504419590e+01 -4.6798527703243662e+03 -9.8251388492963132e-01 8.2312571055224453e+01 -1.2715842836922786e+01 1.1400302137804696e-01 -1.0499490583121988e+03 6.7927837571242211e-02 -3.8189430772050170e-02 -1.2059660922716716e+03 5.7163801912563977e+03 -3.5330434458917239e+01 8.1639723825860600e-02 1.9096563573017811e-02 3.1902287358045578e+02 -1.0990640980711021e+01 2.2868416456236133e+01 8.6119416220321332e-01 -5.5064011573791504e+03 -1.8650052570434329e+02 -8.3570173185406202e+03 1.0702934209701116e+00 -3.3069007825851440e+02 -2.3613394529805660e+01 1.7129050092209459e+00 -3.4250159748107733e+04 -4.3483701160763466e-01 -8.3150157557225324e-02 -9.8054816497226614e+02 -6.8071687597214750e+03 1.8642287384125225e+01 -3.7606862941925043e-02 -2.8674657699268691e-02 -2.2837396134846267e+02 -4.0750728520809503e+00 -1.2750271061153953e+00 -1.2983726812211227e-01 2.2577873745251873e+03 8.5073759576821345e+01 2.3906901766029223e+03 -6.8397039404821813e-01 -3.2769881524674986e+02 1.4642288703723427e+01 -1.4637255596142320e+00 -8.3029252609565738e+04 -8.6384390283271717e-02 5.1645863650305546e-01 1.3549320586100221e+03 -8.5191839541850932e+03 -8.6085514282323118e+01 4.2446563534378257e-02 1.6589464659728731e-01 1.1908975712954998e+02 -3.8543520374796962e+00 1.7047071885375466e+01 -1.8414253907821199e-01 1.5285275327414274e+03 -3.2794033005833626e+01 4.5821354568832578e+02 -1.7834017217525870e+00 -4.9342383111902251e+01 2.6962971275201323e+01 -8.6276728827241703e-02 4.1881460226810101e+04 -3.2495477117580396e-01 1.2738869635322381e-01 9.9118325839103829e+02 1.2450917661633217e+04 2.1130094651515168e+02 -2.0201946213845712e-01 1.0210847379571487e-01 3.8444483205159008e+02 -1.0463685484875441e+01 -1.0505412838288635e+00 -4.9320802412407643e+00 -6.3554818355569832e+03 2.0083467221482744e+02 -1.6702676779840431e+02 -1.9375527322024797e+00 -4.1622728417783293e+02 -1.7005760668258258e+01 3.0004498959504905e-01 3.5123338626852877e+04 3.5207813977712321e-01 6.0894632859758857e-01 1.5094979525530491e+03 4.7377426674465287e+03 4.9521757054089299e+01 -1.7151806295565708e-01 6.8131821208840981e-02 5.6038272572139977e+02 -1.3767827849271338e+01 -1.5068534699734457e+01 -5.0149644865558463e-01 4.3888992556213907e+03 9.1142606443585521e+01 -1.6326951749250575e+03 4.5777340124104760e-01 -3.8943474423281828e+00 3.8506273057359074e+01 2.7445314599913395e-01 1.1404913755351219e+04 -4.4198287097505978e-01 1.6865567340107496e-01 9.2371999460151278e+02 1.6733778533587792e+03 -2.5904762769325771e+01 -1.8072421313543191e-01 8.9095503161292666e-02 1.1151773374053660e+02 -8.9763186971707313e+01 7.8637774855981419e+00 -4.9693240194972956e+00 -5.0854399084431698e+03 1.7924764007611981e+02 1.9301963725815526e+03 -4.9928475256172927e-01 -5.4961297560780281e+02 1.3867036954244054e+02 4.3510337379907338e-01 -1.3776633421860379e+04 -3.8939503398726520e+00 3.7863344741031324e+00 7.5290373716758486e+03 -2.8356372088642747e+03 2.2969723849324868e+02 -1.3533438900322512e+00 2.1140756072472122e+00 1.3999967292588374e+03 -3.0089775896567630e+02 4.0182550630860590e+00 -5.0101507981343730e+01 -2.4855494538848670e+03 5.0345836674835550e+02 7.0562533364423359e+01 -6.4518941679580877e+00 -1.2975732784188740e+03 1.7986221836363704e+01 3.4796976691356105e-02 2.6079046236509537e+04 -2.0678668474029330e-01 -1.0790527410128040e-02 -1.6965521947400828e+02 6.8293167233423637e+03 -1.2387472171252470e+02 4.1043342871350885e-01 -7.4942467808463731e-01 8.6153805035742806e+01 5.6911049306008099e+00 -1.9527787822014826e+00 -8.4396535474324741e-02 -4.5991131596758469e+03 1.0168393841228598e+02 -2.1480575884407954e+03 -3.4259458209210791e-01 2.0394359911905124e+02 -6.7043130063891658e+03 
      </Row>
      <Row Index="41">
        5.4754063989369550e-03 -6.5774265307059210e-03 1.9262885930947959e-01 1.6535599691470657e-01 1.8618772286921700e-02 6.1106991503692143e-03 -8.0768182910469477e-01 6.0851529269136950e-03 -1.3057581953642046e-03 -3.0350445238030932e-02 -6.2565896507286389e-02 -4.3787932639133942e-02 -6.9774517271525838e-03 1.1288067703194571e-02 -9.1781840434887663e-01 -1.5432126966175019e-02 -1.4282726439123508e+00 -3.8393432303873709e-03 -2.0319677993427376e-01 1.3537989136580109e-02 -1.9907351710077847e-03 8.5189996829649317e-01 3.7675719027574939e-02 -4.5188842411603147e-03 -2.0536919289406796e-01 -1.1125345023209547e+00 -1.2510790836131491e-02 -1.5978058161847386e-04 -4.7185687728867887e-04 -3.2017328664502465e-02 -8.7855675108130526e-03 -2.9452076170173314e-02 2.1600748876640097e-03 -8.5628710483135828e-01 1.7438354745308970e-02 -1.9045701166396611e-01 -3.9307714570346527e-03 -1.9874324000172566e-01 -2.8712676784834912e-02 -1.7113674069952900e-03 1.0525474412832647e-01 1.2498916795720134e-01 -1.5539897714149653e-02 1.2810234354094518e-01 6.5330641896573738e-01 -9.0157056326271180e-03 -1.3835893472181797e-03 -5.5143214676434075e-03 -6.7988344141930224e-02 4.7761717982873542e-02 -1.4152527876217791e-02 6.1112007019525447e-02 -1.3923764443711137e+00 1.2864967974055730e-02 3.8034555113425839e-01 -2.6792313987126289e-02 7.3942329048673261e-02 -8.1024016068472759e-03 5.7530685778570505e-03 5.0094935713531186e-01 -1.4025993805934842e-01 -1.8496616005030359e-02 1.6936437141612259e-01 4.9875473889312616e-01 -1.6116373917058002e-02 -2.7583429851572774e-04 -5.2138397949201571e-03 4.9235409253915674e-02 3.5956066518981977e-02 -1.1065632972078521e-02 -7.0993862823094694e-02 5.2027770871292844e-02 -5.7747457501226840e-03 5.8946286335947562e-01 -3.8081223735861869e-03 -2.3837483655422209e-02 -7.0912209652448654e-03 3.6257000996920280e-03 -1.1700945948052066e-01 -1.2368753197323596e-02 -2.2012198812912980e-02 -8.4759576691558675e-02 4.2958727595438617e-01 1.8954566369959428e-03 -2.1953695412332895e-04 -7.0905198152818481e-03 -1.9542896407306376e-01 -1.1677062995624432e-02 1.7524932757702307e-02 -3.0059612627416597e-02 -8.5451906944135203e-01 8.8938422887427926e-03 7.1680514915336779e-02 -1.1277314788084299e-02 4.0688666598722278e-02 1.4143988717960077e-03 4.9287190825694129e-03 1.8622301936123087e-01 -8.2749464295100050e-02 -7.8940202961141504e-03 -2.5018148858502531e-01 5.6246290004969324e-01 -1.7294387946858725e-03 3.9924063747849369e-04 -2.7146481181127601e-03 1.1491394399126875e-01 -6.5312312757040525e-02 -1.0188633969325706e-02 -3.7976906827870409e-02 2.6832900334557053e-01 -5.4226854107360362e-02 7.9959908067000285e-01 6.3078115639205942e-04 -6.3576614813428023e-02 -1.0260428255013027e-02 -5.5051300487129994e-03 1.5411075826645946e+00 -4.2231781645024391e-02 -6.0276125504476518e-03 -2.2568671111610850e-01 -1.0030550345709108e+00 1.4706139365804108e-03 4.8102605524720325e-05 -1.9466136927783406e-03 4.4135959906528022e-02 -1.1631720755806152e-03 2.3362239136076171e-02 -2.2225170041255224e-02 -2.3775277889732624e+00 4.8750495103008079e-03 2.1535183361386885e+00 -6.5025921398658296e-03 -8.7298847379039451e-02 -3.9951110067663201e-03 -1.5301510402271658e-03 1.6291103971474286e-01 1.4182954629251091e-01 1.4611973311220734e-02 6.5476401556566088e-02 1.1638282501478443e+00 -7.8006633375809521e-03 8.5288285058901557e-04 2.7403061005849072e-03 -3.5605404104444460e-02 -5.0101278229966559e-02 -7.9242007837936473e-03 3.5497829085129773e-02 -3.6240888904103485e-01 -6.2056673973529541e-03 4.3508359276557940e-01 -1.0385506783156570e-02 -8.8903259783741362e-03 1.7180835227398772e-02 1.3378929212305214e-03 1.8944147912125331e-01 -2.4645277916758794e-02 -8.7259569244321714e-03 2.0055837004082167e-01 1.8490187766305488e+00 1.2352734304906712e-02 6.8574659508641330e-04 -1.6317748177248504e-03 3.4631670860471725e-02 4.9844515104942033e-02 -2.2510413453412537e-02 -2.9390959407832987e-02 1.4496085088404520e+00 5.4412920260597436e-02 6.1725556830933792e-01 -8.7303986893393533e-03 -4.4569023851262157e-02 2.4032055139039388e-03 -1.7928639857745815e-02 -3.2353275367993861e-01 1.6800112963764655e-01 2.4126747435207509e-02 6.1105598895075275e-02 -1.7647803482998610e+00 8.5455750286196341e-03 9.0832619212854711e-05 2.0349952731711215e-03 -2.1906960748090398e-02 1.0308935160922396e-01 -6.3436412861543889e-03 7.6964093139091888e-02 2.7754132353669281e-01 6.6829359084601359e-02 -1.4311555671774876e+00 1.7227634101311517e-03 -1.1216039090581953e-01 -2.1347193185353230e-02 -7.9942854165616119e-03 -1.9655192589096426e-02 -2.3603524056040381e-02 5.7238326890661165e-03 2.4672949482221318e-02 -4.6915072315017348e-01 4.8177729007141679e-03 8.2583439706832690e-04 3.1596785981763955e-03 1.5817770095515302e-01 9.3996302143922628e-02 -6.5960536076480336e-03 8.9420668678006854e-02 2.0973005401223608e+00 6.9497385043719717e-02 -2.5407864787772318e+00 6.0090945387337759e-03 -9.3155693610406543e-02 -4.3246893088725979e-02 -7.4908646028175971e-02 2.5508788900722834e-02 -2.5783602712782328e-01 8.0571471804442907e-02 3.6893201406578413e-01 1.2006401598132044e-01 4.7402224762851358e-02 5.7086544614120931e-03 4.1702837016640473e-02 2.5112608448503337e-01 2.3142523398302473e-01 -7.3569771936373596e-02 4.1145688896571686e-01 -1.0165537008798537e+00 3.5650506472127663e-01 3.8787823058997262e-01 8.3074816479942193e-03 -2.1368501975636178e-01 5.7033308948834932e-03 -2.7212707531964781e-04 6.3789891523692388e-01 -2.1893706840767455e-02 -8.7457299789203355e-04 -1.5220431881775021e-02 -1.5346729762858521e-01 -6.4150174917249961e-03 -6.0055383774473793e-04 -1.3274256211170742e-02 6.1838168643248981e-03 4.1521212676599584e-03 -4.7116986804891930e-03 6.4088273014934166e-04 -3.2931093326190819e-02 6.7401595208043119e-03 9.1378134540615008e-01 -2.8030790303707285e-03 3.5121655022921194e-02 1.7622196670161827e-01 
      </Row>
      <Row Index="42">
        -3.3648694433163095e-02 1.4358874639303387e-01 2.2637726816174109e-01 -4.9402317044463059e-02 -3.4169684173649634e-01 3.0269370351634350e-02 8.1489242598763667e-02 1.3358739913788220e-02 1.3425876958616717e-02 -8.5507907949570004e-03 -4.5202629804513705e-01 1.7026066392281791e-01 2.1181261099627591e-03 1.2309295771975570e-01 1.3784019574060835e-01 4.6884167868938675e-02 5.5046445768675767e-01 2.2376069550347211e-03 -4.7900034884150955e-02 4.8987169912834361e-02 5.0410615760966948e-02 -5.0392751050276274e-01 -9.5908220050393567e-03 3.6270630357506572e-01 -1.7502006932045333e-01 3.1030391141575819e-01 -2.4544388290451025e-02 -7.5328733422370675e-03 -8.3364292235166282e-03 1.1113527336952700e-02 -1.5090574254736566e-01 -7.1592983993014059e-03 -4.1065311831346207e-02 -7.4682337530918730e-01 -6.0579367727768840e-03 -2.4949342771506053e+00 9.7330527483102669e-03 1.6866655151360821e-02 8.8567680751225453e-02 1.1442238884054490e-02 -1.0448138573946153e-01 -1.5539897713765072e-02 9.1171828359761165e-01 -3.2617696311734079e-01 5.4121145605549259e-02 -7.3919927961510340e-02 -3.8107316863834912e-03 -3.1794411777017733e-03 9.4860512600982716e-02 -6.4690223164500349e-02 -6.4735238897879466e-03 -2.9069476532144201e-01 -8.8346329736304519e-01 4.1978955709205401e-03 -2.0737284645989149e+00 1.1181078515256085e-02 1.7740154581563594e-01 -4.6524545274715834e-02 -8.2288153520194141e-03 -7.1283558637372835e-01 3.4964027854566281e-02 1.4257402648357612e-01 -4.8890005415159976e-02 1.8729274058844965e+00 -2.6503832646185277e-02 -1.4111097678949427e-03 1.1920863075656381e-03 1.2120904126612864e-01 8.6824034799374061e-02 -1.1808271923588132e-02 6.6383231819923172e-02 1.3752699187683959e-01 -5.6416609149872635e-02 -2.3630775157349966e+00 -4.7515616589777210e-03 -1.7894681952036251e-02 -4.3077857542240194e-02 4.5055967321996813e-02 -2.7024336811710015e-02 1.8565798016801603e-03 1.1039950630665791e+00 3.1298138537641929e-01 -4.6311522485687817e-02 8.6826312152538110e-03 -1.6318362531130556e-02 -1.7149172674783195e-02 2.8022054332919044e-03 7.5998686662293480e-02 1.6052398662825207e-02 -2.8384149558916667e-02 1.3787846943007889e+00 -7.3427234565923261e-02 -5.1398369082214757e+00 -9.4548307401285704e-03 7.6955510941306926e-02 7.4530410503175437e-02 -1.6479924451145090e-02 -1.5821300488234158e-01 2.9624459067357528e-02 2.8555994980650096e-01 -1.5982357899121280e-01 -2.0742057313442053e-01 4.1681097483768581e-02 -6.1791254243373991e-03 -3.6817247098885853e-03 2.0825412363046780e-01 -1.1821991601900717e-01 1.2593317970798545e-02 -1.1721745421024232e-01 -7.6952688713208772e-01 1.9681153151306585e-02 -3.8611898499798372e+00 -1.7627857782499645e-02 -1.9029129031696357e-01 -1.6323896668380786e-02 1.6333354989854185e-01 -1.0550125570241606e+00 1.2634845544323935e-02 7.2925905894734355e-02 -1.5224851353386715e-01 -2.8969396686421121e+00 -3.4075048359506921e-02 -5.3511825216690260e-03 -4.1320397756028941e-03 5.5162581678675826e-02 -5.9460666994795019e-02 -1.6822917762101597e-02 -4.8734500695570379e-02 -1.2253127778160859e+00 -1.0384133652832750e-02 -4.8510760771852697e+00 -2.8285731880839096e-03 8.1957811863535318e-02 -1.8588929071352400e-02 -5.4374265552896928e-02 -1.2575681286762119e-02 -3.9096676008367193e-02 -2.9058215722680059e-01 5.6406811956094316e-02 6.9272931091609280e-01 3.3982268877886801e-03 7.7124949440693438e-03 1.2521528449615164e-03 7.0529924636502983e-02 5.8581111238586503e-02 6.3554327919425613e-03 -3.2888258850352625e-02 -3.1604453726959036e-01 -2.0148196814261610e-02 -3.6454560110598777e-01 2.2368616044863683e-02 2.0989015448122927e-02 2.7422477706745330e-02 4.1667420058224269e-02 -7.6299506008905382e-01 6.8345458957299824e-03 3.9809816194904984e-01 -3.7145594899798962e-02 2.2498367720492780e+00 -4.2736627367934772e-02 -1.0912816639695250e-02 -7.4966954971322549e-03 1.0397592529351252e-01 -3.2509847017777815e-02 -1.4707405536077800e-02 -7.6872966371934887e-02 1.1333546962595875e+00 -2.6048695528780284e-02 -5.1612470930847820e-01 5.8092612528599548e-03 -4.4845203789231292e-02 8.4046810121988891e-02 -4.5896555034095773e-02 5.9994804150063974e-01 -6.8789760260976399e-02 -7.4691855647973981e-01 3.5020511978400481e-01 -1.3323918038577629e+00 3.9484957522903930e-03 1.6607777317064462e-02 4.9650863830514539e-03 2.2406857323935014e-01 -1.4033786317679087e-01 3.4489449021206098e-03 2.7968781265947767e-01 2.1927193925550403e-01 -1.2832931641093884e-01 -6.8851491318642832e-01 3.8378636595672311e-02 -1.6861623174396656e-01 5.3376332800046944e-03 2.8883786372539112e-02 1.6549361048464273e-01 -2.3170746652918982e-02 1.2052654792001728e-02 -3.1312308466842964e-01 -1.7193524474178634e-01 -2.6017011672756496e-03 6.1334663759206494e-04 9.7834005981633707e-04 -5.9968266580065627e-02 1.1484193109697727e-02 -3.1720404778020739e-02 2.5197409744899624e-01 1.2097694066919513e+00 -5.5371059221485844e-02 2.2927066548362385e-01 2.6501586749690872e-03 -1.0440323078770319e-01 2.4086259258444437e-01 8.7286475445315953e-02 -1.1490338666406785e-01 -2.8895407668567134e-02 -4.6402312374253796e-01 -4.7693762714676069e-02 -1.1342317737049257e-01 3.8383194988824698e-02 4.9605050203237189e-04 -2.4517715595729073e-02 -1.5781729781150489e-01 9.1622169395184194e-02 -9.5383654933401729e-02 3.9929123179807524e-01 -2.0598036450771673e-01 -3.8267354106666751e-01 1.0924997117886441e+00 1.0830766501556355e-01 -1.7386496935299078e-01 2.0713404560399429e-02 1.0522608867699231e-02 1.0069720994104367e+00 3.9763484311517274e-03 3.7986669321761611e-02 -1.7511688546393067e-02 -6.2592145451926318e-01 1.8188052661565938e-04 2.4465708342349107e-03 -1.0514426999437408e-02 5.1638523879202203e-03 -1.6646919686270079e-02 -4.9928511597507885e-04 8.9061427546905519e-03 2.1565849012588956e-01 -4.0508684903178133e-03 -9.6919045521477187e-01 3.7429837754902255e-03 -5.7940816288822639e-02 6.0389450420393742e-01 
      </Row>
      <Row Index="43">
        -1.4888467157271293e+01 -1.3701473873392160e+00 8.8028154122829437e+02 6.3930193734643626e-01 2.7384924056241289e-01 -9.5779407630421554e+02 -1.4062903627753258e+02 -5.3425602175650283e+01 6.0278262680884342e-01 -3.7966387770873977e-01 1.6177533595189652e+02 -1.7200956592801958e+01 -5.2651695241220295e+00 1.0710687743630842e-01 2.7158367831491123e+03 2.1644399994052947e+01 7.6240771593153477e+02 -1.0009565996460879e-01 -4.4694243454141542e+00 2.5785214614006691e+01 -1.6164976714571822e-01 1.2508770699994639e+03 -1.5487538663046507e-01 1.2014374585533005e-02 -2.3303213742002845e+03 -5.5708748136245413e+02 -7.2130255066789687e+01 -3.5566110810123064e-02 2.4750168082050550e-02 -9.1298553184527009e+01 -6.2299285305198282e+00 3.1233710384549340e+01 -5.6755667998731951e-01 1.8058250339603669e+03 -1.2921499505173415e+01 5.7688175361044705e+02 -4.0871378159585836e-01 9.9384993881268997e+00 -6.0106979952572146e+01 -2.8130776220632470e-01 1.8424382960555704e+01 1.2810234299740841e-01 -3.2617696502711624e-01 4.7228880085139581e+03 1.1268009260530525e+03 3.3524103465757486e+02 -7.6922316760204695e-03 -6.2334020376773040e-02 9.8025379302368819e+01 3.5671723929190698e+01 2.1785773042965197e+01 1.2007760874253139e+00 -2.4315711053376984e+02 8.8933827238641321e+00 -2.4987944172412053e+03 -1.0776987324794030e-01 5.1008974602521889e+01 -5.6927484832144678e+01 3.0773709088473089e-01 3.8568164813849398e+02 -1.0452772394546157e-01 -2.1176249078869652e-01 -6.2334247541800141e+02 1.2577247563606977e+02 -1.3766797465128218e+02 -3.6721004340782251e-02 -5.3264813850480881e-03 -6.0849922658127400e+02 -1.0975514953959525e+01 -1.8355513368830945e+00 3.5112400563163548e-01 -9.9804065918946321e+02 3.3834731982629243e+01 7.0818641926371288e+02 -3.4555431355329347e-01 -2.6290176083397760e+01 -4.5596019059117573e+01 4.2044437300926413e-01 5.9583734400170215e+02 2.2303186422328264e-01 9.6122520535682016e-02 4.4181633339052627e+02 2.4629061428178170e+02 -3.3564047385410461e+01 7.6680706528160919e-02 -1.4500476844427398e-01 -2.1700881859683437e+02 -3.6700767875883955e+01 -2.4906111211020804e+01 6.4627802736216733e-01 -3.2382345329367740e+02 2.8518816070194646e+00 2.5896158691167416e+03 -9.1767237814483260e-02 -5.8581251093204457e+01 3.3444946415956785e+01 4.8801245172965591e-01 -2.3983447021109453e+02 -2.0970053248325551e-01 3.2112436570227904e-01 -2.0428854742892033e+03 4.6334304485069526e+02 -1.1432494270094757e+02 -6.2744257931389089e-02 1.9886667104866411e-02 2.7853195538744330e+02 -2.0606426183178741e+01 1.4261170135527756e+01 -5.3664712195899811e-01 2.6592810565307736e+03 -7.3896940448096249e+00 -4.7663056776203598e+02 -5.8473294373278528e-03 -1.6444032542407513e+01 -4.7330574236012254e+01 -1.5438998559429717e+00 1.9108451768700509e+03 6.0874654969155659e-02 -1.5154358943655846e-01 -1.9642731842678372e+03 1.1460117115379317e+03 9.2806285780002554e+01 2.8648766906124314e-02 5.0592913843203219e-02 -1.7446805132958116e+02 6.0963008025404264e-01 2.5082620942873017e+00 -6.2996329460369549e-01 -8.5269609442950537e+02 1.7258383568972317e+01 2.7057027256176539e+03 -2.4084009098362202e-01 -2.7994934212574268e+01 -2.5678402095170092e+01 1.3433055401861144e-01 6.4526359670323654e+02 4.0466537603135094e-02 1.1574326247743699e-01 1.0896411499439273e+02 3.3498910305939899e+02 -7.3153870506570144e+01 -4.4454091309977045e-02 -3.6964361056119041e-02 -8.5585588361811824e+02 -4.1515180088709165e+01 8.1895400470350737e+00 8.9630357339752909e-01 -1.6932156333415769e+03 9.5783740871120244e+00 1.1240690739683218e+03 1.3474973390008671e-01 2.6888788987302433e+01 6.6169392057455596e+01 -2.3038916015264321e-01 1.1209646553083787e+03 2.2759475750282623e-01 -1.3089535922575868e+00 3.3223792726627712e+03 9.2617377036689436e+02 1.6638480911145609e+02 -8.7832911249453888e-02 -8.0055615893656853e-02 3.9816423851743110e+01 4.1746533356679492e+01 3.8476043266537118e+01 -3.2828012275943907e-01 1.4302804995630338e+03 3.1543152951202424e+00 2.4531296786948496e+03 1.1490122316341915e+00 4.5618032581171335e+01 4.5261557176264674e+01 -3.8276989253184884e-01 -1.0442778132424501e+03 1.9004894165473685e-01 -1.7263578062511398e-01 1.8236539615173697e+03 -2.6631911921592209e+03 -3.7551171997148302e+01 1.2584923975875406e-02 -1.3263978279102136e-02 3.1201220490641390e+01 7.4412555809534553e+01 -1.9390949815263617e+01 -3.1549370611240581e+00 -3.0995381499604182e+03 2.7475738042020083e+01 4.9103849050541457e+03 5.6813838576456921e-01 -2.1899272077567495e+01 -6.8620827841488875e+01 -2.9428918904856827e-02 -8.4058512693767670e+02 3.6438984612385872e-01 -1.5238299850679277e-01 -1.6874368402897512e+03 -1.2009635989687235e+03 -2.0869545718847311e+02 -8.2136043957119487e-03 -3.0849590548936656e-02 7.4977927098262626e+01 -2.7469347996577554e+01 1.9756206232299778e+01 -1.5507004416408134e+00 6.6313337288956518e+02 -1.3194063396369756e+01 3.1560130753731964e+03 -5.0630704557395079e-01 7.3471008714826951e+00 -5.7606232119585783e+01 -2.4427074145066729e+00 2.1588063591491982e+02 2.4208137187510159e+00 -1.1150561026670934e+01 -2.9439257682573189e+03 5.0828544145361320e+02 -1.0965430699726105e+03 -1.3038958758981867e-01 -1.2001774333094950e-01 1.1704584950199837e+03 1.8967297197628920e+02 5.5947171621625387e+00 -1.4700682684823732e+01 2.1258017705702132e+03 -2.9082360953833472e+01 -8.9620905429093636e+02 1.0136164915878069e+01 1.2903218346743529e+02 3.3342841309151282e+01 -4.5418601010452780e-02 9.1865453425240503e+02 -1.7241996572093098e-02 2.5412081343782755e-03 -1.4718646846707250e+02 1.7938392543676139e+02 -7.8954555771098555e+01 5.8904431315598298e-02 5.2702037352352016e-02 7.9667993366987176e+01 1.6602044119702569e+01 3.9437432356445470e+00 2.7128259886062274e-02 2.5747913000191038e+03 2.4824164608543953e+01 -8.2564001965182615e+02 -7.1731085242387360e-02 4.5618437682187505e+00 -1.0042725887872616e+02 
      </Row>
      <Row Index="44">
        5.6240033976471750e+01 1.1395715934340842e+00 -1.4356067703247070e+04 1.6682542562611982e+00 -2.0267849433002993e-01 -1.3011301196813583e+03 -7.1417587518692017e+04 -1.6437268230185146e+02 -3.8140090377645075e+00 -1.2509398145934290e+00 -3.0677344761707168e+03 -1.5305821049213409e+02 1.7009921967983246e+01 -3.1833492200821638e+00 5.7224519547487789e+03 1.8246944752335548e+02 2.5262160213470459e+04 -1.7505422914400697e+00 2.1768062746524811e+02 9.1656989008188248e+01 -4.1879880055785179e-01 -7.6635937215089798e+03 -3.8248386757913977e-01 5.0290713238064200e-01 -1.5098798723220825e+03 -9.3798692451536655e+04 -1.1731813108921051e+02 -1.1106705665588379e-01 -2.4072462206822820e-01 -1.9924764949907549e+03 -9.4971105813980103e+01 1.0917724542319775e+01 -4.5444628107361495e+00 -1.7945435343713525e+03 2.7293561184406281e+02 2.1801105016708374e+04 1.6118554566872330e+00 4.5622470050288330e+03 -5.0749014417082071e+02 1.0500198812223971e-01 -1.2283604327707086e+04 6.5330642764456570e-01 5.4121080087497830e-02 1.1268011000619540e+03 8.8702069304782955e+05 -1.7380704095183312e+01 2.1253109459143660e-01 -2.6205487027492858e-01 -4.9526716385781983e+03 5.1562543222953138e+01 -1.3005805486278055e+02 6.4368749557065392e+00 9.2081763319429865e+02 5.2116001546157349e+02 5.5173916539481543e+03 3.4716805552052588e-02 1.3149901950921508e+03 -1.2910303971690166e+02 -1.1965901490490851e+00 -7.3802871708044404e+02 -9.2284005771392574e-01 -1.1783439802862370e+00 1.4442558741569519e+02 8.4162923568285187e+03 -2.1438776135047459e+02 -2.3395402260206943e-01 -4.6826158869442935e-01 -7.5276372286728679e+02 2.5833457085805117e+02 2.7494960308796838e+01 -3.3992047551326863e+00 7.2137529359764776e+03 1.7280459096199081e+00 1.9819460344018280e+03 -2.1865351432934403e+00 -2.6730841771203472e+02 -1.3613944779420723e+02 3.6746878707754682e-01 6.0765846431122336e+03 -3.0565688958405524e-01 9.5496330436059518e-01 1.6355923627837444e+02 3.9128139393766360e+04 7.5304514007812031e+01 -9.6665737985275491e-01 -3.2162171522443617e-01 -5.2222212089165464e+02 -1.1497178195268680e+02 4.4001142451857589e+01 -6.8896370447651165e+00 -2.1755782958359505e+04 1.0883266484064541e+02 -3.2345837100152603e+03 1.2284139053481589e+00 -9.4288077479293224e+02 9.4060898688808578e+01 4.8199038236821767e-01 3.2535209024515452e+03 -2.0220241776070225e-01 1.7106770205812122e-01 -1.0537299968140094e+03 5.7556190058081687e+04 1.6086944299895060e+02 3.4562344921716948e-02 7.6393111042384776e-02 -8.1288985013961792e+02 -2.0808308656248141e+02 8.6572182760834949e+01 5.8253842195171233e+00 -1.2661048873901367e+04 -4.5092790384335649e+02 -3.9381826615846080e+03 -6.8483672940399032e-01 -4.6583959531784058e+02 -2.1612600553964512e+02 8.4890216173057276e-01 2.3693344515257850e+03 -6.2454358459315337e-02 -3.7532187544995210e-02 -3.0059017412834983e+03 -1.6612819635574997e+03 -1.9690017957880821e+02 -1.0396028777267907e-01 -1.3451045116730936e-01 -8.1146322581324716e+02 -5.9263974085696418e+00 1.8002007923474039e+00 1.2575156736784834e+00 -7.5430048808371848e+03 2.4896618415694437e+02 8.7912647878342032e+03 6.6611267276225217e-01 -6.5677314642824444e+02 -8.1839969874273805e+01 1.3331850077998197e-01 -7.6757169574153377e+03 2.0809557100556608e-01 -6.6316949327698360e-01 1.1581479921936989e+02 -2.1290612745088001e+03 -1.3062598233482166e+02 5.5805457588322227e-02 2.2682041085699756e-01 -4.9970122063159943e+02 -1.6876330385960753e+02 -7.4590240154110461e+00 5.7032991615413522e+00 2.2047907429933548e+02 -8.5243130564689636e+01 -9.0512372589852421e+03 1.9040734442984260e+00 -8.3756428884801664e+01 1.9612659190253953e+02 1.3910701235510827e+00 5.4825628888574356e+04 2.0050868815285114e+00 -4.4415153506181970e-01 9.4558405078950682e+02 -6.1730365480523717e+04 4.3570605672080376e+02 5.9296557604350641e-01 -2.6481660150954467e-01 -9.8452041976970395e+02 -4.9343519163830933e+00 -1.9552184345802880e+02 9.0983105403328146e-01 -1.1790689094904719e+04 6.6768240176985364e+02 2.8500084673769743e+02 -2.0490502190359132e+00 5.9657089493965395e+02 1.5205785467029835e+02 3.4042952798077086e-01 -9.5141162714398779e+03 1.7232923006377119e+00 -1.1737356100709773e+00 1.4983712353214592e+03 1.1569160195393529e+05 -3.1518920598471823e+01 3.7999656686140942e-02 2.2167753288880064e-02 -6.1524647418376571e+02 2.3149582608864284e+02 5.9130499703191497e+01 -5.0690535787920199e+00 1.8172793464130849e+04 2.3164970663183269e+02 2.3033326211132389e+03 1.0302098612312349e+00 -3.9773839400869508e+02 -4.7209975730728553e+02 6.7989225491703187e-01 -1.8707205883885879e+04 6.3073950670934331e-01 6.2842412799909841e-01 -1.5958707993972157e+03 8.9078889553844856e+04 4.1058172658796714e+01 2.9209057348044359e-01 1.4405968111367609e-01 1.2369367245699282e+03 3.4496531482677187e+02 -9.0550599453308450e+01 -1.4104489754213027e+01 -6.6131922515246006e+03 5.7975294869442939e+02 1.1006423859670624e+04 -2.1266156226090742e+00 7.3794126231327027e+01 -1.3714299582027104e+03 1.4321480033817794e+01 2.1343986207445714e+03 2.0033181641433949e+01 -6.2471446721856569e+00 -3.7283182323933579e+03 -3.5411233475961453e+04 6.0016386898467590e+02 2.3678864293398014e+00 -3.6455801109153541e-01 1.3098118991660394e+03 -5.8235255736170075e+02 -2.8145326805745640e+02 -3.2149535762468076e+01 -1.5434382462119414e+04 1.8107689046709318e+03 -7.4170387231830518e+03 -2.7543345176381621e+01 -3.5201940308189919e+03 2.2037703719156980e+01 -1.0708784438629868e-02 -5.9273081305604370e+04 -4.5214917658282727e-01 6.0393451533905594e-02 -1.3147234575260529e+02 -4.9157008002175440e+04 -2.1357641493456018e+02 -8.4523694201231148e-01 -7.7753558901623387e-01 -2.3527125105974264e+02 -1.0953591268011126e+01 -2.5209490401722633e+01 -3.2771171690963452e-01 -1.3160422999813607e+04 1.4947918200361778e+02 -8.8555763296707555e+03 -2.7855112252225966e-01 3.9004527996605020e+01 4.9371960383756712e+04 
      </Row>
      <Row Index="45">
        -1.3794900545573086e+00 -4.4804666196569087e-02 2.7071352503262460e+01 1.7776267641104411e-02 6.0944319055877827e-02 -4.5506003113696352e+00 4.0895287612453103e+01 -1.5922072363218348e+01 -3.0286256181500248e-01 -3.6637014906216098e-02 2.8251978005549425e+01 -4.1959052699385211e+00 1.0727924138482194e+00 6.0041655197892396e-02 6.2291893474425444e+02 -9.3083640502300113e-02 -5.2389515323564410e+01 9.1187256398370664e-03 -1.0840092026686762e+01 1.4616549169586506e+00 -2.4000500989131979e-03 2.2697359885566402e+02 -1.6325016782843704e-02 -2.5143804698075201e-02 -8.7452752302866429e+01 3.2906368915952044e+01 -2.0984067306271754e+01 -2.1535648004714858e-02 -6.3206596863096820e-04 -9.7894719979492493e+00 -1.8499788554618135e-01 5.5455982019921066e+00 5.8208480158782550e-02 4.2623312887449322e+02 5.7023015833692625e-01 1.3312393758841790e+02 -1.1189970534311100e-01 -4.9729097847159622e+01 -3.4231776898850512e+00 -1.7340410614906432e-02 5.0440896662499313e+01 -9.0157057303485999e-03 -7.3919928268651347e-02 3.3524103464715523e+02 -1.7380732618272305e+01 8.8885952930197845e+01 1.3681217776265054e-03 -5.3165577178684864e-04 -6.3889311400135469e+00 1.0362336316908788e+01 -1.0315603019759925e+01 -3.8476191272985016e-01 1.7923863445376958e+02 1.4298260489514059e+00 -3.6428736322352353e+02 -8.4175634667699367e-02 -1.5085237651061432e+00 -6.1492739593325023e+00 -9.7044166292814052e-03 6.2526956450657252e+01 1.8112125330991585e-02 -1.9692468388764373e-02 -9.2401548870373517e+01 4.6208118238031659e+01 -2.9599594879159923e+01 -8.2664406459651632e-03 -5.3111996495091114e-03 -1.1882341626546116e+02 -1.5472355969191898e+00 4.4353207847648290e-03 1.1438921223323578e-01 -8.6422681521207750e+01 3.0782780179726723e+00 -2.7042128030197779e+02 2.3672556739256834e-02 1.6168648406931660e+00 -3.1880087732185078e+00 2.7639334433829287e-02 -3.4598621479657510e+00 2.2516422136736394e-03 -5.5513675588632745e-02 3.6212432121331490e+00 1.3361763254143867e+01 4.6308399197967907e+00 -8.2128018085347726e-02 -8.2709120561199022e-03 5.8659882618048854e+01 -9.9066592957514565e+00 -4.5600971876470253e-01 1.5751159752265123e-01 8.9613391873227357e+01 2.7199881592491750e+00 -6.5319972811234578e+01 -6.0880268972393799e-04 1.1298251768712976e+01 1.1978346516246836e+00 3.2510277753749643e-02 1.1188538749046035e+02 2.3997315920858624e-02 -2.9934341578359489e-03 -2.3205711985733572e+02 3.1240803723460814e+01 -2.3793396292071016e+01 -9.7901719206850372e-03 -5.0205804432788652e-04 2.4515416425885633e+01 -6.3794483613901409e+00 2.5475896322718792e+00 4.1489129690489360e-02 5.5114130158908665e+02 -3.3894582937196951e+00 1.4115347907531137e+02 6.2058810720045141e-02 3.6653229508083314e+00 -3.7684510346327151e+00 -7.8544768703672482e-02 3.3369721723209278e+02 1.8620205968381835e-03 -2.3195359722142036e-02 -1.2555126670876052e+02 -1.2977585379166337e+02 2.9971660476120309e+01 -8.0909089316002440e-03 3.3395476845130326e-04 1.4464223884189890e+01 2.0678683209935667e-01 -6.7038959254552442e+00 -1.7325596158183981e-01 1.1173237540273439e+02 1.3881344472760118e+00 -1.9974389637572585e+01 -2.2090373639604725e-03 -8.3098023681449256e+00 -2.2889348316351659e+00 1.0498219615776655e-02 2.7200284054410668e+02 -1.8473850288266994e-02 1.4732215017800088e-02 7.8633895217208192e+00 1.0808427533749727e+02 -1.9740153400167067e+01 -2.1723426989038123e-02 -4.3428684727407057e-03 -1.6281917919858824e+02 -1.1930500382168317e+01 1.3740309152130070e+00 6.1268742808691150e-02 -3.1335772742118570e+02 -1.2409377577714622e+00 -1.0628520941094065e+02 -7.9118070514549846e-02 1.2356854571478664e+00 7.3296484039075018e+00 5.7983142965426775e-02 2.3260210722143489e+02 3.7030345739452353e-02 -1.0992134633814439e-01 2.5042533185265575e+02 5.0129114860104487e+01 5.0852766502782707e+01 4.2038902217617202e-03 -3.4786516310764916e-03 3.5460926116822854e+01 4.3552670013039574e+00 1.2285109360964652e+00 -4.4892948083498074e-01 -8.9308492020720735e+01 5.5984593787213148e+00 2.4025606362258710e+01 -1.7247557812085962e-01 -1.4048643863004116e+01 2.4012679526134875e+00 -2.2430561274431580e-02 -1.5168616759568945e+02 -3.2649660714614920e-02 3.3291033995268698e-02 1.9835526763085176e+02 -6.8391070690757559e+01 1.3581164523119114e+00 -5.2441755566469297e-04 -6.7069083903056829e-03 5.9813691613831395e+01 1.8251890076679700e+01 -1.1570951610615285e+00 -2.6027621517256500e-01 -6.3003746870572968e+02 4.1504733903965159e+00 2.9369007447278881e+02 2.8717423620449867e-02 5.8482278879712268e-01 -4.6179936203137029e+00 2.1885321863305683e-02 -1.0488322317455004e+02 -6.1967944921933436e-03 3.4667328052083599e-02 1.9544807448210477e+00 3.4702879165901805e+01 -5.4538160801437840e+01 2.3517536294067394e-02 1.3424657789168921e-03 2.0922953461039668e+01 3.7950059139849213e-01 7.7587743313993531e+00 -5.3539137218817964e-02 -5.1942490426417487e+02 4.8195551688311156e+00 4.3430713534618081e+02 -3.3390383334976105e-02 -6.2725315018212058e+00 8.9344468559313750e+00 4.9211319557066313e-01 3.1949875812680659e+01 2.3077798791506854e-01 -5.5468421427186398e-01 3.9935429749082675e+02 -6.5197333848468020e+00 -2.1788478780869710e+02 -1.1403424238689785e-01 -1.9462856000939333e-02 2.4901409193494283e+02 -1.0523495207219289e+01 2.4994344988402808e+01 -5.1673813922445788e+00 2.9475374029360790e+02 2.7334881539907173e+01 -2.6127420418037855e+02 -9.3760444464611936e-01 3.5913647034003930e+01 4.9650695210071767e+00 -3.3252336009707431e-03 -1.7484951820928592e+02 5.9166869003257736e-04 -2.3653145458074698e-03 -2.1665668513419575e+01 3.2833748066993891e+01 -2.0714495097711023e+01 -9.4897490303979953e-02 -2.4345780437501262e-02 7.0762504524470762e+00 3.8586760420332431e+00 -1.0491331682242557e+00 4.4971406066124722e-03 4.7163295550961311e+02 2.1662271014325913e+00 -1.2457910731127996e+02 -1.0246413725933878e-02 4.0477373911492549e+00 -1.2087018161860628e+01 
      </Row>
      <Row Index="46">
        1.7998489429147946e-03 -1.1119877785661286e-02 2.7821767378554796e-02 5.4149756117260366e-04 4.7980891678361670e-03 -9.3652472937719722e-03 3.6029461026555509e-01 -3.7919108622707087e-03 -9.8381276349017929e-03 -4.0593566898173135e-05 3.5064786959316585e-02 -1.2148671829663726e-02 4.9482781212191185e-03 -4.4581977434130948e-02 4.6048852436574972e-02 -6.4043960118169707e-03 5.7869917995412834e-01 -1.3270432442804569e-03 -3.3012546194356673e-02 5.2293711822812838e-03 -1.0784225621263133e-03 1.5663982441083135e-01 -1.0558624525347504e-04 -6.8139568555949381e-03 6.2978800772725663e-02 5.0139981354945462e-01 -6.2436654877728870e-03 5.2322372732005462e-05 6.4194176564907890e-04 6.9549499271630566e-02 -1.6959311766413521e-03 -6.8739943375248913e-03 -3.1797036456348238e-02 -3.4722091129372901e-01 2.7746981819518624e-03 -1.0208273710668436e-01 9.2393383660739244e-03 3.2817293747503112e-02 -1.5614338273479689e-03 4.3208244344264957e-03 -2.9413938914313320e-02 -1.3835893472182725e-03 -3.8107316862348029e-03 -7.6922319482140011e-03 2.1253109895405942e-01 1.3681217335058669e-03 8.8545637177468283e-03 2.6337357822617032e-03 -5.3658293928187106e-03 -5.1959240881903332e-02 -6.3163742306936999e-03 3.9614194946081434e-02 5.3902464642659798e-02 4.9150068531126148e-03 -8.0258936416289117e-02 3.2720102906965386e-04 5.3335725852150406e-02 -9.0549189946335165e-03 9.6718589420239157e-04 1.1123302797003021e-02 -1.0336952991655255e-03 -2.5373755617414916e-03 1.7039864154867246e-02 -8.4946362969375855e-02 -1.0326379353752801e-02 -6.7596409196648915e-04 -3.5063519404306533e-04 -2.6093232858920568e-03 -2.9829399494838427e-03 6.5791435873522319e-03 -2.7699385031191771e-02 1.5627295339028735e-01 2.7378839612739181e-03 1.1198691211579082e-01 -1.8123886042609172e-03 -5.4663206755706240e-04 -9.1441314085038417e-03 1.2636783992314026e-03 -5.5504617612854190e-02 -1.0147131177055705e-03 -2.3189653634054896e-02 -2.1172262845095657e-02 -2.1339759726863861e-01 1.7964268179056497e-03 -2.3317161069211045e-03 4.8938666816689786e-04 -1.8140030959968939e-02 1.8001143645303141e-02 8.5390056938019487e-03 -7.5639619402374444e-02 -4.3704270519315491e-01 7.7339446619197894e-03 2.1140207742827588e-01 7.1137331896612465e-03 1.9976722804733171e-02 4.4122476462064852e-03 1.7118689003121014e-03 4.0869431403067757e-02 -1.0488163999653952e-03 -5.4940521299968294e-03 -1.1894166093714631e-02 -2.6198819835504161e-01 4.5981081950191571e-03 -7.7231491384210211e-05 3.0123364683330906e-05 -3.0366393901658739e-02 2.3640121764414958e-02 4.4559783418133755e-05 1.1835702331042091e-02 1.1535222352176788e-01 -3.8296927405869000e-03 1.0423288325765889e-02 -1.3069854542441402e-03 2.6925010661216220e-03 -7.3065595687263861e-03 -1.2448895401178878e-02 1.4243676306354669e-01 -5.3122143351088248e-04 -1.9383722892218536e-03 -5.8450571595421941e-02 2.2279326315435077e-01 -3.5463158546799236e-03 6.2573199037861855e-04 1.8183924236616486e-04 -3.7506953769503248e-02 -1.1228091658287920e-02 2.4850595508181736e-03 9.5450439181613139e-03 -3.3118413890172249e-01 1.8678632058123784e-03 -4.8912021669896166e-01 1.9682865036891256e-03 -7.6605140480312528e-03 -4.9205396587754351e-03 2.1999362935960940e-03 -2.0814225727320945e-02 2.1610497903399493e-03 5.2500187311912486e-03 1.9852061337530813e-02 -1.7675243857709688e-01 -1.9998135767451686e-03 5.4048016936531981e-04 3.0661426459740191e-04 2.7406132825831264e-02 4.8302328624038181e-02 -6.0031873404136054e-03 2.3348391147513813e-02 9.5092264342270028e-02 1.1734358998864991e-03 5.2351096339080527e-02 7.7955061400927827e-03 7.1906649415446333e-03 1.2512782212156980e-02 -1.2439527778322903e-03 5.3020124063319907e-03 -3.6538062188077566e-04 -9.0656005166062769e-03 -1.6308088387704825e-02 -3.2132197728683964e-01 1.6196651213940351e-02 1.1721788056998856e-03 1.0702978078912728e-04 -6.0802813677871007e-02 -3.3576701140494380e-02 -2.5081822208291388e-02 3.3429624782300264e-03 -1.0024525607358559e-01 7.9306940970673284e-03 2.8626077511307635e-01 1.4957167649315311e-03 -1.9478120576979174e-02 1.0492234623342193e-02 4.5112052497056025e-04 9.7189133376507364e-03 2.0959304700031529e-03 1.5837438312923849e-02 -2.3469155239037587e-02 5.9946508479785887e-02 8.0739820242859556e-04 -2.1972945795660883e-04 -1.0142998582533894e-04 -5.3165214722235010e-02 -7.3464393335836015e-02 2.0035823858486623e-03 -1.2184482469146067e-02 1.0131202347675239e-01 4.8713963172549585e-04 3.9616047216379213e-01 4.0934436482043994e-03 5.6572296251285459e-03 6.6284562232124013e-04 -1.9432268217184237e-03 1.0614401608357654e-01 6.4936875837563068e-05 -1.0224487665378096e-04 -6.6950777315662596e-03 -6.6122560697659927e-02 1.2076519665804586e-04 -7.0011911124428215e-04 -2.7623555336810709e-04 -5.4761227265945719e-02 4.0990897385490555e-03 -8.4683993237607835e-03 -7.9624044374496231e-02 -1.2801325090166848e-01 2.8318099513304218e-03 1.0158157093661924e-01 -1.5698242154823492e-03 -4.0077362018557182e-02 3.5676013241047189e-02 -4.2233396296251086e-03 -3.0752261235262868e-02 -1.6186196629891585e-03 6.4259477311731390e-03 -8.3547841494890918e-02 5.3836377253516421e-02 1.5015051515072028e-02 -4.3073088810384758e-03 -1.0791426495163590e-04 -2.5711681559214483e-01 7.2073934760611413e-02 -4.1766462546732996e-02 -4.0787605429898677e-02 1.2663622890671800e-02 1.0132299963904620e-02 1.8962283279422237e-01 -1.1639635312479940e-02 4.7800694234232916e-02 3.0571302234730646e-03 -7.4367496714990470e-04 1.8806662146486808e-01 -3.8208912266168198e-04 -1.2643965908819459e-03 -3.6055213148945553e-03 7.7062828482136581e-02 -5.7959177307860665e-03 -1.6878642197005942e-03 2.4017831594813947e-04 5.5873592809796424e-04 -5.1642790928003238e-03 -3.0447624643669333e-03 -2.6773111019880542e-03 -5.0443977120572470e-02 2.0164977090932484e-03 -1.7818344785385420e-01 1.7549854887274887e-03 -5.2706621935387499e-04 -6.9764035174208719e-02 
      </Row>
      <Row Index="47">
        -9.2482525202316201e-03 -4.7778728615181509e-03 -5.2052290834581072e-02 2.9155645972622300e-03 5.2702607662555023e-03 -1.5764410814881558e-02 1.2449082880630158e-01 -2.5382167752703855e-03 -7.8336514182694751e-03 1.7321460851143382e-02 -9.0646551136961406e-03 2.4345595509885243e-02 8.4919894788981765e-04 7.1903028868588237e-02 1.2539788695827786e-01 -9.8597521150622924e-04 -9.8793951290281257e-01 -8.6373405340656184e-03 7.7447938402769978e-02 -2.4185402134264677e-03 -1.3250774435169532e-04 -1.2812918356883074e-01 9.7685858865548258e-04 -4.3149246338419212e-03 4.1195473740572197e-02 1.8929661690593491e-01 -5.6952758029638062e-04 -3.0948423032262085e-04 2.4732277879564446e-03 -7.1472422238461064e-04 9.8160410526588748e-03 2.5491006086042489e-03 -1.1512111831602390e-02 3.2133000579770921e-01 -2.8132115818948478e-03 4.6182694562730831e-01 5.9740283948471994e-04 -1.4036834121759536e-02 8.5395127618568267e-03 2.7693879494216089e-03 -4.7710134328990295e-02 -5.5143214676678376e-03 -3.1794411777177345e-03 -6.2334020463470807e-02 -2.6205487847619224e-01 -5.3165578731580957e-04 2.6337357822775742e-03 6.8323542103141833e-03 7.8777757642783719e-02 -3.6352271541780556e-02 6.5977249372336094e-03 5.5565221742280117e-02 1.6146125844424031e-01 -2.1994678321547861e-03 3.2197249830068131e-01 6.5528264281889889e-04 5.7085001217570985e-02 2.4364960996120510e-03 1.2914308463928825e-03 -8.0782076148949500e-02 -5.4911991432267659e-03 1.9834663296340420e-04 -2.7399387691275479e-02 -1.2521941489791288e-01 -1.4527685230218967e-03 -3.4896171006450552e-04 -5.1610699067062117e-04 -2.9315842700483000e-02 1.3411320639722391e-04 8.4776837402733562e-04 -2.5435351817965898e-02 4.2462473581128535e-04 -8.7045574666584358e-03 3.5728303721467469e-01 7.6239058763194478e-04 2.5436772973582322e-02 3.8718976953743683e-03 -3.4181266204311796e-03 2.6920474635517166e-02 1.0272699815656091e-04 -1.8956597717199455e-02 1.5804249845035728e-02 -3.9252859007017804e-02 -1.0776190422361054e-04 -1.5865823578104234e-03 4.6535456291102676e-03 9.1934180801900522e-02 7.1223463645284646e-03 -9.3950777225321191e-04 -5.6748113446032318e-02 -1.4346996872254270e-01 -2.7439807424414209e-03 -8.0552619924377833e-01 -6.4707766976980670e-04 8.1153453395405251e-02 -6.1327021863457482e-04 -1.1197133910359467e-03 -3.5225176182195117e-02 -2.9867450949437090e-03 -4.7143081504064299e-03 6.5665486365333869e-03 -8.1200446675776083e-02 -2.7448467750296190e-03 -4.2714978441553051e-05 2.4219013272876844e-04 3.3992125747090540e-02 1.5055181395863343e-02 7.2903836891969297e-04 1.9316313568667615e-02 4.4209004659933271e-02 1.0376978498557114e-02 -2.5890889608472678e-01 -5.1496391714252296e-04 -3.1922168111123028e-02 4.3633366914985431e-03 -2.0050750815997997e-03 -2.1062742038269100e-01 -1.9754833696327824e-03 -6.0295597772850825e-04 8.4891610271216472e-02 -7.7629973933126206e-02 1.9228426240518522e-03 -6.3220968678946200e-05 4.1653136607741609e-04 1.8485435392042948e-02 -4.9249372880282652e-03 8.9512151289621034e-04 1.0641484389156752e-02 1.7707991069352502e-01 -6.6568035719020008e-03 1.4765425246828023e-01 8.2315462760060667e-04 -1.8007618710620191e-02 6.9845381231434852e-04 -5.5721129811026819e-04 -1.0633778333021837e-01 4.5519381601664315e-03 2.5966084308414444e-03 2.9650269682548469e-02 -3.6747912359624024e-01 8.7627535945955515e-04 -1.9201105151818437e-04 2.1700005697232625e-03 1.2062935739436398e-03 2.2543400610705262e-02 5.3527117891701004e-04 3.6218839903643607e-02 -1.3629674814359305e-01 -6.4113365415323642e-03 1.0714102049740859e-01 1.1166554485533280e-03 -3.0383294609920064e-02 -4.9184245580874697e-03 -1.8215959649762062e-03 3.6306261523162409e-01 -4.8761970107371406e-04 -7.3220634345482014e-03 -3.8805864720682981e-02 -5.3250695244025814e-01 4.1241586076131778e-03 5.5878728134492234e-04 9.6080026804989179e-04 4.1332886117821641e-02 -1.3513583606410348e-02 1.8574859401996741e-03 3.0281650028692107e-03 -1.0804971281466536e-01 -1.6753566945700113e-02 -7.6377887873041672e-02 1.2119091765176076e-05 -1.3954806457991542e-01 -7.4816077065241460e-04 2.4557380187517274e-03 -5.6527127762429741e-02 5.5756703524675625e-03 1.2649676667651129e-02 2.4674613152811387e-03 5.0985321943346174e-01 2.4754812859147934e-03 -3.7576007122494190e-04 2.0741257343651802e-03 4.4285515017771671e-02 -5.6034119786571010e-02 -4.0769895591383221e-04 -1.0099213812180574e-02 -2.1183223789590738e-01 -2.0615903058515326e-02 4.8552778817024578e-02 1.8653055037979903e-03 -2.5651058574972796e-03 5.9513061318382868e-03 1.5880426222816225e-03 -1.5652044975172949e-01 -4.6226420120604888e-04 1.2616594692200895e-03 3.9815006511305928e-02 3.0971858876479419e-01 2.4412028802663632e-03 -2.7381380343933565e-04 -1.3768280093429618e-03 -6.4302795381708716e-02 3.0536099289107471e-02 -1.4641180323728201e-03 -9.2758616832707891e-02 -1.5855202351809972e-01 -2.1573253710464591e-03 -3.2489013047841631e-01 -5.2513149168070198e-04 -9.4186783286179798e-02 1.8732467018840737e-02 5.9820651076010894e-03 2.3992970108638989e-02 -4.6069769253233080e-03 1.1533061096370669e-02 7.2619933947899895e-02 -8.6270983100028564e-02 2.0774724575333386e-02 -6.7256748355106390e-03 -5.2851716195115306e-03 -2.0625072728361138e-01 8.0577068982110589e-03 -6.4840633412582005e-03 -3.4261023603693985e-02 9.1584655181745411e-02 -5.6575970721068652e-02 1.6598902146388200e-01 -7.7341854446461005e-03 -2.5949791354493001e-01 1.6648321172766621e-03 8.1589739419557722e-05 -4.8829275347447854e-01 -1.0135726956708160e-03 -9.7635175764898324e-04 -6.2228870757986832e-04 4.4625613029076111e-02 -2.1174584301070030e-03 -1.0298276423086129e-03 1.0314475767852185e-02 5.5556520678670673e-03 -2.6522042606090153e-03 3.1977344582673206e-04 -2.9458127350270938e-03 6.0233021463204750e-02 -4.7333813469974118e-04 1.8996941671571221e-01 5.0391125049392037e-05 4.1320524393845329e-03 -4.9293429852424436e-02 
      </Row>
      <Row Index="48">
        -2.5806539663898093e+01 4.0251088551030989e-02 4.6061966031789780e+02 1.9518127468996851e-01 5.9067034916324701e-02 4.2376604909449816e+02 -9.6415721236169338e+03 7.1663120806766528e+01 -3.1582229603973833e-02 -5.0006014804205856e-01 -1.3863390833061835e+03 9.0202763669192791e+01 2.7059375648386776e+01 1.6678153433749685e+00 -5.4442199799213631e+02 3.8735341266263276e+01 -3.3971631896495819e+03 5.9477715771936346e-01 9.6751858040690422e+01 -2.9326863585971296e+01 1.6603285699966364e-01 3.7152699984423816e+02 -7.7021322489599697e-02 1.5105220494024252e-01 1.1845110649019480e+03 -1.3430086887996877e+04 8.1720090484246612e+01 1.0835869207949145e-01 -1.5881885054568556e-02 1.2992646429379529e+03 3.5515318499878049e+01 -1.7233648000517860e+01 -1.0187797091348330e+00 6.5295048424074264e+02 7.4237259732559323e+01 8.6939544562250376e+02 2.5426113054912713e-01 8.3997085003640871e+02 1.1095121397275943e+02 1.8454578362980101e-01 -4.9952519042316999e+02 -6.7988344770128606e-02 9.4860511922888691e-02 9.8025377023965120e+01 -4.9526717832982540e+03 -6.3889315084790148e+00 -5.3658291003557679e-03 7.8777757660686093e-02 5.6630755767825121e+03 -1.0374197107794646e+02 -4.2616676351337574e+01 2.1754985732685466e+00 -4.8643268944773331e+02 2.5183937226845643e+00 4.4446561753244350e+03 1.3909916337148220e-01 1.5676193780971306e+02 1.6469436396143305e+01 -1.8290297679723258e-01 9.0559415399487079e+02 -3.8038891386491108e-01 8.3087988499903787e-02 1.1619840541109443e+02 1.0287366632796584e+03 2.2059465213567773e+01 3.6881439730780397e-02 1.2332659503660099e-02 -1.1521445115241111e+03 -8.4066529925075983e+01 1.6307983923604120e+01 -1.6143654272719097e+00 -1.8910185739043295e+03 1.8274571404052828e+00 6.0224935423912029e+01 2.9315701193263521e-01 -5.3296205683081865e-01 2.9566897098816170e+01 1.7115892460418147e-01 -1.7401748352012783e+02 -2.2911233940137199e-01 3.4437928657675088e-01 -9.4844484372633687e+01 5.4177772849218591e+03 1.8621431340282601e+01 -1.1938106168157516e-02 -1.2789447287260891e-01 1.7353526415137551e+03 7.1574272674809322e+01 3.3670351101104153e+01 -5.7102311262891858e-01 4.2447252714803626e+03 2.7964689996846303e+01 -2.3933382708636791e+03 -2.9919229522871699e-01 -5.2863888556464417e+01 5.2422382368727733e+00 6.4322322375514551e-02 7.2011765594936776e+02 -2.9468517066631467e-01 1.6589718014751598e-01 6.1967858499961039e+02 8.4223757370286639e+03 7.0056163966732655e+01 -1.6805720826303813e-02 4.1460483244388988e-02 2.2696918112710118e+03 1.0004629177403004e+02 1.4322665911057442e+00 1.5730070973060890e+00 5.3016308042407036e+02 -2.9686989593664851e+01 3.3794453998376939e+03 -4.3721504046498061e-01 -4.2496986277401447e+01 3.4434651744501650e+01 -2.6748544886241887e-01 1.6364801082266099e+03 1.2842071606187150e-01 -9.5430788011555343e-03 1.4635223319748962e+02 8.1458991983886781e+03 6.3977682227335258e+01 -8.0061410388890974e-02 -2.4763429336880159e-02 7.8818262801879234e+02 -2.1862631820357702e+01 -2.7378763052717758e+00 1.3051618587417315e+00 5.7388137603371183e+02 8.6806778771022852e-01 2.4914138522033018e+03 -2.3626533036652336e-01 -1.4010558618487536e+01 2.8475872584566373e+00 6.2997160373751304e-02 1.6848027421075330e+03 2.8118719101284884e-01 -1.7135392785756060e-01 7.0512622415088117e+01 -5.8215849453024566e+02 6.1093260920373723e+01 -8.0656201807271399e-02 -2.5435569369846055e-02 2.6632638178765774e+01 1.1963054955152022e+02 -7.0625559850266395e+00 1.2639181222679126e+00 -6.3871731365472078e+02 7.0294108968228102e+00 1.9472864735125186e+03 -1.3656983468875900e-01 -7.7113928450509107e+01 -5.3212833869249963e+00 -1.8187130425593181e-01 -7.6660979577047522e+02 1.1700260343050162e+00 1.9815250634649118e-01 -9.0125182285461483e+02 5.2544027727349512e+03 -1.5817665990501632e+02 -2.3473921096193293e-01 -1.0045377080243406e-01 1.8925239489148644e+03 -1.2857856090155337e+02 -6.0759798446469645e+01 5.4556402385981571e+00 5.5930031390669569e+02 1.9137303121777713e+01 -2.0025061755744516e+03 -2.7427602196187553e+00 -3.3701809964149028e+01 -3.0009891184207152e+01 -2.4205062959916845e-01 -2.8371716178606982e+02 1.4499442807752233e-01 9.3836364684514756e-02 -1.1814704799837646e+03 -6.8100581207856430e+03 -2.2123444526999016e+01 -1.4543188973527310e-01 -5.2796753185203937e-02 1.8259687484846640e+03 -1.8667137477585283e+02 8.7469467918678543e+00 1.7598746404594126e+00 -5.3605432546365410e+02 -5.1970645075162807e+00 -5.7861523366497613e+03 -1.2079978316368800e+00 -2.8678536190591245e+01 1.0783870942105807e+02 1.3531242731778342e-01 6.7403413223035932e+02 -3.8846882177218947e-02 9.8554358342773207e-02 -5.6888409038684267e+02 -2.1128810132339158e+03 -1.7535725465432485e+01 -4.3103390472314013e-02 -1.0492598762872099e-01 -3.9496876103825575e+03 -6.3472829999724198e+01 -8.2258273019589634e+00 6.0463086162761015e-01 -1.1443003427067299e+03 2.0303867124295664e+01 -5.4930876231396205e+03 -4.6849812945851521e-01 -1.0899036749860494e+02 4.3861747044987499e+02 -1.7299342097397179e+00 -5.8887947882057034e+01 8.8267713934733507e+00 2.0679109364899979e+00 -5.9928261286131537e+03 4.9627917993427263e+02 -2.6995251846725893e+02 -2.5864207218714066e+00 -8.7929511735256760e-01 -1.4371603317145162e+04 -4.1236222111567906e+02 -3.7038733121886857e+01 5.6661589590859876e+01 -2.3267300273353317e+03 -7.5943707282926766e+01 3.6177487724636244e+03 -2.6238137454176417e+01 -1.2918101273536329e+03 8.9587105693868256e+00 -2.4310404285660270e-03 6.9883886986269090e+02 -1.6863633294796704e-02 1.3172824398593294e-03 7.1347659670829444e+01 7.6799624578683949e+02 6.8178661140557793e+01 7.7969697215945821e-02 -2.8224803567365048e-01 3.6521778345892903e+02 -1.8073415593601709e+01 -4.6815115184907485e+00 -8.1173541794523824e-02 1.3918436183694921e+03 5.3759720749072812e+00 2.1790232390904021e+03 4.1821497103478045e-04 2.0017117291067166e+00 -8.3582653767012823e+02 
      </Row>
      <Row Index="49">
        1.8261999386243133e+00 -5.4560147162578687e-01 1.3811132639646530e+01 1.6909218292990882e-01 1.5049074526814366e-01 -3.1653693744912744e+01 3.3097967115789652e+02 -4.8855507404064156e+00 7.5720840051619942e-02 -2.5970504618986601e-01 4.4735261757883620e+01 -9.4626831396482885e+01 -1.7714985110796988e+00 6.9237864590832032e-02 -2.5348988222192780e+01 -8.4821681161411107e+00 -1.6175523906946182e+01 -5.0126243939303095e-02 -6.7121240412816405e+00 -1.8798477975651622e+00 -2.3648254624276888e-02 1.0557735963910818e+02 4.9653471176497987e-02 -1.5928872170115937e-01 -1.1573030363395810e+02 4.0526828316773754e+02 -7.8212256534025073e+00 -4.6690598028362729e-03 -2.6681427378207445e-02 -6.5245073136928113e+01 -1.6373742718715221e+01 -4.2088476865901612e+00 6.5653888169981656e-01 1.5265505383452265e+02 -6.4887352343648672e+00 5.7885283399373293e+01 2.0578609837842035e-01 -5.5456981029094116e+01 2.2126677194610238e+00 -5.8895831833979173e-02 -1.1912096873857081e-02 4.7761717924004188e-02 -6.4690222723584156e-02 3.5671722725033760e+01 5.1562542155385017e+01 1.0362336119021485e+01 -5.1959240849555499e-02 -3.6352271601359419e-02 -1.0374197206539603e+02 2.9512624449804196e+02 -1.7217497041320713e+00 -3.8934812287449407e+00 -8.9882707248160870e+01 -1.0199218935462303e+01 -8.3599152969376334e+01 1.2101780648632764e-01 2.0459361513225200e+00 -7.6545112497452017e-01 1.0516642837815182e-01 -1.7500572376181395e+01 2.8491715235165922e-02 -1.2542174269809403e-01 1.2919654718972743e+02 -2.8039845649349468e+02 7.0699303438817740e+00 4.9766107852243415e-04 1.5347659700375906e-02 -2.3163039531757931e+01 8.0855113955161670e+01 -2.1193956939965748e+00 8.8380418291480400e-01 -9.6274008007500257e+01 -3.7287452840047202e+00 -2.4936677235471114e+02 -8.7428313279815484e-02 2.8134023651546087e+00 1.2836653640719717e+00 2.3249223016297144e-01 -2.6958509960153773e+01 5.2637918181917431e-02 -3.6432915100325258e-01 5.0541386433017934e+01 -1.5260083319412661e+02 -1.8514741927908329e+00 8.7132751474804621e-02 -5.1381220586089148e-02 6.2095238514803732e+01 -9.2093124151691214e+01 2.6465273587326230e+00 2.4898688896978309e+00 2.1703903118376826e+02 -1.2489585654198692e+01 1.4725798382214435e+01 1.2923944924061248e-01 6.5152546610347457e+00 -5.7387912532352892e-01 1.4832801991367262e-01 6.9821070017474057e+01 2.4720208980958686e-02 -8.4292095829170882e-02 -9.0098542445568015e+01 -1.6043270650303626e+02 -1.7708486498112268e+01 4.5056394378990804e-03 -8.2138327398864966e-04 -1.6763550773262978e+01 -1.4439853460905675e+02 2.4518585666189510e+00 -6.0286895049233091e-01 2.5487822510302067e+02 1.5436843403776681e+01 1.6534888100537671e+01 -4.8136239166282277e-02 -1.8532355066388845e+01 8.3390524605983918e-01 -7.5112062872291196e-01 7.2753713495354475e+01 -2.2420294629164908e-02 -7.4458012254074085e-02 7.2629253171244599e+01 7.4256133909444839e+02 2.0257732764571649e+01 -3.8937262284869170e-04 2.4193379648780603e-02 -1.3959562420250882e+00 5.2126182427636138e+01 -2.8205997054315772e+00 -8.8290196694807110e-01 2.0039515678404513e+02 -4.5920079098467568e+00 -7.0252062152654617e+01 4.2200380488002676e-02 1.1546233932995001e+01 -1.5633248648363849e+00 5.1711909244566123e-01 1.0578505359963674e+02 -1.0906678454887470e-01 -2.8077552195329814e-02 -1.0637594565283507e+01 -3.4376822921273197e+02 -1.8219159644562751e+01 1.7308119493000954e-01 2.5208553541266169e-02 -3.4211646365001798e+01 -2.4952594219839119e+02 7.4755119295581895e-01 -1.3153522593493108e+00 -2.7421798082068563e+01 2.0807016128674150e+00 -1.4846800876132301e+02 -1.4817582230080985e-02 6.4432054848245919e+00 -8.8022083604270662e-02 -3.2106482995468130e-02 3.9931402153158253e+01 -9.0647071257688575e-02 -1.0390123066047380e-01 8.8200978381199647e+01 -4.4070338070839665e+02 3.2481217259066373e+00 -1.1195081825408850e-02 -7.6695230434370171e-03 6.8286547755862834e+00 1.6892718933255844e+02 2.2676914178266658e+00 -4.3422702012446940e-02 6.9893966350553171e+01 -1.4039041324966215e+01 -1.0871111170961427e+02 3.5720669808821673e-02 4.2065993640925825e+00 -5.1904451994909806e-01 -3.5671122134312991e-02 1.1093734257503074e+01 -2.5526622493504125e-02 1.8208142407109706e-01 7.2412734148389646e+01 -8.0261322762367996e+01 1.3978345807132389e+00 -4.9405466155265906e-02 -6.5261141536055556e-02 1.2455848736071061e+01 4.1370328742461174e+02 -1.1651293083527454e+00 6.1060816660274608e-01 -1.8610898073465430e+02 -1.9127139181883795e+01 -1.7749490807225297e+02 -7.7323201802616870e-02 -1.6751836038960874e+00 -1.5581886432408680e+00 -2.3548574990628496e-01 8.4236973082646180e+00 2.9165339205873560e-02 -1.6686231428745388e-01 6.4063314231261288e+01 -2.3739884450256733e+02 -7.9951882160925241e+00 -3.9783825103624944e-03 1.2715552190487310e-02 9.6607923566340503e+01 8.8354707856574151e+01 -5.5188991521450026e-01 2.9073033494000033e+00 -8.2723803268427787e+01 -1.2918654645576936e+01 3.0170040757660257e+02 6.1832110981523081e-02 2.1095694791029906e+00 -1.1430183232875066e+00 -1.0229322251930137e+00 -8.2585370301188412e+00 -6.1826029146110439e-01 -3.7588190426081403e-01 2.9970243406891927e+02 1.4971763561443569e+02 -5.3309599750480217e+01 -2.3655548838055118e-01 8.6019803129137595e-02 4.6994332484741199e+02 -6.4120839489194395e+01 3.2659883593429653e+00 -6.5625423562644869e-01 7.5783788103099255e+01 -5.9215526472033964e+01 -1.4248799616839324e+02 -2.7481444986052450e-01 7.2139148081844269e+01 -1.1848580302894265e+00 -3.5114457042858940e-02 2.4231266541816041e+01 -3.6296679837678103e-03 -2.3187276775925445e-02 -3.2277497808929674e+00 3.4266900632478553e+02 -4.3422664570215712e+00 7.7665602230960517e-03 -6.9440223851418445e-02 4.7404523381379988e+00 2.6812849594399353e+01 -5.0328401223975305e-01 9.1944480964158221e-02 1.6210701354606624e+02 -4.9466324507118387e+00 -3.4424699808230798e+01 4.9039980503640959e-02 2.0187884502736111e+00 -3.3837988485492480e+02 
      </Row>
      <Row Index="50">
        -2.8630322316882086e+00 -1.2155115806513095e-01 1.6369726164266467e+00 3.5219356309748387e-03 3.4359087755134965e-02 -4.4877389295026660e+01 -4.3539303103461862e+01 2.0462599178458163e+00 -1.0441386908861575e-01 9.4647764729583889e-02 -2.2010161530331324e+01 1.6030198129592463e+00 -2.3147198498307262e+01 1.1944199359186314e-01 -9.0127522936343070e+01 -3.2853498807526194e+00 5.2280865892767906e+01 -1.6203438027332595e-01 1.0287355817446951e+01 1.2310893658141140e+00 -1.1773341479965893e-02 -3.5529037136002444e+01 1.2934646122744198e-02 -3.8582690660291519e-02 -8.7167752769775689e+01 -9.5988141706169699e+01 1.1973218321800232e+00 -1.7154131811139450e-02 6.3103130255512951e-03 -2.9270389604890397e+01 1.0217455935198814e+00 2.2193656791765534e+01 1.0832003977702698e-01 -4.6332126862538189e+01 -2.8057866729795933e+00 -5.6539659115020186e+01 1.1332450526138582e-01 1.3410577019538218e+01 -2.2766849040053785e+00 -1.2674747502728678e-02 -1.5003853657425452e+01 -1.4152527868873221e-02 -6.4735237708646309e-03 2.1785772855160758e+01 -1.3005805052444339e+02 -1.0315603050770552e+01 -6.3163742329379602e-03 6.5977249236891973e-03 -4.2616676564382708e+01 -1.7217497349483892e+00 5.4583294097311139e+01 6.5304286629063707e-02 -1.2727490873967548e+02 -4.3186867414439520e+00 5.3678051031568657e+01 1.7464653535163902e-01 -2.0269476838335176e+01 -5.2105937368831434e-01 -1.6245086236556625e-03 -2.1012110508595384e+01 -9.1904780171993931e-03 3.6878297129385326e-02 -1.6558422650210559e+01 -1.2198018766343594e+02 -4.2725670879050224e+00 5.3251346305946325e-03 6.0759198071704164e-03 2.9284968587682023e+00 -2.4122546386235566e+00 -4.4166440557474935e+00 -9.3343316609543009e-02 -4.4150731182026206e+00 1.8109184807832510e+00 8.6479743864031505e+01 -3.7559901891199843e-02 1.3879869872808275e+00 1.5108909716540819e-01 2.0049999973070345e-02 1.8710166326264243e+01 -1.6482930368257136e-02 2.2077931907899029e-02 -2.1214231273818847e+01 3.9630999982088781e+01 -8.8333290637410400e-01 -2.2364713465163520e-02 2.9040031307678377e-02 -3.9668951324204805e+01 1.8222780478525884e+00 -2.9522439323858464e+01 -3.5548453709122699e-02 1.0688641132686914e+02 -4.4416243349197373e+00 1.6599727027607580e+02 9.0287930089121143e-02 -8.7508327425223804e+00 1.6206514127691316e+00 3.2201680120903839e-02 -2.1965544109223263e+00 -5.6527488964949538e-03 4.5061475082899954e-03 -5.4783293519595560e+01 9.3512119486273320e+01 -4.6837774322546055e+00 -1.5012439058017732e-04 -7.2998922467343167e-04 -1.5374703104142100e+01 2.2111304605202156e+00 -9.7784948377919267e+00 -2.6007084898422933e-02 -2.9610656969249249e+01 3.5114070301484039e+00 8.6161260770562720e+01 -2.4826737917643398e-03 9.0674451841041446e+00 -1.7224770393485387e+00 -7.2080666414390093e-02 -4.2719695181108648e+01 -3.0029369588211591e-04 2.7097670117698223e-02 -2.6525370201546568e+01 3.8348349294610563e+02 -3.2486683628386288e+00 7.7472354484841143e-03 5.5135481390805883e-03 -1.5659381522010291e+01 -7.1404538947808516e-02 4.2343478173435900e-01 1.4900190892572135e-02 -3.0243778511030417e+00 -2.8216998315651085e+00 -3.6585919746981965e+01 3.7336700778336319e-02 1.1369038165170711e+01 -6.6101307137946108e-01 -7.5485405548126397e-03 3.5304424084350899e+01 3.7163818475823930e-02 -1.9703661105410483e-02 -8.8162297186790965e+00 -1.5267877200065038e+02 -6.3380610816238914e-01 -1.5909811521935879e-02 -1.8905148156868577e-03 -8.1541002266458236e+00 2.3706600170450227e+00 7.5977846357293659e+00 1.1635186689454713e-01 3.0861591110762674e+01 1.7430039843311533e+00 1.4207355359938347e+02 1.5730538619236864e-01 1.1534596878763845e+00 2.0555397280052787e+00 1.0109956404160585e-01 1.5224325756201694e+01 -6.2410044998373361e-02 -1.6551091904070389e-01 4.6579186790766478e+01 -2.4639508408715966e+02 -3.0849484843512069e+00 -2.9280892179822819e-02 -8.2674508737948238e-03 -1.4107944313096343e+01 -1.9893800583597425e+00 5.6035748108943693e+01 4.2364062250265655e-01 1.1786823221296771e+02 -6.4729059048821984e+00 1.6140925957501125e+01 5.3230161787821167e-02 1.8417131523061798e+01 2.0330292269982349e+00 -1.8508731092655752e-02 -4.3505846181468719e+00 2.2762861558987268e-02 1.1321366523111021e-02 9.1801739011964628e+01 8.2710078032457517e+01 4.6834912837716614e+00 1.2455343945967026e-02 1.2420982828687652e-02 -1.0644014397093912e+01 -3.3295440669964096e+00 -1.6114799854919180e+01 8.1159613076130580e-05 -4.8818070466558552e+01 -1.3076149902351899e+00 9.3767206754534470e+01 6.5761002440821253e-02 7.7985220163087812e+00 -9.7761678446423450e-01 -4.5067694874989517e-04 -9.7392910981541618e+00 5.7248683599078441e-03 -5.3687229092429734e-02 -3.3077279771400271e+01 1.3900904579226594e+01 1.0883875409159005e-01 -8.4117217358898235e-03 -3.2849742264258255e-03 4.7434185858170324e+01 -3.5016140422575264e+00 9.0373326817081807e+00 2.4476505610139992e-01 1.7531805890262825e+02 -5.4915372977165777e+00 8.9242210722201335e+01 3.6771393081042089e-02 3.0528199468884566e+01 4.6457940001205387e+00 7.7493009220024223e-01 2.5905761331476782e+00 -4.9411312607042446e-01 -1.4825126740263583e+00 1.5882835071695914e+02 1.1739453634342510e+01 2.4007091326272729e+01 -3.1099391674145133e-01 -1.0575908186185637e-01 1.9369907126350265e+02 -6.4740462479441767e+00 -1.0615586405707898e+01 4.0773237431222036e+00 -1.4355452374696387e+02 -2.1559594981118202e+01 1.1255999233852492e+01 1.2821663377327019e-01 3.6019527699508245e+01 8.0865983040614375e-01 -1.4156323151835112e-03 -4.8246243978734157e+01 7.0682061482108885e-03 -8.2484489671383852e-04 -5.0507636544802228e+00 4.9265706579548400e+01 -4.8268922117697055e-01 -2.7444823373097945e-02 6.2294282583558118e-02 -1.0906637333330527e+00 -1.5514020940623641e-01 5.0479917256607836e+00 -3.4518126999183267e-04 1.8976162052881023e+00 -9.5861837303239095e-01 -1.7084445745844960e+01 3.1286634619302950e-02 -5.4873687317154953e+00 -4.8873353595574756e+01 
      </Row>
      <Row Index="51">
        1.8782863101113989e-01 1.4976826595649584e-03 2.9637779216282070e+00 1.4957028328308045e-02 3.5115520979910997e-02 5.3108670821529813e-01 -7.5153513879049569e+00 1.4145340892807212e-01 -2.0160392979114258e-01 1.9201040080131448e-01 -8.0951310716618252e-01 1.8996787947544362e+00 -7.3820885751047172e-02 1.3534410099262004e+00 -7.6087315450568553e+00 -1.6526598290511174e-01 -7.9550454537384212e+00 -2.6294427361733597e-02 -2.1600166364805773e-02 -1.8686231751416926e-01 6.8430604031277653e-02 -1.1262505621125456e+00 7.0906639081300682e-03 4.1722728545721566e-02 1.6472235863329843e+00 -7.5284876244986663e+00 3.4937643076409586e-01 -3.2639840726290004e-02 7.5505967241369376e-03 -6.0878157775050568e-02 -6.6253847219923045e-01 1.5406773626091308e-01 -3.0698416310266907e+00 -8.2797458519871157e+00 -2.0193509999080561e-01 1.0728148976748344e+01 5.6549004683925097e-03 1.8221223987276556e+00 1.7514945994480513e-01 -1.4699666900835950e-01 1.1398909119543248e+00 6.1112007020597048e-02 -2.9069476533078387e-01 1.2007761138083879e+00 6.4368750080466270e+00 -3.8476190848141290e-01 3.9614194945258419e-02 5.5565221743690274e-02 2.1754985946628835e+00 -3.8934812290099217e+00 6.5304285913953208e-02 1.6165601326703175e+01 2.7214093546947566e+00 -5.2922839293393942e-01 5.2684159061522905e+01 4.1546057507521217e-02 4.1263300971001016e-01 3.2480208718754566e-02 1.0508452938885299e-01 7.3852466634571101e-01 1.8760841899002442e-02 1.7867907612386935e-02 1.5282568185357377e+00 2.0516857863647147e+00 3.5665398478131038e-01 -4.5977578102935117e-02 -3.8473146743457337e-02 5.1208665974663958e-01 -1.0229597289677059e+00 -6.7268319045364233e-02 -4.6130109424046379e+00 1.5085943897663881e+01 -4.1567485043691565e-01 2.1256765116869587e+01 -3.1649580180385328e-02 4.4210283071569378e-02 3.9147290574768956e-01 7.4438863640413966e-02 1.2645312001950515e-02 3.4051976745656104e-02 1.1548644656340298e-01 -2.6001301410718067e+00 1.9388486734928847e+00 -2.3086562665001864e-02 -6.8976335948122636e-02 -4.1562489785544610e-03 -1.1545047914442961e+00 3.2344373736061129e+00 -2.8127864266481817e-01 -9.7543227145579969e+00 1.4257667037432682e+01 7.4998573874410113e-02 9.0850615723445074e+00 -9.0632873193761815e-02 -2.5141042890913923e-01 -2.5373528561134406e-01 -5.6901547518280832e-02 -2.3607240582408622e+00 -2.2578130261113077e-02 -5.6391986164203711e-03 3.1374671139836323e+00 4.2666535262293479e+00 2.9166456098362836e-01 4.6799372400105135e-03 1.0904266290463469e-02 -5.1768310775514692e-01 1.2254764467856809e+00 -6.2215919195318214e-02 2.0674760110222516e+00 -2.5944143206812441e+01 4.3021126093219308e-01 5.6520343386029026e+00 1.7122835322395030e-02 -3.8213272404391319e-02 2.3783539990560210e-01 -1.3195700452337013e-02 -2.0965717117297800e-01 2.8987130358617632e-02 -8.3886055788343752e-02 5.6501515962762738e-01 -1.8267398442142408e+01 -2.9847545197879699e-01 5.6618309909564207e-03 2.8414166455225758e-03 1.2909335373276967e+00 -1.0673794790742361e+00 7.8467411598902581e-02 2.1358231032047450e+00 1.4611168056514430e+00 -2.7302422576023488e-01 1.4709516764324903e+01 -9.8214355963803512e-03 -7.4388204275440462e-01 5.6253351883132185e-02 -5.6273896170594750e-02 2.6051550332340412e-01 -2.5792794685085038e-02 -4.5645875691899235e-02 -1.3512611524347449e+00 3.1044794283916417e+00 3.7007479936619347e-01 3.4917358085056568e-02 6.1960722294131854e-02 -2.0857031251216540e-01 3.8876273910553074e+00 6.8463974001024996e-02 5.4513625511135615e+00 6.2693722077819984e+00 7.0811347672133707e-02 -1.6718144256605058e+01 1.6339089659863450e-02 -1.2096835308038578e-01 -2.2699538315714851e-01 8.8653312056095109e-04 -5.1924509328100754e+00 -1.2675858918845619e-02 3.1379213613820220e-02 -3.2622371040139209e+00 9.0797721749435354e+00 -3.6741028957241378e-01 8.4582608050300934e-03 3.2456434176997423e-03 -3.0188338568144846e-02 -2.7696995601250407e+00 9.9692414400244012e-02 -3.0251303936178198e-01 -1.4166875321679214e+01 -8.2638707240715426e-01 -9.2036576465773692e+00 1.5778656783317083e-02 -2.0660134587453882e-01 -4.0050888633772264e-01 -8.7216507707975344e-03 -6.8785019207579978e-01 4.6749819693198413e-02 1.9495842702427754e-02 -2.8644542223740928e+00 -1.1537955231228295e+01 -9.0073324291069623e-02 -3.9727629271938264e-03 1.5246828227186603e-02 -2.4069894079349297e-01 -6.2967828603650986e+00 -9.7952378416653829e-02 -3.2255578650360976e+00 9.6238424098400301e+00 -9.5429363812634005e-02 -1.0130057124508156e+01 -7.6759200390606033e-02 2.8998073475718300e-01 1.8190858937954801e-01 2.7590175214000778e-01 -3.9377805208772543e-02 4.6818244681668474e-02 2.3704472307952179e-01 -1.0101081067584161e+00 2.1634093916713937e+00 5.0635306986879680e-01 -1.0269723598831988e-01 -1.0618353262073896e-01 -1.8738933878085335e+00 -2.0787775365790946e+00 -1.4048146333412448e-02 -1.3969542080555804e+01 -7.6114678321071132e+00 -5.3806232682602051e-01 2.8610986426450786e+00 -1.3469944336920431e-01 -2.6129023858003819e-01 -2.7695590207437348e-01 7.4450769503220937e-01 3.7272002543451777e-01 1.4680247795640572e-01 9.9246452441125244e-01 -1.0413995693195545e+01 -1.3613791714742547e+00 1.9264705738209642e+00 -5.4001403471175924e-01 -4.7745462418182871e-01 -1.0269801051524013e+01 1.5331302570327665e+00 -5.3379891614637809e-01 -9.1656589768070198e+00 5.3773780660993253e-02 -8.7416638393928725e-01 -4.2884513614248974e+00 -4.6416225021019020e-01 -1.0459231310011035e+00 -1.4087864689738050e-01 5.5031593518226809e-03 6.1281587599167153e+00 -1.9644555000578386e-02 9.7316881580426047e-04 3.1025600751193139e-01 -7.4858861783335815e+00 1.8339981675677114e-01 -1.8997790331240383e-02 6.2740837047735143e-02 -1.8045150352124484e-01 -3.8439224051979193e-01 4.4973705621732085e-02 -2.8159256128880755e-01 -1.0004736250932638e+01 -1.2832537774989916e-01 2.4923265587037804e+00 -3.8348006756821346e-05 1.2183597478305863e-01 7.4998231079427642e+00 
      </Row>
      <Row Index="52">
        -2.9295759043500584e+02 1.3120603115385165e+00 1.1779802740097046e+04 -3.3214453285472865e+00 -3.1016173232637811e-01 1.0507183542251587e+03 1.7391240696907043e+04 1.2800483434073976e+02 -8.2692515830078861e+00 2.6924834496845262e+00 2.7487623136804714e+03 8.2008089900016785e+01 1.1701044082641602e+01 1.5225315983407199e+00 9.7335300088502292e+04 -6.1885122388601303e+01 -1.7267087459564209e+03 1.7896603513509035e-01 9.3106783330440521e+00 4.6918936203420162e+02 5.5902846110984683e-01 6.7053793208599091e+03 -1.0530831090291031e+00 -8.4247197798686102e-01 1.8793143424987793e+03 1.8239799256399274e+04 1.0072945702075958e+02 -5.2521807444281876e-01 1.3153533393051475e-01 4.3594127431325614e+02 3.7654271781444550e+01 7.7349178239703178e+01 -1.8395371572114527e-01 6.0381019855146958e+04 -1.6319927242398262e+02 -1.4089558114051819e+04 -1.5549650929087531e+00 -2.6561541994667396e+03 -7.3062153910472989e+02 7.5352269929135218e-01 3.5581446826409083e+03 -1.3923764397623017e+00 -8.8346333592198789e-01 -2.4315700197219849e+02 9.2081806182861328e+02 1.7923865202301153e+02 5.3902461149846204e-02 1.6146126496433605e-01 -4.8643260138368368e+02 -8.9882709711790085e+01 -1.2727491193264723e+02 2.7214093806749600e+00 1.9419975856286311e+05 -2.1792243650358216e+00 2.2622993931215751e+02 1.3677032204226087e+00 -5.2416274876018269e+02 -2.7039902533702025e+02 1.1482783472548346e+00 7.3275065111595650e+03 5.3332034651622817e-01 -1.6426513535739495e+00 4.6591398286819458e+02 2.4619909984068392e+04 2.6218599172817233e+02 -2.0539331239251465e-01 -1.3561406843339804e-01 1.5933326139856833e+03 -9.2976426672514378e+01 1.9196047258949495e+01 4.3915519934664360e-02 8.4310520159915293e+04 -5.9830833066869538e+01 2.5272042542430654e+03 1.0684942258521914e+00 1.0213194186840252e+02 -5.1592190437510453e+02 -5.9938944237390124e-01 -1.4002298990321287e+03 -1.9498577154040619e+00 -4.9655684155530516e-01 -2.5144237027813833e+02 -9.6210591629578739e+03 -4.6977849560793977e+01 -1.8995071618792374e+00 7.5150790840203552e-01 -1.5547791457751091e+03 -2.8161269121855980e+01 1.6038821847695683e+01 -6.8425610063502074e-01 -1.2435764720551242e+05 -6.1316210572038216e+01 5.4383347630094231e+03 -2.6617264101449933e-02 3.2701516151428223e+00 3.8285623949965463e+02 -4.3122632531521354e-01 -2.4810743439500425e+03 7.7480748450858727e-01 1.7480522473202331e-01 1.9729021251560885e+03 -2.1918596604311351e+03 -1.8836603162414249e+00 -1.2531380375552978e-01 -2.6297440371152309e-03 -1.7832956779003143e+03 6.1245120480152394e+01 1.8858594993310049e+00 -2.5980218934190029e+00 4.2167089414596558e+04 1.0846584016017218e+02 -2.0267192420237850e+04 1.2281119619405745e+00 1.0399476575851440e+02 -4.9410135974671766e+02 2.9202074929001093e-01 1.2503678489442202e+04 -7.2515224467026212e-02 6.2477646411123855e-01 2.3945887471653273e+03 1.8863813751287584e+04 9.3429178387817686e+01 -2.9176005163265850e-02 -8.5320583623078011e-02 4.2940687613293505e+02 -2.4259377370457173e+01 -1.0474084918767127e+02 6.5504420223863580e-01 1.0119233758021971e+05 -4.7601245028737914e+01 1.3790816407083163e+04 6.9167832050371758e-01 -3.8618874725466071e+02 -1.5386625647140602e+02 4.8797760840993237e-01 1.4491188907094373e+04 -1.1659318806094436e+00 1.1713868759922414e+00 -8.0284613937139511e+01 1.1706574321551365e+04 1.1594377562403679e+02 -2.9237319382928367e-01 1.9672101854575258e-01 8.3175875312089920e+02 3.4096590694064126e+01 1.8960158085688445e+01 4.9541694913059473e+00 1.7144132926881313e+04 -2.6550749182701111e+01 1.0518879445057935e+04 -6.2943521409534298e-01 -4.0148036734425119e+01 5.3901300256563775e+02 -2.4403517444257288e+00 -3.7485339770252016e+04 4.3247837275940233e+00 1.7944927078403405e+00 -1.6944239371248443e+03 -1.5708138357055665e+04 -2.5258102528337997e+02 5.0148297273346343e-01 -4.0503619966747673e-02 -1.6800164714308269e+03 -2.7299573655094378e+01 -6.1861958564070136e+01 8.6784405032824736e+00 -1.5804451752672036e+05 -1.1217787966158829e+02 1.7422588835105114e+04 1.8893986527174949e+00 -1.2822864330034199e+02 5.4394477660672999e+02 3.4866283355172900e-01 3.7701284410461949e+03 -8.8052549068949659e-01 -5.5951683851511036e-01 -1.8132702328709941e+03 4.0375939014753512e+03 -4.4802096509912758e+01 -1.8302647974046024e-01 1.8503930536140589e-01 -1.9491222769097276e+03 -3.2252519759579258e+01 1.4457115345988228e+01 -2.9453978046881035e+00 -1.3981506713877803e+04 -5.6480347709514263e+01 6.3007006279188299e+03 -5.6614426455139655e-01 6.5877998626444560e+02 -5.6454506126841113e+02 -3.6216079081578623e-01 1.0223752307712673e+04 1.3602212354175909e+00 3.9660848459712017e-01 5.2193838821905786e+01 -3.0745255940466991e+03 -4.9182432004936970e+01 1.7484473158267014e-01 1.9933096829603467e-01 -3.1507240104378752e+01 -3.3918377103201522e+01 -4.9977303340691094e+01 5.7429695589710565e+00 -1.1556443784008990e+05 -1.5126175820981393e+02 -2.3388283252146139e+03 -2.2212959643556367e+00 1.6849938521021949e+02 -5.8990227770207503e+02 -1.8633748500766938e+01 -8.7488992015282656e+02 4.1541257575274507e+01 1.3199697073986513e+01 -5.1151680159314164e+03 -2.9309548697672499e+03 -6.6502197688065780e+02 -3.7379456752607609e+00 -1.6813312413273742e+00 -3.3918058700846259e+03 2.2908930012380904e+02 -1.5095409142315970e+02 7.2079937481918023e+01 -8.8169711959820692e+04 -2.3106314872980283e+02 7.4198622718766665e+03 9.6458297907415727e+00 6.1029325662468036e+03 3.7811421641188093e+02 1.9415558117033604e-02 4.4452296889361096e+04 2.1650713477046007e-01 -2.0124547091817560e-02 3.2296044960355914e+02 -3.1697159610615050e+04 1.6859175408285302e+02 -1.9019029152141396e+00 1.2143855782315240e+00 -4.0538830354014499e+02 6.9234632181945397e+00 -6.6335237571841992e+00 -1.7477118144123560e-02 -7.6881557453793124e+04 -6.1735186669271542e+01 -8.2831236182997309e+03 9.5176232754023982e-02 1.8953284816405221e+02 3.1527376098086766e+04 
      </Row>
      <Row Index="53">
        -3.2981144458070162e+00 4.7140122087398595e-02 3.1115217536687851e+01 2.6743302135966936e-02 1.8485439980821639e-02 -3.4469624181278050e+01 5.6912967094220221e+02 2.8525813347953317e+00 -1.1107075047603981e-01 9.4878451989536317e-02 -2.1058204687600455e+01 3.8943384608719498e+00 4.7504525411641225e+00 -2.1832005493524775e-01 4.2008411675202353e+01 1.2466227591386996e+01 1.1222534000128508e+02 -7.8945308542188286e-02 5.6219495104160160e+00 4.2733340088743716e+00 1.3873286604393797e-02 3.4343653337401338e+02 1.3742528599777870e-02 -7.2474755040730088e-04 2.4066593832336366e+01 8.2680108870472759e+02 1.1438849309924990e+00 -4.1366763866790279e-03 1.3337531146021320e-02 3.3151169718392794e+01 -2.3458322696387768e-01 -2.1558767131791683e+00 -7.8605804737890139e-02 -2.1026295657394940e+02 1.3717803197214380e+00 1.1883635878600180e+03 -2.4987862074934836e-02 1.8506875386692815e+02 -2.3006408234650735e+00 4.9226873916268232e-03 6.6146075324948470e+01 1.2864967997757049e-02 4.1978954664045887e-03 8.8933830249588937e+00 5.2116001680493355e+02 1.4298260992123826e+00 4.9150068454082430e-03 -2.1994678188237537e-03 2.5183939363580805e+00 -1.0199218941852450e+01 -4.3186867497861385e+00 -5.2922839286702417e-01 -2.1792244236567058e+00 6.4675886249025069e+01 -6.5555652560618682e+02 -1.1149571572334260e-02 3.4445267016008057e+00 -5.5136171544243853e+00 -5.6326751223342020e-02 4.7548532972409475e+01 -3.8864016396481862e-03 -2.9764679352685751e-02 -2.9969382458366454e+01 3.4811170847265339e+02 1.5677385884611255e+00 -1.3928665495344572e-02 -2.3658964395239859e-02 -3.0925313067452041e+01 -6.9871025750776017e+00 4.1753474875015764e+00 2.4492494944164223e-02 -1.0305906619755339e+02 9.5569087338849226e+00 -6.2146796099234088e+01 -2.0031794483656995e-02 -1.7470194127354716e+01 -6.0942241178006933e+00 -1.3931305661802177e-02 -8.1234280983580220e+01 4.6951964503671312e-03 8.5366341162472908e-03 -2.2735483412054194e+01 -3.1466067717473015e+02 3.6883185602754853e-01 -3.0938907809728446e-02 3.1515276354859414e-02 -1.5398739218540911e+01 3.0719343406672479e+00 4.8200907175792782e+00 1.6921901141432050e-02 -4.4765181634790599e+02 8.3429342572709402e+00 -2.8684945308636793e+02 3.5418866141139996e-02 -3.5894484139978886e+01 6.6360521996634914e+00 -4.8294975150148939e-03 1.6857564812259213e+02 3.1970973373527389e-03 -1.2884048916207799e-02 5.9247015007852553e+01 -4.6993785161326684e+02 4.7774113275310848e-01 3.5601587794543282e-04 7.1313714714301450e-03 5.5418280321173370e+01 6.7009867055566668e+00 1.2465263632222494e+00 7.6278589208912562e-02 -3.5111504521220922e+01 -3.4820305977158235e+01 -5.0467350943701581e+02 -4.2114389422106602e-02 7.0838783908635378e+01 -5.6121815271697830e+00 6.9723118397252273e-02 3.6295907099121337e+02 2.6153914690556838e-02 -3.1649326519515679e-02 -1.9464158944517649e+01 -9.5592469459898894e+02 -6.7889673287560548e-01 -1.4533397692991099e-02 -1.6227254640896801e-02 -4.9522002950695878e+01 -1.7972588876482405e+00 -2.0375661164651415e-01 -4.4535442415251536e-02 -6.7326828606488561e+02 2.3957618866212421e+01 -8.6592130835148538e+01 -3.5568908473173372e-02 1.2415238971123053e+00 -2.7793277476273808e+00 -4.0152467018304744e-02 3.0471133148637000e+02 3.2826933485067156e-02 -3.7538261399792106e-03 3.5573302813456394e+01 3.8651875807287979e+02 3.2394084311818006e+00 -1.1095501049335182e-02 1.2833467929080657e-02 5.8617291025817394e+01 1.0027682917148462e+01 -1.2966342643937478e+00 -4.4601365050766617e-02 -1.5756930579885375e+02 -8.3425605060765520e+00 -5.2461403390480427e+02 3.9495842603515692e-02 8.8522144683510859e+00 9.6100721619877358e+00 -2.9652627556482875e-02 -7.8428637802399933e+01 -1.3296811475211051e-02 -9.3740182383669282e-03 -1.5100754433358240e+01 3.2479751389481561e+02 -4.0776049100438110e+00 -1.9971941906288451e-03 -5.2108165106544624e-03 1.5181785596636828e+01 -8.3147190939271098e+00 -9.1149083937758792e+00 2.7723131218122832e-01 1.5050669456310661e+02 4.6047789415096098e+01 3.7927192193876863e+01 -1.3443477098605275e-01 2.2425177775525867e+01 6.8915855124220879e+00 3.7153545026411485e-03 3.7772482570480918e+01 4.5951829045013312e-02 -1.4830975711689525e-03 -7.4462698555930558e+01 -1.7929906245225834e+02 -1.1922803360529719e+00 2.6896347338398775e-03 1.0475395402950302e-02 1.3381178320978222e+00 -1.6002044760527095e+01 5.2829010816219792e+00 -1.1178196245648803e-01 2.1750024563634568e+02 2.6386989406791958e+01 -6.8389152231983473e+01 -7.1467646359465828e-02 1.1536771953392188e+01 2.1412812962034464e+00 1.2618314152733155e-02 6.9332445247727357e+00 9.8048228562586069e-03 -3.2871385958884912e-02 -6.1731677354471131e+01 -7.4500089322291501e+01 -4.6615794001010147e-01 3.7380644005720175e-03 3.0507108123827161e-03 -7.4850268086947679e+01 -1.2998506278046873e+00 -1.6829877717190254e+00 -4.4781156678747908e-02 2.9031417240644737e+02 3.8562319627387964e+01 1.2538156565183492e+01 -1.4295127801302415e-01 1.8678076051557895e+00 3.1775995543251717e+01 -2.0389238740557292e-01 -5.3535729050835918e+00 -2.5172976870979857e-02 -1.7047385133567280e-01 -4.4965976066160272e+02 1.5026737379109761e+01 -1.1382998319756680e+01 -7.2375940489119328e-02 -3.8465021015882339e-02 -2.2966700637373637e+02 -8.1218561403361704e+00 8.3638855369343492e+00 5.8832389298200383e-01 -2.5754510082033448e+02 6.6598441173884908e+01 -1.7143833476104101e+02 -1.7604516703120598e+00 -2.0631671827834003e+02 3.4826912473268479e+00 3.8539051262210990e-03 2.1361078501899928e+02 -1.1082703205368753e-02 1.3513664491913932e-03 7.0218349540984448e+00 -8.3827822613268410e+01 4.9452601262295213e+00 -3.2668973551374846e-02 7.8792653750259192e-02 6.3641535831576004e+00 -1.4852027637180873e+00 -1.3476613376830553e+00 -2.1385551779153199e-03 -3.7838184782864630e+01 1.0954516343445192e+01 -1.0713062745417074e+02 -3.3698605626341777e-03 -6.5348035821440860e+00 7.8809389227189527e+01 
      </Row>
      <Row Index="54">
        -1.6848163429239503e+02 5.7978700203475455e+00 4.4369034426808357e+03 -3.6791323671999039e+00 1.0233899926042795e+00 2.4950394572541118e+03 1.6483346742749214e+04 1.8539452607484964e+02 -2.4192778311151528e+00 3.6617289811023683e+00 -4.3622062319921288e+03 3.2018967589735985e+02 -4.4683528374880552e+01 2.2222184643032961e+00 -7.6316265714676410e+02 1.6486480223760009e+02 4.0765827610611916e+04 -2.5209138597710989e-01 1.3916681869886816e+02 -1.0537965600751340e+02 3.0649945420736913e+00 -1.8824455928280950e+03 4.2513802205940010e-01 -6.3685929308485356e-01 1.5905533538162708e+03 2.0746114364425652e+04 6.6035828582942486e+01 -1.4187704552750802e-01 9.9976643657828390e-01 -1.0141154339851346e+02 1.9965564815327525e+02 -1.1845282940287143e+02 5.0691636711562751e+00 -3.0931989203841513e+03 3.6265972328558564e+02 -8.0943928040146828e+04 8.5167395685004754e-01 -1.7039435436243707e+03 1.9747751849773340e+02 1.0954552536022675e+00 -3.7483877138655225e+02 3.8034555169724626e-01 -2.0737284664064646e+00 -2.4987944102138281e+03 5.5173916971087456e+03 -3.6428736204734923e+02 -8.0258936593054386e-02 3.2197249869794853e-01 4.4446561801431972e+03 -8.3599153202027082e+01 5.3678050822578371e+01 5.2684159066998490e+01 2.2622994748502970e+02 -6.5555652559616226e+02 5.7346533275645738e+05 4.3211239728256140e-01 4.4218803585579781e+02 -1.3538987480456706e+02 -5.6313016535334026e-01 -4.1428624674822386e+03 -2.9209032304554250e-01 4.2550767398900224e-01 2.7964577885717154e+03 -3.8950731401018638e+03 2.3230681855003789e+02 7.7620549992971410e-02 3.4957499488590921e-01 -4.7082717177617587e+02 -3.5589290033166969e+02 -8.0744456956155631e+01 -1.1575415894768961e+01 1.0064447316328475e+04 3.2866346257550038e+02 6.6563212517003849e+04 1.1675951690704096e+00 -5.2586377881604449e+01 5.2610393726690603e+01 -2.9851504828821898e+00 -1.6590316503366339e+03 1.6330991935712200e+00 -3.0880567740227987e+00 -1.5787479149062801e+03 -7.3019811642605318e+03 -3.3692651232418712e+01 -4.2497595062238480e-01 1.5056770912070228e+00 1.6478274057608360e+02 -7.0810901675800778e+01 6.0691008600438124e+01 -1.7907489894264558e+01 1.0884406952962148e+04 4.5658106049306025e+02 -9.9537727002857719e+03 5.2986239391098948e+00 -3.2233325353264809e+02 4.2489874783962023e+01 -2.5488601591319315e+00 -1.1716171008800593e+03 5.5822997536055752e-01 -2.1399184540597389e+00 1.8993006438849379e+03 -8.7742075259116755e+03 1.4116698313085294e+02 1.7933710999271257e-01 -1.7475791698897680e-02 2.6932973820567131e+03 1.8279128717255116e+02 7.5821508631072618e+01 9.1377290577586434e-01 -1.5055403680562973e+04 -7.3108008641753145e+01 2.9467052844790494e+04 1.3687103074432017e-01 4.5423059797286987e+02 5.8915913913458347e+01 5.5578447240820248e+00 -9.2362602876346718e+03 5.6946917187922663e-01 -6.5775082333042656e-01 2.8151596625360735e+03 1.0435250696798939e+03 -5.4467847252936565e+01 -1.6102840167578647e-01 1.0343198043385426e-01 1.1742209194640063e+03 -3.5797088761222525e+01 8.5758145733779202e+01 5.5872484199325747e+00 4.9277419856787383e+03 -7.0916328611557020e+01 1.3253883791314348e+05 -5.2901484880863325e-02 1.1038648387664311e+03 -4.4812448239223443e+01 -3.7580694612460039e+00 1.1252586296087829e+03 -1.2551227418552846e-01 9.8708445093276787e-01 -1.5091385818105191e+03 -1.0500884074694710e+04 6.8767099350225180e+01 3.9478052826147914e-02 1.4836316430920377e-01 -1.5606413580738008e+03 1.0233966012850308e+02 -8.4433558646000364e+00 1.2847280230140314e+01 5.7878905339911580e+03 1.0403937073424459e+02 6.3311847133636475e+03 5.7800009282218368e-01 1.4144909405197427e+02 -4.6603575163747365e+01 -1.9243401131321423e+00 -1.4845438891350634e+04 6.3391164860655245e+00 -3.7473034962763894e+00 -2.1563194665014394e+03 -1.9336587380219971e+04 -2.6081596875500327e+02 -8.6168134306734923e-02 4.8874686363963393e-01 2.8516767145994236e+03 -3.4408538147408353e+02 -4.2943880312017953e+01 -3.6642048893487640e+01 -3.2748609872138504e+03 1.2683055013268253e+02 -1.1979850430192595e+05 -3.0596854876488431e+00 1.0809260135860263e+03 9.8706275662798362e+00 -7.4764136623749744e-01 5.4103371114735810e+03 6.0641665608759610e-01 4.5098127258439691e+00 -2.0403481871659205e+03 2.5022264430225005e+03 2.3463417139015093e+01 9.6580633681381922e-02 7.0492631049182319e-01 1.1482925735991303e+03 -5.7401378504901004e+01 4.3980073886567439e+01 -2.9922219737929396e+01 -2.4957973306998647e+03 3.7092221102904446e+01 -1.5921214492905673e+05 -5.7941107291896143e-01 -2.0510853380884123e+02 -1.2027777697711994e+02 -3.5583927615256872e-01 8.4806020222173047e+03 -1.4784233826510631e+00 7.5782649637768107e-01 4.4621726773194241e+03 1.5147771009163544e+03 2.6411165882916794e+02 9.3917690681401253e-02 -3.6688010596015952e-02 7.2134905668384999e+02 -3.8819905368456989e+02 -1.2605735471759900e+02 -4.2757381939640986e+01 2.0497831652022141e+03 8.0349242638148326e+01 8.4839323862079385e+04 -3.9870983910050422e+00 2.7937386299483683e+03 -3.9558614688244666e+02 -2.2674583127482563e+01 -1.8938573316400207e+03 4.7334232391528026e+01 -8.8414520879830931e+00 1.2171579267668325e+04 1.6438292279913821e+03 1.2707486407556471e+03 -2.2887916368772623e+00 4.8934752112772451e+00 -3.7900869039309255e+03 -2.0318611616443663e+03 -3.9552615759384742e+02 -4.1175847146688824e+02 7.7393425810647313e+03 8.7094031077825161e+02 1.3417506554129017e+04 -3.8869744785386132e+01 1.2058791615783972e+04 -3.8251541248449399e+01 2.2013541878575316e-01 1.6035849273736767e+04 1.1019540406478290e+00 -2.6389482131664987e-01 1.1037456817064890e+02 -1.9545020903626871e+03 3.6978193412885794e+01 -2.5453602637330230e-01 4.8286272328574027e+00 2.2456537607251744e+02 1.8338645063833155e+01 -2.9953403218911419e+01 -9.2927554898624931e-01 -3.1724171040555084e+03 8.8787105778810883e+01 -3.4048900910084965e+04 3.8489723630408346e-01 -7.4453738759573957e+02 1.9132174388018807e+03 
      </Row>
      <Row Index="55">
        -1.9791218963939095e-02 1.5049160509166271e-03 -4.8671386169735342e-01 -1.5333689497062500e-01 -1.5470744953019810e-02 -3.5975783517642412e-02 4.7611645056167617e-01 -1.4829545479686956e-02 4.7417300996071970e-02 1.2336964719176455e-02 -3.7669641645493979e-01 8.2945008107344620e-03 -8.2522884580612299e-02 -6.6261590798433190e-03 -1.9657024599588624e-01 -3.5893987665986060e-02 1.4183063212549314e+00 -5.6909447737835706e-01 1.5930554990882229e-01 -4.5984096745996794e-02 -1.5529891226705672e-02 -1.0897069834391004e+00 1.1674514139844661e-02 -2.1227795601301835e-02 1.0514963974128477e-01 5.8816265584209759e-01 2.8026481668348424e-02 1.3870969571676994e-02 -2.1194498388759087e-03 -1.6104109893939267e-01 4.1623044391599251e-02 7.5184582346537354e-02 4.9129503933258434e-02 -4.6666831999773155e+00 -1.2296000737478607e-01 5.7248015293444041e+00 5.6370110414743757e-01 5.5437293758953277e-01 1.6917195538098895e-02 -1.0784716218026347e-02 -1.6200385907672228e+00 -2.6792313986774730e-02 1.1181078520564824e-02 -1.0776988081488525e-01 3.4717016329523176e-02 -8.4175635934771662e-02 3.2720102893080139e-04 6.5528264233026740e-04 1.3909915432202258e-01 1.2101780497323489e-01 1.7464653531260410e-01 4.1546057542503928e-02 1.3677033700150787e+00 -1.1149571162751615e-02 4.3211240613019442e-01 6.3970062668078853e-01 6.0564011957380637e-01 3.0159796304256949e-02 8.1808842347220433e-03 -2.5359019458648078e+00 9.0851543162825579e-02 1.2186372605530283e-02 5.6993408994458150e-01 -1.4062086014597526e+00 2.3388322974801978e-02 -1.5348934572175150e-03 3.2458848328692780e-03 1.7401660748982861e-01 6.6712620960028168e-02 -3.8151394792941516e-03 -1.0409112370864969e-02 1.0361350905542104e+00 2.2869080393010388e-02 -1.3713259206010449e+00 -1.6186526033811788e-01 -1.2571169253780656e-02 -2.0749365734461234e-03 -2.2417279386063283e-03 -6.2148492235962749e-03 1.3804231114496969e-02 3.6930960110905180e-02 -6.2270033038949690e-01 -2.7376369440503368e-01 -4.3226623772432887e-02 1.5925979600253628e-02 2.2009171337173785e-03 -6.5013523524483952e-01 -7.9954620921807162e-05 -1.2346507054908179e-01 5.5126690040195318e-02 4.3566506531006253e+00 -4.2923277914851621e-02 1.6008597315995647e+00 3.2355907883213436e-01 7.2673998423852026e-02 -2.2111654567545047e-02 2.7380631974344609e-03 -2.1216922626967027e-01 5.1001429522924302e-02 2.8650824062800152e-02 5.5251766413305292e-01 -4.5549613218650897e-01 -1.8746346681285053e-02 -2.0810265471820667e-03 1.2308396003319496e-03 1.0578935006924439e-01 -1.7604705112876029e-01 -1.7769812427168880e-02 -1.1576911965766878e-02 4.0454551135189831e-01 1.6204263646802275e-01 -2.2385456831375832e+00 -1.4288445612469095e-01 2.5974868358753156e-01 1.8732675278056742e-02 -5.8462385107660294e-03 -3.7738557045818499e+00 3.4967489167862187e-02 -2.0221383145924031e-03 7.5801706283728676e-02 3.2308030799140841e+00 1.5597115143835353e-02 2.5948987673974511e-03 1.7909948904281921e-03 -8.8745497062960949e-02 3.6162860832282095e-02 -4.4542952876919013e-02 1.2552193624057947e-02 4.2652388187593004e-01 -9.8210275195511343e-03 1.0703023530309324e+00 1.1410414434884278e-01 3.8180474948268046e-02 1.8429912371543674e-02 2.9421310180465995e-03 -3.7501149141368373e+00 -5.9217111555614460e-02 -4.1658624012405304e-02 -3.3964245170500362e-01 -2.4320810018603254e+00 -4.0005697806009266e-03 1.4372442113283639e-02 3.2462505195739316e-03 -6.7749835699214600e-01 -1.9375520874782140e-01 3.1558334340157382e-02 6.2775189344961291e-02 9.7604904703439388e-01 8.5867399942799238e-02 -6.8753565324004740e-01 6.4880890297821170e-01 -4.1591754998080432e-03 -3.0175148246272404e-02 -7.9222048185695392e-04 1.2265105838874213e-01 2.4684203678626553e-02 8.6606839478700296e-03 -6.3472644738183859e-01 -3.7118663363086313e-01 5.1436533884977251e-03 -3.1244462660971360e-04 1.6547829101910680e-03 2.1079461667240743e-01 2.0729737179926300e-01 2.0938276811526879e-01 2.0564247118972805e-02 -3.0738334745326945e+00 -1.5531150497015805e-01 -1.7577109419760681e+00 2.3733396400346929e-01 -5.1736439362884212e-01 -6.8031528208816971e-02 -1.8499575735643481e-03 3.0090252480328008e+00 -1.0730016107957416e-01 -7.2702709993143058e-02 2.8066585504547659e-01 -9.7250214103894717e-01 -1.3120069638278276e-03 3.2172828082294379e-03 -3.4757581869176348e-03 3.6057439768479327e-01 3.6220668309201853e-01 -3.7873514761900262e-02 -2.4534470307292638e-03 4.8940947774091761e+00 1.4408192172167267e-03 2.0191470596967775e-01 2.3533462893141585e-01 1.7464103379866447e-01 7.4875404325242534e-03 -1.1611903694981275e-02 1.2852272188126355e+00 7.3949457856084238e-03 -2.5667537313033322e-02 4.7240301674043761e-01 -1.8930950497005057e+00 1.2230606962665069e-01 4.9178993040798541e-03 -2.2669593381012200e-03 5.5927026761496279e-01 2.1233351010648799e-01 -7.2743900539812278e-04 7.9932895474531834e-02 -5.5733381885863604e+00 -2.6067391539256313e-01 4.8039430270217371e+00 -5.0997304281149951e-03 -7.6044704209527358e-02 -2.2198391051948696e-01 -3.0611656036513571e-02 -9.8816190869984055e-01 1.8963814021785819e-01 -3.0399930897826427e-01 2.8714639776802535e+00 8.9722432493476134e-01 5.1982903426731575e-01 7.7602347677047004e-02 -4.0951119367415897e-02 4.7629529501523322e+00 6.3026285238474067e-01 3.3845821994082925e-04 3.4429638323257894e-01 1.5169833265301755e+00 -6.5141750702524792e-01 9.6877696188274243e-01 -4.2860054535186154e-01 1.9467214330105520e-01 -8.0969104756840240e-03 -3.5042494755672677e-04 3.6169114770840665e+00 2.7970622975251266e-02 3.6331946807830477e-03 6.6135799346123014e-02 1.9061156756034303e+00 -1.5702618972434274e-02 9.0385393527308705e-03 -5.1996111678866428e-03 2.4845788656123163e-02 1.7821848624971395e-02 3.0465789180615960e-02 -8.4884793537834120e-04 -1.0110545150323276e+00 -6.4683424210857710e-02 -8.9564498590602781e-01 6.8055716649543421e-02 -2.3946798925042145e-02 -1.9512847618911711e+00 
      </Row>
      <Row Index="56">
        2.2623729793713210e-01 3.3486663478902301e-01 6.5435819617658854e+02 -3.8007438173260272e-02 -1.0725579255642970e-01 -8.4349263194948435e+01 1.1001908682435751e+03 -4.0807346655551555e+00 -7.1790557475509109e-02 9.1826880042580383e-02 -1.9482227498160725e+01 6.2832041084766388e+00 1.0266922166571021e+01 8.4948412549420027e-01 -3.0529852517509562e+02 6.2906954239588231e+00 6.7046096828579903e+02 2.3946129778050818e-01 -1.9466616905736737e+02 -3.6804624621290714e+00 7.8310190230695298e-02 1.2184535935241729e+03 -1.1943847522343276e-01 -7.8052817151728959e-02 1.5362214318662882e+02 1.4344539138543187e+03 -6.5451429374516010e+00 -3.1205844214127865e-02 -3.3387576769655425e-02 2.4458362879985907e+02 5.1970748323947191e-01 4.2348875299794599e+00 -5.0767505051408079e-01 8.6514041631619492e+01 2.4120373291429132e+01 1.7415967434681952e+03 1.8276380556926597e-02 -6.8056243571605251e+00 1.5070563104352914e+01 1.5178674491107813e-01 5.6723895130023993e+02 7.3942329014244024e-02 1.7740154642160633e-01 5.1008973149582744e+01 1.3149902029037476e+03 -1.5085240038560688e+00 5.3335725875285789e-02 5.7085001134797975e-02 1.5676193650751463e+02 2.0459360876120627e+00 -2.0269476811168715e+01 4.1263301140601860e-01 -5.2416274013090879e+02 3.4445267246221092e+00 4.4218803647886102e+02 6.0564012096416819e-01 1.1206258346203820e+03 6.7276938954395753e+00 -4.7924481362235705e-02 8.8746780800037345e+02 -2.8336898760710584e-02 -9.4318729570014304e-03 2.5779132071509957e+02 2.0403593672458765e+03 -2.2082978313030601e+00 -1.5332173602229052e-02 4.3350460653410845e-03 3.1982400376737758e+01 1.6916582182195153e+01 -5.6655594389651309e-01 4.9817706205664702e-01 -3.7655086958576481e+02 -4.2955574931305751e-01 4.8228316149959164e+02 5.7863760735926917e-02 4.0168862014373801e+01 4.1877417229505500e+00 -4.4493766697501991e-02 -2.8094202918973087e+02 1.4075852660071903e-01 8.5827250649835762e-02 -1.0873854247192747e+02 -5.8633938241741021e+02 5.0520732767133225e+00 -6.3136488922753142e-03 4.4677692731696864e-03 -3.1852706773217972e+02 -6.3257142081026387e+00 -5.3125734487031195e-01 4.3073150245260938e-01 8.4213380700104847e+02 -1.1417310551253131e+01 1.2241961866247580e+03 3.0766405792789348e-01 3.7751396568492055e+02 -4.0372710847517279e+00 -2.0774641995674276e-01 2.7714014232896557e+02 5.9608672491287290e-02 7.1776600662942489e-02 1.2013247713094201e+02 -2.2682531057266579e+02 5.1336432029039347e+00 2.4360732155113390e-02 -1.2164790333963508e-02 -7.3012401685118675e+01 -3.8893930985274041e+00 7.8372315593618005e+00 7.7712338629979227e-02 -6.4448745158314705e+02 1.8966945959513435e+01 1.0667986012347353e+03 -3.1370064407718418e-01 -6.8749835375696421e+01 9.8330912825623340e+00 3.3946116034040197e-01 2.2236269653227164e+03 2.1098124136851720e-03 2.6688007891981419e-02 -2.2024647210150027e+02 2.1281818282999793e+03 -1.7728091649163424e+00 -6.2431910130537310e-02 -1.0039345794535540e-02 -7.8803535605550678e+01 -1.9004956090803269e+00 5.7760348816718317e+00 1.1969166593528047e-01 -4.6422461804738555e+02 1.7650574874470664e+01 -7.0636653012202260e+02 2.4868075890000493e-01 -5.8354029494523061e+01 6.4881686395546430e+00 1.1003117206981554e-01 1.3756221926619328e+03 -8.1315412303891305e-03 5.3153821801464662e-02 -4.2958676569396630e+01 1.6783337847077728e+03 -3.3391470160568133e+00 -2.0279932532614994e-02 1.0460698139927720e-02 -1.9806568415835500e+01 -1.4473784457724439e+00 2.2703390228638964e+00 4.2292898221057840e-01 -2.2438076338404790e+02 2.0987289504148066e+01 -2.7976352456212044e+02 2.1614828702949268e-01 -1.5833323292806745e+02 -1.0089798007452458e+01 -1.6675340281993342e-01 -1.2046892012412873e+03 5.8882072601589869e-02 -5.2898128496403213e-02 -1.8017133952446521e+01 1.1146784342192996e+03 1.0148620752539138e+01 -4.0485483352463554e-02 -1.1256270922306341e-01 1.8244675190045687e+01 6.3585627263185529e+00 -7.2255085872076279e+00 -3.1738677237398836e+00 4.8938908396652022e+02 2.5216801500292192e+00 -3.1399442034145881e+02 9.6765142228811482e-02 -7.7360964906403592e+02 -1.1409919169525352e+01 1.2982743051701612e-01 -6.1278064870781793e+02 -1.9297783481978192e-02 -1.1067644554694367e-01 -1.1913709909945766e+02 -3.9184939846361858e+03 -5.1216153388442285e+00 -3.2944871830311723e-03 4.5605329552924102e-03 -1.4298000729304044e+02 2.7003782048660767e+00 -2.4297613410556806e-01 8.9042671067620405e-01 -3.4865537938016200e+02 -1.4966192099673883e+01 5.1110347172629508e+02 1.3746208652010242e-01 -9.6626228370291926e+01 1.7760687203581210e+01 1.0530216368738399e-01 2.4914462697714828e+02 -6.5522066363510781e-02 -9.8381372246389445e-02 1.4091414374372255e+02 -1.4597037408746887e+03 4.6116424617651504e+00 -6.4918369379551852e-02 -1.0058545511801013e-01 1.0392466702236203e+02 1.0627395145253068e+01 5.8158268806648508e+00 -1.5257800031639772e+00 4.1111794711589141e+02 7.7475013519435549e+00 1.0993911184708336e+03 -2.8994503288964435e-01 -4.2535243332212775e+02 2.1301539479525822e+01 -8.4349988083754190e-01 1.5700341263893279e+02 2.9874648145539195e-01 -1.3384231577870336e+00 1.8123841740100067e+02 7.0096788531719585e+02 1.0826521698480263e+01 -3.7270621204828158e-01 -1.3262135211889254e+00 6.1002547593515430e+02 6.6562215594381541e+01 1.4248282988922938e+01 -2.1390733416389196e+01 -4.5577891656169231e+02 -7.6866341976147737e+01 2.2985522557076342e+02 -8.3845329370366706e-01 -2.2862768236527609e+02 -5.4036385454649540e+00 1.2484315327655345e-02 1.4217753404437065e+03 2.5021891340016363e-03 5.4501737619446185e-03 6.9859550255219460e+00 4.0333031279931032e+02 -8.1977076471608488e+00 -9.2236416027362489e-02 6.0142253474040584e-03 2.7480823298970279e+01 4.1000709245441258e-01 -3.8616500798825064e+00 4.4891291647163621e-02 4.2721386481657271e+02 -1.7202491106869509e+01 -3.3152023533122247e+02 -2.2979045596583314e-02 7.8390301945718946e+01 -3.9517490338652061e+02 
      </Row>
      <Row Index="57">
        2.5905272814528104e+01 -1.6973807624992787e-02 7.4883966850116849e+01 3.0537257454322897e-02 -9.0763590609981293e-03 3.6897684197174385e+01 6.1558977765962481e+01 -2.4285432496396879e+00 5.3449763174070353e-01 -9.1081013827839966e-02 1.1955239239541912e+01 5.4399211565032601e-01 1.6027588372817263e+00 2.0440187946132937e-01 -5.1176392299968268e+02 2.2932029271614738e+00 1.8558400899171829e+02 -1.3540693691084016e-02 -7.9144208411453292e+00 -3.0817505931365304e+01 -3.0372554892892367e-02 8.9145800881087780e+01 3.4164435279308236e-02 -6.1067318131335924e-04 3.7306443698704243e+01 4.8722123148560058e+01 -7.9065246367827058e-01 4.5419583145076103e-02 -9.8420050478580379e-03 -6.9036759119089766e+00 -4.1574196412693709e-01 -1.6811557347682538e+00 1.4905639809148852e-01 -9.2778328501655395e+01 1.5790939255384728e-01 2.2283398463204503e+02 2.8636321551402943e-02 -4.9795267244636264e+01 3.7354933764909219e+01 4.4057044235387366e-02 4.9514691360438292e+01 -8.1024015851198783e-03 -4.6524545322427002e-02 -5.6927484592888504e+01 -1.2910303664021194e+02 -6.1492739198918747e+00 -9.0549190053934581e-03 2.4364961074916825e-03 1.6469436549012997e+01 -7.6545114454347640e-01 -5.2105938285239972e-01 3.2480209173109661e-02 -2.7039902388333576e+02 -5.5136171517902719e+00 -1.3538987475572344e+02 3.0159795871895767e-02 6.7276938601085350e+00 5.8239933370900353e+01 4.8064587121751812e-03 1.2051276097358385e+02 -4.9679905769164236e-02 1.4174132291832283e-02 6.1904040635563433e+00 2.1196562515946141e+01 -3.4171403722365765e+00 9.6414750433912282e-03 3.0429582628264083e-04 5.8938484570322158e+00 -5.8181059861539364e-01 2.0900681932138776e-01 -5.5430995163853899e-02 -8.8220566638202172e+01 1.8769691089126828e+00 1.5832831135395696e+02 -1.4141271005428280e-02 2.1213665630103162e+00 4.9797038749745887e+01 -2.2936557847622115e-02 2.0545251373527407e+01 -4.6088547944726443e-02 -6.7652804254219379e-02 4.9574281645487428e-01 -2.8116680909509313e+00 3.8706817903524620e+00 1.1961574888336139e-01 -1.9273345229424744e-02 -3.0704639339356191e+01 4.6358139198155310e+00 2.8806394652662917e+00 -2.1732684459281434e-01 3.5551104296310234e+02 3.5195086492414696e-01 3.3664267357631985e+00 3.3452249513854046e-02 9.3965950030833483e+00 -5.2944787611060605e+01 2.0291968550608309e-02 -6.0447087404045803e+00 -2.2604563478028673e-04 -2.8845322244229494e-02 2.9209830092479706e+01 2.4522224394714158e+01 5.1588067888087021e+00 2.9013172423990756e-02 -2.9685501256727243e-03 -4.7792166406288743e+00 2.8324669576518904e+00 -4.9934405866456649e-01 2.5480361745383456e-01 -1.8515197968482971e+02 1.1969358759352433e+00 -1.4616066498822238e+02 -2.5254060871014915e-02 -3.0150514137931168e+01 4.7240715891509417e+01 1.2510532160477828e-02 2.5303017343465615e+02 -1.2879085618063990e-01 1.1896583550924369e-02 1.2972780798958860e+01 1.7658497873697965e+02 -3.4043648099317076e+00 -2.4214569376509412e-02 -2.2191263633232591e-04 3.2735380787877291e+00 2.0235672940466287e-01 1.6377933327097880e+00 -2.8861592760495491e-02 3.5901614381229604e+02 -4.2147565117133207e-01 1.8119559056432308e+01 5.8385119836896031e-02 -1.0808771243339514e+01 2.9587687701408292e+01 3.0554345219765744e-02 1.8664688440381906e+02 3.3681703114020342e-02 -6.6875239158426317e-03 1.5789720230386592e+00 -3.4189861103671433e+01 -7.2627344325883314e-01 1.4771114929479611e-02 -3.8896608860618221e-03 1.4633794225519523e+01 4.6282008723041050e+00 -7.0929470213264079e-01 -1.7632738967949990e-01 2.3895502739469521e+02 7.3191406554542482e-01 -6.8717625252902508e+01 5.2767121992828098e-02 -1.0633138935780153e+01 -6.5905847105699166e+01 -2.6272309678083680e-02 5.7219264635306324e+01 5.3427406240850260e-02 3.7159509721757827e-02 -6.9187491565216263e+01 -3.2854968661852286e+02 3.5748222108329903e+00 -1.0896286497672523e-02 6.7382347586125661e-03 -5.0731536086492603e+00 -2.4054838881390372e+00 -3.4019304380583648e+00 6.9554114960338931e-01 1.6711030367309689e+02 -1.7273184353708082e+00 -2.7018499859496998e+01 -1.4139395999131594e-02 -3.9733979390068264e+01 -6.8645897738331584e+01 1.0575934604920983e-03 -1.6810086948407030e+02 3.8682874318612656e-02 6.5303766276978981e-02 -1.6800297556645710e+01 1.6932141895077268e+02 7.2157386135477708e-01 2.3295239369914874e-03 1.6176974483706093e-05 -3.1522080991682735e+00 -7.5272151941781864e+00 -1.1429305037961397e+00 2.0068109493577296e-01 2.9510476100570253e+02 -1.2460632691282392e+00 8.4202889409762236e+01 1.5042493633090070e-02 6.4732521019525606e+00 4.2914042922841226e+01 -3.2233653482898264e-02 -9.1760299089680174e+01 -3.8707535425489851e-03 2.5158393132113512e-02 -1.4036309306182382e+01 1.0369129885357020e+02 3.0848377430565259e+00 -7.7528625274977331e-03 3.5097368425340359e-03 -3.8079095430051154e+01 -2.1680577704018256e+00 -1.1718383512195532e+00 7.2515766098815340e-02 2.7992776031803095e+02 -1.7166876316584112e+00 -7.9013463432437874e+01 -1.6203863859883059e-02 -5.2121678355879290e+01 -5.2663708355732098e+01 -2.8088820692963012e-01 4.8636858820272877e+01 5.1674263663357711e-01 6.4611448568312613e-01 -5.6955238693530092e+01 -1.1652995925201310e+01 2.5133992395652449e+01 4.2813588476476772e-01 1.5071716379846833e-01 -1.0293869982223526e+02 -7.0466435283115656e+00 -1.4962018176104069e+01 6.6507451077420683e+00 1.7963174526396227e+02 -2.9683658764691385e+00 1.2884115774339415e+02 -3.5018747468575828e-01 -8.8647210258601262e+01 -2.6918012037294069e+01 2.4184025131501127e-03 -9.8348109101254749e+01 -1.1457055890211211e-02 -3.0653767786577172e-03 -2.8060129615800520e+00 -6.9006813076146841e+01 -2.9037594368112241e+00 1.2072350222542390e-01 -4.2940244936919475e-02 -2.9967935417615514e+00 -1.1215877500153293e+00 -4.5758323636520748e-01 2.0863915052319899e-03 -1.5523863289760021e+02 1.3468449760009142e+00 1.2770272517547551e+02 3.6449533186241195e-03 1.2339382587230721e+01 7.1944433753092156e+01 
      </Row>
      <Row Index="58">
        -1.1772069471604141e-02 -2.7179498117121015e-01 -5.5842745370318880e-01 8.1419682639231362e-03 1.5443420392337481e-02 -2.1000620627592070e-01 -1.2805334304503049e+00 -1.3546951295737575e-02 -3.2796208284565566e-02 -1.5509773526433049e-02 7.5402106573519312e-02 -3.0872874024225894e-02 1.1688070981563214e-02 7.0623669827950764e-02 2.5246856565343876e+00 8.0909349874787040e-02 2.3020564276666846e+00 -7.9503771438025339e-03 2.4726903628459240e-01 1.2771163336765312e-02 -1.8781736840695729e-02 5.1546981915407741e-01 7.0193762720385244e-03 -6.0199415736965634e-03 -5.8240700233727694e-01 -1.7651806832260490e+00 -1.9983896106168686e-02 -1.7964263384375734e-03 -2.5584689902143909e-03 -5.8859847226493400e-02 -1.9921011833048397e-02 -4.6115271452407569e-02 -1.7896861004336628e-02 -2.6857417871944289e-01 -2.8891169467897271e-03 -1.3052747539059055e+00 6.5737769908018606e-03 -3.8175960678416276e-02 -3.6990914773127770e-02 -2.9175144486149218e-02 -4.6299306627803993e-01 5.7530685778646173e-03 -8.2288153515568396e-03 3.0773709016284556e-01 -1.1965901302210113e+00 -9.7044167508266582e-03 9.6718589417987832e-04 1.2914308463478387e-03 -1.8290297750448503e-01 1.0516642823063194e-01 -1.6245086301296396e-03 1.0508452939223810e-01 1.1482783629917321e+00 -5.6326751187106117e-02 -5.6313016439666308e-01 8.1808842347244060e-03 -4.7924481505934757e-02 4.8064587438741702e-03 2.2720607165494031e-01 -9.2102183287721573e-02 -8.4964219615981246e-03 -2.7061587029835799e-02 -1.5653241968084330e-01 9.2745345820174130e-02 -3.5392432690962879e-02 7.5156267690905578e-03 4.2846203366856041e-03 2.7825723455453166e-01 9.3710581272629767e-02 -1.8183014238976874e-02 2.5239598675134541e-02 3.3520287503622370e-01 1.2294115405578981e-02 -3.0122197440589460e-01 1.3516638330557385e-04 2.3974107727430027e-02 -4.8380084098562412e-02 8.0940309691532944e-02 5.4630993773473691e-02 -2.8236240223450948e-03 1.2870652626903723e-02 -4.0701577183512083e-02 9.2605120922314654e-01 1.5586276438679589e-03 -1.1668347291342458e-02 -8.1964118718049293e-03 -3.2544848756569511e-01 -7.6246414286937458e-02 -1.2571120350823417e-02 -6.5027061627109528e-02 2.1363241696430317e+00 -8.9324150180945583e-02 -9.5220281432980070e-01 2.3249262645778888e-03 -1.2494482940564922e-01 2.8110053449786038e-02 5.4684949797190970e-02 3.4071868490333657e-01 -1.2661467041996412e-02 5.9299263319785075e-03 -7.7526558883279278e-02 1.4646334625962447e+00 -1.8891680081310661e-02 -1.5853416964965541e-03 -1.2946094439437808e-03 -3.0188220548188838e-01 -8.7925007525050614e-02 6.1818830974895433e-03 1.0657092463361537e-02 2.1933609605184756e-03 6.4540064634359240e-02 3.1880087047811330e+00 -3.0926203440127687e-03 -2.8172252501462935e-02 -2.8652366911082083e-02 -2.5227399653618193e-01 3.6519748389296791e-01 1.7515238950397841e-03 -1.1508406870003908e-02 -1.4644495179547118e-01 1.9199968500925526e+00 1.1034663959558986e-02 2.7201833678079010e-03 2.2512084409807604e-03 1.0404574730963335e-01 6.8227862077937171e-03 1.5378066637598609e-02 3.7366427971419036e-02 2.3342177967916555e-01 1.7939455241449909e-02 -2.5488817941494659e+00 4.6858228108954941e-03 1.4322678308771289e-01 -1.3689643032907700e-02 8.1380875527805652e-02 -1.4178350781953668e+00 1.1531387473905015e-02 4.4491358808187130e-03 -1.0386086517621607e-01 -5.9836381728064225e-01 -2.5673238167428281e-02 -8.6167505973414873e-04 1.3577484033226121e-06 -3.7129124631610466e-01 -1.0942475280308583e-01 -3.0984323757341399e-03 2.6160581904534297e-02 -8.3953550056276072e-01 3.7419163260210553e-02 -1.5355454985692631e+00 7.6105353533702956e-03 -2.1945820681139594e-03 4.6805077441016127e-02 1.0624078132758119e-02 4.5333528184489680e-01 -9.4197954058725260e-04 -8.6643921820844412e-03 3.1797550095364846e-01 -4.3520063573344947e-01 1.9282468127540264e-02 2.8402274150835767e-03 -1.9136749429326501e-03 -1.6260139747100777e-01 7.5302909298196719e-02 -1.0170749744572438e-03 6.6812937080845056e-03 -9.9250340662640379e-01 -8.6150761466040005e-02 1.0862875848138280e+00 4.8745779718843731e-03 1.3198533010707258e-01 4.5227768371264666e-02 -5.4152378312852065e-02 7.1331937151682911e-01 1.9616301729780954e-02 3.7917624411955898e-03 8.7622283263718792e-02 -6.2566099431935562e-01 -3.5106597848227894e-04 2.5912601256829339e-03 -1.4644945595685803e-03 -2.8259528059868089e-01 1.7013990317366381e-01 -1.9892076045317925e-03 -2.7954140014695799e-02 -3.1900431465748458e-01 -5.5954100076530899e-02 1.8541081460058910e+00 4.7418869557573099e-03 -1.0736535881835829e-01 3.0060809493720204e-02 -1.8252288088280999e-02 4.9625445528464573e-01 2.5327669507073576e-03 -1.3078389524041147e-02 6.4561155172810025e-02 1.5085292646001774e-01 -1.1765204087949260e-02 3.8948135148961726e-04 -3.2393964670845738e-04 4.9769300286112494e-01 2.4683636179910554e-02 -7.0261903310797624e-04 -7.4872015746987444e-02 -7.9763412083080532e-01 -6.3835218405673952e-02 7.3985537706440796e-01 6.0493954905421667e-06 2.2137210990281855e-01 2.0781355395102308e-01 -3.8503046257892984e-02 -2.8201828160384323e-01 1.0200793847609784e-02 -7.1608161429982720e-02 3.7614435542686664e-01 7.1458444944253685e-02 -7.4077947159736146e-02 -1.0063153443846904e-02 2.2113936681625104e-03 1.5533223084828709e+00 3.6330891281230127e-02 7.7796270973542608e-03 -1.3335883482358923e-02 6.3092538518336383e-01 -4.3074336276684438e-01 1.5936408057256735e-01 1.2024022460821848e-02 -8.0265877020043064e-02 1.7547098648318278e-02 -8.2486713555405978e-03 9.8101896206394557e-01 -3.1905976360951920e-03 -9.6801595471894032e-04 -2.4795687038616565e-02 1.7127750677959544e-01 -1.4948899010086206e-02 -6.7256461861881353e-03 -9.4145784512932335e-03 -4.5534402761312702e-02 1.8272344882670689e-02 -2.8281175727755681e-03 -3.3366469424854148e-03 4.5542057518636625e-01 -6.1805782589993141e-03 -9.6833562062255396e-01 1.6275497969066826e-03 -1.6284638805171392e-02 -1.4076543959169011e-01 
      </Row>
      <Row Index="59">
        1.2322254123585299e+02 1.6675321670481935e-01 -2.1049030810832977e+04 1.3865309504753554e+00 -1.7071874652174301e-02 -8.6206143760681152e+02 -3.4237086410522461e+03 -1.5884386850427836e+02 1.6576769258248589e+00 1.7546637007001523e-01 -1.2343899953685591e+03 8.1200250327587128e+01 1.1662289619445801e+01 -3.2311948288697749e+00 1.6355366849701086e+03 2.2682738359272480e+02 1.0962629273414612e+04 1.0413104456383735e+00 -5.3868905408680439e+02 2.7790599152445793e+01 -1.4493383280932903e-01 -2.3165519945621490e+04 -3.3649442804744467e-02 5.8747307397425175e-02 -1.5057920608520508e+03 -1.8873340904414654e+03 -9.2805579870939255e+01 8.4449411078821868e-02 1.0232272575376555e-01 -7.5129518238920718e+02 5.8284074068069458e+01 -1.1450792502611876e+01 -2.8176091561326757e+00 1.8752806288705212e+03 3.9037934218347073e+02 -8.0195900738239288e+02 -2.7574664610438049e+00 -9.9227222633739075e+02 -1.9946159854531288e+01 2.6629570202203467e-01 -2.7003497682142595e+04 5.0094935501692817e-01 -7.1283556346315891e-01 3.8568159419298172e+02 -7.3802848148345947e+02 6.2526947595277349e+01 1.1123303789645433e-02 -8.0782078806377167e-02 9.0559410587045386e+02 -1.7500574409961700e+01 -2.1012109443545341e+01 7.3852472202811992e-01 7.3275068237781525e+03 4.7548533753448751e+01 -4.1428624445800497e+03 -2.5359018914168701e+00 8.8746780846478646e+02 1.2051276225644712e+02 -9.2102178023196757e-02 9.5744166329581651e+05 -1.0095555953546151e+00 -1.1643184883095465e+00 -6.2292834997177124e+02 -4.6968975901406229e+03 -1.1864702860521403e+02 2.2252696791669836e-02 -2.4503045730937076e-01 -2.4651808507724240e+03 -2.2198567744532429e+01 -1.4838951810695036e+01 -3.9227341776924085e-01 4.4485692037989256e+03 1.2470840125859053e+02 -4.6205120507160682e+03 -5.5918054247740656e-01 7.1509331391293642e+01 7.2953034989943255e+00 -2.5986405596834972e-01 4.7277232284989732e+03 -6.2261386776994021e-01 -3.3960308323849997e-01 1.4590132676171859e+03 1.9133891679908993e+02 1.3175596974574523e+01 4.2225058945406235e-01 1.8860055819274479e-01 2.4376674415236644e+03 9.5124414784409055e+00 3.7650260040890821e+01 -1.6733558107488715e+00 -5.4570447865787328e+03 1.6025510890961067e+02 -6.1483544830536084e+03 -8.9012651970320344e-01 3.7670810770988464e+02 -3.3744044981413460e+01 3.0185068248883073e-01 -4.7303153923900318e+03 -3.6338531879184899e-02 9.1253041275054569e-02 -1.9915111399739060e+03 -2.9299725843880206e+03 -4.5582331789930713e+01 5.2328632728730340e-02 6.5964205183056346e-02 1.2889302151203156e+03 3.4672927288668348e+01 5.3993537154200297e+01 6.4859677606048649e-01 -3.6383833370208740e+03 -3.1186672390891920e+02 -9.8977341366962519e+03 1.4272455421819856e+00 -7.2139620923995972e+02 9.1880122814327478e+00 7.2273852923188719e-01 -7.6692355847562678e+04 -1.1102955915937889e+00 1.0562187545154633e-01 -4.3171916088913281e+02 -1.8063580181133952e+04 1.0219314170989534e+01 -2.7800780469500880e-02 1.9272378308733379e-02 4.7578779505015189e+02 -1.3432623419147120e+01 6.4723691497352661e+01 -6.1471737315155472e-01 6.6751651789080715e+03 1.5303427265240407e+02 5.2297946352949939e+03 -9.2131960574579164e-01 -5.1156141329142855e+02 4.1610210871769311e+01 3.9074150524300100e-01 -8.0768010603055183e+04 8.0916274778567332e-01 -2.2944335059027932e-01 -3.8076014575362206e+02 -1.4994957377723244e+04 -9.9083893101662397e+01 -8.0812747492738146e-02 2.0014537905276722e-01 -2.5531783909499645e+03 6.8435804625609279e+01 -3.2213809651062153e+00 -1.1229368755593896e+00 2.7668353009968996e+03 -1.3527295738458633e+01 -2.0939620170593262e+03 -2.1030494649516163e+00 -3.0090729892253876e+01 1.0192762313396827e+01 7.5249598925760686e-01 1.5569391889328708e+04 -3.4117235026947013e-01 -7.1413607843278404e-01 2.0696863595251430e+03 2.8026490252102616e+04 2.3854353625285847e+02 -3.2267946032129091e-01 1.4205732624448439e-01 1.4780958796433458e+03 -7.9419410499651121e+01 2.9280426280323368e+00 -7.1985788028054083e+00 -8.3912976193009454e+03 3.2235866524446953e+02 1.0547702095611551e+03 -4.1625602079269228e+00 -9.5368105719094297e+02 -6.7024233872444881e+01 5.1709412567933710e-01 5.1101050335183434e+04 1.0644415790681547e+00 8.4592018719554263e-01 2.4463677307973398e+03 -6.8619042883972434e+03 6.9657763251669564e+01 -2.6788747683012143e-01 3.0785954661937309e-01 1.9778103976426573e+03 -1.1770580380847520e+02 -6.4775118878169735e+00 1.3474211949953852e-01 4.5386576608263622e+03 1.5212721148520737e+02 -1.1268691070677253e+03 9.3266845992481917e-02 3.0845591205406492e+01 2.0592183500322557e+02 6.5187486501104630e-01 2.0319763518836513e+04 -4.8182284793213281e-01 -3.3851708507821116e-01 1.5848924053408109e+03 -9.3501087352520371e+03 -2.7915243578143155e+01 -3.3419185368400195e-01 1.8722902203430664e-01 -4.6795622153117802e+02 -2.1179263128123620e+02 2.4966912769017824e+01 -4.1918040037135427e+00 -6.3480899452625808e+03 2.8306981892547441e+02 5.3959741000852932e+02 -1.1164498362653297e+00 -1.1220141307461724e+03 6.6228434606257554e+02 9.8424953107096727e+00 -1.6528957868759950e+04 -3.2491960698716680e+00 -3.4258272119737732e+00 1.2356955825710767e+04 -4.7756942688706658e+00 3.1682746159507269e+02 -3.2967283158260834e+00 3.0741207045760319e+00 4.4794332668248990e+02 -5.5287496948296098e+02 1.2023208988783341e+02 -6.2185095464300502e+01 1.1268755154043047e+03 5.6391476043027069e+02 4.3393619033639948e+02 -2.2492941399578555e+01 -1.3439433337486225e+03 1.8200036269998147e+01 3.6858138186700806e-02 3.2941924079311990e+04 -4.3457482038734269e-01 -3.4422872892237458e-02 -3.6140348462825369e+02 1.5013888040661470e+04 -1.6458212793263181e+02 4.6626505208055569e-01 4.9455282774320658e-01 2.4380884700317856e+02 8.3534662394600314e+00 -1.3696267096121488e+00 -7.6476962191557862e-03 -6.2779408463640375e+03 2.1414065575057060e+02 -1.9146538590268829e+03 -2.1817749778766649e-01 4.1479304900848035e+02 -1.4849597143175111e+04 
      </Row>
      <Row Index="60">
        -2.4227550023008249e-03 3.0425506585467943e-02 -1.1668362310592784e+00 -5.3489409243389230e-01 -3.9603676959584000e-02 1.8639092574812821e-01 -3.7251868349267170e-01 3.3680155184515392e-02 -1.5463983779277941e-03 7.4232595162337628e-02 6.0605575243392984e-01 1.0643225400963274e-01 -8.6430352166644298e-03 -1.5346328962380085e-03 1.8551074863146155e+00 6.8570081121833937e-02 -1.0260577156441286e-01 -1.2256831064149054e-01 -8.6496889456611825e-02 1.4823183643329685e-02 2.0477204228157575e-03 -4.7034211390746350e-01 -1.2922669718751756e-01 2.3419547671514884e-02 4.1582477556949016e-01 -3.3927009287094734e-01 4.9096185091912048e-02 -3.1177112347791081e-05 -4.8714510286496093e-04 -6.9886789491580004e-02 -7.0906283835938666e-03 6.8159420067217980e-02 -1.4056813900289455e-02 -1.1913595361127545e+00 4.6983206887489359e-02 -1.6463877838687040e+00 1.0699573237535986e-01 1.8604655909196183e-01 -2.1934789467309201e-02 1.1443205397398515e-02 -6.5410708375966209e-01 -1.4025993805900683e-01 3.4964027854147872e-02 -1.0452772142525646e-01 -9.2284001733059995e-01 1.8112125718278214e-02 -1.0336952992937576e-03 -5.4911991431456459e-03 -3.8038891248499596e-01 2.8491714979281824e-02 -9.1904781136236124e-03 1.8760841903325734e-02 5.3332035862695193e-01 -3.8864015754967451e-03 -2.9209032196062168e-01 9.0851543158048997e-02 -2.8336899156834683e-02 -4.9679905754160147e-02 -8.4964219620644599e-03 -1.0095556120395486e+00 5.3674236205084636e-01 5.2790525046575339e-03 -7.8686594097234774e-03 5.6890995247736242e-01 8.4383533995774140e-02 1.2083440160529473e-03 1.1778934613603879e-02 2.2911449030414865e-01 1.9660993833914286e-02 1.9404248531805765e-02 2.5097056408547654e-02 4.0096824936806286e-01 6.0805218704564387e-02 -1.3159983851940247e+00 -1.9483286201712247e-02 -1.9673635252829946e-02 -5.7865442600759848e-02 -2.5208590189826005e-03 1.1207659150733207e-01 4.5947510105122644e-02 7.3260616934433087e-02 3.2239260047327245e-02 3.2102878833505599e-02 -1.7469469218906908e-02 -1.0335742181610127e-03 1.8746377224790441e-02 4.4936897538107479e-02 -5.0719189388725994e-02 -4.2691248001383686e-02 -4.2576566015192115e-03 3.6975968668494921e+00 2.9675133223560302e-02 8.8318353748560963e-01 7.6151634593241840e-02 -1.2785328369500348e-01 4.2860327773757145e-02 -9.8115988161032192e-03 1.8000409835523534e-01 2.8592722208294236e-01 1.7377562896344199e-02 6.6160936554630245e-01 -1.2876956479090418e-01 -6.9733873040656036e-04 -9.5284571647700892e-04 1.0034967230599483e-02 -4.8448371594713535e-01 4.1354408461750092e-03 1.9066031545754897e-02 3.3191836599648201e-02 -2.9699099491699599e+00 -2.1305123719904673e-02 6.4081512189036260e-01 -1.2144346960936209e-02 2.5773244977608556e-01 -3.9306350540371682e-02 2.0515797219689505e-02 -1.3663974995378259e+00 1.6654743924276877e-01 2.4099538094607253e-03 2.9694980936526116e-01 -1.8905988878669415e+00 -2.9632979678133713e-03 2.3576722432132693e-04 6.4867560594185992e-03 -1.1631646194325462e-01 9.7597106868858030e-03 -9.2869201361071727e-02 1.0061927729546984e-02 -1.0348806416760681e-01 7.1112417677985262e-02 -4.5894802958635701e+00 2.4754344689508496e-02 1.7824826507971150e-01 -1.2730715574347717e-02 -4.2752865774511664e-03 -1.0554804734815662e+00 -4.4851441208211951e-01 -2.2481639144458512e-02 -2.7705681174757046e-01 1.3253416308059514e+00 3.1606060659100876e-02 -1.1770476696664704e-04 -1.1361863613568082e-02 8.3260884326591622e-02 4.8822098545513656e-03 2.4251603082752669e-02 -1.1649697521761482e-02 1.2662443045792315e-01 4.6244873194154934e-02 -2.4974233163520694e+00 1.0145729015132278e-01 6.0540601833054097e-02 3.9964851231123338e-02 -1.5342079498263427e-03 3.1802745917771258e-01 8.3377136768121224e-02 2.5847501731424069e-02 -3.5771745227230167e-01 5.7844496870495754e-01 -6.4935942694753515e-02 -9.4606487498553838e-04 5.3660465077115978e-03 -3.4830217805096353e-01 1.9854090954332548e-02 6.6792080209382876e-02 1.1159006570434251e-02 -1.0478756777373703e+00 5.1765308423213086e-02 -4.6169941196853692e-01 5.4341420670717129e-02 1.6339928950152904e-01 4.0753722825934369e-02 4.8687482216697289e-02 9.8057510629113409e-01 -5.6065960008624627e-01 -7.0585034383258471e-02 -1.6418905078646162e-01 1.8530949787765039e+00 -1.8877087198741038e-02 3.2608395939971502e-04 -1.4309078093328946e-02 -3.3699776618752963e-01 4.7208395549607596e-02 -3.0517578796165346e-03 -7.9957047391698316e-02 -8.0986966929851079e-01 8.6234442525777499e-02 2.8453258158921031e+00 -9.1677365045676022e-03 2.8196778412229229e-01 -3.0250188988193427e-02 9.8161312311788249e-03 4.5704388771090354e-01 8.5320151513338632e-02 7.4617555572819433e-03 4.8151439883637570e-02 1.2581168217732142e+00 1.6494934093556068e-02 -2.1528600109418606e-03 -1.1091225266005892e-02 1.1041729940759981e-01 -7.1312963110336636e-02 2.9659146183243834e-02 -1.0216410639771677e-01 -1.3758771407811601e+00 4.5466784834279572e-02 3.7070361696492808e+00 3.4729886489061543e-03 2.3586941627715308e-01 -7.8938923317089404e-02 1.7105960745434967e-01 -2.8584725891660145e-01 8.7394686879854899e-01 -1.2715481884190433e-01 4.1343564311254255e-01 -6.3373322940314480e-01 2.9789955750203490e-04 -1.3069079248828219e-02 -1.4899667173431458e-01 4.4345062941276581e-01 3.9077455725352550e-01 1.9943249572294153e-01 -3.4376632043155908e-01 -7.1434224195273277e-01 1.4612401233019412e-01 -1.9080787092606166e+00 -1.0951962146107364e-01 1.2481003323718933e+00 6.2238643641416846e-03 7.5637750182790575e-04 -2.3586294553900089e-01 8.0251219923789668e-02 4.1204329006287897e-03 3.2642419326112559e-02 -7.3462080179949441e-01 3.5809222568112600e-02 1.0486748357505975e-03 2.9354162051850749e-02 -1.2685922963385288e-01 2.4846653627245141e-03 1.2955187461098375e-02 -1.1747233578432784e-04 7.3686649148942251e-01 2.0734953652029597e-02 -1.6718911232839417e+00 2.6858394421608478e-02 -5.3916859553624796e-02 6.3954872105190885e-01 
      </Row>
      <Row Index="61">
        3.1711815046567976e-03 6.7421390157415412e-03 -1.9642091919422455e-01 -1.5218078949176608e-02 -6.9825979416613615e-02 6.5102322402367463e-02 2.3791211630486941e-01 1.8058050399354347e-02 -4.2560597885190656e-03 1.8148128324203534e-03 -2.0790281606658054e-01 4.8822642270238248e-02 -5.8494832948099429e-03 4.4054472426649838e-02 -1.5902418529956854e+00 -6.2476235049402362e-02 1.2458218708670756e+00 -8.4803881739050624e-03 3.3563131916778843e-02 -2.4302062201726926e-02 6.2781322434870557e-03 -9.8081706177549677e-01 2.0764582211089677e-03 7.2163273715219134e-02 1.6364672317376971e-01 1.5938974434814668e-01 -1.8954719353132532e-03 -1.6254927668747365e-03 -2.0208181952894450e-03 -1.3580477677530756e-01 2.1779073507559588e-03 1.6005177741895693e-02 -3.1784640013742704e-02 -6.9445647135220057e-02 6.9268710120695687e-04 9.4179379232673455e-01 1.4747600758452384e-02 -1.8514244034545418e-01 5.6684529163277375e-02 4.6273946905858732e-03 -4.6463527337645050e-01 -1.8496616004941790e-02 1.4257402648396367e-01 -2.1176249099460165e-01 -1.1783439568698668e+00 -1.9692468428867446e-02 -2.5373755617762311e-03 1.9834663293002400e-04 8.3087988060871476e-02 -1.2542174286616614e-01 3.6878297108756897e-02 1.7867907615945484e-02 -1.6426513378236507e+00 -2.9764679306607089e-02 4.2550767487643881e-01 1.2186372604749418e-02 -9.4318731430482750e-03 1.4174132324753508e-02 -2.7061587029920564e-02 -1.1643184953361470e+00 5.2790525050010473e-03 2.5634609779555639e-01 2.6980691924563871e-02 -3.9455823836417192e-01 2.0093817640071898e-02 1.1252807766079832e-02 9.1178191616213961e-03 -3.1790508704601539e-02 4.1227028410041555e-02 -2.9478897094332990e-03 -2.4206316686888669e-02 -6.7317117503087687e-01 -5.6154116741996496e-02 -1.4330627181992162e+00 7.1908793321260323e-03 -1.4010643334525952e-02 4.6709300638305890e-02 1.4891823591340642e-02 3.5363375977210332e-01 -3.9936626745703547e-03 2.2448394240540179e-01 -2.7847945010064823e-02 -1.8723865072519530e-01 -3.4538737953603016e-04 -5.4107650906029432e-03 -3.5272743162951536e-03 3.3799753422992040e-01 3.0684483245647654e-02 -2.5117120868499765e-02 -8.2845677375399246e-02 3.1879478564270025e+00 2.2789506280557204e-02 -2.8390552729783858e-01 9.3703968494526085e-03 1.3231234905560996e-02 -2.0272028694010125e-02 -6.1437022482739708e-04 -2.4859011138424592e-01 4.0885910500229883e-03 5.9198275294426991e-02 8.5696183131439896e-02 -2.0445861937920642e-01 -2.3283518237391568e-02 -1.8647974299890900e-03 -1.2213840686404963e-03 2.5644179674372936e-01 1.4300368860856061e-02 6.8111201353965312e-03 1.1600552861286535e-02 8.2955429688809090e-02 4.2398926166558715e-02 -1.8888178064200716e+00 -4.5276734758934040e-03 9.8134697275327198e-03 3.7589956894725773e-02 1.2153099578318394e-02 -1.9377692308401953e+00 3.8657284653233026e-03 1.2603697780592879e-02 3.5807671051748002e-01 1.9464549566412664e-01 4.4837675963682894e-03 -6.3754944773490704e-04 -8.0036698898645117e-04 2.5253840082538281e-02 -2.8455082742305238e-02 1.6434676004297988e-02 7.3427314735746829e-03 9.0963906766912217e-01 -4.5442775949258885e-02 2.9862332683441339e+00 3.5836885658550141e-03 -6.9680866821833456e-02 9.7192484954288227e-03 -3.2512814254738384e-03 -1.8878833366875369e-01 -7.6191226870682234e-03 -7.0534800867966999e-02 2.9677425029845494e-02 -1.4883017357619792e+00 1.6983617317016808e-02 1.2820053242166615e-03 5.1273787909357417e-04 1.1969396765755391e-01 6.2925196015317791e-02 2.4984134903925280e-02 4.4627839453438511e-02 -2.4494187833596470e-02 -3.5657918884623996e-02 3.0419093318105297e+00 1.5149246879920563e-02 -1.0893329829298182e-01 -4.4819052855478214e-02 7.7924482829952232e-03 1.0600693460999908e+00 2.5286616941238337e-03 8.0179718929523011e-02 -2.0718941018747911e-01 -1.2995904654560064e+00 -2.8852583666810830e-02 -1.7577944422124863e-03 -1.5252624107031660e-03 2.3989905279381460e-01 -3.2770586877677754e-02 3.1143661574350185e-02 -2.3827165501740456e-02 8.7300776882006481e-01 -5.8580810136140589e-02 -2.0238919150225376e+00 8.6448533631478201e-03 -2.7522334489620026e-01 -4.5106745464011555e-02 -1.2125867558466561e-02 4.7953982276652662e-01 -1.0298633443210928e-02 -1.5207986755977343e-01 2.8888076189180101e-02 1.7402420478805327e+00 9.4520118046415580e-03 3.0330671462244665e-03 1.9957279591800900e-03 4.2233908491494176e-01 -1.2607759943827151e-01 2.2695391179666700e-02 8.5062140750762211e-03 1.2363894777489015e-01 -8.5564890793442150e-02 -2.8885312102800675e-01 1.7421059209094314e-02 -2.6759880817026904e-03 1.2111733320477380e-02 8.7458483857830692e-03 -6.5147678934506470e-01 -5.9843411784792312e-03 -2.7067016095806713e-03 5.0550937507721994e-02 6.9346880611958794e-01 1.8437566118172377e-02 -5.3123068989174881e-04 -7.4463720405046352e-04 -1.7246441087720757e-01 3.1643160337711446e-02 -3.1782852396467109e-02 -5.8977975149482151e-02 -6.4706148970077182e-01 1.3653434615271715e-02 3.4152005199650355e+00 3.4123826344838026e-03 -2.1774979868571620e-01 -6.6482718574413013e-02 2.6680981030957979e-02 -6.4050850241022417e-02 -4.2849078169458037e-03 -1.2203210910538820e-01 3.9040132337676248e-01 -3.1195735740985597e-01 9.2729662856177342e-02 -9.3044816602226091e-03 -6.3448413165520870e-03 2.0301959500775268e-01 1.4424316041878971e-01 -1.7122794555379017e-02 -2.4826022419528010e-01 4.6157054958151633e-01 -5.3629880356702131e-02 -6.5665422910685400e-01 5.4118473945368561e-02 -4.2260258084040281e-01 -1.4210325107235673e-02 1.1005456710614463e-03 -1.0091969332994837e+00 1.7445112156687166e-03 7.6400580313901578e-03 1.9131103436396235e-02 2.4090066300372835e-02 1.4268125517153856e-02 -7.2945968467181697e-04 -2.2288666946851735e-04 2.9272607915605722e-02 -8.2224284531418057e-03 4.3582311522938622e-03 -3.3560446483565588e-03 7.5632292331905937e-01 -1.5548950806965570e-02 -5.1782065736957605e-01 1.8690750983384656e-03 1.2757805892523510e-02 -4.0029407082381986e-02 
      </Row>
      <Row Index="62">
        2.1572235939589518e+01 -7.1602620507292158e-02 -8.2515639573335648e+02 -5.6878294162731402e-01 5.7255417022133770e-02 -1.0467039644718170e+02 -3.2172221308946609e+02 -4.2115878978620458e+00 4.2181792753804176e-01 3.3209392958642481e-01 -6.2041641925384249e+02 -1.0798949504643679e+02 4.0292158573865891e+00 -8.0061194414156489e-01 -5.3699758465449383e+02 -1.1690964649058878e+02 1.0643381971120834e+03 -8.3389392428216524e-02 -5.3463255628943443e+01 -1.7851309744641185e+01 6.5627798088826239e-02 -2.9943561945930123e+03 -7.6398897144827060e-03 -6.1086973859346472e-02 9.6146258160471916e+02 -7.5481000717170537e+02 4.8620424814522266e+01 7.9231095092836767e-02 4.7220428616128629e-02 -5.6661327689274913e+01 -5.6597113445401192e+01 -2.2004452147521079e+00 -5.6178242353780661e-01 -5.4319921210848213e+02 -9.3563312839716673e+01 3.3589152644574642e+03 7.9779113721451722e-01 2.2566617936456521e+02 -1.5564458170905709e+01 7.8935101508250227e-02 3.3883574760572810e+02 1.6936437120602932e-01 -4.8890002028201707e-02 -6.2334248335659504e+02 1.4442564749717712e+02 -9.2401550180667044e+01 1.7039864251273684e-02 -2.7399388108951081e-02 1.1619839825101911e+02 1.2919654669612646e+02 -1.6558422517962754e+01 1.5282568304053497e+00 4.6591404133476317e+02 -2.9969382285259329e+01 2.7964577927160794e+03 5.6993409679853357e-01 2.5779132057379013e+02 6.1904042825300714e+00 -1.5653241903055459e-01 -6.2292835582792759e+02 -7.8686568231205456e-03 2.6980692916595217e-02 3.3205655895620584e+03 -3.4923763812092238e+02 2.4746356632649301e+02 5.9028195750828225e-02 2.4690304225447879e-02 4.4145888540424056e+02 1.1349084671010858e+02 2.7545816588403618e+00 -7.0355214202933003e-01 2.4338390150581705e+02 -2.6998196411777954e+01 1.5907297364504384e+03 2.9992135736392811e-01 8.5354072783465718e-01 1.4763561018413139e+01 2.0335663166607412e-02 5.8970667702884430e+02 1.6261393549706377e-01 -1.2559115257491874e-01 -5.5776310047348773e+02 4.3824657761915887e+01 1.7604452162812971e+00 1.7101978062955098e-01 1.0400161304049747e-01 -9.4829337299461542e+00 -1.0733575134366873e+02 3.0711478211678305e+00 -7.7718727275165311e-01 3.2592486740685683e+02 -5.8260960753545632e+00 4.7210242014235882e+02 2.6879254976890177e-01 6.0058983236551285e+01 -1.7172252232249392e+01 -7.4140361698465940e-02 -6.7442981218682394e+02 -1.1533485006607558e-01 -1.6733440112850442e-01 1.0158520339048882e+03 -1.7949628814102539e+02 9.0379432838534171e+01 -6.8805194804220135e-02 -1.8937558163310338e-02 2.3404405891895294e+02 -1.2922063687488603e+02 -1.5928413219538665e+01 1.0116521935509872e+00 -1.0671667269468307e+03 1.4011807310984312e+02 9.8063564772694099e+02 -3.4948755869321035e-01 2.0562418982386589e+01 2.9785897784167901e+00 1.1188787204507944e-01 -4.4899094557965354e+03 3.9986997703512356e-04 8.8161229905334981e-02 -4.9534443830605710e+01 3.9004430042800986e+03 5.7279295810111861e+01 5.9801861351822756e-02 3.6851750049527447e-02 -1.7273253926249453e+02 2.9004089234720912e+01 -3.1567735034009079e+00 1.0964743372450136e-01 -2.1091949273983698e+02 -3.7180882191538068e+01 9.6051308473492099e+02 3.3037954802829278e-01 3.0358445260434568e+01 3.6226396007342077e+00 7.5687700361843557e-01 -3.6416102469161160e+02 -1.9789713676747456e-01 3.9836031098779556e-01 -1.8372813807241619e+02 -1.3424818215274208e+03 4.2607497029937804e+01 2.5108967527671394e-01 1.0190855764635753e-01 1.1035270348154008e+03 -1.6246484766862287e+02 1.5735148052486179e+00 8.7562575959600508e-01 3.3754865152202547e+02 5.0379142258316278e+01 -1.1263743529319763e+03 3.0107353875610599e-01 -9.0134588629007339e+00 -1.3481691039382540e+00 -3.5712099992577198e-02 -3.2298608035299835e+03 8.8883928699876724e-01 -2.5555748279044616e-01 -1.1547982038382820e+03 4.8208732698797451e+02 -8.5014632079476613e+01 -1.2353864815577861e-01 -5.6818103055896740e-02 1.8926606509237354e+02 2.0223777672107968e+02 -4.0124893815391104e+01 1.2207165858998232e+00 -1.7981609478203984e+02 -1.2364574614486376e+02 -5.9655180522217211e+02 7.4552958598673627e-02 -4.2771381650659066e+01 -3.1471520682931960e+01 1.1145642270111895e-01 1.8413955274928373e+03 -2.0203029055257349e-01 1.3735123187610146e-02 -1.3816329880453113e+03 -1.5656349879458917e+03 -3.4889090665116129e+01 -7.8279912530778026e-02 1.3280813250003611e-02 -6.5434211353520851e+01 2.8550685146756592e+02 -4.4094892049654320e+00 5.4456786004746827e-01 3.7528401884055722e+02 -5.9946505406178325e+01 -1.6402426719464438e+03 -3.5561306386828179e-01 1.2360824548837456e+01 -1.2504586556866810e+00 -1.0386304841034630e-01 4.8861670822095402e+02 7.9391648787662909e-03 -3.4258713146475744e-02 8.0338111877375479e+02 -1.8129386198869001e+03 2.0349299114575905e+02 -4.4464863131756092e-02 -2.3072250717025657e-02 -1.3279263901235083e+02 1.1062465370753063e+02 -4.3594273012349632e+01 -9.4747068330245932e-01 5.5929968760306247e+02 -1.5570713532648102e+02 -7.1465030158760646e+02 2.1671877357050018e-01 -2.8274339351662668e+01 -8.7244627021188222e+01 -5.2548557801385298e-01 -2.0326155162909234e+02 6.9767774264683542e+00 -2.1759400957102999e+00 -9.6988483023396191e+02 8.0080085109297227e+02 6.3714161716375054e+02 -1.3491804062395518e+00 -6.0854958659066494e-01 -1.1230447364185820e+03 9.6112791763839539e+02 -2.2146867654499295e+02 1.2471463591144698e+01 -7.4392202071395832e+02 -4.1663915346664305e+02 1.0059428814110788e+03 -2.7791382000310216e+00 3.1994936573962264e+01 -1.6339009308674740e+01 1.5977056133708336e-03 1.1794298546085997e+02 1.0070560769918208e-01 -1.0374826982146446e-02 8.8917575730611603e+01 2.1592640538109063e+03 2.4164081927110310e+01 2.3399200017683161e-01 3.6027290250777660e-01 7.3518394442555632e+01 2.4595293507299623e+01 -5.1073811347749718e+00 -7.6245188015025694e-03 -4.2202743828656094e+02 -8.3777264677794960e+01 2.7438927454710569e+02 1.3336632990610447e-01 2.4885506938179461e+01 -2.1839133220215422e+03 
      </Row>
      <Row Index="63">
        1.2938582717670943e+02 3.0311616982944543e+00 -2.3525016388893127e+03 7.7006145904214685e-01 2.5083588431880344e-01 2.7795305252075195e+02 2.4353346891403198e+04 -2.9645961254747817e+01 1.3547012859177929e+00 -9.4740602373120719e-01 -2.5236802893131971e+02 1.3414747571945190e+02 6.2083865851163864e+01 -1.1599798058159649e+00 -6.1365305446503389e+03 1.1909151577949524e+02 -1.3502273992538452e+04 2.8588485280051827e+00 -3.3664165478944778e+02 -1.6678215965628624e+01 1.1526892159599811e+00 -6.9348232635259628e+03 1.7094012227607891e-01 8.2262924121459946e-01 5.5719240808486938e+02 2.4516271129831672e+04 6.6172976493835449e+00 -1.1615095403976738e-01 -5.2693910780362785e-02 -8.8837570446543396e+01 2.9550078570842743e+01 -7.4417799770832062e+01 -2.7420344003476202e+00 -6.1943981613609321e+03 1.3654481860995293e+02 -8.9882143211364746e+03 -1.1753925385419279e+00 7.5250036823945629e+02 -1.6548502204939723e+02 5.9685419878223911e-01 -1.3405332076537888e+03 4.9875473347492516e-01 1.8729274475481361e+00 1.2577236866950989e+02 8.4162925443649292e+03 4.6208100695619521e+01 -8.4946360497269779e-02 -1.2521942000465192e-01 1.0287365715437395e+03 -2.8039845836162567e+02 -1.2198018520325422e+02 2.0516858478400977e+00 2.4619910386919975e+04 3.4811170957685550e+02 -3.8950731064434076e+03 -1.4062084802426398e+00 2.0403593703905249e+03 2.1196564646070140e+01 9.2745356727391481e-02 -4.6968974902629852e+03 5.6890998088056222e-01 -3.9455822446507227e-01 -3.4923760461807251e+02 9.6121797648800211e+05 -1.1632314404833267e+01 -1.5962545983081528e-01 2.9132956818594957e-03 -1.1603159687575028e+03 -3.4576755024916133e+02 3.4576565313760952e+01 7.1603291999690200e-01 -2.6398025423028084e+03 -5.6255529214717160e+02 -9.0588587472149666e+03 6.4136332320049405e-01 -8.5960703929694603e+01 3.0168347890391232e+01 -1.3493697870344726e-01 3.4514147376937399e+02 1.3405631867917922e-01 2.8650281260344825e+00 2.8836311341260296e+02 -8.9306162151903154e+03 -3.6151131606224794e+01 1.8401589632986448e-01 -2.6564819394816119e-01 1.7654055071577791e+03 3.3224114356248674e+02 1.2618163431062570e+02 -1.2093083767622659e+00 -3.9136194550785167e+03 -7.4232260654951546e+01 -5.8422732340025977e+03 -9.9701975565410628e-01 2.6150922775268555e+00 -9.2602946215357207e+01 -9.6406854156847532e-01 -1.1106293443797040e+03 -3.7081535611754779e-01 1.0063801748794636e+00 -7.5811970064549087e+01 -8.9791852042556020e+03 2.8997186116917163e+01 2.7824650165185316e-02 6.8337941510962674e-02 1.5976340107917786e+03 3.2486924116534965e+02 3.8623726680527540e+01 -2.2952741970470245e+00 -5.4509222831726074e+03 -2.3295267214801714e+02 -4.5023928675214629e+03 -4.1250836761257048e-01 1.5471946692466736e+02 -1.6022388016805053e+01 3.2966757312022970e+00 -1.4520811334355858e+04 -3.5710976751422563e-01 6.6768889819854560e-01 6.9600267125562368e+02 7.4090662323830125e+04 3.8011817643648236e+01 -1.0216288545501637e-01 -1.8976475847410845e-01 9.2554791557367366e+01 -7.7280868579919115e-02 -4.5895884393867661e+01 2.6347526202717422e+00 9.7782699902942477e+02 7.5920610622367178e+01 -8.2811862092470255e+03 -4.3217528953430673e-01 1.0797717147890455e+02 1.8105330506279735e+01 -1.3448481807490216e+00 -6.5186518266735657e+03 2.6034328028092357e-02 -8.7632093823209178e-01 -3.1410028904676437e+01 -4.7122714199550450e+04 5.4051330640912056e+01 -4.5628809151275207e-02 -4.7321678018368729e-02 -6.1320926126837730e+02 3.6253646877291817e+02 -8.3848712847806297e+00 -2.9054579604417086e+00 1.7609421893060207e+03 -3.3683956539630890e+02 7.3280915260314941e+03 -2.1116782769765243e+00 -9.1710956692695618e+01 1.6658812242680312e+01 1.7987961147012892e+00 -7.6570282676695933e+03 -6.2045638565634588e-02 9.1497926057349988e-01 3.4430906103297076e+02 -5.7394000381889644e+04 -6.1593090554636944e+01 -3.5335200337080619e-01 -2.6643306878423215e-02 1.5098535619289576e+03 -1.2839555715556639e+02 -7.5306505105621937e+01 4.4282395269223169e+00 -1.7961499237391804e+03 1.0167312930541249e+02 -3.2508975462833159e+03 -8.8474607133636318e-01 -1.0161328950918136e+03 -8.8059572331285395e+01 -4.1044708266752994e-02 7.8313453050940061e+03 1.5089459840390518e-01 -1.2790686696881619e+00 6.6687731285064706e+02 1.1263869064472528e+03 3.6002475480263868e+01 4.2869418106132984e-02 -2.0327097657296017e-01 1.8778586060955936e+03 -5.0434000778573181e+02 5.2487015400481681e+01 5.0812411594153675e+00 -1.2506016421646400e+03 3.3425299616347149e+02 -7.2956771792490772e+03 6.9408961322459684e-01 -6.4293793329692505e+01 -9.1969864213942031e+01 1.3739777563623343e+00 5.0808064192610864e+03 1.3499583714159502e-01 2.7010102641615563e-01 1.0137814151011570e+03 -1.7401866847230744e+04 -5.4565752636157185e+01 -1.4487585239243606e-01 -2.1792483089366238e-01 -6.9582196100051442e+02 -5.6870142249108642e+02 6.7575230208654489e+01 -3.7947380197183964e+00 5.6613925708451443e+03 4.2286183107941730e+02 2.5781506172381187e+03 2.6083887922589355e-01 -7.3024008976232858e+02 -4.0608200780230032e+02 1.6703274229915102e+01 -1.8966297066137015e+03 5.7112405314516090e-01 9.6757518767156014e-01 5.4872832165141008e+03 1.2781600631226293e+04 -1.8396635938419482e+02 -1.5050326895133603e+00 -5.2425856661312242e-01 1.9828517498265778e+03 3.2440938272445896e+02 5.1942429747824792e+02 5.0016704848832262e+01 8.2023006104973101e+03 2.3827589882969141e+03 -2.0012538864400690e+03 6.3114082895882433e+00 -2.3744672818758763e+03 -1.5076704999799702e+01 1.4428271240654189e-01 4.4190416872017067e+03 2.2434139415631091e-02 1.6683429307932238e-01 8.6399844634956509e+01 3.0105955479344288e+04 4.8866172050396477e+00 1.6795721558411159e-01 -2.6943086383126136e-01 2.3360702846494308e+02 -3.1282006883639429e+01 -1.8352997368051319e+01 -7.2638423789985876e-02 -4.7661349244423045e+03 5.2447266044336232e+01 -1.1533061856304466e+03 1.0935320210032906e-03 3.0168439322848644e+02 -3.0110670567220703e+04 
      </Row>
      <Row Index="64">
        9.9756737728276335e-01 -5.3400401903815009e-02 -1.6661068457458168e+02 -1.1922151731235964e-01 -3.8259894609751655e-02 9.6387112921103835e+01 -2.1664212306588888e+02 5.7605562806248258e+01 1.9418227119983333e-01 -5.0955869883346966e-02 8.4245712756513967e+01 -1.3680466525256634e+00 1.2754208467085846e+00 -5.9847549753612839e-02 -4.6226786777287700e+01 -1.1928313157171942e+01 -5.5476969134062529e+01 -7.6331095120622194e-02 8.5575115267420188e+00 -4.3766540966753382e+00 -5.9888078903441055e-02 -1.5982318668649532e+02 -6.5494875019567189e-03 4.9797833460729635e-03 2.3252862934116274e+02 -2.5549715718392690e+02 4.9350321096251719e+01 -1.4207256308509386e-03 -5.3157731247495121e-03 9.9896426612108371e+00 7.0380412694066763e-01 3.3840446439862717e+00 -6.2747632214268378e-02 3.6685017305858423e+01 -6.8704671392915770e+00 2.6198759960476309e+02 5.4513699262770388e-02 3.8745499300092270e+01 -3.0011376120091882e+00 4.5205082699567356e-02 -1.3218931091466425e+02 -1.6116373842805842e-02 -2.6503832282287476e-02 -1.3766797497821972e+02 -2.1438773776032031e+02 -2.9599594938724252e+01 -1.0326379382547657e-02 -1.4527685431845756e-03 2.2059464682552221e+01 7.0699301744461991e+00 -4.2725671062798938e+00 3.5665398817791005e-01 2.6218600618845085e+02 1.5677386401709232e+00 2.3230681974777349e+02 2.3388322317032362e-02 -2.2082980224665185e+00 -3.4171403336742929e+00 -3.5392432804883356e-02 -1.1864703560597263e+02 8.4383534388621229e-02 2.0093817634112554e-02 2.4746356532489881e+02 -1.1632328593172133e+01 1.1847929441260429e+02 2.7972367432279087e-03 -1.9241879783611648e-03 7.5596302004995437e+01 9.0602793351238322e+00 1.5337358498676130e+00 -1.0086764625451448e-01 5.9573177635868277e+01 -4.3139022503556834e+00 5.9452639757444089e+01 3.6886397614125599e-02 1.5708005622409256e+00 -1.0781882150486896e-01 2.8448785432897847e-02 -6.0847710868866784e+01 2.8869526032325177e-02 3.2050370289789493e-02 -1.0220361830758615e+02 1.1249977510096159e+02 -2.2788764612932287e+01 4.9121508503775758e-02 -1.5025069873630134e-02 7.7877004046300897e+01 -8.5249694018882387e+00 4.5967831642644317e+00 -1.2822062793301672e-01 -1.6233051450763114e+02 -1.9838225952384219e+00 7.8138903365290645e+01 2.1202615674222117e-02 2.3871679138392210e+00 -1.4728772727865111e+00 2.5481552570394497e-02 5.5321083653087996e+01 1.1960377330644405e-02 -1.1462422035302022e-02 4.2193257567795598e+02 9.9694257407090873e+01 7.9195904698446880e+00 -9.7939257234842987e-03 1.2544159834362947e-03 -1.7754670153371990e+00 -6.7863536557133965e+00 7.5414741254215301e-01 1.3948048952204301e-01 2.0074343336746097e+02 9.2476280404004179e+00 1.0657243683771242e+02 -6.7763888750397405e-02 1.1344857828225940e+01 -5.9010316244075511e-01 3.9880742613006767e-03 -2.6694196611238465e+02 4.8703404822574313e-02 -4.3914233987404749e-03 4.0861948678761445e+02 9.9730156185489378e+01 -6.2841846633653642e+00 8.1523571312130515e-03 1.2286144075321060e-03 5.6872133754857286e+00 2.2256729390488799e+00 -8.4740945887935766e+00 3.0334487875907368e-03 -4.7138730258955441e+01 -3.2706013912897571e+00 -3.1321788732479234e+01 1.5020333211676815e-02 1.8530990605604423e+00 -8.7140686213365770e-01 3.8297533745692031e-02 -3.9488942941962318e+02 -5.6990996942213164e-02 -4.0643549455769895e-02 -1.2018721041423851e+02 -2.3583264118765464e+02 5.3725603061451693e+01 1.9311971183890976e-02 7.2959891983219111e-03 2.0071138315025019e+02 -9.9873205436690977e+00 2.7624984887744204e+00 2.5098828711634269e-02 3.8904205875180196e+01 1.7399652074091136e+00 -2.1536714586988091e+02 -2.0598948450315652e-02 -3.2403993164189160e-01 2.1452077350605574e+00 3.0598615566732826e-02 6.8099269704831315e+01 -8.7160864501797705e-02 2.1013247934573770e-01 -3.1183705626687919e+02 -4.1771141292252850e+01 -1.2055388814109307e+02 4.1984492381723693e-02 2.2348334243393480e-02 3.6465975814531639e+01 1.2575288649044865e+01 -2.5884353684836912e+00 -3.6423672032666901e-02 -1.3333649861755566e+02 -5.8076892854074780e+00 -6.9843424537083735e+01 6.3282337456323612e-02 3.1397485900244462e+00 -4.2652670810101210e+00 4.2662814305124593e-03 2.5750721075159299e+02 -6.7977602190233993e-02 -4.2659780241965074e-02 -4.6865983384737376e+02 9.5321654404488868e+01 -1.2003652681309024e+01 -1.1661456841467861e-02 -7.7886557082925429e-03 -2.5816796743938966e+00 1.8703355051478823e+01 2.2723000599168408e-01 3.9292521274688907e-03 6.1823175971159202e+01 -9.1797237162333367e+00 -9.9168179778904516e+01 -1.9549794883544483e-01 3.7592229281088194e+00 -3.4255631505855213e+00 2.4422746433638114e-02 1.3321452679259772e+02 4.1361508000726695e-02 -2.6443580171874509e-02 5.3479200810325359e+01 8.1246870704992546e+01 5.3638352239483361e+01 -1.4451670148643977e-02 -1.0066117833206850e-02 -2.7823526049828828e-01 7.5291607266050056e+00 -1.3172851947984570e+00 -5.2506869896264970e-02 -1.9566252912007769e+01 -4.1515767296759076e+00 -3.5181502171438666e+01 7.2024608134422713e-02 -1.9355576675907749e+00 -2.1853418108082820e+01 3.5308194050527969e-01 -7.0110328480597872e+01 -5.9149958960216686e-01 1.3615935798806340e+00 -8.9050499030041647e+02 -2.4201996701459024e+01 1.1075809287573986e+02 3.9664642216180912e-01 1.8733535951220581e-01 -2.2397628898849945e+01 6.1890032036017274e+01 -6.6436109319478875e+00 2.0451994176710286e-01 -2.3109702545890514e+00 -2.5287692940508187e+01 -7.5262447152062123e+01 -1.5355614853512378e-01 -4.5560406030034073e+01 -7.5924229689538347e-01 -2.5066809027062013e-03 2.0461633673871930e+01 2.4052664389633695e-02 1.0335075110183469e-03 6.2410322448713757e+01 5.1682238129916257e+01 5.5289866032854043e+01 4.0160459264788562e-02 1.1692908977157038e-03 5.3389541860246101e+00 1.3955115237697984e+00 1.6852421895329983e+00 -8.6286552156087104e-03 -6.1868473225692469e+01 -7.7050017096668482e+00 -2.8367943923356052e+01 3.0791626838023500e-02 -8.9473747422338978e-01 -1.0699661414386344e+02 
      </Row>
      <Row Index="65">
        2.2083772140762126e-03 7.5545855520957467e-03 3.4866436212723784e-02 -7.4173617842012308e-03 4.0603116362378233e-05 5.9962074386703534e-03 -4.6568767141252465e-02 -2.9663550738523448e-05 2.7689817267494091e-02 -3.9248394895282594e-03 -1.9840918707828337e-02 -1.7385542374540819e-02 -2.6438276917133408e-03 7.0395390550830328e-03 -3.4951978414453233e-01 -1.9287329948753040e-02 -1.8250367875043594e-01 7.6557514299757656e-04 -3.9530114433432573e-03 1.9570002352509164e-03 4.1416798507398767e-04 -9.1389805933090429e-02 -4.9123097111858360e-04 -1.3165152163057137e-03 3.4613353313943662e-03 -1.1630895457396662e-01 -1.2731368384493180e-03 1.9633769053172268e-03 -3.9381534038196442e-04 -2.0407073840856382e-02 -3.5699888075555464e-03 -7.0088359546360834e-04 8.6201827971219558e-03 -1.0890087844377949e-01 -1.2488556448886357e-03 2.3479777401803403e-01 -4.0086081360999337e-03 -4.7002481332491047e-02 -5.9333383235511405e-03 1.0524208793160073e-03 3.6318611473541984e-02 -2.7583429851241181e-04 -1.4111097679325724e-03 -3.6721004232617815e-02 -2.3395402268670296e-01 -8.2664406280706926e-03 -6.7596409196896134e-04 -3.4896171005935177e-04 3.6881439835732499e-02 4.9766108105586682e-04 5.3251346271636635e-03 -4.5977578102936269e-02 -2.0539331239703529e-01 -1.3928665495975448e-02 7.7620549998757005e-02 -1.5348934573314876e-03 -1.5332173610207611e-02 9.6414750411911859e-03 7.5156267690731360e-03 2.2252696724308407e-02 1.2083440160276515e-03 1.1252807766063260e-02 5.9028195726568811e-02 -1.5962545991430943e-01 2.7972367280284516e-03 6.7358440722705719e-03 2.3535411633318912e-03 1.2686960204775471e-02 2.7494998188219988e-02 3.3898438407319390e-03 -1.5333108573188418e-02 -7.3696409927951456e-02 -1.3413590151914598e-02 -1.6510188591565722e-01 -3.9170661817111707e-03 3.3431384176701995e-04 -6.4557592758441671e-03 -4.6443671678728388e-03 6.0816916589835568e-02 -1.6968062181506494e-03 -4.2870197151723540e-03 5.1916796634836872e-02 8.8586170562510835e-02 4.6650495232315042e-04 7.2729690776838296e-03 -6.0435786927374589e-04 8.0307788899893401e-02 -1.1788630391779853e-02 -3.3157739462748026e-03 3.0996495599728908e-02 -9.2582876086078514e-02 -1.2961546554754677e-02 -3.1790553726093984e-01 -8.7181267228138770e-04 2.3661220610847522e-02 -1.6484599935748384e-03 -1.8954031720302311e-03 -6.0085750154463824e-02 1.5879525070819425e-03 -1.5742961091219090e-03 -1.9048308651791968e-02 1.0056288372109547e-01 -4.3900499428181448e-03 4.8132319259830165e-04 -5.3839334769125856e-05 5.6836891860029937e-02 2.6964412313876251e-04 -2.3808982529026704e-03 -4.3294586864647050e-03 3.7633834798543830e-01 1.6715763780592016e-02 -3.9019575220838743e-01 7.7160742103133274e-04 -4.4885394731863926e-02 -1.9968362358291358e-03 8.0870959604096675e-03 -1.2530665559466136e-02 1.2457241414859991e-03 8.7766597090310067e-04 6.8768872895377642e-02 1.6928920920919588e-01 6.1727877916344272e-03 3.3253547922509397e-04 -3.9105295349853961e-05 4.4852156400016968e-02 -5.0223907232499476e-03 -2.9113158688656203e-03 -7.7802925085997112e-03 6.3010485791168414e-02 -1.0472213039894963e-02 2.8560912970944763e-02 -2.3704706178026585e-04 -7.6740043902777527e-03 2.7071307280566483e-04 -1.1700032151740361e-03 2.3389498678187692e-01 -3.2550938794727608e-03 1.4846866873719829e-03 -9.5585609517456760e-03 -2.6521042903016223e-01 1.2100566400903290e-03 1.8203185760459902e-04 -4.8117722425746259e-04 -5.0055798698281251e-02 8.0080791425978619e-03 2.6741416221467444e-03 -1.2310505544554928e-02 5.9684695869464122e-02 -7.1580223050204950e-04 -2.1983668788743671e-01 -2.7336308464641422e-03 -8.7698756120744292e-03 3.1640114645098139e-03 -2.6970760345353020e-04 7.9868985149190108e-02 8.4905796992983172e-04 -1.0480221013488902e-03 4.8428284466009441e-05 -3.6508493209789994e-01 -1.2164374905441422e-02 -2.1163927280503196e-03 -5.3511258684523248e-05 6.4625666605372750e-02 -1.0503562654712306e-03 1.1612646892988701e-02 1.8260481530662042e-05 1.8799605116626039e-02 -2.1013272068144351e-02 -4.5391638694664960e-01 -5.2345440451289206e-04 -3.3371545165826473e-02 5.0270401594094197e-03 3.2211121771868684e-03 -1.9803342170795524e-01 -3.5312973293023788e-03 3.2104091208184893e-03 -6.6462818349278807e-03 2.9664155096207767e-01 -9.1615142802113636e-05 -7.8620324999173225e-04 -4.3429520113909482e-04 5.4591731204193916e-02 -9.0190382814284431e-03 1.0869227062508778e-03 7.7792426783530912e-03 9.8890258271463805e-02 -2.7231128202805308e-02 -6.6461168333590648e-01 -1.7119483798844219e-03 -3.4332363518069231e-03 1.1687577121050889e-02 2.3454666280639300e-04 -1.7129013230862924e-01 4.0729762911593430e-04 1.6144450913078295e-04 8.8233211051190530e-02 1.4880071254594007e-01 4.0621971139965518e-03 -6.7862278097675509e-04 3.1815432138939200e-04 2.5206345565008052e-02 -1.4725523944720070e-02 3.5242971873922432e-03 3.9932400968061915e-02 -3.4128064463534047e-01 -8.0836258159803498e-03 1.0649209130303447e-01 6.5729463600114118e-04 -5.7084658271490452e-02 5.3819570018478168e-02 4.8856894792211562e-03 7.3993942049984662e-02 8.9273885406567274e-03 4.5851380938973082e-03 2.4464016884478468e-01 -4.3673092377579506e-02 2.7097522787393902e-03 6.7471726455354646e-03 3.1297143689158406e-03 9.8948379294227062e-02 1.4794459659322190e-02 3.1970349679275409e-02 3.0636880305444713e-02 3.3361758893815074e-01 -4.7811233054793706e-02 -1.4931900896180644e-01 1.3259549698483863e-03 -1.7990732764169393e-01 1.2384534235332419e-03 3.6366132005777281e-04 -3.6730362900310654e-01 8.8013641034362258e-04 -2.4879259014793677e-04 -4.6143750854499288e-04 -3.5390084414962240e-02 1.4529107979463398e-03 5.0579145308474417e-03 -1.5193615941633252e-03 4.0449254763797252e-03 -4.8441549678049367e-04 7.0017932982331665e-04 1.5099752082754661e-03 1.0011181352951803e-01 -2.7923211718853813e-03 3.6813209046258066e-02 -4.9042186577290486e-04 8.3650085426256286e-03 3.4054027929493615e-02 
      </Row>
      <Row Index="66">
        -7.4910431597962623e-03 3.8365957735422979e-03 -1.4397171416680976e-01 -8.8619289472541257e-03 -9.3270579421844690e-04 -2.9753966539487919e-02 -3.6507849401505155e-01 -2.0453675042120395e-03 1.4007057686934187e-03 4.1614604936270807e-03 -3.0786258688749513e-02 -7.1919063532277505e-03 -7.2206670862726696e-03 -7.8719008430105930e-04 -3.6309101055883586e-02 7.1385229975433617e-03 7.8060796174577263e-01 1.3341514060561943e-03 3.3724494782184422e-02 1.5652293847878695e-03 2.7269978390676020e-04 -2.8055700146239815e-01 -3.1148254158310240e-03 -2.8076584058372989e-04 -6.5774776234775345e-02 -4.5326860186827389e-01 -1.9122033837959407e-03 9.0918885489787993e-05 -1.1868956735890807e-04 -3.7925755493269375e-02 -1.9513907962505073e-03 2.0146367246098862e-04 8.8312383064036437e-03 2.0014167439285391e-01 -8.9253835351286170e-03 1.0388414139356428e-02 1.7855059559598319e-03 -1.3649230002827415e-02 -2.2543951267373075e-04 1.1227205279431829e-03 -1.2930753794007985e-01 -5.2138397949266224e-03 1.1920863075283172e-03 -5.3264814006297456e-03 -4.6826159374677445e-01 -5.3111996520962945e-03 -3.5063519403390198e-04 -5.1610699067265915e-04 1.2332659534254553e-02 1.5347659737486197e-02 6.0759198138882198e-03 -3.8473146744269660e-02 -1.3561407215021859e-01 -2.3658964404020891e-02 3.4957499469403563e-01 3.2458848331231027e-03 4.3350461139728680e-03 3.0429582028636271e-04 4.2846203367140623e-03 -2.4503045570077120e-01 1.1778934613518421e-02 9.1178191616342781e-03 2.4690304482192005e-02 2.9132988012179339e-03 -1.9241879695890418e-03 2.3535411633291078e-03 5.4334177194992461e-03 4.4883809430400906e-03 8.8282868003020099e-03 -3.4544399983197152e-04 -1.2631622269540455e-02 -2.0016177414072844e-01 -1.2434361669009547e-02 1.8095459007517700e-01 -1.8255475931354681e-03 -4.0670113446028555e-03 -8.5052336754038432e-03 -1.8261861919229090e-03 2.3626416747099199e-02 4.4054623662677737e-03 -6.3548300819840880e-04 3.0119570191781631e-02 1.6950589269072047e-01 -1.2421741282044110e-03 4.6300838487538698e-04 1.4254463599426223e-03 1.2392273050890891e-02 -1.2285605147110523e-02 -2.6764052213150702e-03 2.1952776214385922e-02 -2.8199678005498396e-01 -1.5611062495723749e-02 1.0274393125093328e-01 1.6820572860333015e-03 -7.3493325248819019e-03 5.0280758118621538e-03 -6.3606004870115133e-04 1.9325212114649659e-02 1.1446418688153021e-02 -2.7251251400465864e-04 -2.2899406227427921e-02 2.2864901575948149e-01 -3.5330331510450841e-03 -3.8887006648238636e-06 6.4463652046875325e-04 -1.8702743543713041e-02 -6.4763205762358167e-03 -5.5239973583645630e-04 -4.2396504528296724e-03 4.1367387902118935e-01 4.0486445640328050e-02 7.6636896832678048e-02 -4.0849606223482878e-04 -2.0625431623784607e-02 -2.6810113983790629e-03 2.8623558816167393e-03 -5.0751461313846358e-01 6.9090344469732237e-03 4.2968743377728514e-04 -4.4147166212196165e-03 3.9286619248733368e-01 -1.1599934357151825e-03 1.2220375860901141e-05 2.9323767452597334e-04 1.3259503074843856e-02 2.1486607130118997e-04 -3.0269993488766852e-03 -6.1413290710705878e-03 -1.7191189613151803e-02 -1.2679065328197578e-02 -4.3503072326088077e-01 5.7909255785224163e-04 1.9705777266666384e-02 -8.2452677513398555e-04 1.7112967611419574e-03 -1.0233783282041031e-01 -1.6335084326227760e-02 -2.5973330970031970e-05 -3.5686576513597856e-02 -1.8635239205570997e-01 -2.4874250907416240e-03 -1.5529962524668005e-04 -9.2308938549485358e-04 -5.1381080367235654e-02 -9.3937774955133863e-03 1.5854202989301442e-03 -9.7178822935690690e-03 -1.2667424658344828e-01 4.9968369496582454e-03 -2.1572305457721086e-01 1.1306578645940485e-03 -1.1019069825181305e-02 3.2818597705332898e-03 -1.4910927646855581e-04 -5.2066744480019356e-03 4.4784915354205380e-03 2.7063887131870915e-05 1.2890499253356141e-03 1.1286113200218362e-01 2.2689666199909313e-03 -1.0653283391540644e-04 3.8904006267693569e-04 6.9005836258740905e-03 5.7248431876266714e-03 7.9611933421538210e-03 -3.8604969239884341e-04 2.4593614860591784e-01 -5.0410802115302161e-02 -1.9546657549348723e-01 1.4698523130030768e-03 -1.7003234382397397e-02 8.4366166433345186e-03 8.9767076405737178e-04 2.2512186433739356e-01 -2.0802316470601601e-02 -7.9920142311707017e-04 4.2866558118856868e-02 2.5615633604083921e-01 6.7874191023827891e-04 -2.0769254665012915e-04 -1.0861430413079088e-03 1.0762472032594950e-02 1.7009572582856510e-02 -5.9048877577375491e-03 7.7721124982314815e-03 -3.1080080074415789e-01 -4.3214173447748812e-02 -1.3979831650879904e-02 9.2717471783060833e-05 -8.2778183223188584e-03 1.8967204936872935e-03 2.3512578266401312e-04 8.6753444293496323e-02 9.0652299205401933e-04 -4.5094287072086462e-04 1.3932490105327544e-02 7.9009674954964443e-02 2.6005260060522339e-03 1.3920969759787695e-04 -8.3413960875992313e-04 3.6070656191382028e-02 -1.5947814700738094e-02 -2.3234536338548389e-03 2.8566300850810772e-02 1.1550883309845483e-01 -4.2022144435947067e-02 2.7133278582251041e-01 1.7847937565056075e-03 -4.9110844452229241e-03 1.9125447137384788e-02 2.6512479912502362e-03 -5.8791114350230045e-02 1.9546260693288152e-02 -6.1304912335470273e-03 1.3735794340599394e-01 -7.5062595816266287e-02 1.6787426200286448e-02 5.6657828060269633e-04 -9.4718368926722252e-03 1.5503463645986826e-01 -3.9959017048762258e-02 -2.3215338831435020e-02 2.1762636288125470e-02 -1.8158785885421591e-01 -1.8562548352860320e-01 -1.0607682571503502e-01 1.1074961073526887e-02 -6.5563269961106979e-02 1.0319779573155934e-03 1.8851674465918933e-04 -1.0061061565501905e-01 5.3643032639296576e-03 1.3543373268831746e-05 -5.5328615275813675e-03 1.3422239920606796e-02 -3.7597004693918335e-03 2.2433741377679683e-04 2.2243783805935796e-03 -2.9015621853229565e-03 2.0157637771970847e-03 1.5609881997361063e-03 1.2916291634859829e-03 2.0063559412165333e-01 -8.3958541900430866e-03 -2.1509058832868533e-01 7.5042448651909993e-04 -2.2515013677769091e-03 -1.3979682176845953e-02 
      </Row>
      <Row Index="67">
        2.5793327396315817e+01 -1.7071133277931949e-01 -1.1059185520559549e+03 -2.3278031872455676e-01 -3.5227913116023046e-01 2.6289493344165385e+02 2.9849181729853153e+03 1.0545338406768769e+02 1.1389989617524741e+00 1.0653232220295854e-01 1.1777052638547029e+03 3.0464113820344210e+00 -1.9914878167212009e+01 -5.0709081020613667e-01 -9.9118615208065660e+02 4.7606509606819600e+01 2.2580096912384033e+02 5.5300769756286172e-02 -5.3848437155596912e+01 -5.5946745420806110e+00 7.6537222339538857e-03 -3.4898407227434218e+03 1.0552863903285470e-02 -2.4118024150084238e-02 7.8062549340724945e+02 4.7135808271360584e+03 3.9908301562070847e+01 3.4732946138319676e-02 1.4618185638482828e-02 5.4201114299055916e+02 -5.9699473073706031e+00 5.1134903291240335e+00 8.2586770440684631e-02 -6.0500521055989111e+02 6.3462056939490139e+01 -1.0988182097077370e+03 -4.4665748553961748e-01 -2.6462807317325030e+02 -9.6918322002049536e+01 -1.4942748368412140e-02 -5.6152334783428887e+02 4.9235409802349750e-02 1.2120904200492078e-01 -6.0849922461435199e+02 -7.5276358395814896e+02 -1.1882341595301772e+02 -2.6093235524058400e-03 -2.9315842662169661e-02 -1.1521445116885438e+03 -2.3163040489889681e+01 2.9284966595005244e+00 5.1208667949242481e-01 1.5933326944289729e+03 -3.0925312831749775e+01 -4.7082716637763065e+02 1.7401659915049095e-01 3.1982399119268116e+01 5.8938486149895661e+00 2.7825723368732724e-01 -2.4651808966472745e+03 2.2911449187540711e-01 -3.1790509165318781e-02 4.4145887833461165e+02 -1.1603160563297570e+03 7.5596301455516368e+01 1.2686960291789194e-02 4.4883809978273348e-03 2.6938945833529806e+03 2.9325216537574306e+01 -3.7590793185270117e+00 2.9673018511080862e-01 1.6922255437164058e+03 -1.8006865880328959e+01 3.6755023826056504e+02 1.7333233332465170e-01 2.3293287741992529e+01 4.1190297247532310e+00 -1.3559145516363735e-01 6.5739073187702479e+02 -6.0234379567100649e-03 2.1641703981994359e-01 -6.7264203114790632e+02 -1.8923078151997743e+03 -1.4393349279428941e+01 3.0631806441055476e-01 1.1060661921826096e-02 -1.7352671755531874e+03 1.8923389353938347e+01 -2.3203502726045237e+01 -4.5551515675831156e-01 -2.1329998412232126e+03 -6.6064564991337789e+01 -2.0847991198130956e+02 -9.2197115234266061e-02 9.3214227125048637e+01 -3.0982751243624453e+01 -3.1784822137707136e-01 -1.1751793556711398e+03 -3.1793567613593032e-01 3.7807235856831933e-01 1.1634433653033659e+03 -3.4094864494495896e+03 1.3320840548758255e+01 1.2284384599429679e-01 7.6834397085255614e-03 -1.3989453411549330e+03 2.9415543382530274e-02 -1.5421960350294183e+01 -1.5623519059793765e+00 -9.2705637660622597e+02 2.1056226966742386e-01 -1.0805294757017703e+03 1.0961302218896916e+00 8.3167897418141365e+01 -1.8101044533119421e+01 -3.2423350681578611e-01 -7.1207472639707003e+03 -6.6979675301660477e-02 1.2347570191705132e-01 6.7615835244042978e+02 -5.6220900177915582e+03 -3.6911665799665656e+01 5.8080814869914496e-02 3.1403028811696411e-02 -4.6859069894555319e+01 -1.1781997848862424e-01 -3.9970783366643623e+01 -4.1442250290910332e-01 2.7762605064133578e+02 6.8562456810709165e+00 -1.2132832316952451e+03 3.9964987150883374e-01 -8.1578279339121593e+00 7.5114779619658698e+00 -1.5466438205903821e-01 -2.3161811642623279e+03 -1.3554841663805325e-02 4.3365036508106813e-01 2.0367858234141022e+02 -1.5088501347544152e+03 6.5921816909802146e+01 3.1372602879125411e-02 -3.0631589222853372e-02 1.5439950200160965e+03 1.8081853884610101e+01 1.1123236972690389e+01 5.2854922076221555e-02 1.2911883289404213e+03 3.5698252562433481e+00 -8.6601228678226471e+02 -2.9882341167752358e-01 1.6224715884774923e+01 2.2445342799961141e+00 -8.5278808714664520e-02 8.4157247388000076e+02 1.4507464930258179e-01 3.7073501042471918e-01 -7.1611453055161178e+02 -3.4672641822681935e+03 -1.6650724841371462e+02 1.0173114367808878e-01 -2.6902514472918936e-02 -1.3619011417965216e+03 1.6615520821635073e+01 2.9731292540271287e+01 -1.0934059295588689e+00 -1.5650517826102198e+03 -5.8334338023284822e+00 -4.5167441398696724e+00 1.5691881548160731e+00 -3.5648771458656881e+01 -2.5513225707213095e+01 7.1825793084408091e-03 1.6295104519212716e+03 -4.8636031548221936e-02 6.6140923086100450e-02 -1.4059601220147856e+03 7.6564543745233605e+03 -3.2992401943275977e+00 7.4370450566102725e-02 3.3499369212106458e-02 -1.8593809898784425e+03 -2.0032422468398025e+01 7.3640194052675660e+00 6.6420765239090795e-02 1.6592571908023006e+03 -4.5571083719996885e+01 1.3315024320163320e+02 7.5370879897708909e-01 5.4254818407880805e+01 -5.1081606017619507e+01 9.4623370149499592e-03 -3.5537445267144790e+02 1.9040736698142374e-01 2.8256110034529269e-02 -1.3869780513313233e+02 3.5152977415073678e+03 5.2859979953392383e+01 -9.9790795728240927e-02 2.1229431573780291e-02 1.7521164231591633e+03 1.5558745175539826e+01 2.6145275230569629e+00 2.3483880586328310e-01 1.1662420832061025e+02 3.0483869413619928e+01 -1.1321480054041849e+03 5.7819397158066332e-01 3.0879117010635539e+01 -3.0858407577253422e+02 -5.1664341709566552e-01 -3.1290128176137449e+02 1.6783835647661483e+00 3.2538093124340248e+00 -3.2414505800558409e+03 -1.4259840018950681e+03 7.0890109928247171e+01 1.8613015626956955e+00 3.1223222966918485e-02 3.2492097822437968e+03 2.2405572314895505e+02 6.8986218983037986e+01 -7.2836660222415048e+00 5.1628371583104649e+02 -1.2423561940368694e+02 -1.0348494204970784e+03 1.7705486151022832e+01 5.9194827875136286e+02 -9.0475185152583517e+00 -8.3894026989738430e-03 -3.1632513493061551e+03 2.1846245601521683e-02 2.6391294359820183e-03 1.4784174978907453e+02 -7.1383016241572068e+02 1.2176798694829417e+02 2.0850174605613805e-01 1.5011390062700994e-01 -3.2120706109076059e+02 -9.8279213158866270e+00 9.4288150356174327e-01 5.8313509032360822e-03 -2.0714691989799185e+03 -1.1575213108176641e+00 2.1446121755405693e+02 -1.9445342193268544e-02 2.9607408429506329e+01 5.9192241923819324e+02 
      </Row>
      <Row Index="68">
        1.5021179152722652e-01 -4.0854402332001882e-02 1.2836468300223351e+02 7.8776842346197459e-02 -1.5034163676773460e-02 1.4880667922087014e+01 5.2044825194031000e+02 2.7015756120558763e+00 -8.3158110568374868e-02 -6.0039208605052637e-02 5.6900129305664450e+01 -7.4277672407217324e+01 -1.8224163178820163e+00 9.2920486051298212e-02 -3.3429584934721163e+01 -2.9131631036289036e+00 -1.1999218866229057e+02 -9.2840676898049423e-03 -3.0432622523512691e+00 -1.7199617691803724e+00 6.9536167757178191e-03 1.3186760907713324e+02 3.8736482239073666e-02 6.3220829802048684e-03 -3.1165833525359631e+01 6.2543265051941853e+02 -1.7293123668059707e+00 -1.0786978409669246e-03 -2.6573852869660186e-03 -5.0701869159800481e+01 -1.2120811149012297e+01 -3.2163842379814014e+00 4.1399879246455384e-02 -7.0286649337672138e+00 1.7906317864544690e+00 -2.2019331451505423e+01 1.7335036263830261e-02 -1.9015599608214018e+01 4.5944959704356734e+00 -3.5082478160347819e-02 2.2512755683099385e+01 3.5956066495600680e-02 8.6824035310200998e-02 -1.0975516003556550e+01 2.5833458069711924e+02 -1.5472357689341520e+00 -2.9829399381924304e-03 1.3411314988218646e-04 -8.4066530926140274e+01 8.0855113881174475e+01 -2.4122546233702451e+00 -1.0229597271302111e+00 -9.2976417881669477e+01 -6.9871025511187437e+00 -3.5589289969003477e+02 6.6712621798615146e-02 1.6916582149123919e+01 -5.8181056678832999e-01 9.3710581348204869e-02 -2.2198569362051785e+01 1.9660994210880745e-02 4.1227028533270982e-02 1.1349084660224617e+02 -3.4576755521725863e+02 9.0602794609731063e+00 2.7494998195665508e-02 8.8282867681073185e-03 2.9325217486693752e+01 1.2395400094008073e+02 -1.5683758693138257e+00 3.6153641161759487e-01 -6.3311465378322538e+00 -7.6802398498067017e+00 -1.1611512900297512e+02 -6.9979900250473293e-02 7.6768749344389731e-01 1.2158955283401294e+00 5.8760993744015513e-02 -2.6378326619125573e+01 -6.9700587773511950e-03 -8.0673364285653165e-02 -1.0705350654892765e+01 -2.1909401058318787e+02 -7.4387316213261756e-01 4.0962414595764763e-03 -4.8928497512905336e-03 3.1021957925854274e+01 -8.5221151721747816e+01 2.1458281386891267e+00 1.4145169979444941e-02 6.3367048087904713e+01 -1.3323051065529196e+01 -2.0225366415591182e+02 5.2158377532880593e-02 4.7055257298052311e+00 -1.9640094899635746e-01 3.1496746349590800e-02 1.9644399502466797e+01 -3.5389495039825150e-03 -2.2277219232022187e-02 6.6661393890386762e+00 -2.5475706186956256e+02 -4.1877425478609638e+00 -1.3486874542182705e-03 1.8417539099762079e-03 -5.2264802716672421e-01 -1.0428002698645591e+02 3.2332464235647960e+00 -3.9871421765520471e-02 -4.0087748363614082e+01 6.8407483690295150e+00 -2.7346826907866983e+02 -4.0492721221364603e-03 -4.3058769553899765e+00 1.7859853744594147e+00 -1.5476343915007573e-01 1.2279385402789438e+02 -1.6909864148524464e-02 -7.8866177842977087e-03 1.0915379794871075e+02 6.0897203314166541e+02 6.1562210236928054e+00 -3.5411279622577078e-03 1.6113382839203577e-02 1.2768117915926434e+01 1.1592719370356905e+01 -3.3949165829247288e+00 -5.6820150953779502e-01 3.2288968575962343e+01 -5.3713081648138039e-01 -2.4747854037774584e+02 5.1298196638927311e-02 1.5560150356415733e+01 -5.9343985394926513e-01 2.2431185846173368e-01 2.4423688359199605e+02 -7.0167311852798536e-02 -4.1348287845388611e-02 -2.1576831884682178e+01 -4.4458867992501837e+02 -5.4822003234294243e+00 7.8337105466000118e-02 2.6181828337930865e-02 -2.3368014527950436e+01 -1.3478426358830538e+02 5.4736340480537593e-01 8.2725422116345726e-01 1.2923109095543623e+01 3.1204921915195882e+00 -3.6755111098289490e+01 -5.2610137030372775e-02 1.1763646118342876e+00 -1.6791740388332461e+00 -3.3461944607405987e-02 -7.4919045409593608e+00 -2.4673509463502257e-02 -1.7369440407720718e-02 1.0710967432247852e+01 -6.0596070197655592e+02 -4.1187823415391094e+00 -9.1391494989919077e-03 -1.2547737346628970e-02 1.2763052946423217e+01 9.6408139206067176e+01 -1.0614477113179066e+00 -3.4609825216386642e-03 4.6782712690997869e+01 -3.8148606292542366e+00 2.2574572212644597e+00 -1.5876190967508499e-02 7.0168336525922381e+00 -9.0258131292446642e-01 1.7695382469565431e-03 -8.7183063515754327e+01 1.1923516984230220e-05 3.6163478200019777e-02 -2.5331420615214498e+01 -8.1008221466380462e+01 -6.5137223433745373e-01 -3.0128854876803637e-02 -1.9330260513830317e-02 8.4178709917626691e+00 1.9342374427688790e+02 2.8827598698120571e-01 5.4931855028034993e-01 2.2701088007375176e+00 -2.0422314193956002e+01 3.0659592572010104e+02 -6.1897401156841392e-02 -3.6507988258394164e+00 -3.2461400755634173e-01 -1.2203901203156772e-01 -1.1779194691235499e+01 7.0043285325799953e-02 -1.7718892568496222e-02 1.2007545726216387e+02 -2.4450825538750254e+02 2.8201376429358218e+00 -8.4297686517670004e-03 -1.2067785232092501e-02 1.3519191925543618e+02 1.3738538257638021e+02 -2.0823990950472684e+00 3.4295184085761804e-01 3.4446808466161883e+01 -9.5436798304859849e-02 -3.2342016206701970e+01 1.3252469748123941e-02 1.5674323439718364e+01 -3.5086354534552004e+00 -6.8608414995858724e-01 1.0488936772468996e+01 5.6393347795123228e-02 -7.6802920560559151e-04 3.3414066583499721e+02 1.6258490302731786e+02 6.2416815258345082e-02 -3.2581042288822171e-01 -1.3566256164328611e-01 5.6116019269939761e+02 1.3244131998278419e+02 -2.4823201697582515e+00 6.8118844025743908e-01 1.0333422438030198e+02 -3.5013540337809872e+01 -1.7771492549394203e+01 -4.3089816492965605e-01 9.5258768308443734e+01 -1.4462285923312321e+00 -9.5374503352005854e-03 9.6047031810307743e+01 -9.8697681098222773e-03 -5.8971971908128185e-03 -3.0797236796449923e-01 2.8703547108270789e+02 -3.0190995450718752e-02 -4.6652120365065410e-03 -3.0573557022567730e-03 -1.0345109120070308e+00 1.1103434554795006e+01 -6.0379130241897605e-01 1.5046251248892828e-03 2.6561350512676633e+01 1.9240688886201340e-01 -4.5760052880919716e+01 2.3564849943225427e-02 -2.7433420625127618e+00 -2.8702159196302290e+02 
      </Row>
      <Row Index="69">
        2.8864671902691441e-01 2.0391375870929096e-02 5.1316841170191765e+00 2.8784419253610583e-02 3.0404411025415357e-03 1.3436980792903341e+01 1.8675462492741644e+01 1.2045796622657008e+00 6.8239653280918189e-03 2.1962845693823271e-02 8.2384244846471120e+00 1.2739308325108141e+00 6.4590668581950013e+00 -4.2069397625255078e-02 3.2214476166307691e+00 7.8979430213803425e-01 1.1668293150141835e+01 5.3590176645229803e-02 -4.2351359326858073e-01 -1.3377905427478254e-01 -2.3521196203546424e-03 6.7297733828891069e+00 -6.2103622768745481e-03 6.9215236915169953e-03 2.7767507442738861e+01 2.3751368718367303e+01 1.1126749095274135e+00 3.1325312410217521e-03 4.4397394714223992e-03 1.3383019195332963e+01 3.0829265626380220e-01 -2.7127494926171494e+00 -6.9397951676819503e-03 8.0148983729672896e+00 -5.2459959231782705e-01 5.6661401097662747e+01 7.7780937165243813e-03 8.8067710918505497e+00 1.1894110999601253e+00 1.2106814779144770e-02 5.0757135999446064e+00 -1.1065632970485240e-02 -1.1808271990275898e-02 -1.8355512048583478e+00 2.7494958885945380e+01 4.4353422773513729e-03 6.5791435861513037e-03 8.4776838206042241e-04 1.6307984055325043e+01 -2.1193956834031269e+00 -4.4166440575136221e+00 -6.7268319314454844e-02 1.9196045958698960e+01 4.1753474846234333e+00 -8.0744457035238582e+01 -3.8151395780232633e-03 -5.6655593847963459e-01 2.0900681506646657e-01 -1.8183014251235363e-02 -1.4838951562996954e+01 1.9404248483340325e-02 -2.9478897265136084e-03 2.7545816744677722e+00 3.4576566047500819e+01 1.5337358341639629e+00 3.3898438395993935e-03 -3.4544399538560810e-04 -3.7590794394212832e+00 -1.5683758683007909e+00 8.9917333595700875e+00 -4.4055835750099664e-02 -1.1327542897571927e+01 -6.0831011527468570e-01 -1.7215937732866280e+01 -8.2999397081948700e-03 -4.4618601150799653e-01 -4.0623217337345655e-02 -1.1231647521429649e-02 1.0949241821070643e+00 6.2806373848212247e-03 -3.3466960303706668e-02 -2.0793812967162122e+00 -1.3990544496200215e+01 -1.6330443126472791e+00 -9.3363271288000676e-04 7.1239345395859282e-03 1.7667238498831225e+01 1.4735670371581335e+00 6.8032799624935656e+00 2.7923142726615807e-02 -2.4829378247488222e+01 1.3201642538812166e+00 -4.3383696683954334e+01 -2.4400978209828110e-02 8.8643303234130144e-01 -2.3136762771147934e-01 -1.0191708346915381e-02 1.5942379831898279e-02 8.9284284675882099e-03 -7.6185939961592956e-03 8.8684912158103906e+00 -2.2206690062696428e+01 2.6281473838628217e-01 -1.7156286158275321e-03 1.4188076990010959e-03 9.5635068812407553e-01 1.5771125535452872e+00 -1.1491287217304569e+00 -9.3698396895709572e-03 2.3953165166079998e+01 -3.3440750993923030e+00 -4.2618940393702680e+01 2.2168194629858178e-02 6.5581802432425320e+00 5.1589516175408789e-01 2.4420659248729999e-02 -1.1850948477560527e+01 -7.7223041758834677e-04 -8.7022238766901999e-03 1.7482903582392279e+01 -1.4514474369438216e+02 6.9376326913191699e-01 -3.9948554952116393e-03 -2.2810961303799488e-03 7.3870948491782151e-01 -5.8088510282349959e-01 -2.8330544876156152e+00 2.2585745950108121e-02 -9.7366715376236410e+00 1.3463175940145631e+00 -1.1513256149903995e+01 -2.1362973629314247e-02 -4.2110772211211245e+00 2.3611330529335564e-01 2.1885292177037741e-03 1.6162650955553886e+01 -1.2161566293896215e-02 3.0807631843119132e-03 6.5153230863215867e+00 9.7000351541452346e+01 1.8492923768499168e+00 2.6896673798069825e-03 3.4550781209870545e-04 1.8892287720635068e+01 2.3783500691317947e+00 -3.7452532095526023e+00 -3.2101794215122936e-02 -8.6202600063406862e+00 -2.8308776684571058e+00 -4.7302362307906151e+01 -1.1656116055391581e-02 -2.6722874026745558e-03 -3.1282021925356840e-01 9.6588619239749551e-03 2.2376543015984378e+00 -4.0613945688506133e-02 3.9273845840786428e-02 -2.1518562401679358e+01 8.0965010793596818e+01 -3.4059871401971642e+00 1.7811145394273260e-02 1.1168949681962788e-02 2.6546027972137676e-01 -3.9450353132812239e+00 -1.1719716016339632e+01 -1.0977525602213153e-01 -1.1457136110053398e+01 3.5416621599596461e+00 1.1586436847701190e+01 6.3500007963578534e-02 -3.4078653007902737e-01 -5.7596835974047966e-01 7.1558063539463434e-03 -1.1009569131295951e+00 1.1334481652308659e-03 1.5868913114596421e-02 -3.8590941581715811e+01 -1.9093942418642982e+00 -1.3596419615512918e+00 -2.5641647161550414e-03 7.8859865339973682e-04 -1.8686580328015552e+00 -4.1977045742057282e+00 2.9533844478479074e+00 -1.4103708958659866e-04 1.0443400985383793e+01 2.3711545837556183e+00 2.6703170464117179e+01 -9.2024464789162604e-03 1.1882926835194727e+00 8.8557161054825650e-01 4.1286518189003509e-03 -5.5066885570484239e+00 1.7042328764148500e-02 8.0449946593446862e-03 -6.2207800154702753e+00 2.4004933803583157e+01 -6.2025800587153768e-01 6.9955623161038743e-03 -6.3303792834988517e-04 -3.2726255452260915e+01 -8.8151512095069506e-01 9.7472757426415479e-01 3.3515607862751394e-02 -2.4994546062676545e+01 3.9972608467652480e+00 -2.1072536263734367e+00 -2.5811359408727065e-02 7.6174862464100235e-01 2.2960877829824415e+00 1.1572512466286838e-01 -3.1168586589860858e-01 -2.4733597475844835e-01 4.1949821190151954e-01 -1.3772195891376629e+02 -1.6278499121323790e+01 -1.0591942859594132e+01 1.6477214291750059e-01 8.0079012172725728e-02 -1.3915689937465260e+02 -2.0845779124233296e+01 1.1554670374236007e+01 -9.1662847072032605e-01 2.2808784766457677e+00 1.2203611479206167e+01 -1.8390172365019101e+01 4.6222767396485098e-01 -5.9651425458595497e-01 -4.7265817587940018e-02 7.9584687592900620e-04 -1.8290318469928479e-01 -3.2108022372980987e-03 -1.3816685585496429e-03 3.3842609571964957e+00 -3.6922460233942019e+01 2.4529492439217266e+00 -3.5717254256663463e-05 2.3803839708429822e-02 5.6058162459450234e-01 -5.1286341683559866e-01 -7.1157484895028911e-01 3.8890254884728966e-04 1.4223228179973972e+00 9.4870474427257712e-01 -7.1789042898417392e+00 -1.1472390077835341e-02 -2.5172696199092837e-01 3.4457314297496140e+01 
      </Row>
      <Row Index="70">
        -1.3041237630443714e-01 2.7704955180891666e-02 -1.0450913927925285e+00 -3.9444011557081569e-02 4.1388063913490036e-03 -4.6734418896448915e-01 -3.6588662245776504e-02 -4.8424705478169017e-02 7.9926755800713095e-02 -5.5001789398284831e-02 3.5211725068802480e-01 -2.8658503906990518e-01 4.4666400826827157e-02 -4.2799303250453136e-01 8.2451794136464542e+00 2.0349596352480148e-01 3.2569965072907507e+00 -1.6395690528682394e-02 3.2072816831714590e-02 1.2619137383990164e-01 -1.8982795473405645e-02 1.2577594730319106e+00 -2.4393051433975188e-03 -3.0973683507943051e-02 -1.4052338156907354e+00 -9.7369923481210208e-01 -1.1044797559952713e-01 1.0878140929918345e-02 -2.6213058150696966e-03 -3.2453250269329459e-01 1.5189500187989324e-01 -9.7878818553454039e-03 1.0153439511134508e+00 6.0084595574542927e+00 3.5404350133831031e-02 -7.3986314220674103e+00 2.9492624818047375e-02 -2.0104088883036795e+00 -2.2652797944147096e-01 6.4196599623219441e-02 -1.0637723373043499e+00 -7.0993862823129916e-02 6.6383231821902200e-02 3.5112400010257261e-01 -3.3992047454812564e+00 1.1438921133472287e-01 -2.7699385031064949e-02 -2.5435351818329430e-02 -1.6143654318580420e+00 8.8380418279666628e-01 -9.3343316484151728e-02 -4.6130109424015462e+00 4.3915540005400544e-02 2.4492495001144032e-02 -1.1575415892695702e+01 -1.0409112364968109e-02 4.9817706221392855e-01 -5.5430995034659647e-02 2.5239598675778296e-02 -3.9227341311197961e-01 2.5097056409302709e-02 -2.4206316686203544e-02 -7.0355214057781268e-01 7.1603292049985612e-01 -1.0086764553579997e-01 -1.5333108573144294e-02 -1.2631622269735576e-02 2.9673018950684238e-01 3.6153641189321206e-01 -4.4055835787276010e-02 2.6376837235031410e+00 -1.8297600856321239e+00 6.7907457052154285e-02 -7.7035572500741907e+00 2.3380747431502868e-02 -3.0025088765550656e-02 -2.5032987366925163e-01 -4.1521324812758734e-02 -1.3693144276524549e-01 1.0042796864804665e-02 -7.5001321398221382e-02 7.3712310814237447e-01 7.4036382417808966e-01 5.4030766965830757e-03 2.9224675258066470e-02 -5.0037371443853397e-04 -4.9751766734122249e-01 -4.7945568485484458e-01 4.1618098273008108e-02 3.2775180169045344e+00 8.4854720727682209e-01 -4.5441943585360800e-02 4.0012326271778065e-01 1.7998056995246980e-02 6.6227379429619759e-03 2.1727157396498903e-01 9.0202613566145798e-03 8.5811167740180849e-01 1.0207110817926811e-02 -3.7223096137253536e-03 -8.7407273315777712e-01 4.3774179203529995e-01 -4.2635523705230327e-02 -1.6155524157126979e-04 -2.3812524999144696e-03 -6.2801235151709989e-01 -4.2749556021310475e-02 5.8557295533244236e-02 -6.9183434147600376e-01 2.1497516972012818e+00 -6.1393836559329618e-02 8.3985283939756812e+00 -2.5640148377654992e-03 -1.4733919655554928e-01 -2.0729282525826420e-01 1.8984026248593702e-02 1.6038067108446441e+00 -1.2067739155941054e-02 3.8788478570532234e-02 -9.9397258572108260e-01 4.4115300070752586e+00 3.5903666855932126e-03 -2.9962903613052908e-03 -1.5277004235644148e-03 -4.7567414009918552e-01 3.2230030530814463e-01 1.9724294909118693e-02 -5.0425204944893043e-01 -6.5116763721360371e-01 9.7780610064598039e-02 -1.5113341393952702e+00 4.3893400003651752e-03 7.8296710170869990e-02 -5.5998599884337891e-02 1.2394990606921508e-02 -1.8625751962408685e+00 -2.0963791015855677e-02 3.0466474042001961e-02 2.7916485017613013e-01 -1.8058591089952643e+00 -1.0630687601133104e-01 -6.9700348773572892e-03 -1.5851118877393502e-02 1.5162608851642290e-01 -5.6436416133086964e-01 -1.1328118790844166e-02 -1.8405921214712180e+00 -3.4460824230773142e+00 -6.0980300379014807e-02 4.1805976181058213e+00 2.3228071866547614e-02 -2.1974029635020997e-01 2.2655234308998368e-01 -5.7534202504675750e-03 2.9367789236104827e+00 2.1052672892808606e-03 -1.9045727066146264e-02 1.3696969427434693e+00 -2.4345804314127761e+00 1.5219170970420201e-01 -3.3605532030562945e-03 -5.9825791986040794e-04 -7.9237033663851397e-01 2.4263554369816909e-01 -5.4330651273364117e-02 1.1377755728507583e-01 6.8193281064195617e+00 1.1491203589115834e-01 5.1052631552763543e+00 -1.3994748780027984e-03 -8.6100777954197660e-01 3.1414712909365905e-01 1.6075585472314538e-02 6.1468494417719377e-01 -2.6921639571319989e-02 2.6133686904734259e-02 1.2067531695622655e+00 1.4915749622089995e+00 1.7315928247465751e-02 -2.1846219765105698e-05 -4.6952389242387411e-03 -7.8728057892421432e-01 1.0540067033129363e+00 4.3828098301447627e-02 1.0386041915503514e+00 -7.0186573189921155e+00 -8.1821237436750960e-02 5.2799314817559377e+00 2.2857494287836427e-02 -4.6394600589543522e-01 -9.5336832866721455e-02 -8.0038572400083219e-02 3.0660413524057528e-01 3.7126585607491019e-02 -9.6740693730898608e-02 -4.2804933362151854e-01 3.3488067881546613e-01 -1.5007874414225419e-01 3.3423965557799640e-02 3.4976004548269796e-02 1.1223545539726623e+00 2.0468035541966767e-01 1.9808812995888936e-02 4.3966726165367636e+00 1.3570780135936584e+01 1.5445389745418181e-01 -4.5924014972339755e-01 5.8618621878630053e-04 -4.9246559370216136e-01 4.4844683591979084e-01 -2.1950938563863356e-01 -4.8161859106816962e-01 1.5612169680131216e-01 -3.4380026394026042e-01 2.5987065744061937e+00 3.2876652288743102e-01 -4.5839042384239859e-01 1.8072760808246655e-01 1.5419445097153639e-01 3.4304930569967524e+00 -1.5519941101071062e+00 2.2695880841506111e-01 3.0967240305427222e+00 1.9729838670964686e+00 -2.1636868019130517e-01 1.6141592030969569e+00 4.4062543438130874e-03 -6.5525114646405314e-02 1.0734345888454591e-01 -5.5129672131683433e-04 3.6484966627760684e-01 3.4973056934770527e-03 -1.8151627582911165e-03 -1.8845166865711072e-01 1.5079380921955987e+00 -5.8090110189773260e-02 1.1248733627077451e-02 -2.0966670127771248e-02 -1.0458546059287532e-01 5.8499534243887708e-02 -1.0617330771218736e-02 9.0373371047148016e-02 2.4791201290581171e+00 5.7613117745969333e-02 -1.2121983185943748e+00 4.5294058318196308e-03 5.5541500906030716e-02 -1.5175600001750660e+00 
      </Row>
      <Row Index="71">
        -4.1626695702427241e+01 1.3936256407687324e+00 7.7191610779762268e+03 -1.4045524568301750e+00 -7.5949137479619822e-01 1.0274613677263260e+03 -1.0855240569114685e+03 7.4450316492948332e+01 9.1471331730074610e+00 -2.0866809316191754e+00 1.9020004612281919e+03 4.3165416061878204e+01 -2.5632536068558693e+01 -3.1884792591445148e+00 3.3675499060715912e+04 -8.0727474868297577e+01 -3.9914132690429688e+02 -9.0471662511117756e-01 -1.5785435551404953e+02 1.3629060573875904e+02 4.7032573889009655e-01 2.7335566841959953e+03 3.3749757398618385e-01 2.6873275643447414e-01 6.9309671282768250e+02 -4.6219210142567754e+03 1.3602893292903900e+01 4.7088831465225667e-01 -3.0627702582569327e-01 -9.0124260308220983e+01 3.0711096882820129e+01 2.8465137705206871e+01 2.3121805582195520e-01 5.8055070126388855e+03 -1.5439641964435577e+02 -1.8036429853677750e+04 4.6404528315179050e-01 -3.3882438771354264e+03 -2.6361455848254263e+02 -6.5120232990011573e-02 3.7158135335467523e+03 5.2027776488102973e-02 1.3752697943709791e-01 -9.9804060071706772e+02 7.2137539710998535e+03 -8.6422672075917944e+01 1.5627295023296028e-01 4.2462741711122437e-04 -1.8910185380926041e+03 -9.6274014890193939e+01 -4.4150756970047951e+00 1.5085944036042733e+01 8.4310520674660802e+04 -1.0305906486842144e+02 1.0064447343151140e+04 1.0361349748563953e+00 -3.7655088084909318e+02 -8.8220566297650734e+01 3.3520286437124014e-01 4.4485687927007675e+03 4.0096825314685702e-01 -6.7317118412393029e-01 2.4338383722305298e+02 -2.6398032503128052e+03 5.9573168225586414e+01 -7.3696409494004911e-02 -2.0016177240177058e-01 1.6922255093388967e+03 -6.3311560824513435e+00 -1.1327541607897729e+01 -1.8297601200756617e+00 8.2458667851478211e+04 -7.8714203015490597e+01 6.6073185808044218e+03 1.4281746046617627e-01 2.0859003631426731e+02 -1.3818621239002152e+02 -7.2106704165179536e-01 -8.6175053420938571e+02 -3.9911684625929339e-02 8.2458661738080186e-01 -8.6004586166310048e+02 1.2219500172850928e+02 -1.2261852687119973e+01 2.2997286265634145e+00 -5.5668628102196316e-01 -2.2063634577737994e+03 -5.0867071190475315e+01 -3.1676660874368991e+01 -1.1360278275597206e+01 -8.9404509972165295e+04 -1.1295411853205009e+02 1.3746412057460242e+04 3.1882100845889472e-01 2.3876916885375977e+02 4.4111232374232458e+01 -6.6554897304699190e-01 -1.9272026935186304e+03 -4.3364940953566111e-01 3.1763326663626668e-01 8.6324829762386457e+02 2.1243359198442486e+03 3.6507849111113330e+01 2.1333858417102164e-01 -1.4963208246397464e-02 -1.5727729254961014e+03 -6.5711703419424339e-02 -2.1914932067211794e+01 -3.2910668943317245e+00 4.3973393135070801e+03 1.1412847719642620e+02 -6.8628207948154159e+03 3.7780234027807036e-01 -2.6116601383686066e+02 -1.4521372554451227e+02 8.0352093375361533e-01 1.0566306840827592e+04 -9.2351543980871131e-01 -2.9086540690074442e-01 9.4366645438872763e+02 4.7032683211904077e+03 -6.0942238832416500e+01 1.8033217539446511e-01 -1.7541029941562561e-01 2.8714326552883722e+02 -1.2825386752685972e+01 -8.3432691914247492e+00 1.2059829362994474e+00 1.9589134688048805e+04 -8.5843203802294795e+01 3.1735859497175712e+04 1.1079518336621756e+00 -3.6021948317448323e+02 -2.7498308173795859e+01 -9.7902804425783652e-01 9.8471301898090314e+03 -1.1957820680883602e-01 3.3084739178131706e-02 -1.6734353235363960e+02 3.1774635445266977e+03 4.5922082532197237e+01 3.0965370212794052e-01 3.4649901763122770e-02 1.0428286108374596e+02 -2.1200751618881828e+01 7.0574652046567561e+00 3.5550495330244303e+00 2.5678876873180270e+04 -6.0182455986738205e+01 -1.2784177932739258e+03 5.3389149808522762e-01 8.4666088223457336e+00 1.7378487710743912e+02 -3.1060011268058885e-01 -2.7070034430416155e+04 1.3623851777907767e+00 1.0273341104098159e+00 -7.1638472051849158e+02 -1.4459048157686579e+04 -7.0431341926625436e+01 -4.7564545081664805e-01 -3.6596695913466037e-02 -1.6569106621591293e+03 -3.9193321143561434e+01 8.8543465015736444e+00 -1.8165077916659744e+01 -7.2842452698647976e+04 -1.4614773491234837e+02 2.1072784164241126e+04 1.7371361025568162e+00 -2.1851114674482395e+02 5.3105126677985368e+01 5.4090893616370006e-01 1.0675048689743321e+03 -3.2623023786479344e-01 -8.5845455375183932e-01 -9.9240719627821727e+02 -3.2976132098530925e+03 -2.2771527763904409e+01 -4.4676078233677780e-01 -2.4887461930985189e-01 -2.1506930748895838e+03 2.3576118165880118e+00 4.3646239593967131e+00 -9.1563178002602541e+00 -1.7168975379831281e+03 -8.6518898895883069e+01 1.6391154317156204e+04 4.5536521284611220e-01 3.0052478280847936e+01 -1.0682790885779342e+02 1.5602294917516693e+00 6.7027408440682866e+03 -3.8773896074561742e-01 4.4914985419062159e-01 9.6824727600948938e+02 3.3715256661081103e+03 7.3734386620495826e+01 -4.8775760291064041e-01 1.8331348647669948e-01 1.5378388932152475e+03 2.5113701970953591e+02 -2.7869883245930126e+01 -1.4751187952166404e+01 -2.2236894506410714e+04 -1.2909923443514072e+02 -1.0978521521779392e+04 -6.9061729496753399e-01 3.7495776417637688e+02 -1.2036880847006819e+02 5.1290719279951560e+00 -4.2023928839882387e+01 1.0565135815684272e+01 6.3583179051603071e+00 2.0801720339675558e+03 6.2222984246654619e+02 2.4145240169038090e+02 1.2381600343727059e+00 1.5325730828126649e+00 1.0513321023178655e+03 -5.8096173982002767e+01 -1.1514690086367830e+02 -1.7927917650401764e+02 -3.9153192119578853e+03 -1.0452825896597653e+02 -1.3390432097841904e+03 9.5543727547048682e+00 5.0640917318368211e+03 2.1385000783908509e+02 3.0080774350346590e-02 3.1824154983847642e+04 5.6370315336784216e-03 1.5786828211968442e-02 1.0358404138826617e+02 -1.7623800955954066e+04 5.4464888756978652e+01 2.1384363364456940e+00 -1.2056379027126838e+00 -4.9889479436935517e+02 -1.3833116785432280e+01 -7.4631480326218202e-01 -2.9041663310281718e-01 -5.3578034292206103e+04 -5.7584784408303875e+01 -3.5367738562652630e+03 2.5874407416315814e-01 1.5165585308195386e+02 1.7570457303292238e+04 
      </Row>
      <Row Index="72">
        5.5973197442540368e-02 2.8015549399469819e-02 4.8840158879756927e+01 1.3634220573095872e-03 -1.5767726735020915e-02 -4.6019855745136738e+01 2.0870979913324118e+02 -1.4505712323634725e+00 -7.8263001053683875e-02 9.7684429262154995e-02 -3.7827622740296647e+00 7.2866069506853819e+00 9.9781847535632551e-01 -1.7733753455831902e-01 -9.9920192419622111e+00 1.0268648371333256e+01 -1.9709289065003395e+02 -1.9794177920084621e-01 6.3203855268657207e+00 1.0876985450740904e+00 -8.8389255215588491e-03 2.3110964430216700e+02 9.3034658202668652e-03 -1.6297095314712351e-02 -6.9114241819828749e+01 1.6651355470588896e+02 -2.9977063285186887e+00 -4.9307258905173512e-03 6.1353974140274659e-03 3.0893200179527412e+01 2.6555387554690242e+00 -2.0508031181525439e+00 -7.9454412070845137e-02 -2.4176428403330657e+01 7.6781496223993599e+00 -6.1312659921869636e+02 4.5320458251808304e-02 -6.8346501759559253e+00 -3.2312470634933561e+00 -6.5549297260076855e-03 -6.8475859636437235e+00 -5.7747458140511299e-03 -5.6416608760628151e-02 3.3834730890579522e+01 1.7280445545911789e+00 3.0782778390844676e+00 2.7378839915854769e-03 -8.7045575182855828e-03 1.8274562503956471e+00 -3.7287452807649970e+00 1.8109185092034750e+00 -4.1567485030151291e-01 -5.9830831189639866e+01 9.5569087393374019e+00 3.2866346278926778e+02 2.2869081778480904e-02 -4.2955568860322924e-01 1.8769691262735186e+00 1.2294115529584815e-02 1.2470840333960950e+02 6.0805218945006345e-02 -5.6154116597411985e-02 -2.6998195929452777e+01 -5.6255529017746449e+02 -4.3139020982198417e+00 -1.3413590152481447e-02 -1.2434361701025409e-02 -1.8006865021366394e+01 -7.6802397799910977e+00 -6.0831012524431571e-01 6.7907457148066896e-02 -7.8714196932413344e+01 4.4520872449979628e+01 -6.2418893578426946e+01 -8.1746469804784283e-02 2.8444619873405088e+00 -1.9152473853140635e+00 -9.9149209442156681e-03 -5.5906115320657364e+00 6.3041397619195728e-03 -2.3760060032434430e-02 1.8392726488612190e+01 -1.8823119027917841e+01 1.9607806355603135e+00 -1.7700727959615595e-02 3.1729157337512727e-02 -5.9671734507510308e+01 -6.2771909389681859e+00 -5.5827138170192914e-01 1.3135207394703569e-01 2.2735179321848915e+02 1.9184546854175466e+01 3.1295093335310860e+01 8.6987168713672833e-02 -4.1349776424467564e+00 1.6363385464066500e+00 1.3607858469211852e-02 4.3159332327236584e+01 5.5701417094813008e-02 -6.5404922553043473e-03 -4.1550259690802726e+01 7.5723051150736183e+00 -3.7120238023305041e+00 -7.8426851897623034e-04 1.0136087363843096e-02 -1.4587218569591641e+01 6.5469393993187532e+00 -1.4654384163749614e+00 1.3051706390538359e-01 -5.1641012877225876e+01 -2.4619128051932432e+01 1.6217326376422363e+02 5.5460548714899312e-02 -2.7839571274816990e+00 -1.7645660332855186e+00 4.4126317988329486e-02 5.0115794927973104e+02 1.9509524862143114e-02 1.9432430461300589e-02 -6.4406576710258534e+01 1.2792039071593115e+03 3.8379175368378018e+00 6.5860553513862399e-04 -2.3432219923935176e-03 -2.1414103005901016e+01 1.5099096934170273e+00 3.3819439421290838e+00 -2.3585533509606627e-02 3.5663296599381411e+01 1.7151600345646099e+01 -4.5827357918132492e+01 -1.2378399255854669e-02 1.7537992501365238e+01 2.2006743133249268e-01 -3.4506054660826152e-02 1.8145850426357924e+02 -3.9491931269290105e-02 6.2224304428970534e-04 5.9470353140495718e+00 -7.3335747949373399e+02 -3.8908115698723122e+00 -1.1341055761735205e-02 9.9088751626127125e-03 -2.6354497343767434e+01 5.2906363615086578e+00 -1.7666212761248894e+00 -1.0515467825462110e-01 -3.7682127171428874e+01 1.1922616223804653e+01 2.6697940653562546e+02 1.4547541186515797e-01 4.5534939412027597e-01 1.6045650455986893e+00 -8.0012675501527214e-02 2.0467401376075418e+02 8.1045198196183332e-02 -1.0133512548848714e-02 6.7350401004916733e+01 -1.0603638226507132e+03 6.1539670021784021e+00 1.5228909647211837e-02 -2.3288957651456672e-02 -7.3370224116420539e+00 -4.9786690650329035e-02 6.6634243255982106e-02 1.8198579747641913e-01 2.5934655671007931e+01 3.8466042570342012e+01 -5.1557291939293783e+01 -1.3468255302139331e-01 8.9303628027896309e-01 1.5247728615432354e+00 -2.8856421437998300e-03 -1.9214920737059410e+02 -4.8079909197846882e-02 2.4755932225465432e-02 5.3349141888979908e+01 9.5080216335490604e+01 2.6263955618794035e+00 4.9906993562614990e-03 6.6885890300717264e-03 -1.4799713411619381e+01 -6.5845971309883708e+00 1.3233386893330013e+00 -1.1057851707200825e-01 -2.9841147770315516e+01 3.1764726304911754e+01 -2.1799079745900400e+01 1.4029266125878809e-02 -2.4752956237084405e+00 3.9995720680807576e+00 -1.1427850905954186e-02 -1.3213811374471754e+02 3.3016058725461761e-02 -1.9105198128864732e-02 -3.1264701409249692e+01 -1.8366217472280510e+02 -2.2138747535184642e+00 6.1744689991939531e-04 -1.1709865177892761e-02 3.1249349498962761e+01 1.0056819398190150e+01 -1.7153894825990124e+00 4.6689372645761090e-03 -1.2317112084405619e+02 1.6937790317364588e+01 2.0404604642845790e+01 -1.3131110919864922e-01 6.6548236668196665e+00 1.2658640028287234e+01 -6.8908281419744666e-01 4.3374214956419252e+01 7.1824683365343134e-01 -6.5211267710757248e-02 4.7070473151151191e+01 1.7399163461408588e+02 -1.2234571596557124e+00 7.2868400163755592e-02 -2.7649441540675423e-01 1.7710378471294672e+02 5.7975160476450156e+01 -2.0025531993303893e+00 2.4938438917899930e-01 5.3352257344519671e+01 5.0941425292823070e+01 1.5531076123893740e+01 -1.8019618455234321e+00 -3.4336689783755787e+01 1.0510661403415722e+00 1.4243830871563893e-03 -1.7419427218260516e+01 8.2452409346476917e-03 -5.4681017713976727e-04 -7.6014162551879672e+00 3.1062931709357758e+02 -2.7999593866399319e+00 -2.2446887779941263e-02 6.2836525296560392e-02 7.1661174254109596e+00 6.2250526687137619e-01 -8.7706368846696148e-01 -5.0029542173476733e-05 9.8820504938666119e+01 1.1199075090136736e+01 -8.5902966905644575e+00 -1.9502389382666865e-03 2.5716954262218117e-01 -3.0788882612551811e+02 
      </Row>
      <Row Index="73">
        2.1240332284566102e+02 -2.6496087758714566e+00 -8.2434950211048126e+03 4.5444096545579171e+00 2.0337753226885980e+00 3.0990174919366837e+01 7.2091906905174255e+03 5.5688196066781529e+01 1.1375473416480997e+00 -4.2289478171960875e+00 -1.7181857767142355e+03 1.8250997242331505e+02 -1.2013213023543358e+01 1.2518012919346802e+01 -1.6315715366883582e+04 -5.0256047122180462e+01 1.7765547428131104e+03 1.9505930793238804e+00 -9.4973562940955162e+01 -1.1244624397903681e+02 4.2512717656791210e-01 -5.7978058338165283e+02 -2.5375598520622589e-01 -7.0432782160060015e-01 -1.4461104142665863e+02 1.1981284960035235e+04 7.1659653931856155e+01 -1.3862405033432879e-01 6.4559177335468121e-03 2.2243517465819605e+02 1.6759586136043072e+02 -1.0096632234752178e+01 1.4038172797707375e+01 -1.7771679971541107e+02 -1.3467668364942074e+02 -1.2247292790412903e+04 -2.1091154868481681e+00 2.3534620298585151e+02 -1.4245945246890187e+01 -3.3106877657701261e-02 -2.1802979407923704e+03 5.8946286136051640e-01 -2.3630775031051598e+00 7.0818638715147972e+02 1.9819460978507996e+03 -2.7042128563230818e+02 1.1198691274330486e-01 3.5728303580617649e-01 6.0224909047144592e+01 -2.4936677302420139e+02 8.6479744570329785e+01 2.1256765138037061e+01 2.5272043733224273e+03 -6.2146795721014911e+01 6.6563212528001633e+04 -1.3713258866919205e+00 4.8228316231249437e+02 1.5832831196993322e+02 -3.0122197142918594e-01 -4.6205120278596878e+03 -1.3159983752557309e+00 -1.4330627139011085e+00 1.5907297454476357e+03 -9.0588587523400784e+03 5.9452644396573305e+01 -1.6510188591200858e-01 1.8095458923198748e-01 3.6755026518718159e+02 -1.1611512761190534e+02 -1.7215937919914722e+01 -7.7035572512540966e+00 6.6073187897149983e+03 -6.2418894231843296e+01 2.9532763764148823e+05 1.3301426847465336e-01 -5.7536710117015218e+01 2.0001365324151391e+02 7.3956155874404628e-01 -1.6706192213563481e+03 -7.8388178472456538e-01 -5.8065895678502111e+00 -1.2233629410844046e+03 -4.2027128446414390e+03 -4.0839610293188855e+01 1.4338091811397147e-01 -8.8190978919632435e-01 -4.8994261336998289e+02 -2.4098010355457063e+02 -3.7893994914832348e+01 -2.1801156641207371e+01 -1.2678252054590319e+04 1.1475510737447257e+02 9.2919336382617432e+04 -6.5794119293439834e-01 6.4815783739089966e+01 -2.3090262463092370e+02 1.4856008373810559e-01 4.9862205658957828e+03 -3.0252853260870438e-01 -1.8381496148147480e+00 -2.5712040061278094e+02 -7.2180618027928504e+03 1.5943909201389738e+02 2.2284482991317578e-02 -8.7175388241134133e-02 4.6194925385713577e+02 7.3165591412384856e+00 -2.4152170209948451e+01 -5.9876827819280356e+00 5.8768329973220825e+03 1.1308042813170300e+02 8.4427608520503200e+04 3.8636512861770100e-01 2.1041094416379929e+02 1.1102034717076458e+02 -4.1018270520447464e+00 -8.5347402563008181e+03 -5.3862994477452641e-01 -1.6948661351181196e+00 -1.3368746715187544e+03 -1.0805911511678683e+04 -1.1653201824571529e+02 4.6787047451720520e-02 -2.1990621073046315e-01 -2.4705856318813693e+02 -2.3588778075965763e+01 9.8097373710070201e+01 -2.2117403654680157e+00 1.0938348651328102e+04 -9.0127821171161202e+01 6.7145967651453248e+02 -2.0002510677617447e-01 -3.4148087527092235e+02 8.3985366804973012e+01 9.8752025205564209e-01 -6.3980062761765439e+03 1.3506297452102740e+00 2.9221310900771664e+00 -3.9092905353009701e+02 -2.3990162905696779e+03 3.4487825958058238e+01 7.9140820189624206e-02 -1.8248303951690059e-01 6.2293474330008030e+02 -1.2332792037872343e+02 -4.6841714624439987e+00 1.0536404130049050e+01 8.9553365155458450e+03 -2.8416742712259293e+01 1.3592732055664062e+05 -2.8105115399632408e+00 6.0854248791933060e+01 -1.4161341209180489e+02 1.9460046707552388e+00 1.4410073695509225e+04 1.4761498886908675e-01 -3.2328034328410622e+00 5.6829117206678086e+02 1.3728230905046976e+03 -1.3210296263475502e+02 1.6578418133008022e-01 3.6020488410157947e-01 -3.2015328637255408e+01 -1.1085233881650902e+02 1.3606646684740904e+01 -6.3221778268216532e+01 -7.6800337153375149e+03 -1.7599159922060488e+02 8.7862366262821830e+04 -7.4662667858760856e-01 -2.0385866586901625e+02 -2.7280303006550196e+02 4.5202716955293210e-02 4.3918117079794893e+03 -1.2481269151162380e+00 -6.4443286268154576e-01 -6.6326888940347430e+02 1.4136252844757717e+04 -3.9087405231041174e+01 -1.3100205915014995e+00 -7.8479062390272980e-01 -2.9584473620073550e+02 1.8010660303520467e+02 3.9953730742953297e-01 -6.9856372811468503e+01 1.5034461864340974e+04 -2.1569663391552957e+01 1.1104398599626032e+05 -1.8983162012937813e+00 9.0409589427686626e+01 1.5528978301467359e+02 7.0020221105578495e-01 -1.1554411942313029e+03 -2.4398395512093596e+00 -9.0389467564678472e-01 -1.7088880883243917e+01 6.9269888773898447e+02 1.6032084380174808e+02 2.4588248880631181e-01 -2.5828360916503862e-01 8.3358441038338742e+02 5.9190062931342766e+02 -3.6330371818569972e+01 5.2004599956640973e-01 -4.3577859105766511e+03 -2.1829575614936641e+02 -1.2716845918986358e+05 -1.3319505548394828e+00 -2.0043575877260946e+02 -5.6736594561737547e+01 2.0928812457841360e+01 -1.1383009501117349e+03 -1.2050456842194869e+01 -2.6391490617503699e+01 -9.5041220508200513e+02 -1.8549237263168670e+03 5.8705055959554261e+02 -3.1580488347670044e-01 3.1475804594179344e+00 -9.4932045305529891e+02 -2.3276727993589657e+02 -2.2290510596625992e+02 -6.9600432707413268e+02 9.1020772295226416e+03 -2.4624296083472473e+02 -5.8157954987714023e+04 -5.2124992317627061e+00 1.0263815542239645e+03 -6.9442481760458264e+01 -2.2167041190620287e-01 -1.7681290867285457e+04 -1.8694631136768985e-01 -3.2527274186579497e-01 -8.2830062171776717e+01 8.8207000517794240e+03 2.3189342313723859e+01 -5.7268045203237017e-01 -1.7286646334126035e+00 1.4528345476074949e+02 -1.4607773035934386e+00 1.3999229138393119e+00 2.5713965429547436e-01 -1.2828897453439500e+04 -5.4426484920398934e+01 3.9288366370597723e+04 -3.4335497090897493e-01 3.1779768300946273e+01 -8.8419319023045027e+03 
      </Row>
      <Row Index="74">
        -2.2419128777011910e-02 3.0255886189252124e-03 -1.3744646892009769e+00 -2.1477682728030051e-02 9.1927421466109216e-03 1.1648183849410998e-01 -1.4420081394055160e+00 2.5204141983111494e-02 -2.3603478000511685e-02 4.7941408073654771e-03 4.3452424489828445e-02 -1.1133150750538334e-02 2.9724553071901028e-02 1.5047291116374595e-02 7.7517348518156215e-01 -6.7400306881609140e-02 1.4701298850704916e+00 1.9237179976094509e-01 -2.2779028768127318e-03 8.2643292712418770e-03 5.5785287592797772e-03 -1.5177114946591246e+00 -4.7940607293170956e-03 3.2511180788472593e-03 7.1006195329391630e-01 -1.6467019612604190e+00 -5.3805012421435094e-03 -5.2852497576205693e-03 3.9875361652264019e-04 7.4921647991326168e-02 3.7628034028784896e-03 -2.0532415695072359e-02 2.2900838287398528e-04 4.2998820619686562e-01 3.5711978222479956e-02 -9.1918075409921585e-02 -1.8109622847340745e-01 1.5321624807956891e-01 -1.1080814284582630e-02 5.8953564494546029e-03 -2.2753358883225161e-02 -3.8081223735435543e-03 -4.7515616594608900e-03 -3.4555431233093259e-01 -2.1865351438318612e+00 2.3672556936072921e-02 -1.8123886042955561e-03 7.6239058770211088e-04 2.9315701296776897e-01 -8.7428313282543968e-02 -3.7559901924851147e-02 -3.1649580180928241e-02 1.0684942228394902e+00 -2.0031794488852242e-02 1.1675951693833202e+00 -1.6186526033959581e-01 5.7863760636295947e-02 -1.4141271033086711e-02 1.3516638313060270e-04 -5.5918054512403614e-01 -1.9483286201879224e-02 7.1908793319786501e-03 2.9992135691645672e-01 6.4136332711314026e-01 3.6886397500779822e-02 -3.9170661817076180e-03 -1.8255475930929466e-03 1.7333233243305490e-01 -6.9979900327439282e-02 -8.2999396950356186e-03 2.3380747431410498e-02 1.4281745369405519e-01 -8.1746469755293205e-02 1.3301426828236984e-01 1.3007409000816139e-01 3.8926431431361638e-03 -3.6476872019690909e-03 -1.2217874012895660e-03 1.6959329404602386e-01 -4.3343035426847872e-03 -1.6294024678201631e-02 -1.5257521209856309e-02 6.9421280684925080e-01 -3.1492507767802436e-04 -6.5322826479600905e-03 9.4845618403310730e-04 3.5343096472691626e-01 2.9435673023996856e-02 4.9355486790358172e-02 -1.3189186212201304e-02 2.6573794530661088e-01 3.3497936355179059e-02 7.9181325468001518e-01 -9.9525225919905314e-02 1.6137178180724732e-01 1.7812197542358688e-02 -2.8173020313867723e-03 4.8758605152416123e-01 -3.0902179203484478e-03 -9.1087028630585619e-03 5.9109222661472005e-01 8.3996446297164074e-01 -2.0440587359849938e-02 8.4533210256785554e-04 -8.3995191765598963e-06 8.6737376501332619e-02 7.5737073232780894e-02 1.6227783894056824e-02 3.7786958109486722e-03 1.3458807163115125e+00 8.6348708390065032e-02 2.7726472482889051e+00 4.7223839866051810e-02 2.3002920156068285e-01 -1.3737030948639983e-02 5.1763326388290136e-03 -2.6826578485892991e+00 -1.2173761472735814e-03 1.6917420201648617e-03 6.0587296002783031e-01 -1.5970680248880438e+00 1.3197641501556522e-03 -7.9460210339449538e-04 -6.2959158946016523e-04 1.1059642389721218e-01 -1.8171016748196100e-02 1.4794402796549921e-02 -1.7844798297814574e-03 6.8276859977049753e-01 -2.3400735334645983e-02 -3.1264610826886408e-01 -2.4901870401012324e-02 5.4930431909599481e-02 -1.0200978365444813e-02 -3.9678670026829788e-04 -1.0228610816752735e+00 -5.3543500441290701e-05 1.3705592793071944e-02 -1.6442299916889169e-02 -2.8998735902905537e-01 2.2200887132612479e-02 -5.5484253236887521e-03 -1.6473216881500059e-03 3.3665625793582876e-01 6.8572462092931177e-02 -8.2260796764517322e-03 -1.7980885773738464e-03 -2.7514806780300205e-01 1.3363326080252591e-02 -1.1724871690094005e+00 -2.1691517758336026e-01 -7.2979545035195770e-02 1.9905936736845480e-02 -9.8100435789610701e-04 -5.6877924873299668e-01 -1.5004409625454969e-05 -4.3680804750557047e-03 -6.0213268335945402e-01 3.1726747275130229e-01 -2.2099611617080718e-02 1.1263950073252462e-03 -4.0620674128563844e-04 1.0933375758906448e-01 -5.6725216214993601e-02 -8.6797954201525862e-02 -6.2414406652463606e-03 -7.4488439155447850e-01 -1.0790532693848764e-01 1.8119794558275970e-01 -7.3856008784571991e-02 -7.8156717533066189e-02 1.9556137970249743e-02 9.3234745365962865e-03 1.6615467140180433e+00 2.5782407825722733e-03 2.4070567244979330e-02 -7.6344069228119471e-01 1.7266785442126289e+00 4.4835494984156732e-03 -1.1247677845198046e-03 1.2377307462009624e-03 -4.1310401907235672e-02 -1.1888123021266306e-01 3.8200194341103111e-03 4.8754444346523554e-03 -1.4708179535589849e-01 -7.1840604330910496e-02 9.1258091380404860e-01 -7.7063184444934818e-02 8.4131044254400988e-02 -3.7508590517507379e-03 6.8334571133125081e-03 2.0986171500491979e-01 -1.4053722141600465e-02 4.3920820837686451e-03 2.0038780263794598e-01 1.6137227334116604e+00 -8.3088221292744180e-03 -2.4319969960670510e-03 1.8644176409492500e-04 -2.9187232286554288e-01 -1.2438435495058539e-01 -3.8479866742794744e-02 -3.1749419992799857e-02 -1.0492634028011310e+00 5.7358461753810708e-02 4.7922169161136119e-01 2.8188034128352097e-02 1.2790436588457155e-01 7.1467650687657702e-02 3.7989129445054344e-02 -1.3620662757748114e-01 -3.3939103512863680e-02 7.0712358478146470e-02 -1.6564359162886220e+00 -7.6123651693674077e-01 -3.2294268290832928e-02 -2.8452902886675097e-02 5.3685899845604783e-03 -1.7939454113822020e+00 -1.6025119015015921e-01 -1.9511950656161858e-01 -1.6454198458526137e-01 -2.2684128955362137e-01 -1.1477087227794502e-02 -8.5299243750871856e-01 2.0442887011136682e-01 2.3175258557487766e-01 1.7158391579622581e-02 1.0278088819848450e-04 -1.8049049881702715e+00 -2.0369756437308255e-03 -1.3757526246479228e-03 5.4438826439893562e-02 -3.5900922259686280e-01 2.5468528902374735e-02 -4.1431298934506249e-03 5.3438841595456173e-03 -3.2068937864343838e-02 -5.8585549333056430e-03 -6.7123094777936307e-03 -7.3320809690513838e-04 6.3666328762455038e-02 -4.1318295481462375e-02 -4.6760729881253837e-01 -1.6955896831867854e-02 2.4581569985389073e-03 3.4541390330477839e-01 
      </Row>
      <Row Index="75">
        -3.4479824017963665e+00 -6.2684388988259343e-02 -1.0034699924290180e+00 -5.8091384341614996e-02 -4.7814220155828480e-04 4.2898254094412550e+01 -8.7306779032573104e+01 2.4356451561500307e+00 1.6292989051801640e-02 1.1037699150504859e-01 2.7271328186878236e+01 -3.8446483248844743e-01 1.5309152874397114e-01 2.9678514170154813e-01 9.4580666201758831e+01 -3.0067563791235443e+00 -1.5828047792613506e+02 1.6650558267429005e-02 1.6482818976161070e+01 -1.1967033573891968e+00 -1.4374741157553217e-02 3.1868096727877855e+01 3.7927186994920703e-02 -8.7277745132610107e-03 3.5767449642531574e+01 -1.5069736082252348e+02 7.0957079727668315e-01 -5.6239763878238591e-03 2.7223599816466049e-03 -1.0815704660888514e+01 -1.6685374651569873e-01 2.2229491238249466e-01 8.8651721408041340e-02 3.0542247591796311e+01 8.0875601695152000e-01 1.8295690448861569e+02 -9.3668363729193516e-02 -1.1410932409366066e+02 -5.2528883773702546e+00 3.5056733412261565e-02 1.0454778225142263e+01 -2.3837483649913338e-02 -1.7894682041969645e-02 -2.6290175908477977e+01 -2.6730841953307390e+02 1.6168648692376610e+00 -5.4663206950067433e-04 2.5436772982232014e-02 -5.3296188652910814e-01 2.8134023784659803e+00 1.3879869849042734e+00 4.4210282716180715e-02 1.0213194026972633e+02 -1.7470194131579326e+01 -5.2586377995813407e+01 -1.2571169392231241e-02 4.0168862021590257e+01 2.1213665574141460e+00 2.3974107714366255e-02 7.1509331685258076e+01 -1.9673635326682870e-02 -1.4010643357877939e-02 8.5354075697250664e-01 -8.5960703037679195e+01 1.5708005421329290e+00 3.3431384127879937e-04 -4.0670113393730389e-03 2.3293287582393326e+01 7.6768749424081761e-01 -4.4618601142792613e-01 -3.0025088711113312e-02 2.0859003464330601e+02 2.8444619999922907e+00 -5.7536709853869809e+01 3.8926431248000881e-03 5.7009022152999890e+01 1.4987146348760643e+00 1.9981630473971945e-03 1.7368020112870454e+01 -3.6179754084127380e-02 -2.4228146810006221e-02 -1.1547060167576916e+01 5.3929315270090399e+01 -3.3451550112756601e-01 4.1904469145018913e-03 2.8970491668998757e-02 -1.7733664597374172e+00 -6.5202940367655771e-01 -9.6861746679177574e-01 2.0240167267358225e-01 -1.0135697884190968e+02 2.7136587667405649e+00 -1.3651322478950038e+02 -9.2158975200929694e-03 9.9346776671241969e+01 -1.1129243773711117e+00 -3.8965007421041600e-03 6.8958613483236775e+00 -1.1251353730355990e-02 6.2871729968071374e-03 1.0737754637697378e+01 1.3433424699290458e+02 -2.8721184912510336e+00 4.0986949459781499e-03 -1.2765502018840212e-04 -1.1765717962291092e+01 -6.6445359015247973e-01 2.6156632920858880e-01 -5.7147604687171172e-02 1.9284846740029752e+02 6.2908612279949940e+00 1.0819301216656169e+02 3.2369215681558344e-02 -3.5059478906914592e+01 3.4352338201188104e-01 -2.1129475590199925e-02 1.6669461220992116e+02 7.4658312466805155e-03 1.1321302226706940e-02 4.1325176284819328e+01 4.7322727236400488e+02 9.6502358684059897e-01 -5.2016524031451399e-03 -2.3603941924186210e-04 4.9647670445755541e+00 5.5243777470659872e-01 1.9501565200440885e-01 4.0698483789068235e-02 2.6742227002978325e-01 -3.4698459533871371e+00 -6.9359605973226621e+01 3.5548154437576820e-02 -8.5669081345018938e+00 9.8549445307546235e-01 -3.9849612615042329e-02 1.0166767933939718e+02 3.4682038428410604e-02 -1.2799014325906410e-02 -5.3747329840844031e+00 -1.0405706217885017e+02 2.6331469867727719e-01 -9.9801674833572759e-03 2.4254164900297283e-03 7.3402369973482564e+00 -1.2385313889495475e+00 3.2925309686686582e-01 -8.9879141818528296e-02 4.2671512941364199e+01 2.2131503840209916e+00 2.9899520564079285e+02 -9.3447271922726879e-02 -3.7588926665484905e+00 -3.5871016471719810e+00 -7.3597687432712649e-03 2.1014248366123519e+02 3.0182427882117155e-02 4.4000419971986365e-03 -1.4950603316806998e+01 -4.7641183917859490e+02 -2.0210163748734939e+00 -4.7989116438327721e-03 -1.3717098696135870e-02 -4.4201788549579577e+00 2.4454895731819590e+00 2.3857107779865547e+00 -4.6587539195487115e-01 -1.3646938563440926e+01 -6.6274276871842419e+00 -1.4409623363200419e+02 4.9244127056881970e-02 -9.1480903809920676e+01 4.1801303625270947e-01 -7.3120454204938685e-03 -1.5235950234399658e+02 2.8908709850911679e-02 4.8194025198764791e-04 -1.2711018463132724e+01 3.1550229920214622e+02 2.3736392375753754e-01 2.0552981782619613e-03 9.9537751582899764e-03 -1.3575706941048157e+01 2.3065537047045463e+00 9.4251655818782787e-01 1.4582443091692865e-01 -3.0553512976135693e+02 -3.4900855005269884e+00 -2.8443044272527857e+02 -4.4871566347858695e-02 2.3247119771066274e+01 -3.6351481119821472e+00 -3.6558597465988170e-02 -1.1677497596171916e+02 6.4315748510194917e-04 5.5473134496764331e-03 5.1202421832861170e+01 2.2653913160722831e+02 -1.0664493465360416e+00 -1.2086140267325057e-02 -2.2682826995126242e-02 3.4274994043890921e+01 -1.6888605527678244e+00 8.5317714736071260e-01 2.1012571700292174e-01 1.1059537719571870e+02 -1.7102432013365982e+00 -3.9287442690282319e+01 4.7352743538765174e-02 -1.7114774304124374e+01 -2.0653866103515647e+01 -1.8757980592909224e-01 4.0272369936159123e+01 2.6935557291982920e-01 5.8072553677939620e-02 1.9005608137699795e+02 -5.6769362258308064e+01 -3.8243119324165917e+00 -6.4703214912610274e-02 -2.2714828136161780e-01 9.9828661059326066e+01 1.0632034612028633e+01 8.5720150928099841e+00 -2.0832203401498255e+00 2.4209269550397210e+01 2.8776711181946268e+00 4.8521563758603961e+01 6.4832723547839510e-01 1.0851798207162273e+02 1.0514939712731044e+00 3.3602604182263987e-04 -2.7719324394433710e+02 5.2455128553936664e-03 -1.7074248171604735e-03 1.6057242720870946e-01 -4.7883551250728935e+01 5.0505132908573586e-02 9.2635303869975857e-03 6.8832218659018687e-02 -3.4144499160799677e+00 5.1529623648201750e-01 -1.9456305825580200e-01 9.8478924007726308e-03 3.8735621979420671e+01 -1.6801489192263412e+00 4.1006523038104291e+01 7.0289902481320311e-03 1.0561116656223035e+01 4.7748602253787652e+01 
      </Row>
      <Row Index="76">
        3.4638919494591164e+01 1.9606643012139102e-02 3.4485741972923279e+01 7.1499773630534946e-02 8.6506761357725281e-03 8.0180096548050642e+01 -7.2303363155573606e+01 -1.1146030192614944e+00 3.3087262635579551e-01 -4.4076298396385827e-02 -2.5951343074964825e+01 -2.5134060620330274e+00 -4.8970448458567262e-01 1.2916770455922233e-01 -9.1724190628832287e+02 -1.4253669320605695e+00 2.0942078715562820e+02 -2.3705742688434839e-02 -1.1530101696902420e+01 -5.8861649815575220e+01 1.2143850700340408e-02 -6.1258951378986239e+01 4.0426162177709557e-02 4.5585525549540762e-03 5.9053875192999840e+01 -1.1429529737550183e+02 -6.1727317888289690e-01 2.9790253936880617e-02 3.8661886378577037e-05 -9.2872782994254521e+00 -6.9696075469255447e-01 -1.0798677402053727e+00 4.9605958874963108e-03 9.3894483877383550e+00 -3.4273010697215796e+00 -1.0259913716744632e+02 1.5722910489785136e-02 -9.6756286702697494e+01 7.9438202941761119e+01 2.9004028828921946e-02 -1.0225374155814279e+01 -7.0912209339439869e-03 -4.3077857619209681e-02 -4.5596018709242344e+01 -1.3613944412022829e+02 -3.1880087155532060e+00 -9.1441314232838522e-03 3.8718977068583627e-03 2.9566897334588734e+01 1.2836653407430276e+00 1.5108908474212512e-01 3.9147290626383019e-01 -5.1592190285102697e+02 -6.0942241148693821e+00 5.2610393771313881e+01 -2.0749371774400061e-03 4.1877416773497202e+00 4.9797038748703976e+01 -4.8380084143673230e-02 7.2953018755652010e+00 -5.7865442640149922e-02 4.6709300591878389e-02 1.4763560745865107e+01 3.0168345257174224e+01 -1.0781887714983895e-01 -6.4557592731375735e-03 -8.5052336665114581e-03 4.1190294833593946e+00 1.2158954867045395e+00 -4.0623211760248523e-02 -2.5032987382792271e-01 -1.3818621319514696e+02 -1.9152474056104438e+00 2.0001365247135334e+02 -3.6476871782724629e-03 1.4987146421810342e+00 9.1795929466680150e+01 -2.3170336880107834e-02 4.3545459677466603e+01 -4.8677389972094649e-02 -6.1408582159404743e-02 -6.1310111015712017e+01 3.3350020396452514e+01 3.1400882060367721e+00 6.4008296046792951e-02 -7.5580576076793365e-03 2.4097376912335953e+01 2.0799219296877300e+00 3.5824900430375086e+00 -5.2351801564834988e-01 6.4995482135253837e+02 -2.3095278991391082e+00 -1.5549349330848696e+02 2.5427604229808304e-02 1.3879426257684827e+01 -7.8240996413458461e+01 4.2491518181634783e-02 -7.9766632317518585e+01 -1.2032755262087278e-02 -4.7236811597590314e-02 4.1763828243159168e+01 7.0597567243448140e+01 2.4287577403056111e+00 2.6848635064966844e-02 3.4470638255133818e-03 7.0078441137447953e+00 -6.1326207649386011e-01 1.0306889477218695e-01 5.0282577605120571e-01 -2.2074039645493031e+01 1.9209784180079530e+00 -2.9131918370210690e+02 -3.4534783806523139e-02 -3.1324570469558239e+01 7.7063094879558776e+01 1.6439583239188815e-02 -7.2266909099744510e+00 -1.1037328962949748e-01 -4.5333829163782757e-02 4.3241657650227282e+01 6.1068818173294574e+01 -3.1960083798872869e+00 -3.8655664039961325e-02 -9.1526341414204897e-03 1.0058267038680643e+01 7.5012685558005532e-01 -6.3128901617260325e-01 -2.4648140068196761e-01 7.7745587668567896e+02 -2.8677397837269667e+00 1.0742619881324549e+02 4.1150197569401498e-02 -6.0465746214610165e+00 3.3723931525119198e+01 -1.7904724120681000e-02 1.2473885211892735e+01 5.4417316199169494e-02 -1.0500329894114646e-02 -1.0440640786895528e+01 7.4393210589885712e+01 8.0035038443747908e-01 5.9034944369496106e-03 -2.0738787913789727e-03 2.0527765425038524e+01 -6.2558487295294007e-01 6.2682655183877389e-01 -4.3421065027359873e-02 4.8067526956438087e+02 -1.8959638366941363e+00 1.6394798533618450e+02 3.8690584775367444e-02 -1.1373636985663325e+01 -1.0133239467206795e+02 9.3199211249736010e-03 3.7680421963739228e+01 7.2133641839512222e-02 3.9938661050532030e-02 -8.3751635270040524e+01 -7.0612071563387062e+01 2.1176168711784342e+00 1.2213437125905363e-02 1.5304765844168291e-02 8.7683091826033177e+00 -2.9052925379438932e-01 7.4373937534412571e-01 9.3918065961336161e-01 3.7998965032375418e+02 -1.7698166859717179e+00 -1.1027292956825877e+02 -3.8947633871610245e-03 -4.2660129690588931e+01 -1.0981281801434903e+02 -3.4513745205150548e-03 -7.4586164419614718e+01 5.4635128259452576e-02 3.9713189805221240e-02 -3.3884304904343622e+01 1.4834354971387643e+02 9.8868525529275697e-01 6.4055066551087017e-03 3.3927363882865383e-03 1.7601275718282722e+01 2.4575237399987220e+00 -8.1223650589016483e-01 2.8987449737716769e-01 3.3518285985589773e+02 -1.0054966660002562e+00 -1.0218992706424598e+02 2.2817443032086125e-02 4.6627268298014339e+00 2.9747576758436850e+01 7.0932341076876820e-03 -8.8016164271907769e+01 -1.4227239191704226e-02 1.6629756963084587e-02 -2.3312375726997058e+01 6.4242701543746705e+01 3.4396566705055549e+00 -4.4727385335437599e-03 1.6685900512632200e-03 -9.2336304925388113e+00 1.7559354360107677e+00 6.8952022023950588e-01 -3.9637265694294010e-01 6.8439548267802672e+02 -2.0609862448000884e+00 -2.4550826999300995e+02 1.9476853968012513e-02 -4.5583926390593398e+01 -2.0045681312185798e+02 1.4193418334782865e-01 2.5408100196150915e+01 6.0689758393435322e-01 5.7995720501315517e-01 -9.4243581923659576e+01 -3.5655730107177988e+01 2.5033753654910459e+01 4.6245618011935974e-01 2.0056149535721435e-01 -7.3567344071654588e+01 -8.1462149512973596e+00 -2.7202706377421513e+00 8.9506444621108514e+00 2.4715000638698652e+02 1.7102943736565180e+01 2.5176511619261620e+02 -5.6749711102796141e-02 9.9607523550391193e+00 -4.6410493026455249e+01 4.4445151823909821e-03 -5.4000514475828709e+01 -1.3056271115120201e-02 -6.6374419428826817e-04 2.7350178432960348e+00 -1.0084867749517011e+02 -1.9232788115392312e+00 6.9541416493795943e-02 -2.3394744242807518e-03 3.2795366099863523e+00 -9.4684177931780877e-01 -4.2193591330852653e-01 -1.2594233453251138e-02 -2.3473915723040960e+02 -1.2937311758293637e+00 2.4252087815897553e+02 5.3832704868296277e-03 7.2363037146082698e+00 1.0277812535565447e+02 
      </Row>
      <Row Index="77">
        3.8699913141427178e-02 -8.2960768329402690e-01 -1.4217425092647318e-01 -1.5659258253837294e-03 3.1568873706159017e-02 -8.3082761557307094e-02 -3.2644923561019823e-01 3.6295886892230733e-02 -1.6256790971562513e-01 -1.4039694463906846e-01 -3.9131001650457620e-01 -5.3700196163845249e-02 1.9177585272700526e-03 1.0856441530819438e-02 9.2884442981593907e-01 3.9878479377875919e-02 -4.7076441813260317e-02 6.5209476076688588e-06 8.8690750993919210e-02 2.5999574609159026e-03 -4.7286570799386141e-02 5.0361421156412689e-01 1.7595895666389083e-04 2.4256604910371848e-02 -2.7574126921535935e-01 -4.0483548181691731e-01 9.0626893143053167e-04 -9.5053449126325518e-03 -1.5250046798582773e-02 -1.5213579074279693e-01 1.3144930677299271e-02 1.1359039679973648e-02 -3.5577528589286089e-02 3.6491372586281656e-02 -1.1053854645979300e-02 1.6339991910281242e+00 2.9505398332645427e-03 1.4430810048819298e-01 1.5607791749175703e-02 -7.5162993320333271e-02 -3.3408059621476838e-01 3.6257000994126543e-03 4.5055967322831236e-02 4.2044436967626098e-01 3.6746876777033322e-01 2.7639333907970867e-02 1.2636783993333900e-03 -3.4181266205712824e-03 1.7115892237842445e-01 2.3249223026505206e-01 2.0050000063974949e-02 7.4438863639349651e-02 -5.9938943844008463e-01 -1.3931305676095462e-02 -2.9851504821455919e+00 -2.2417279338782237e-03 -4.4493766439732130e-02 -2.2936557831115506e-02 8.0940309691971635e-02 -2.5986404544164543e-01 -2.5208590185226143e-03 1.4891823591752174e-02 2.0335665030870587e-02 -1.3493696297518909e-01 2.8448785959881207e-02 -4.6443671678795262e-03 -1.8261861920374489e-03 -1.3559145259826533e-01 5.8760994035310432e-02 -1.1231647558133773e-02 -4.1521324812485716e-02 -7.2106702633163877e-01 -9.9149208480326934e-03 7.3956156354646385e-01 -1.2217874012350194e-03 1.9981629943250923e-03 -2.3170336873192809e-02 4.4167998928013674e-01 2.5235578667292202e-02 -7.4852354636183085e-03 1.0740343878613645e-01 -3.5143965481309958e-01 2.4179298526201620e-01 9.7875692416597715e-03 -4.2257962123757688e-02 -3.9075511002961770e-02 -3.0751875130871964e-02 -7.0729550046962686e-02 -2.5281321387955025e-02 -1.1387946501349200e-01 1.3467316300821590e+00 1.4042149962556039e-02 -1.6962530373630402e-01 -4.0527441174272594e-03 -4.6155320545949508e-02 1.0747911166433421e-02 1.7438234024682731e-01 1.9159952190069873e-01 -6.1970063365991285e-03 4.7733221704309443e-02 2.1334245867741686e-02 2.9993537907134549e-01 2.2608278383693947e-03 -6.5306177455495889e-03 -5.2707711485476564e-03 2.3157461978553329e-01 -1.2979168115059858e-01 6.6989144770914222e-03 -1.3985779507691795e-02 -2.8764431294985116e-01 3.8013832944382098e-02 -1.8916575714428916e+00 -3.9974186949971874e-03 -2.4215646437369287e-02 -7.4531856370185778e-04 -7.4533039705923432e-01 1.7906583350231564e-01 7.8096286311984970e-03 -3.6507124175076525e-02 -3.6190111921147050e-01 2.1444261755708141e+00 -2.8326452909937776e-02 7.8840893306393878e-03 6.1643536641508871e-03 -6.8820154130793898e-02 7.7204488435076185e-02 9.1817917699681881e-03 1.0537630374242241e-01 -8.5676652591791935e-01 1.1262294474176676e-02 -2.2405245299190319e+00 1.2650760560425689e-02 3.2430180872759840e-02 -1.5903276632087272e-02 2.0766003158222476e-01 -5.7593620996590289e-01 2.2322495329546790e-03 -4.6392950095836827e-03 -2.4548507784129470e-01 -9.1897990088909864e-01 1.5068291895886432e-02 -5.8517524730664211e-03 -1.0694496025014584e-02 3.6646702655161789e-02 -1.9283495528413330e-01 -3.1540779600643387e-03 1.8888597418253994e-04 -5.3766482598348375e-01 2.7349026868250803e-02 3.1227127844467759e+00 -1.2544664349824345e-03 4.6139793637848925e-02 3.4061491180722436e-02 4.4777905555507862e-02 1.0338378319133312e-01 -2.6635197147396395e-05 2.0829915227920673e-02 2.4685388604744896e-01 7.4934485631068881e-01 -1.5803595640627686e-02 1.2257146026976808e-02 -9.8032772859005801e-03 2.0811068777265618e-01 1.4517718266842472e-01 -1.4100313505061024e-03 -9.2805543420263776e-03 1.1910272832501505e+00 -5.2511984692641456e-02 1.2544041035513942e-01 2.7335425148743101e-03 2.0533655354479638e-01 1.7273122511261785e-02 -1.8143274190834055e-01 5.0520697292643035e-01 4.0320677558495187e-03 -6.7417298043958906e-02 -9.5193462791977268e-02 -1.7128792199365428e+00 -7.7004149866477523e-03 1.1072996883570645e-02 -1.4044938450158086e-02 2.5452573668609801e-01 3.4640947232903696e-01 -9.1389821376313130e-03 -1.0037167564076693e-02 -1.1030758428810197e+00 -2.1076002140902633e-02 -1.5517229109770625e-01 5.6184868907133102e-03 -2.1757963748626707e-02 6.3921439611578368e-03 -4.6015694756663589e-02 3.2421847274932025e-01 -4.1719642807967515e-03 -2.3812313993410196e-02 -1.5911671440194119e-01 -1.3857262275689202e+00 -1.3701152430740215e-02 1.0083574722164982e-02 -3.5878491840618983e-03 -4.7685888387857145e-02 3.3983996721647758e-02 -2.6812652905000567e-02 -5.8342256342323401e-02 8.9411457926841642e-01 -5.7470868601269931e-02 9.0305362998774918e-01 1.4581663640263493e-03 1.0470465808223928e-01 1.4479869383431665e-01 -1.2307988023456955e-01 -2.1459024678777006e-01 -4.3317569778781456e-03 -1.7318590224473229e-01 -6.3785120041035270e-01 5.0212857411445810e-01 -8.4348882327377583e-02 -4.0116253161179567e-02 3.7121549110238738e-02 1.1841891397273940e-01 -5.1836492074510687e-03 -1.5349094899162347e-01 -7.0376321195805502e-02 -2.1782802769557321e+00 -2.4468936740306901e-01 1.4680706195010984e-01 3.8398766372480964e-02 1.8139330258855502e-01 7.4554588840270025e-03 -2.7192599256608031e-02 1.1385247639806586e+00 -2.0391836222941151e-03 3.7686942929668274e-03 3.9788217855942776e-03 9.2893148330503594e-01 1.1362880164131379e-02 -2.5770213399660194e-02 -6.0667143380082528e-02 3.2670272338622297e-02 2.2548939139219806e-02 -3.2078899715386466e-03 -2.1215219835061735e-03 9.0127196675643972e-01 -1.0665792650857542e-02 -1.9980081601141819e-01 1.6318206984056729e-03 -1.3247100290740832e-02 -8.6916276735072828e-01 
      </Row>
      <Row Index="78">
        -1.0001020176878228e+01 -4.3418175371334655e-01 5.1605942604541779e+03 -2.7389311471051769e-01 -1.0857099301210837e-01 -3.3433727967739105e+02 3.7822246973514557e+03 -1.9947267965384526e+01 1.4358815985336730e+00 -5.1108796461500572e-02 2.0743309449031949e+02 4.0099050596356392e+01 -1.6703965261578560e+01 1.3078918039100245e+00 -1.5139963635881368e+03 -2.0423717465251684e+01 -9.6864542894363403e+03 3.7550039641791955e-01 8.2919098027050495e+01 -2.9464323867112398e+01 -2.0086472388356924e-01 -2.1885845288485289e+03 -8.2520654847030528e-02 3.5871441016206518e-01 -3.8614465701580048e+02 4.2657991787698120e+03 -1.0689984753727913e+01 1.1365274709532969e-01 4.0308407449629158e-02 3.7773759404176963e+02 2.6899221941828728e+01 -7.0815402474254370e+00 7.2425109241157770e-01 1.4593037020478559e+03 -3.0976759500801563e+01 5.4316044085025787e+03 -2.9064974514767528e-03 -3.8300087883282401e+02 9.5350675275549293e+01 1.8216857606603298e-01 6.3410599277797155e+03 -1.1700945894699544e-01 -2.7024348266422749e-02 5.9583736735582352e+02 6.0765844237804413e+03 -3.4598583087194612e+00 -5.5504617834230885e-02 2.6920475866063498e-02 -1.7401746150146255e+02 -2.6958508275449276e+01 1.8710165986791253e+01 1.2645272017653753e-02 -1.4002300915978849e+03 -8.1234281513276215e+01 -1.6590316647196523e+03 -6.2148681317921728e-03 -2.8094202839120544e+02 2.0545250672048368e+01 5.4630992017337121e-02 4.7277232620418072e+03 1.1207658273633569e-01 3.5363375684028142e-01 5.8970667868852615e+02 3.4514158338308334e+02 -6.0847713718190789e+01 6.0816916462499648e-02 2.3626417458217475e-02 6.5739071057792762e+02 -2.6378326589241624e+01 1.0949241991620511e+00 -1.3693143731507007e-01 -8.6175074645978475e+02 -5.5906100070860703e+00 -1.6706191894818533e+03 1.6959329228848219e-01 1.7368020134270040e+01 4.3545458764303476e+01 2.5235585373593494e-02 9.9461681043438136e+05 1.0438729282749271e-01 2.6920180240303193e-01 -1.0128815293038272e+02 -2.2812259405306540e+03 7.7212571015577538e+00 3.0260334540949396e-01 -3.3048946821938541e-02 -3.8831619390102264e+02 1.3357142485996405e+01 -2.1148027135772026e+01 4.2334262516392318e-01 -3.3524693794680670e+03 6.1530234346179782e+00 3.1250158704815494e+03 6.4455500300351964e-02 3.2504069209098816e+00 -2.3895409908593383e+01 1.7888749791577196e-01 3.4874229152499465e+03 -1.6526343675893451e-02 3.3181759766498287e-02 -7.1809300197201424e+02 -1.8805273644657136e+03 3.3502055435706076e+01 2.8741335239852867e-02 -8.5694493630508461e-03 4.5828989148139954e+01 3.4559325158904130e+01 -2.6420204739407041e+01 6.4823296747827375e-01 8.4064397864341736e+03 3.0403852502599094e+01 1.5682075368106660e+04 -2.9063439214789044e-02 4.6662088572978973e+01 5.0531676571234129e+01 -7.1116172549758683e-01 2.8346758973583637e+03 7.1289689403211343e-02 1.0356207324767734e-01 -1.0988209790744477e+03 1.6362165708580869e+02 1.9407366518371845e+01 1.7695302577902680e-02 9.3986631159848344e-03 -3.9225770325366733e+02 -2.6225742485074708e+00 -1.2752473555991216e+01 -2.9432216055553706e-01 3.8844715404510498e+02 -3.7600442054686141e+01 -7.2209959225995135e+03 -1.1319032150629238e-01 1.1335566413661303e+02 1.1765092580908666e+01 3.5311702751276774e-01 2.1818106313485070e+04 -3.8790938122641894e-02 -5.6424906619506210e-01 1.2988375011235476e+03 8.5576719665527344e+02 -1.5804555512964725e+01 3.7668271974666989e-02 -6.8892482715125006e-02 1.3982470004037023e+03 3.5923557848367210e+01 1.4526782623229643e+01 -1.3898077653720975e-01 -1.0258140295743942e+02 -7.4584845453500748e+00 -1.3167143645286560e+03 -1.0846602206232586e-01 4.6601276308298111e+01 -6.5333151308276172e+01 4.4334458262833548e-01 -2.9954245837471259e+04 5.2869866091715867e-01 -6.6894499771180804e-01 9.6279724153270217e+02 -6.0474210810360382e+03 3.1359730582993137e+01 1.5588001673598473e-04 -1.3781067766281538e-01 -2.0364296497213047e+02 -4.5267905473566429e+01 2.2987921815407319e+01 -2.5193492736393930e-02 2.3821946837007999e+03 -2.6432384050856669e+01 -3.0518363068445205e+03 6.3332562094976230e-01 2.1645033558161464e+02 -3.0618476793012853e+01 5.1134346353771162e-02 1.9210261738231693e+03 3.9425346603710998e-02 -1.4646903789917595e-01 3.5481305109414654e+02 -3.4049416943845827e+03 -1.8282712448344274e+00 1.2578020461456171e-01 -9.9849029411082757e-02 -2.8625087139510060e+02 -8.0931723867028410e+01 -1.4666314634967938e+01 1.1118150831024685e+00 -2.1736416324990682e+03 -1.9196643351253261e+01 1.4377045221240037e+03 3.8560747961932684e-01 -7.4975394410903817e+00 3.9451973439450377e+01 2.2923132913600569e-02 8.8606167936881393e+03 1.6482652022640013e-01 -1.1441048380376712e-01 -1.0320575660818031e+02 -1.9188349773483196e+02 -9.7657645372257242e+00 1.0919928962263466e-02 -7.3424425566313359e-02 1.2999257129357937e+02 8.2176805258691559e+00 -1.6857785548836546e+00 1.4767792302426965e+00 2.5113117008957997e+03 -1.8558106219163889e+01 2.7947920441701149e+03 3.6640184171372081e-01 2.6976264231677033e+02 2.5948273223078658e+01 4.4874515934166430e+00 4.5528276295511614e+02 5.3642929900196084e+00 -6.3697762122535542e+00 1.1664444678184864e+03 1.0075576390694230e+03 -7.3118166346438215e+01 1.7896489807579281e+00 -1.5086883327763796e+00 1.1090440987129477e+02 -2.6398329672519731e+02 -5.7192025791304104e+01 6.9917552307702522e+00 -6.6786309260831331e+01 1.3901739601686825e+02 -3.4741167754887488e+03 7.5587819488627943e+00 1.1621684462555677e+03 -1.7534430130152217e+01 -1.2388890481992890e-02 1.2860646007014013e+04 2.6678611597132730e-02 1.0651974230805493e-02 -8.6545060525193634e+01 -6.3617340784454973e+03 -1.3034081546450206e+01 3.1725780602878184e-01 5.3836936887166217e-02 2.5256017911354547e+01 -6.8794462536305989e+00 -2.7442699637568158e-01 -3.5553905947293164e-03 1.1640427706392200e+03 -2.2682478607053795e+01 5.4591002126721833e+02 3.0064654350318742e-02 -8.4524361238064955e+01 6.3746852074462822e+03 
      </Row>
      <Row Index="79">
        -2.3159213515575150e-02 4.1424341896334482e-03 -3.8303998873743694e-01 2.4834607727695079e-02 1.4476560853313947e-02 -1.5244993885607983e-01 -8.4245270825340413e-01 3.4443874453904400e-03 1.2798293916089668e-02 1.5708126968667521e-02 -4.3555828984153777e-02 4.6792904069661745e-02 1.9219438418076606e-03 9.8013709937703197e-03 7.6668471928702342e-01 7.3734651896302239e-03 -2.5741117383586243e-01 -4.1126243498620596e-02 -4.1864588549287873e-02 1.1262448136221792e-02 -8.4356230483706440e-04 -5.0333372354725725e-01 -8.6234896125958471e-04 7.5060545969307668e-03 -1.8602619237935869e-01 -9.7964381029737524e-01 2.5946976638806518e-03 1.5340083000303650e-04 1.4279013548268438e-04 -7.8364385063856901e-02 -9.9477778094296809e-03 7.8297234673527782e-03 4.7379947110499643e-03 1.4615164677480408e-01 -2.3998505144845694e-02 2.4254904161134618e+00 1.7377710312189265e-02 -3.5530204983940022e-02 -3.1850411348727903e-02 4.6338942087071899e-03 -3.9536518467448545e-01 -1.2368753197367965e-02 1.8565798025171887e-03 2.2303186184581136e-01 -3.0565689274226315e-01 2.2516418178674235e-03 -1.0147131176396762e-03 1.0272699801783247e-04 -2.2911234138375391e-01 5.2637918193795485e-02 -1.6482930304164256e-02 3.4051976745680342e-02 -1.9498577136332642e+00 4.6951964680416736e-03 1.6330991940477837e+00 1.3804231117402921e-02 1.4075852674620259e-01 -4.6088547904811650e-02 -2.8236240220795850e-03 -6.2261386336649593e-01 4.5947510105412093e-02 -3.9936626742614334e-03 1.6261393648164812e-01 1.3405632310241344e-01 2.8869526363450859e-02 -1.6968062181405008e-03 4.4054623661908821e-03 -6.0234361088208344e-03 -6.9700586216185911e-03 6.2806373612431798e-03 1.0042796865150194e-02 -3.9911672409042698e-02 6.3041397618484041e-03 -7.8388178358943605e-01 -4.3343035427838572e-03 -3.6179754111552137e-02 -4.8677389922943348e-02 -7.4852354637133800e-03 1.0438728942972375e-01 2.3197305083665731e-01 1.0513813809220028e-02 1.4199867157012186e-02 4.7246023977094609e-01 -2.1506174105876082e-02 -7.2601072573078430e-04 -6.4699600971477060e-03 -1.6969173874666410e-01 -1.5474376188649330e-02 7.9961538574595536e-03 9.0157789288520251e-03 4.8681121292205614e+00 1.1384304130519496e-03 -1.6044289934289182e+00 -4.9874345990030461e-02 -1.1430104925238993e-02 5.3425362250816399e-02 -2.2704145467954788e-03 2.9856140097336947e-02 3.0776576022172368e-02 -3.2174378934772315e-03 2.0001949840640521e-02 4.8513425400605126e-01 -9.6296116805416609e-04 -1.7891652902849702e-03 2.0828377298147062e-03 -7.0670175875420682e-02 -3.3289999822336824e-02 5.8210953924364151e-03 3.1765133785649782e-02 -2.5240416129818186e+00 2.5993177585660554e-02 -7.0281729089049350e-01 -3.1780000288284954e-03 8.3451071521267295e-02 -2.9460361203803132e-02 9.2711776520057829e-03 -1.2982175969392458e+00 1.8907375026609684e-02 7.8389691230704465e-04 -2.0806771023409709e-01 2.4025959007923392e-01 -9.6173396168125773e-04 -6.9600331710485621e-04 1.5977401548862588e-03 -1.8510174062709656e-01 1.6726954058392973e-02 -1.7841990229600591e-02 2.4905905137983027e-02 -1.5221979031193769e+00 5.0102462855895480e-03 -1.4135699054666873e+00 2.0432091899467140e-03 -1.3634379834822241e-02 -2.2012879245768349e-02 -3.9463566950243556e-03 -8.1623691190497993e-01 -3.3456840129854795e-02 7.7014002616406785e-03 2.7382919580759335e-02 -3.3083039941266179e-01 3.0933209486647684e-03 2.9542664639846225e-03 -2.3462464110343591e-03 2.1078959909573314e-01 -6.2256817482385679e-02 -6.4853410603149322e-03 -1.2358268748187129e-02 -7.4885685794743040e-01 -9.7737455043898080e-03 2.4557282449677587e-02 1.5994787006259972e-02 -3.8873262001288822e-02 4.2995846882230460e-02 2.3245098898396471e-03 6.6547446173690794e-02 1.1122573003810079e-02 3.6310810532515802e-03 1.2596494873187736e-01 1.3010600650936315e+00 -1.5640735391732295e-02 -1.2184169268984672e-03 1.6568088615259266e-03 -1.3622012026610134e-02 4.0934415263029322e-02 -1.4278107544519414e-02 1.4415335735286056e-02 2.1742112890915450e+00 -2.0913962231557615e-02 -1.7550383339907754e+00 8.3977558548950608e-03 -3.8456538681167662e-02 3.8895341180041676e-02 3.6552211024562919e-03 6.9987950049660519e-01 -4.2883998437637474e-02 -6.7394602109708277e-04 2.3120646240489373e-02 -1.1327615593973874e+00 4.9174366674287207e-05 2.8450145307217481e-03 -5.6814034333847905e-03 2.0150995597956189e-02 6.6067203622828474e-02 -5.9316881077609018e-04 -5.4350664407354456e-02 -2.9741318263638274e+00 -3.1600388089777443e-02 -1.0514899559415625e-01 1.3363131488711311e-03 -8.2662356847705620e-02 -5.0935334697708501e-02 5.7237798206326729e-03 2.9750841936905670e-01 9.3827947531229423e-03 9.6879479516235410e-03 -1.9626903789386896e-01 -4.6796178988949322e-01 9.9192622017847398e-03 2.4072167056942454e-03 -3.7388660496755011e-03 1.8272814115576941e-01 4.5976242919273602e-02 -7.5553654947900784e-03 -8.6992898995955442e-02 2.9525437539906747e+00 -3.4844359237700129e-02 2.7424043729062553e+00 4.3483358523327756e-04 1.5613182752382748e-01 -1.2663820217465593e-01 4.2367753672518660e-02 -1.8972084445906212e-01 2.2960305044167836e-03 7.7799857440579712e-02 -6.3248707270184212e-01 1.5565961015322038e-01 1.3644857231755125e-02 2.2251734729269876e-02 -2.5756231542417948e-02 1.2465990154354838e+00 -6.8568594661887694e-02 5.8029087722630823e-03 -2.2292681240784651e-01 -1.5159355684823628e+00 -1.8970156824126594e-01 8.9896068734940116e-01 1.9865254573457336e-02 3.8811429163786076e-01 6.1581367307516274e-03 2.2088956342665889e-04 1.0080868084421724e-01 1.3516267481927958e-02 1.1683652954978081e-03 1.0572671573117809e-02 6.7599462608949590e-01 1.1973752630921174e-02 1.7021792854263708e-03 1.2293609354960886e-02 1.3110100505342670e-02 4.8828236551540782e-03 2.8183874301984102e-03 -7.2990808350157201e-05 1.7838324228093185e+00 -5.2092949500563979e-03 -8.9139161249198651e-01 4.6192045473852457e-03 -1.0884401934201815e-02 -7.0515865464503968e-01 
      </Row>
      <Row Index="80">
        -4.0612492928045363e-02 -8.0645655897004787e-04 2.3319057998014614e-01 -9.7525655459163474e-02 -5.3349452084729876e-01 3.1649734416714637e-01 -1.0146690189721994e+00 7.6375807659756489e-02 3.0885658940822763e-02 -1.6136910843515481e-02 -5.2727064605551277e-01 4.1490253015217604e-01 -4.0578439778983011e-02 5.7665281090720555e-02 1.2110724577945575e-01 7.3774822353698255e-02 4.5248988165985793e-01 -2.6661335522604190e-02 -1.1557449947122223e-01 1.1230223152870167e-01 6.8992456299667992e-02 2.9120872771818540e-01 -2.4842991755438248e-02 6.0851333142371722e-01 -1.7177960829576477e-01 -9.8912551961484496e-01 1.6488884084537858e-02 -1.4816833094762671e-02 -1.8773880097675111e-02 -4.4183599152276543e-03 -1.8151250777373207e-01 2.2185809621532826e-02 -9.5511560680520802e-02 -1.0511498228298350e+00 -8.7729058650438674e-03 -1.7945710665808292e+00 4.2642601909335554e-02 6.9679189286300389e-02 1.0238715488185335e-02 6.7393659945736317e-02 -1.4820342189604929e-01 -2.2012198812412009e-02 1.1039950630653479e+00 9.6122525574173778e-02 9.5496336085489020e-01 -5.5513674778598553e-02 -2.3189653634272389e-02 -1.8956597717007639e-02 3.4437929003523493e-01 -3.6432915137993405e-01 2.2077931719650223e-02 1.1548644656976309e-01 -4.9655681263266160e-01 8.5366341977870519e-03 -3.0880567734324700e+00 3.6930960102125709e-02 8.5827249988412291e-02 -6.7652804285366130e-02 1.2870652626048695e-02 -3.3960310828842921e-01 7.3260616934032186e-02 2.2448394240455039e-01 -1.2559115668409504e-01 2.8650280863221269e+00 3.2050369554326608e-02 -4.2870197151478884e-03 -6.3548300806193225e-04 2.1641703654427324e-01 -8.0673364910580858e-02 -3.3466960216856023e-02 -7.5001321400005594e-02 8.2458660932360317e-01 -2.3760060350085155e-02 -5.8065895804327852e+00 -1.6294024677861785e-02 -2.4228146691768870e-02 -6.1408582184753868e-02 1.0740343878576297e-01 2.6920181635068730e-01 1.0513813808593397e-02 2.1991997290647198e+00 2.2507508351963246e-02 1.2187575160688624e-01 2.1987134204818459e-02 -2.1047897867076969e-02 -3.3057766074062619e-02 -1.7661817481926079e-01 3.0581134086604322e-01 -9.1077998975369390e-02 -2.3883803045896460e-01 2.4555868102971967e+00 -6.9032252093808921e-02 -3.3449732819657925e+00 2.4248083754598665e-02 -1.3495238333416637e-01 1.0402099852283442e-01 1.4552076370794238e-02 -4.4325755298015679e-01 4.6342171437645144e-02 5.0331024203370078e-01 -1.8350758596272065e-01 -1.4014000415769301e-01 1.3671133967859961e-02 -1.1334627323267156e-02 -7.6506151086326319e-03 3.4263820890919305e-01 -2.3578335006547491e-02 -4.1151199900728574e-03 2.7439757938961640e-02 -1.5540771557716653e+00 -1.8120122713834785e-02 -6.4065291242390572e+00 -2.5260093005574705e-02 -1.7286056438751984e-01 -7.9610101034205627e-02 7.5029114396460733e-02 -2.7752532167112776e-01 2.8551411806317949e-02 1.1731074623014252e-01 -1.1617004611146697e-01 -4.2478742676215049e+00 -2.2497502137093034e-02 -7.6444707418767324e-03 -4.8123685323526264e-03 2.8487045425384272e-02 -1.4002493783144310e-01 -4.3275170025542681e-02 -4.6917750028785121e-02 -4.6988750156015158e-01 1.2579558978754291e-02 -2.2043179803838067e+00 1.8105122240840085e-03 1.1324138548211637e-01 -4.2742100469162311e-02 -3.0142257243385207e-02 -1.5593967340009840e+00 -7.2142984059664170e-02 -4.6472010116083429e-01 -9.0357111591401917e-02 2.9250084795057774e+00 3.7375069099198299e-02 1.2625272751770221e-02 3.8774775505275010e-03 2.5179436946564238e-01 2.8492134455473550e-01 4.3799257378638573e-02 1.3716024086522793e-01 2.2195749496495409e-01 9.7741024437709711e-03 2.1016685151262209e+00 6.1186194138313894e-02 1.9113364665827248e-02 9.1163841781482791e-02 9.8615247408406603e-02 -5.7892464266458177e-01 1.2892096837798439e-02 6.9518275602572688e-01 -1.9068008022311789e-02 5.1988502199606756e+00 -1.4996751504405026e-01 -1.7686140067904980e-02 -1.4205621457976922e-02 2.1433109886911861e-01 -1.4298679208142673e-01 6.3431316126821014e-02 -2.6505314890228636e-02 -2.8645897084061289e-02 3.6349249124260824e-02 -2.8414365246924120e+00 3.5251993821320896e-02 2.5382860515950711e-01 1.3601191049400185e-01 -1.3693988941797475e-01 7.7367574955545937e-01 -1.1694568070965919e-01 -1.3258993403517625e+00 3.2772878867325872e-01 -2.4853261618705265e+00 -5.2063118828719890e-03 2.9138026267552176e-02 1.0867786714307916e-02 2.9918936807445107e-01 -5.3938767030899570e-01 -8.1163092974376738e-03 -9.9353516599410330e-02 1.2043142884643032e-01 -6.0830945251473367e-02 -3.1688090617931053e+00 4.8232694477307471e-02 -2.3399541697131099e-01 -3.3006613222211989e-02 8.0951351147266343e-02 1.6468501637698107e-01 -3.1531020683070246e-02 1.1229830405341351e-01 -7.9508818437870232e-01 -6.8145922595945052e-01 -1.2297923758923801e-02 -8.7189170352235598e-03 -6.3200097719518684e-03 -1.3857347485204730e-01 -3.7766927046575915e-01 -4.7621431259773250e-02 -2.9697439648257229e-01 -5.3711086479077430e-01 -4.3650123096888205e-02 3.5986612383927721e+00 3.4305227964202122e-02 2.5389827947479482e-01 2.7915971043183818e-01 3.3886113309569876e-01 -2.3670593521936922e-01 -7.3164293146538717e-03 -7.1189752344451940e-01 -1.6541498850711633e+00 -1.6945129338800058e-01 -1.2149217815525759e-01 -2.0715017063173389e-02 -6.6832548651275775e-02 -2.0876480682879617e-01 3.0193749194727104e-01 -1.2592926615805666e-01 -5.8710874652918843e-01 1.3776617904348392e+00 -1.7229633151731605e-01 -3.5019720228516960e-01 2.4230496336009599e-01 3.1762274668717794e-01 4.9156593144416394e-02 1.2693306775403018e-02 2.7294977447334929e+00 8.7816042449649981e-03 6.6092098053465748e-02 3.0908547123429386e-02 -1.5383547256874777e+00 4.3881759699766258e-02 2.6266135446601632e-03 -2.3993678153297504e-02 1.2737705694541690e-02 -2.6963716451104736e-02 9.1892690529115084e-03 -6.6572098072918608e-03 2.9677824353761473e-01 -4.2424632787543270e-03 -1.3529731727589365e+00 6.8410604214704050e-03 -6.5008553847487605e-02 1.4838705981538218e+00 
      </Row>
      <Row Index="81">
        -1.5345464228687717e+01 6.9874892509300679e-01 3.7318687851121649e+02 1.6733433438288614e-01 -1.8603548966456174e-01 -1.3553746767181437e+03 3.7484588920138776e+01 -1.5217338066303697e+02 2.0352874686311981e+00 3.7020678928550604e-01 -2.4850584927226009e+00 -1.7228081307985121e+01 3.3112563184273313e+01 1.2108324714486116e+00 1.6891787801085341e+03 2.5060805425593571e+01 -8.7655534045491368e+02 1.1802723998656575e+00 3.6687408810896159e+01 7.1633809240134724e+01 5.5374632669213497e-02 2.3574143294155656e+03 -3.1621170668898912e-02 3.4286485486461515e-02 -5.0847146537317894e+02 2.8890717147794203e+02 -2.5031827156926738e+01 1.1405064189398217e-01 1.3235388599518672e-02 3.6727585589112050e+02 1.2452047775936080e+01 -3.7934461287815793e+01 6.6275482647483841e-01 7.2206176226326238e+02 8.7696030138977221e+01 -3.2074863701537251e+03 -6.2875689917791533e-01 -1.4014804211303024e+02 1.6996934166265419e+01 -1.5517154012559331e-01 5.6265013232074330e+02 -8.4759577079125847e-02 3.1298138387529661e-01 4.4181633375154343e+02 1.6355911612324417e+02 3.6212432737962779e+00 -2.1172262674163278e-02 1.5804249923434099e-02 -9.4844482401199215e+01 5.0541387268065591e+01 -2.1214231154754088e+01 -2.6001301588699492e+00 -2.5144244509744749e+02 -2.2735483624886509e+01 -1.5787479200088756e+03 -6.2270032565874089e-01 -1.0873854149054017e+02 4.9574264008654900e-01 -4.0701576713416898e-02 1.4590133039993816e+03 3.2239258305637009e-02 -2.7847944896711496e-02 -5.5776309509330895e+02 2.8836318685766309e+02 -1.0220361807907102e+02 5.1916796562686329e-02 3.0119570210839441e-02 -6.7264203275046134e+02 -1.0705349957108410e+01 -2.0793813817817863e+00 7.3712311183734869e-01 -8.6004590406779653e+02 1.8392727244113019e+01 -1.2233629186959329e+03 -1.5257521993703449e-02 -1.1547060283003741e+01 -6.1310111269348454e+01 -3.5143965248028053e-01 -1.0128816856350750e+02 1.4199868828086437e-02 2.2507504768356057e-02 3.6026351150645492e+03 1.8173166243148358e+02 5.4748929022612671e+01 5.8020480892954052e-01 8.0408740915729845e-02 2.1499385846627461e+03 -5.5715785370500441e+00 6.5163085016996590e+01 1.8429207697778163e+00 1.3908368775549045e+03 5.4495546254825541e+01 -1.1147787510645558e+03 3.4600664194563657e-01 -7.8433715083403513e+01 6.1549980540272514e+01 -4.2142028973074230e-02 7.4384552003334306e+02 1.1900738380662246e-02 -7.9792635658581246e-03 -1.6690554452601134e+03 5.9579223622029622e+02 2.0093232970350783e+01 -3.8101868643752701e-02 3.8470388456366612e-02 -2.4966232178686187e+02 -1.2484752078009677e+01 -2.1505427607848446e+01 6.2762254406553264e-01 5.8310456998227164e+02 -5.7856919665806920e+01 2.4994157436827112e+02 1.2099048926095524e-01 -2.3999490567739122e+02 -2.0187396837070082e+01 7.4980466118699329e-01 3.5932396238341325e+03 -1.4117126726538770e-01 1.1757440288913326e-01 -2.7913217317211434e+02 -3.2370925004853632e+01 4.6948943101667346e+01 -3.9086330788809617e-02 -2.4945716299836370e-03 9.6905215602051300e+01 4.9426650332321582e+00 1.3211909448574644e+01 -2.4536159358791743e-01 -2.8699381798086688e+02 1.0764027896599828e+01 -1.7067967179952138e+03 -2.6932472338618019e-01 -1.8211341335177117e+01 -8.2453397126338039e+00 -2.5700173226218470e-01 1.3871171079569613e+03 -6.2461394562979777e-02 -8.8125387015528078e-02 8.0963054847526655e+02 3.6226407937705517e+01 -9.0766044613990744e+01 6.8710546319458707e-02 9.3055890724152469e-03 -3.1121103180731006e+02 -2.7026898473446948e+01 -1.5213007782238568e+01 -7.4135330916669773e-01 -1.4390085651886766e+03 -5.1929709664545953e-01 9.8547841502539814e+02 -6.2937766844362109e-01 -2.8304319089511409e-01 1.2002396100745180e+01 -3.4649911974802650e-01 6.5055880948463209e+02 -5.4029981803931337e-01 5.1131335276456158e-01 1.9694600849450703e+03 3.4868425113519010e+02 1.3205766631468970e+02 -9.8550673073364028e-02 1.4362097473559193e-01 -1.6112473000562403e+01 2.1040580827005670e+01 -1.6326849246872669e+01 -2.1390414991423676e+00 2.2703232169063995e+02 4.5268846030834816e+01 3.4736209039961045e+02 1.6770506132034020e+00 2.1000754571685569e+01 9.5324971015015080e+01 9.9960876219107292e-02 -1.2197527142742124e+03 -2.4882391269570259e-01 -2.2731047126312728e-02 2.0887078093308373e+03 -1.1784184427131700e+03 3.4285524640753238e+00 -1.7344172040748319e-02 5.1062837703394780e-02 5.4860059213308773e+01 2.2008400985416856e+01 -9.6562760267653189e+00 -8.0166601566727547e-01 -2.0085943162687654e+03 3.0462709326147905e+01 1.3623667747629586e+03 2.8357347149997036e-01 -9.4803338494398758e+01 1.1807296057174760e+01 -1.7111455949993462e-01 -1.2579169210970144e+02 -1.1289509280966906e-01 2.1984813047340609e-01 -1.5012204309790218e+02 -6.6902191386707227e+02 -2.2899757397042514e+01 -7.5063449156232101e-02 -7.2468747405840944e-03 -1.0238148751693725e+03 -5.4120044492989962e+01 -2.7403966963763530e+01 1.2833305417279357e+00 -1.8629164629807674e+03 9.2644503773089070e+01 2.0918316912245623e+03 2.6403566568144388e-01 -6.6669094193809656e+01 1.9810775930513677e+02 -3.5239726547323151e+00 2.2037805106882149e+02 -5.1166867365668365e+00 4.6023761280635380e+00 2.3031948103566601e+03 1.9892413184682709e+02 -1.5724523529178765e+02 7.4036651807455467e-01 9.5900246668185396e-01 -4.5228566297674743e+03 -9.5037817327099873e+01 -5.0965105286375241e+01 -2.2454021045009540e+01 6.2502383590222507e+02 2.4257582124379695e+02 -1.7635838216187065e+03 1.7768195714357759e+01 -3.9160429516350518e+02 1.7512718300606704e+01 5.3529382290831214e-02 3.0485775756741532e+01 6.2510824987004228e-03 9.8384236341160138e-03 -1.7286349687413110e+02 1.1741421795992038e+01 -9.8955491864243911e+01 5.2047133392780998e-01 2.2610155665639736e-01 3.6028393141366990e+01 1.7217526511574960e+01 4.4771042801659764e+00 3.8638186327809604e-02 2.0747669933100824e+03 4.5025793071625031e+01 -8.1298917399252196e+02 -3.1918703684458594e-02 -1.8922844432451715e+01 8.6945105195915346e+01 
      </Row>
      <Row Index="82">
        -2.1535993621910166e+01 -1.5627991410146933e+00 5.4925495159626007e+03 2.9619548999471590e-01 7.9285653957776958e-01 -1.5196406173706055e+02 4.4294389759063721e+04 2.2951304165966576e+01 2.6674997020993110e+00 -8.7993624569385009e-01 -6.3274671373888850e+02 1.0802474084496498e+02 -1.6787522614002228e+01 1.9072836870327592e-01 7.0566379110688376e+02 1.7106636427342892e+01 -8.7159567422866821e+03 1.1969614176196046e+00 -3.0579294011741877e+02 -4.3788003712892532e+01 1.8729480239562690e-01 2.4933596528768539e+03 8.8113127945689484e-02 -1.2419667393260170e-01 5.0393110871315002e+01 5.8108085397414863e+04 8.0722622781991959e+01 2.7268233941867948e-02 -2.2088835161412135e-02 7.2658136753470171e+02 3.8856822386384010e+01 6.2628658264875412e+00 2.2800496019772254e+00 1.4801522668843681e+03 -5.3085825413465500e+01 -7.6041017836332321e+03 -9.2599608108866960e-01 -2.3925966956393922e+03 1.8511442692950368e+02 -1.3591021082538646e-01 5.4280460205858108e+03 4.2958727484801784e-01 -4.6311505429912359e-02 2.4629057633876801e+02 3.9128139584779739e+04 1.3361757048443231e+01 -2.1339759657712420e-01 -3.9252860973647330e-02 5.4177772502129701e+03 -1.5260083474218845e+02 3.9631000731140375e+01 1.9388487142267010e+00 -9.6210589458793402e+03 -3.1466067660237053e+02 -7.3019811472934271e+03 -2.7376365623786114e-01 -5.8633938220665141e+02 -2.8116671342754103e+00 9.2605121285305358e-01 1.9133890873193741e+02 3.2102890108944848e-02 -1.8723864580806548e-01 4.3824662327766418e+01 -8.9306162903308868e+03 1.1249977974966168e+02 8.8586170684720855e-02 1.6950589157204377e-01 -1.8923077828548130e+03 -2.1909400958567858e+02 -1.3990544670261443e+01 7.4036382019403391e-01 1.2219529504638911e+02 -1.8823120537272189e+01 -4.2027128646921101e+03 6.9421280815731734e-01 5.3929315069163124e+01 3.3350021593272686e+01 2.4179297784576192e-01 -2.2812259631156921e+03 4.7246023628395051e-01 1.2187576988799265e-01 1.8173163679707795e+02 9.7624115093581530e+05 -7.8492594980945313e+01 5.6610723925117601e-01 -3.1771702977079658e-01 2.2417776788247938e+03 1.2727157217167428e+02 1.8470616410135644e+01 1.9512054465108601e+00 2.1135051827074881e+03 -1.0074285345518850e+02 -1.0172681909410380e+03 -1.6284244015156701e+00 3.8718551814556122e+02 -8.1290198342538638e+00 -2.3107403420571693e-01 -2.1182070187515492e+03 -2.2478469598109885e-01 -2.5812620070433329e-01 -4.7046692822701169e+02 -3.2977923726350200e+04 -3.8335067757775278e+01 -2.0576623584431458e-01 -1.3312301976796381e-01 2.8839143843650818e+03 1.7421283498661859e+02 -1.8379150242939915e+00 -2.4271394919627229e+00 1.6374223299026489e+03 2.0029664845925672e+02 -5.2993004048109779e+03 -1.5398671267552952e+00 1.1820361125469208e+02 5.4571081240428612e+01 -9.0174113365971964e-01 -2.8170088804101251e+03 -1.1905793792895469e-02 -6.4113524080624640e-01 -6.9820947550388155e+01 -8.1140377338598773e+02 1.0087227907839728e+02 -6.0517059062643791e-02 -1.6620464577817157e-03 -2.1364004007559743e+01 -1.4359621693145101e+01 2.4791579178053219e+01 2.2732320784053117e+00 -1.2543619632720947e+01 -1.0545933063954186e+02 -6.8406621661875652e+03 -9.7963865608747425e-01 4.2763308394899013e+01 8.8395281736563174e+00 1.4632931850316311e-01 3.1176103247476858e+03 4.3293978029908625e-01 2.4253758841793802e-01 5.7686772823333740e+01 -7.8938032226562500e+03 8.5984832160174847e+01 -6.4550454621368436e-02 -2.7001830638811974e-01 -4.2109364584088326e+01 1.8452681152043900e+02 2.2536914061990672e+01 -2.8151185661554337e+00 1.4925742387771606e+01 3.1514723286032677e+01 -3.9465509223937988e+02 -8.7163446856585447e-01 1.0326189452409744e+02 -7.5693543993631920e+00 1.8090765386984026e-01 -2.2269906898903886e+04 -8.3152378806951333e-01 -6.1178096944572324e-01 7.3626588065588282e+02 -1.1938016549750948e+04 -1.8538907530983306e+02 -8.5080552066278692e-01 5.9372292425608167e-02 3.1584848793024998e+03 -1.0477169401293548e+02 6.5245828333082756e+01 3.7282587678064427e-01 2.5892398012578487e+03 -3.3853907388053960e+02 1.3584840670620511e+03 4.1164042329123807e-01 9.1027340317104404e+00 -7.0294445359000932e+01 -3.0345594009956522e-01 3.6872541242608968e+03 1.6113059624490822e-01 1.3574314939417359e-01 9.7236568072434216e+02 -1.3937267525534542e+04 4.5192882856410478e+01 -1.8215625751975381e-01 -1.6746216885260129e-01 3.4274900357970137e+03 -2.6830239833152569e+02 -2.6868111530732293e+01 1.9047488883748649e+00 5.0270130615612106e+02 -2.8504263534282103e+01 1.4129598440457439e+03 -9.6193378043534516e-01 7.9807158123650737e+01 1.6725178430968992e+02 1.3491771223797566e-01 6.9963979591516436e+03 1.5456047273197390e-01 -1.4487418711822508e-01 9.1788828673069520e+02 -1.9344915482479119e+04 2.6755358097481139e+01 -3.1751431198326646e-01 5.7340849306324382e-02 -1.8961908097242269e+03 -2.4460097439790258e+02 2.8248365740942347e+00 5.0353204445050839e+00 -6.8241794984243620e+02 -2.8639437449819565e+02 -3.3182879513022954e+01 1.6919037489112263e+00 2.7678580336507844e+02 5.2152542868044850e+02 8.9876956184703127e-01 -6.2113079480235160e+02 -6.6558886877150192e+00 -4.1458185351810108e+00 6.8368220737371339e+03 9.6750702116570064e+03 1.1155692666487445e+02 -6.0185121380242386e+00 7.3043701632131453e-01 2.5816616080798085e+03 -3.9564001110553704e+01 -3.5320039585032177e+01 2.3104582855275453e+01 7.6948436583010644e+03 -7.3892685147365398e+02 -8.3425945818608989e+02 9.6661063940040322e+00 3.5913965293668257e+03 -1.0258947940665479e+01 -2.2752757051650141e-02 2.1011452822010469e+04 5.6088762416635046e-02 -3.2842543402347019e-04 -3.6278151222696728e+01 1.0646713446548190e+04 2.6058746134465906e+01 5.7894543026689793e-01 -6.8996486780759214e-01 8.2924825191731475e+02 -1.3799668130693810e+01 1.1044815109736291e+01 1.1974392530460919e-01 2.8250673904097293e+03 -9.1036263439139844e+01 -2.1109413804439828e+02 1.2263627628469070e-01 -2.6210043680315437e+01 -1.0672345916422597e+04 
      </Row>
      <Row Index="83">
        1.5456089984946288e+00 -5.6624272815867016e-02 5.8055576840415597e+00 2.2131362880827510e-02 6.7250050371825409e-03 -1.0422419856069610e+01 1.4800923817977309e+02 -1.1272551722189348e+01 -4.5404055309410274e-02 5.0725978469785371e-04 -3.7677065015304834e+01 -6.3218060100916773e-01 -1.1485947237233631e+00 2.2400236211979063e-02 7.1823990611742055e+00 2.6279156272648834e+00 3.6975232064723969e+00 5.9489509942523000e-02 -2.0545258959755301e+00 -5.3504262136993930e-01 -3.3743397671059938e-03 1.2345581942936406e+01 2.8723329694457789e-03 -5.3448399074795816e-04 1.2403726548887789e+01 1.8074272949763690e+02 -1.1818009130656719e+01 1.9921209479889512e-03 -1.8731639616476059e-04 1.8723467996862837e+00 -1.3055929307593033e+00 -4.2828608790441649e+00 1.3561135118379752e-02 -4.6449117477125633e+01 4.0474407962756231e-01 -6.0029173435177654e+01 -4.4898116203057725e-02 -3.6084524743481872e+00 2.8550511778739747e+00 -6.3315393309721912e-03 1.4190084096667533e+01 1.8954566094180336e-03 8.6826312212906487e-03 -3.3564047539839521e+01 7.5304509073495865e+01 4.6308398958479566e+00 1.7964268296566388e-03 -1.0776191010108960e-04 1.8621431265757138e+01 -1.8514741585240699e+00 -8.8333289703587070e-01 -2.3086563296198188e-02 -4.6977852045907639e+01 3.6883184682415188e-01 -3.3692651428477319e+01 -4.3226623368127548e-02 5.0520733269931810e+00 3.8706817862370744e+00 1.5586276922476827e-03 1.3175598764093593e+01 -1.7469469249590475e-02 -3.4538734909617119e-04 1.7604455072432756e+00 -3.6151128399884328e+01 -2.2788764582728618e+01 4.6650494887501281e-04 -1.2421741328836333e-03 -1.4393349216467723e+01 -7.4387312319595367e-01 -1.6330443177612324e+00 5.4030768574193644e-03 -1.2261853335577847e+01 1.9607806657045330e+00 -4.0839609243028832e+01 -3.1492510197494994e-04 -3.3451550766280280e-01 3.1400881990921334e+00 9.7875693257947205e-03 7.7212562235072255e+00 -2.1506174040723636e-02 2.1987134119626717e-02 5.4748928916862496e+01 -7.8492593755945563e+01 2.4471784360508202e+01 -1.2351813587154471e-02 2.4228700719203908e-03 4.9821808361473723e+00 2.4727366777516129e+00 -4.8682526328338191e+00 -1.5552554117600786e-02 9.0441844791563966e+01 3.7279901880610624e+00 -1.9684935661647705e+02 -5.6553269134860529e-03 -1.9652644451707602e-01 -2.0978179814792663e+00 6.8323382651032964e-03 -1.1330197257041107e+01 -5.7806377271804946e-03 -4.3184635478409408e-03 -2.1014638666399243e+01 -1.0016250963177886e+02 5.5872140088083375e+00 4.8638813555953585e-04 -1.5916772399076854e-03 3.2215156685560942e-01 1.0888057565092644e+00 -1.5686845473352662e-01 1.5395715481384017e-02 -1.5949009343236685e+02 -1.6898112201083524e+00 -7.8087328402028476e+01 2.3122265161247879e-02 -2.4154178039170802e+00 2.9889446904562647e+00 -2.5870225806660638e-02 -1.7616916159324632e+00 -1.9236031625992116e-02 2.2637741244590781e-03 -6.9359977063767190e+01 8.8094015457184554e+01 -3.3879264366478679e+00 -1.5926172862613945e-03 5.1695474581115819e-04 2.0490293813703275e+01 -2.2730330447432046e-01 5.3567937482946739e+00 4.3630099002406025e-02 7.7888010013848543e+00 1.7232516231439479e+00 -5.1119719058075361e+01 -1.5606176623714769e-03 2.2930687382172801e+00 1.8409651115048777e+00 -7.4936262720103480e-03 2.2593608598208448e+00 1.0309138410507014e-02 1.1828396951153043e-02 1.8987043986155186e+01 6.3701634407043457e+01 -1.1838738098696922e+01 -1.8677519534504483e-03 -7.9434297612050882e-04 -1.8798495606461074e+01 2.8730540423250477e+00 -2.1600897563518648e+00 -4.1852071361063281e-02 -8.2440478292410262e+00 2.6430368912406266e-01 6.3609682850539684e+01 -3.5906249319149354e-02 -5.7937314966693521e-02 -5.3166421703160012e+00 5.9135419463000459e-02 -1.5265601975799516e+01 -3.1668763154726141e-03 -3.9553419422935915e-02 -2.0266750444562014e+01 -5.8495802775318374e+01 2.6646553518879657e+01 -1.9251040712618083e-02 -2.7908056267381296e-03 -9.4940522598780808e-01 -3.2162103511799103e+00 -3.1141600731197805e+00 1.3511305005137636e-01 1.8098585981060751e+01 1.4889150007615433e+00 -3.3147996724597888e+01 2.9675418159605633e-02 -7.7433231228586663e-01 -2.1567231349006724e+00 -2.2391219751707769e-02 -4.7773806187455037e+00 1.7643767504268437e-02 1.9352123070948420e-02 2.9328009997083420e+01 4.3732396835480159e+01 1.4607088731394420e+00 2.3829668158053489e-04 1.9351387026054145e-03 1.6964825508642775e+01 -5.4716464706856911e+00 3.9615382705798807e+00 7.0766938507523663e-02 -2.7777582508365768e+00 3.5670845739600399e+00 -6.0796195387657221e+01 -8.8103146803710092e-03 -1.1152067681757138e-01 2.5230437487869768e+00 4.9634701796583656e-04 -9.0103196291943277e+00 -4.3036749655571476e-03 1.1168524076418966e-04 -2.6914022126761353e+01 -5.3903838563089664e+01 -1.1636449869667830e+01 4.2498205591679000e-03 1.0066043540591383e-03 -5.3918961043670492e+01 1.1861355157823148e+00 -1.9169213664029485e+00 3.8056952548583774e-02 -9.2710831701005816e+00 8.3560236669833188e-01 1.1941935392398573e+01 -3.6516303312100290e-02 1.6934560175906119e+00 -4.8458967726308479e+00 4.0579869500675159e-01 2.8732974725941816e+00 -1.8990142687431016e-02 -2.5782650653999017e-01 -6.2684101375361337e+01 2.4695709314691356e+01 -2.5975999293619935e+01 -1.8488370283012423e-01 -1.4874907519076830e-02 -2.3075966588811053e+02 -1.4114540538554815e+01 4.1356401766776925e+00 1.3547052216623001e+00 -8.5260906880365894e-01 6.9408915418162831e+00 3.1440766405953052e+01 3.0704189603779675e-01 1.4783793084329254e+01 -2.4991868031712858e+00 -1.3807382557144980e-03 6.2053232067848185e+00 -6.5314311046380377e-03 -8.1787879425436743e-04 -1.1461042915974126e+01 5.2147133563986380e+01 -1.1548992377947290e+01 -2.7891316655815233e-03 -1.9241093610948916e-03 -1.5406010100280563e+00 -8.3801446645808564e-01 -1.9732125523664483e+00 6.4421000063498088e-04 1.3959118192275454e+01 1.7934596577589801e+00 -3.1488014106301989e+00 -9.6301068095981657e-03 -3.2787494517737859e-01 -4.0586077515171205e+01 
      </Row>
      <Row Index="84">
        4.2942926312973473e-02 7.9513986387569791e-02 5.7244471710873768e-02 4.3189666521952219e-03 -1.1227759769648848e-02 -9.0325416065752506e-02 -1.1799296747485641e+00 1.6616589513862579e-03 4.4636127529955733e-01 -7.7496102859655830e-02 2.4568048502260353e-01 -8.9140474181476748e-02 2.0668191637014388e-03 7.9698384777870501e-02 -7.5108480223776368e+00 -1.4026003725120972e-02 9.5432132587302476e-01 -1.1813940493375696e-02 -3.4003303712779598e-02 -8.4298038531414932e-02 7.2036453796897604e-04 -4.5873584578293958e-01 2.3068629403653063e-03 -1.3543920957610922e-02 -8.8250106564373709e-02 -1.6745679329706036e+00 1.8568145169410855e-03 2.6252507164254979e-02 -6.9251574677817729e-03 3.7004647094065035e-02 -8.3217530198453460e-02 -1.4768304148446987e-02 1.6083216594154237e-02 -2.5425199447046976e+00 -6.3625533484810148e-03 -7.4000793884624727e-01 1.9591798719893916e-02 -3.6181946438344365e-01 6.6929919388826420e-02 8.3793289199931564e-03 4.0225345414821234e-01 -2.1953695375387383e-04 -1.6318362531578146e-02 7.6680709833453875e-02 -9.6665729087544605e-01 -8.2128017551242369e-02 -2.3317161071423342e-03 -1.5865823576786120e-03 -1.1938104296817187e-02 8.7132750868477160e-02 -2.2364713656315871e-02 -6.8976335934615413e-02 -1.8995071056497181e+00 -3.0938907679897154e-02 -4.2497594772985714e-01 1.5925979592314121e-02 -6.3136498497782245e-03 1.1961574894349386e-01 -1.1668347292118852e-02 4.2225055762173724e-01 -1.0335742176579288e-03 -5.4107650912219030e-03 1.7101977556012571e-01 1.8401583896775264e-01 4.9121507920062868e-02 7.2729690777308953e-03 4.6300838495128005e-04 3.0631806282811413e-01 4.0962407256301958e-03 -9.3363261143508680e-04 2.9224675254479138e-02 2.2997286402876860e+00 -1.7700728496187423e-02 1.4338090208890897e-01 -6.5322826473277473e-03 4.1904470313913755e-03 6.4008296147676447e-02 -4.2257962125168191e-02 3.0260336160426959e-01 -7.2601072707811909e-04 -2.1047897865676291e-02 5.8020481135520185e-01 5.6610721576726064e-01 -1.2351813576117365e-02 1.1942704170516066e-01 -1.5726668111488269e-02 1.8011356922692245e-01 7.1337932815946914e-03 1.0388194214693391e-02 7.0749809532826002e-02 -6.1579096897194674e-01 -4.3979149214904645e-02 -2.9962644709146451e+00 1.0872461400518695e-03 1.8823375474312343e-02 -1.0384339111846988e-01 -2.2649792220433274e-02 -1.9827378373314630e-01 7.5444908700922006e-04 -1.2038379921374848e-02 -1.4910029787974111e-01 1.0258343148065108e+00 -1.2391155916245261e-02 6.7174600787362430e-03 -9.8224090331718592e-04 -2.2858984880440403e-01 -5.3208265527349807e-02 -1.0480532478756729e-02 -2.5263633876018189e-03 -7.2772771626478061e-01 2.0285713198840816e-02 -1.6305344440315448e+00 -4.9537505324647024e-03 -2.8892107271531131e-01 8.4546037087818604e-02 8.9926027277566378e-02 -1.0187525063551295e-01 -1.1789815132341719e-03 4.2112891824737930e-03 4.7289036823431063e-01 -3.8668645485462783e-02 4.0502086504843882e-03 3.0678794053148983e-03 -1.2732320919246467e-03 1.5165600118018463e-01 -6.0257127887052009e-03 1.0015551165370690e-02 -2.1174312361718114e-02 1.3715821337827947e+00 -2.0166854684011578e-02 7.1700715268220716e-01 6.6073001339181760e-04 -3.5836287919215254e-02 4.3736288992901023e-02 -2.6861053322896948e-02 5.5147888739026030e-01 8.7364202088183705e-04 4.7754427505293379e-03 6.3591381704100058e-02 1.0065318820998073e+00 1.3711175884736804e-02 1.0788106254764528e-02 -3.5724534624992769e-03 -1.3327241709157533e-01 -5.7088457859636052e-02 -1.0711415856656914e-02 -3.1604672535195277e-02 3.0462028496394851e+00 -7.8013913807808422e-03 -5.6059214856941253e-01 2.1371746080430978e-02 -2.6886808158451458e-02 -1.0758109265667681e-01 5.9784438230298560e-03 -1.3665931700850074e+00 -2.5074537051953871e-03 -7.6662750432964638e-04 7.2141243344553518e-02 4.9764014249568334e-02 -1.4330831912463257e-01 -2.9479830044687447e-02 -9.7777925742063517e-04 -1.4965418180973544e-01 7.7767035498295556e-02 -2.9213982016146112e-02 -1.0572204546382901e-02 -2.0442437319288729e+00 -3.4557871054685163e-02 -3.8024663285218807e-01 8.2846705839563911e-03 -2.2889526532248067e-01 -1.3507971276861752e-01 2.7211587654783563e-02 -1.3287078448422207e-01 -3.3006330262984537e-03 3.1011568680591618e-02 1.9902099417521057e-01 5.6959408645668930e-01 -2.2346335884657176e-02 -9.2521944932860666e-03 -7.0558779572939389e-03 -2.6003842080552886e-01 1.2573174899255823e-01 1.5280017933556822e-02 7.6399561535216501e-03 3.5975097423165776e+00 -1.2564057951599733e-02 -1.3318024004387716e+00 9.7565274714385142e-03 -8.1325226738378831e-02 1.5737972192915461e-01 2.4833582101471512e-02 -4.7889504932813409e-02 -4.3095989613056388e-03 1.4672618013315384e-02 -1.6572689004528307e-01 5.4513585343823934e-01 3.2763611007649074e-02 -1.1236222119041253e-02 2.3941210701102313e-03 8.0217380298643892e-02 6.0984767451791377e-02 -1.3897727176514607e-02 4.8355337366212982e-02 -2.2561402617239210e+00 -1.3594384460517084e-02 -1.6248590529249811e+00 5.6479075245619431e-03 -3.1140758705911642e-01 1.3833184910132645e-01 1.6035067582991344e-01 1.9345250103899403e-01 -4.2308796810155702e-02 1.6081964287083839e-01 -7.9212470864310092e-01 -2.9649391812040804e-01 -2.8848644574222870e-02 1.7384196499803994e-01 6.2095832164284964e-02 -1.0703647875389777e-01 3.8717600935445873e-01 2.1916674095996437e-02 -1.4153030703475977e-01 2.6708691214518865e-01 8.2651857603499579e-04 1.4996138282537004e+00 1.6933429779556697e-02 -1.1724614777143003e+00 -4.5181956026191850e-02 4.4609805830787353e-03 4.9074444352868341e-02 2.5462897670828306e-04 -2.0629940460435378e-03 2.7692580085103113e-02 -1.1088521144430259e+00 2.0796018861797213e-02 7.1562612602008385e-02 -2.7532973980523786e-02 -4.4000027809961040e-02 -8.0150855370013548e-03 2.5110981351403883e-03 2.1388292159667498e-03 -2.6858238163751480e+00 -7.8690270848986721e-03 1.0252501480908904e+00 2.9096503218285492e-03 5.1805105598943690e-02 1.1037473821508044e+00 
      </Row>
      <Row Index="85">
        -1.9844870837810991e-02 3.8133309636456364e-02 -3.2880424878499070e-01 -1.5352095129448975e-02 -1.6018224711081389e-02 -4.7340094812511779e-02 8.1538654997120830e-01 3.5605668086501480e-03 -8.3350870830088158e-02 1.8529843004712573e-01 -6.0166649785173831e-03 -2.3296485713558468e-02 -3.2029691131981508e-02 1.1605877216080751e-02 1.0279381249897614e+00 -1.1999366654336541e-02 1.6593628957434703e-01 3.8299470430295246e-03 7.3137827513370723e-02 1.5546923451061900e-02 2.0491270153284447e-03 6.6500728380046326e-01 -5.9754077209491219e-03 -1.0736406620694305e-02 -1.8427395261142010e-02 1.0094086403550016e+00 -4.8574664140232926e-04 -3.9339886160455473e-03 1.7437275087179696e-02 5.6897606438027493e-02 -4.1744570391699654e-03 -1.5464935054048112e-03 5.8851601165396117e-03 6.0441705154663339e-01 3.1314019724248965e-03 -1.6326134659931313e+00 5.4785241936220475e-03 1.0049234941088570e-01 2.9256287730259345e-03 5.2965822453963640e-03 -2.4291760335598842e-01 -7.0905198151148263e-03 -1.7149172674425228e-02 -1.4500476816942864e-01 -3.2162170613946728e-01 -8.2709120294695189e-03 4.8938666815748211e-04 4.6535456290843838e-03 -1.2789447327541126e-01 -5.1381220623142099e-02 2.9040031313368075e-02 -4.1562489789856126e-03 7.5150789854075839e-01 3.1515276373559165e-02 1.5056770908226742e+00 2.2009171332791344e-03 4.4677692982872941e-03 -1.9273345202947323e-02 -8.1964118718134416e-03 1.8860055469508552e-01 1.8746377224896388e-02 -3.5272743162195960e-03 1.0400161270524677e-01 -2.6564820065408412e-01 -1.5025069978978678e-02 -6.0435786926749113e-04 1.4254463599756156e-03 1.1060661634458346e-02 -4.8928497947571259e-03 7.1239345380020858e-03 -5.0037371370434403e-04 -5.5668628446628521e-01 3.1729157284811349e-02 -8.8190979224513821e-01 9.4845618397132458e-04 2.8970491685141320e-02 -7.5580575638696246e-03 -3.9075511003002786e-02 -3.3048945422024190e-02 -6.4699600969939097e-03 -3.3057766073648874e-02 8.0408741141970275e-02 -3.1771703129174966e-01 2.4228700800330571e-03 -1.5726668111510592e-02 5.4522230587120246e-02 8.6807127457000810e-02 3.0318860803824066e-02 -2.3361665515817531e-03 -3.0675534232428608e-02 -8.3191094810654431e-01 2.4935716278474906e-02 1.2649664499976652e+00 5.9264742290087158e-03 9.2037287498669684e-02 1.6066706035067879e-02 -1.7082757939491874e-02 1.8548294971875379e-01 1.2995677631758185e-02 -9.8398922487842183e-03 -1.2913619731774340e-01 -4.7802176058045132e-01 -7.0020123013775082e-03 -4.7042668626041451e-04 3.7928097819956144e-03 3.3778850158000751e-02 1.8860846292354960e-02 -1.4658471531198036e-02 4.1242231986127805e-03 6.9707779683722038e-01 -3.8720408934614481e-02 1.4343678680109946e+00 9.1566539024016610e-04 1.1703801672729242e-01 -1.0101813038652319e-02 6.6375790481691344e-02 8.0035834127966865e-01 4.8011267768332932e-03 5.6066282143162815e-03 -1.4997345232006687e-02 4.2010712400243166e-01 1.4050636958960033e-02 -1.9723119520753353e-03 1.4650320360340191e-04 -1.0710954289347224e-01 -8.6863714564737599e-03 -9.7979040788854985e-03 -1.6942527820532870e-02 1.0609569321877643e-01 1.8066701102131599e-02 1.1627954042424382e+00 -2.9589112754171195e-03 1.6704111573247776e-02 -6.5981436284132007e-03 -1.7595310317189364e-02 -9.8037578711773676e-01 -1.9466025805235317e-02 3.8163699524129853e-03 2.2349727426391297e-01 -6.3677616205677623e-01 -6.7901539443866454e-03 -1.4965943810373687e-03 1.0037466567891755e-02 2.0527340087848245e-01 3.2502615054006964e-02 1.1683668992257742e-03 5.1528109516061349e-03 -4.6873144635173958e-01 -2.9018310469837161e-03 -3.1335314721991381e+00 2.0666092272176736e-03 3.5388387408715971e-02 1.1169798421549325e-02 -1.4197926273674267e-02 1.3512440401012416e+00 6.7382241318109408e-03 -1.5151548373190996e-02 3.2915305896239533e-02 -1.8527401584163861e+00 2.2901650021164798e-02 4.4168044277614294e-03 8.2529594814999083e-03 -2.0126950701590540e-03 -3.1532857640216960e-02 3.6968561529620692e-02 4.0822231717908301e-03 -5.2077707766557069e-02 6.1715098634772952e-02 4.8218145884687402e-01 2.0568092008602726e-03 -4.1744726895712958e-02 2.3990499549450206e-02 2.2996804822606506e-02 -4.7324837930555752e-02 -2.2872820472749911e-02 1.3681519837369991e-02 1.0854662470330290e-01 1.4362378885473071e+00 1.3951376867034848e-02 -8.0603278873927738e-04 1.7402304007838536e-02 1.8051370479989615e-02 -8.4971766382377231e-02 -1.8261816228913458e-02 8.1237902443414972e-03 -2.5496429829324896e-01 2.8639595783341409e-02 1.2879117795517345e+00 4.0605746725941262e-03 1.3739332258288162e-01 -1.8511901285947263e-02 -9.4106454381169824e-03 -1.6224920665092313e-01 8.6495361464323703e-04 -6.4378242535298690e-03 1.0535837623816136e-01 6.9047572407104241e-01 9.8850150215339383e-03 -3.4865595785345781e-05 -4.9602297129490002e-06 3.5453182003932548e-02 -6.8165265153149468e-03 1.3947473326722859e-02 -1.0232647743636247e-03 -2.0075255485309640e-01 5.1435736217085859e-02 -5.8581575575007427e-02 2.3018557057292565e-03 -4.0343200556693048e-02 1.2326385463548029e-03 -6.8651440927074175e-02 -5.5421256569350597e-02 5.4181427005725744e-02 -7.2242994710690706e-02 7.1979451915751191e-01 -1.1135509344217809e-01 1.0019529886674805e-01 -6.4057778826800887e-02 -6.2803132122092375e-02 2.8406038043550552e-01 -1.2839851170563032e-01 6.8836842649966368e-04 9.1100715519564446e-02 3.1165154812014073e-01 1.4759267861072323e-01 -6.9242604756075288e-01 2.2571400891286265e-02 3.0833177360289055e-01 5.3687449237249107e-03 5.1473466029265426e-03 -3.1865855915658869e-01 4.8192846207897964e-03 -1.4462371946085790e-03 -1.3118154872096888e-02 1.2430457047660383e-02 -9.8830945155850454e-03 -9.8400601435740791e-03 9.0473810950739184e-02 1.5619323003697450e-02 -2.8550198288655737e-03 2.9891623559413910e-03 1.1634665597985878e-04 2.5840568696560240e-01 1.1718594841073487e-02 -2.9678009195345112e-01 -4.4975995217103114e-04 -8.2375836222750021e-03 -9.0168813740139506e-02 
      </Row>
      <Row Index="86">
        -9.0137591512361723e+00 3.4240843069937910e-01 6.8344800957292318e+02 2.8077150207741397e-01 3.2032286302307966e-01 -1.4578958069812506e+02 -4.3532835457250476e+03 -3.5266304222734107e+01 5.8721905093965088e-01 2.2859980668497973e-01 -1.3963325370893581e+03 -2.8149512949399650e+01 4.3711784904357046e+01 1.5419155178169603e+00 4.3859161953142814e+02 -5.2102945701219141e+01 1.5981942035257816e+03 7.7552164128064760e-01 1.4285386224091053e+02 -2.4977017917437479e+01 4.2660516181058483e-02 2.5066114913979545e+03 -5.8507614970949362e-02 -9.2385688531521737e-02 6.8411541190743446e+02 -5.6208076107596280e+03 5.9702638856135309e+01 9.4231416698676185e-02 2.1623660908971942e-02 1.8525247165046312e+02 8.6993452967144549e+00 -2.4441734672116581e+01 -1.6235033216435113e-01 1.9909257480926872e+03 8.5742584365652874e+01 -3.5080344476774335e+03 6.6753034812791157e-02 -1.6559185445824917e+02 1.3548024871147936e+02 -4.1148358562622889e-02 7.4707412706220202e+02 -1.9542896445091174e-01 2.8022032638546079e-03 -2.1700881718192250e+02 -5.2222226842492819e+02 5.8659882846528333e+01 -1.8140030775384730e-02 9.1934180950033806e-02 1.7353526448027130e+03 6.2095239538699389e+01 -3.9668951203639153e+01 -1.1545048138986553e+00 -1.5547792421849445e+03 -1.5398739470811190e+01 1.6478273445435661e+02 -6.5013523069683288e-01 -3.1852706658558054e+02 -3.0704639569972159e+01 -3.2544848718225694e-01 2.4376674847956747e+03 4.4936895080354589e-02 3.3799753421554612e-01 -9.4829275161027908e+00 1.7654055962776765e+03 7.7877004174166359e+01 8.0307788807431280e-02 1.2392273105547247e-02 -1.7352671782825410e+03 3.1021958725992590e+01 1.7667238401685609e+01 -4.9751766289227817e-01 -2.2063635163795025e+03 -5.9671733575481994e+01 -4.8994258709176756e+02 3.5343096365613746e-01 -1.7733665920842014e+00 2.4097376584410085e+01 -3.0751872191103757e-02 -3.8831621164456010e+02 -1.6969173669167503e-01 -1.7661817945599978e-01 2.1499385852419655e+03 2.2417777095418423e+03 4.9821809977729572e+00 1.8011356566876202e-01 8.6807127189461736e-02 4.6703278292829482e+03 -2.1980868581682444e+01 6.7629881024922042e+01 6.5610232539604574e-01 5.0995661524053348e+03 -2.5908798901106451e+01 -2.0558436832298676e+03 5.7997492334645750e-01 -1.2302737150713801e+02 2.0278783169252520e+01 3.1660549765120694e-01 9.7561453414863183e+02 4.9004886578588328e-02 -4.4548707145360822e-01 -8.0261993568016601e+02 3.6130544687542283e+03 2.7822368923361573e+01 -1.7830068813913191e-01 4.8245637755506790e-02 1.4681635482385755e+03 -4.1120839263914917e+01 -8.2029026712238391e+00 2.6222614309514123e+00 1.8488839513212442e+03 -5.6630121168187507e+01 1.3321244522115894e+03 -9.0330229704846032e-01 -2.9194404370337725e+02 4.6610818296321668e+01 5.4559671430551215e-01 5.1351108197948470e+03 1.6375903595009023e-01 -2.1674589645925998e-01 7.5370527302907090e+02 1.7181785092855021e+03 8.4080952803011044e+01 -7.4380968168255623e-02 -6.8655245332090220e-02 3.8640292478524640e+02 6.7947447277942850e+00 -1.9115505555065795e+00 -5.9532321788459264e-01 2.2345800552666187e+03 -3.3827238637876341e+01 -1.1276959216797222e+03 -5.1726902006595343e-01 -4.2581638284156547e+01 -1.6538870492808204e+01 -1.0374638276878922e-01 1.9302305409122564e+03 -1.3675787275437210e-02 -2.0256707626231973e-01 3.0658345276629552e+02 2.5204657397270203e+03 5.1803213013336062e+00 1.2108964357070649e-01 4.9423296165494866e-02 -4.3235821687616408e+01 -6.1009400940457347e+01 -1.8181939280660018e+01 -3.8793110122787766e-01 -1.1757552954799030e+03 -4.5643762852996588e+01 1.1528035553991795e+03 -8.6458963916082299e-01 -1.6807391334325075e+01 -3.8084439503686802e+01 3.3536237823775750e-01 -8.7992333708878937e+02 -6.3486859993661637e-01 5.9112089307206872e-01 5.3452894398767853e+02 5.3209352819806945e+03 -5.1796833019760676e+01 -8.1992912662242068e-02 1.8835494825710108e-01 1.6664955267548762e+03 4.0250022280837413e+01 -5.6791471607947457e+01 -1.5140266993993468e-01 1.2203858367279172e+03 3.9707449418751480e+01 -1.5941661463585115e+02 -1.2832651393210208e+00 -1.7439373436878299e+01 7.0031264521632579e+00 7.8006672489444900e-02 -1.4286423801238209e+03 -2.9426638524875193e-01 1.1711326195970970e-01 7.1165075721023504e+02 -5.4948640155407829e+03 8.8735475221941584e+00 -1.8652312963581319e-01 5.9523145063919529e-03 1.8976515631201269e+03 8.2016554119530213e+01 -4.6206609934100911e+00 2.4413777272486881e-01 -2.7317819202906467e+03 -3.0090403400497514e+01 1.5262229437806564e+03 -1.4587697106676458e+00 -1.1571846834398582e+02 -3.3229345392759754e+01 1.2794615655996155e-02 4.8705027098222502e+02 -1.0422232481200444e-01 2.0844638974724158e-01 3.9363881121538486e+02 -2.2384249918569267e+03 -4.3618196377501093e+00 -5.8500570573770880e-03 -5.8164073172521126e-02 -2.0863144211386175e+03 -4.2309153216350097e+00 -1.3561159737348431e+01 -1.7484714923340117e-01 -1.8005009454229594e+03 1.3421443272873859e+02 2.1142199165565385e+03 1.0848969094056529e+00 -1.7766819211336616e+02 -3.0246465693840634e+01 2.6361832633490847e+00 2.9653943811498880e+02 -6.1412503770727094e+00 5.8320274755063926e+00 1.7322636322258386e+03 5.4728112013811005e+02 -6.3032413011316066e+01 -1.0679786934330595e+00 1.1331238788269018e+00 -7.8476381733441722e+03 -5.8971964538237671e+01 -5.4130625578290577e+01 -1.9403863388151876e+00 7.9792816034683619e+02 3.7095118643439764e+02 -2.5214960593229321e+03 -1.0726219351696871e+01 -1.1626194928806576e+03 -2.7177082367785850e+01 3.6120097959708067e-02 1.5089979012562144e+03 1.6843043899408879e-02 -1.3466269300181306e-02 -9.4374973896937689e+01 -2.8751463871941763e+02 -2.3238564584026168e+01 2.8706430679454270e-01 1.6530906203127560e-01 3.2079815706002296e+02 1.5156361957664672e+01 -2.1670741448079411e-01 -4.0859631507954401e-02 3.0796459512319448e+03 1.9361276650921440e+01 -9.9562690133940941e+02 7.9723380136464128e-02 -2.5499980550948464e+01 3.1052992395313049e+02 
      </Row>
      <Row Index="87">
        1.7086360621020731e+00 3.9968506519767288e-01 -3.7478941053152084e+01 -4.5599614531965926e-02 -8.9135255858991513e-02 6.0957170650362968e+00 -3.0498090037703514e+02 8.4820400087983217e-01 -2.0974945541198387e-02 1.9386844490940922e-01 -5.0439523821580224e+01 6.0341734398156404e+01 1.4035754273645580e+00 -1.1302728983355337e-01 1.8426378215783359e+00 3.9300026013515890e+00 6.7954292610287666e+01 9.1248905719112372e-03 2.6911240667104721e+00 1.8727687846403569e+00 5.2811175060924143e-02 -5.8906615095213056e+01 -2.6123852131604508e-02 1.0815964233597697e-01 8.9140070714056492e+01 -3.3231759049522225e+02 5.5400229310616851e+00 9.9793171193596208e-03 1.4597934713719951e-02 3.9588107246147047e+01 2.2820809092372656e+01 3.9408557426650077e+00 -2.5089589142226032e-02 -3.8673002042897366e+01 4.4569895383901894e+00 2.6580267623066902e+01 1.0802477368815744e-01 3.0006567486290542e+01 3.6557032449054532e+00 9.4949748046019522e-02 -2.0745013923862643e+01 -1.1677062953822315e-02 7.5998686172169982e-02 -3.6700766723603010e+01 -1.1497178728878498e+02 -9.9066591062648239e+00 1.8001143624587712e-02 7.1223464224203781e-03 7.1574273698107064e+01 -9.2093124107923359e+01 1.8222780252108350e+00 3.2344373724200550e+00 -2.8161275527905673e+01 3.0719343232594936e+00 -7.0810902159989126e+01 -7.9955792898545042e-05 -6.3257142163639450e+00 4.6358138925014059e+00 -7.6246414397246554e-02 9.5124414851889014e+00 -5.0719189739993453e-02 3.0684483097644488e-02 -1.0733575152605772e+02 3.3224114567879587e+02 -8.5249695515958592e+00 -1.1788630393766653e-02 -1.2285605112310805e-02 1.8923388368424888e+01 -8.5221151755074970e+01 1.4735670424415730e+00 -4.7945568474642641e-01 -5.0867079798660114e+01 -6.2771908991853707e+00 -2.4098010300538957e+02 2.9435672990075545e-02 -6.5202939737791965e-01 2.0799218959000427e+00 -7.0729549814132042e-02 1.3357143204659224e+01 -1.5474376094061881e-02 3.0581134033877788e-01 -5.5715777532604989e+00 1.2727157206088305e+02 2.4727367158629932e+00 7.1337925974148675e-03 3.0318860734514876e-02 -2.1980867653477059e+01 2.8420077472180128e+02 -2.5469748334384112e+00 -3.2276187473374568e-01 -3.2860252957026503e+01 1.7851944128051400e-01 2.6385700666141372e+02 -8.8049023414472849e-02 -1.2307615280151367e+00 -1.3487740670632151e+00 -1.0247350869299657e-01 -3.8065980170600085e+01 -1.9189385986731894e-02 6.3314888631571711e-02 5.2530739082566939e+01 1.3501976773692283e+02 1.5837731512067942e+01 2.4828308926318834e-03 3.0454470504970698e-03 9.5148517042398453e+00 1.1730136801884390e+02 -2.7743802277200436e+00 9.4872288197409671e-02 -5.5492021560668945e+01 -5.5892942523794567e+00 3.3790225758469035e+01 -5.5019790944486745e-02 1.2397506240755320e+01 2.8060567961656488e+00 4.7036653968698383e-01 -4.5957044165454036e+01 -4.5522944479199426e-03 3.4730444962114054e-02 -1.0458968803248776e+02 -8.9153566797585006e+02 -1.9225355429665743e+01 -6.3534680767019045e-03 -2.0723012310685924e-02 -1.1746775597377795e+01 -1.1345478791457626e+01 2.6147047521765376e+00 8.0820929040396761e-01 -8.9587729461491108e+01 1.2213024557190226e+00 -9.7877974006962063e+00 -2.9151698572999863e-02 -9.4608595061841285e+00 1.1719283090418773e+00 -3.4313448756530074e-01 -1.5031000832791142e+02 8.1534441535504334e-02 -6.2233106486868667e-02 6.3696302995085716e+00 2.4302274775505066e+02 1.2606006432557479e+01 -1.8300261278671234e-02 2.1147369326568209e-02 6.5102331867441535e+01 1.7481623792077301e+02 -6.5603280450952361e-01 -1.3569073874386959e+00 -2.5382762738736346e+01 -1.0902118668891490e+00 -2.0215011841058731e+02 1.1786864984907414e-01 4.6903830952942371e-02 -5.5384504858716026e+00 3.0778823199154291e-02 6.7598326728717183e+01 4.1100477907355590e-02 1.2398626692776582e-01 -5.8223323385154458e+01 4.8060467574641990e+02 6.9072814918393122e-01 8.4746746667641922e-03 2.0791076032259052e-02 -1.2083325215893785e+01 -1.2667145678050827e+02 -1.0849297415657033e+00 -7.5267387606927472e-02 6.7146924756467342e+01 1.7096855240167339e+00 -2.9980544606819706e+01 8.2727163334928730e-02 5.5817155204188396e-02 2.5683653098095771e+00 5.8836454295006245e-02 -2.3750411685711441e+00 1.9369552801830558e-02 -1.8902831329872985e-01 -2.2285921091544921e+01 1.4818508375871033e+01 -1.1146608428937821e+00 5.3264545666770115e-02 2.4726638122684948e-02 -1.3305851013337737e+01 -2.4765028080455735e+02 -7.9432335716869718e-01 9.0834846866879937e-01 1.0107348007855990e+01 7.0160963656906361e+00 -4.2716151371949263e+02 1.6808684817131575e-01 6.8149705635836550e+00 1.2947247496358110e+00 1.7801381616837550e-01 -1.5675664616493435e+01 -7.5187171321955626e-02 5.5851457218665426e-02 -6.0998749469740211e+01 2.5373450918909995e+02 6.1039396694517061e+00 -2.6137882283281209e-03 -1.0617876341193823e-02 -9.8982081140920812e+01 -2.1498831796743326e+02 9.2466177848213427e-01 -8.6302885185071565e-01 1.1621528319872192e+02 8.2096453921912911e+00 2.6192782773579108e+02 6.6741545318083892e-02 -2.9849165520241083e+00 8.1656123345661893e+00 8.4382850221147199e-01 1.5832372983173286e+00 1.2077981840592480e-01 2.3390225487962774e-01 -1.6539664861587045e+02 -1.5902862310184855e+02 4.7203627752377407e+01 2.5523455192461014e-01 -1.5373011844364293e-03 -4.7594566093447020e+02 -3.2345497149094001e+02 -8.2444512466368174e+00 6.6054651707732042e+00 -1.8049276822214870e+02 3.4057878937989791e+01 5.8628892106673902e-01 1.1283152647183707e+00 -2.3185513783582394e+01 -1.5606553897432380e+00 2.6947397513643868e-02 -6.9871419592110612e+01 -2.3854944428534199e-03 2.0714036098545361e-02 -1.8680456974889266e+00 -3.2065452340367176e+02 8.3754152591345188e-01 3.0686384183060186e-03 6.7839206365983840e-02 -3.7566973535852419e+00 -2.1282159719622395e+01 5.8428814057509393e-01 -4.4630896310186956e-02 -1.4411659714309224e+01 2.6567182028929301e+00 1.4961248149143557e+01 8.5067759687548813e-03 -6.0695044951121169e-01 3.1976799366719911e+02 
      </Row>
      <Row Index="88">
        2.5646458094310560e+00 1.2810292533967527e-01 -9.9982323022559285e+00 3.0752071270342185e-02 -1.8410136836109814e-02 3.0944126342888921e+01 -5.2149719633162022e+01 -4.2778386601540319e+00 -2.0376825796920989e-03 -9.3052125842983651e-03 -1.0929882823256776e+01 -2.4229283398017287e+00 2.2127890119038057e+01 -4.5438381934218341e-02 -9.3352128630658484e+00 1.9412075631844345e+00 -2.9850245498120785e+01 2.1838395982786096e-01 1.4975053522211965e+00 -2.8966425526887178e+00 2.8875447001155408e-02 3.7684667745372280e+01 1.0461319401542823e-02 2.9714705280468934e-02 4.4143150610849261e+01 -3.5793173993704841e+01 -1.3813623448368162e+00 1.7616585328596557e-02 5.2346979547905903e-03 7.1752684597195184e+00 -3.9731301134452224e-01 -2.2025486598373391e+01 -6.4021722803317971e-02 -3.5960406022267541e+00 2.2011826435918920e+00 1.9522659664973617e+01 -9.8357309717357566e-02 1.2496113943444941e+01 1.0923715638462454e+01 2.7258384561037019e-02 1.0076857758184133e+01 1.7524932758533396e-02 1.6052398561896553e-02 -2.4906111015239730e+01 4.4001139990985394e+01 -4.5600968659725383e-01 8.5390056927678870e-03 -9.3950776047790896e-04 3.3670351297128946e+01 2.6465273767826147e+00 -2.9522439325999585e+01 -2.8127864309521694e-01 1.6038819758396130e+01 4.8200907121581871e+00 6.0691008457178548e+01 -1.2346507067741186e-01 -5.3125733337373715e-01 2.8806394584435888e+00 -1.2571120364668786e-02 3.7650260499911383e+01 -4.2691248077176169e-02 -2.5117120892232947e-02 3.0711478670127690e+00 1.2618163562589325e+02 4.5967831416637637e+00 -3.3157739482305715e-03 -2.6764052148564588e-03 -2.3203502910440054e+01 2.1458281423547305e+00 6.8032799622087623e+00 4.1618098334765818e-02 -3.1676662875118467e+01 -5.5827136457264714e-01 -3.7893994547659936e+01 4.9355486770309653e-02 -9.6861746726759534e-01 3.5824900340376189e+00 -2.5281321324655437e-02 -2.1148027224466205e+01 7.9961538961015322e-03 -9.1077999110694918e-02 6.5163085145013611e+01 1.8470616735052317e+01 -4.8682526249613147e+00 1.0388194060169553e-02 -2.3361665544098793e-03 6.7629881168059640e+01 -2.5469748436007649e+00 4.1302720697914232e+01 5.8888629546640231e-02 -3.6614039772153347e+01 3.7454542462946847e+00 -2.2116977677048780e+01 -5.6116231841883801e-02 -9.9908005073666573e-01 -4.2401108275468395e+00 -3.0092064486566712e-02 1.2885585848577556e+01 -1.1299884824474520e-02 -3.7322122873521490e-02 2.9609400741939542e+01 7.3520208362059947e+00 1.7421778953725653e-02 -4.4674029440076798e-03 2.6753870650675950e-03 3.2677571342326701e+01 -2.7461919658141682e+00 7.0336023472397269e+00 4.1073689000195854e-02 3.3694738101214170e+01 -4.8407688614143334e+00 -2.7658715557472142e+01 -8.6125399249511597e-03 3.3119549322873354e-01 6.6224946044512762e+00 7.9066785020827479e-02 7.1893836015312885e+01 -2.0783473845438369e-02 -1.3124334105399298e-02 6.8640139235092221e+01 -2.6225778433432816e+02 2.1930943790263178e+00 -1.0354225525000852e-02 -3.5553107530338934e-03 1.8311602089079479e+01 4.1359267579348913e-01 2.5311091090176712e+00 -5.2136079259935492e-02 -1.7857069814577699e+01 2.6602076617369184e+00 2.3043239219959489e+01 -2.6865412342598885e-02 -5.7386862647086732e+00 2.2843994008977835e+00 6.9451835067177725e-03 -1.9272190768748089e+01 1.9933405719867493e-03 5.0819376049293791e-02 1.3535130354925059e+01 6.7326784253120422e+01 3.5474473492649850e-01 1.3481006548348230e-02 3.9895037595463721e-03 -1.4067782044992782e+01 -3.9278574417316934e+00 -7.1022639898844782e+00 -7.6055105924751842e-02 -1.8930141446297057e+01 -1.9391826154896989e+00 -1.0847847888618708e+02 -1.3548903368697360e-01 -3.4282104857265949e-01 -7.2779238869700862e+00 -5.8690537520643356e-02 -2.9692006403981850e+01 6.4347914584097179e-02 1.6985114989355335e-01 -2.2801786923976685e+01 2.1277060735517605e+02 4.5565302185255807e-01 3.2592817849591504e-02 1.9280077986528955e-02 3.9278840421472438e+01 4.7404983972744787e+00 -4.4362530096563106e+01 -2.3946955619280672e-01 -3.2868265080498531e+01 5.9834501242960556e+00 -2.8666889582885325e+01 -8.2918088214911784e-02 -1.5606080552303645e+00 -6.4931017552476842e+00 2.6670067252132633e-02 3.3784537628418274e+00 1.9671019397186486e-02 1.6867447067245432e-02 -5.6425430085505781e+01 -1.1570191427459852e+02 -6.5228856070556596e-01 -1.0176865388178392e-02 -3.8456576448815420e-03 4.0486603258048433e+01 5.5165206214941449e+00 1.3517735948610103e+01 1.1659812002571363e-01 6.3411162218557685e+01 3.9312172732719475e+00 -7.9486703983397035e+01 -7.4733488152763539e-02 -1.3963028574272247e+00 2.2411411528981526e+00 -1.9420664860476500e-02 1.8600170585651469e+01 -2.5248138846535987e-02 3.6925474252189353e-02 3.4422604569118860e+01 -1.3836481279050503e+01 5.4716283144237590e+00 8.7337915312768553e-03 2.8225761166681823e-03 -2.4945984603057934e+01 2.1030548656586197e+00 -1.5561671908867806e+01 8.2437173166339250e-02 -8.5541894527322768e+01 7.0208739701922935e+00 -3.7629957014615634e+01 -1.9849758299568785e-02 -8.1827225019524619e+00 -5.4343938525804063e+00 -4.8441955141351062e-01 -2.0996064847440294e+00 4.7231917649145833e-01 1.5953481989009342e+00 -7.0774861008110392e+01 -1.3134100837294852e+01 1.0258975731310541e+01 2.5747756503958003e-01 1.6465234056861378e-01 -6.8394699076361547e+01 1.7870901248856413e+01 -2.0761352796293572e+01 -1.8422429297940326e+00 -1.2927330108155388e+00 2.3040893461143952e+01 -3.7965530428286570e+01 -4.4839827289959366e-01 -3.2602095347702061e+01 -2.4001105572028947e+00 3.2568238033753374e-03 4.6519820979452540e+01 -1.2199607953237039e-02 -1.7769557049552910e-03 4.7778288273660188e+00 -5.3230886921662027e+01 7.7073501569219793e-01 1.1889680064009829e-03 7.0036802946365469e-03 4.2061474367350726e+00 7.7038492813987547e-01 -4.2128941860740543e+00 2.7495910746824972e-03 -1.2158624450161106e+00 1.7118748427639852e+00 7.2503125342316252e+00 -3.2225555129516380e-02 6.7565605991775612e-01 5.2481920115777122e+01 
      </Row>
      <Row Index="89">
        -4.0653533482353410e-01 -1.9808106416585147e-01 -1.8936366242123768e+00 4.7240292690986507e-04 4.4536616856838407e-02 -1.0272285817627562e+00 1.0748417056165636e+00 -6.6370299859677573e-02 2.7467460361365376e-01 -1.3347500857778076e-02 -1.0180485013152065e+00 -6.8583786903764121e-01 3.0392718064831570e-02 -4.3323349597494598e-01 1.1819417221899442e+01 2.0378225899185054e-01 -2.6447213944047689e+00 4.0311493377771512e-03 1.0441434854510590e-01 2.6847366537185735e-01 -8.0501449342307296e-02 -2.3265926306630718e+00 5.5123465046733600e-03 -1.0352643463640732e-01 -2.3926075805211440e+00 -1.1165129706751031e-01 -1.6162332470412366e-01 3.3286156809651857e-02 -1.1779432763461273e-03 -7.6910680828962086e-01 4.2210070265718969e-01 -6.2577261141996132e-02 2.3999654288484180e+00 1.1247764909294141e+01 7.8526348079321906e-02 -4.4058333624270745e+00 -9.4127299786350704e-04 -2.8487463552104164e+00 -5.5800662998262851e-01 1.4142456748813004e-01 -1.2233938790896275e+00 -3.0059612628662080e-02 -2.8384149553630778e-02 6.4627800733433105e-01 -6.8896372299641371e+00 1.5751159425776670e-01 -7.5639619401538738e-02 -5.6748113447017801e-02 -5.7102312672213884e-01 2.4898688909088378e+00 -3.5548453015508130e-02 -9.7543227145809297e+00 -6.8425617871253053e-01 1.6921900983573379e-02 -1.7907489895787535e+01 5.5126690072825113e-02 4.3073150493179924e-01 -2.1732684445346706e-01 -6.5027061624135740e-02 -1.6733557242550887e+00 -4.2576566002807681e-03 -8.2845677372470838e-02 -7.7718725663726218e-01 -1.2093082387582399e+00 -1.2822062498707965e-01 3.0996495599639573e-02 2.1952776213787217e-02 -4.5551514324433984e-01 1.4145172253847704e-02 2.7923142413101232e-02 3.2775180169119551e+00 -1.1360278222851679e+01 1.3135207495270151e-01 -2.1801156599442393e+01 -1.3189186213878656e-02 2.0240167225333394e-01 -5.2351801554368649e-01 -1.1387946501169210e-01 4.2334257531911135e-01 9.0157789309728287e-03 -2.3883803045825402e-01 1.8429207556882830e+00 1.9512055093364324e+00 -1.5552554484429493e-02 7.0749809540323838e-02 -3.0675534232746729e-02 6.5610230703561712e-01 -3.2276187659590505e-01 5.8888629058856168e-02 1.1003899507639272e+01 2.9928271787906766e+00 -7.0048100722488016e-02 1.2693043192942000e+01 -4.1954768453217772e-02 3.5964628501096740e-01 5.8702443742359234e-01 3.2565119961136688e-02 -1.4885693330319327e-01 6.9460733448401674e-03 -4.8581740862133127e-02 -2.0677466666128907e+00 1.1860826433669303e-01 -1.7738414625661392e-01 -3.2452191764174090e-03 -6.4771636714969320e-03 7.9992065738770179e-01 -2.0998238035352479e-01 8.9984438141247791e-02 -1.4637387615345956e+00 1.2681665363023058e+01 3.6680760633037934e-02 1.2610449025636740e+01 5.8862470926344390e-03 -4.7383908031042665e-01 -4.8246633186033705e-01 -5.7512868452814343e-02 -2.0283700199946111e+00 -1.9750223696462468e-02 5.7081381792625570e-02 -1.2956107330616007e+00 8.6217591797885760e+00 1.1524853723189805e-01 -6.0347328656286774e-03 3.6757345238190575e-03 -5.0852506183049873e-01 6.8834313680223502e-01 -2.4618452134564761e-02 -1.2041745115145202e+00 1.8142648281063884e+00 7.3136343335039822e-02 3.5106378483777689e+00 1.4181769548271998e-02 1.5140860047503779e-01 -1.4236636919652312e-01 6.7774326419892478e-02 -9.0579810879717115e-01 -6.9176787124101691e-03 1.2540684093885091e-01 7.4419993444462307e-01 -4.2592836655676365e+00 -1.7075212652980554e-01 -1.6972093153729353e-02 -3.3510601494435049e-02 2.2268183980486356e-02 -1.4109277932779707e+00 -4.7362192260368766e-02 -3.7845284704117148e+00 -8.9393082214810420e+00 1.3707149104448035e-02 -1.5795137323439121e+00 3.2831411720003617e-02 -1.2071738287340850e-01 4.8487815007894453e-01 -1.9074909960980546e-02 6.8291838829538456e+00 5.1580162882782048e-03 -7.9450800628736468e-02 2.6389158900932617e+00 -5.4919380520349534e+00 1.3347951276582756e-01 -1.6029618192108977e-02 3.1881308367455769e-03 5.4922824153395866e-01 8.5001499880043996e-01 -5.9114777175720334e-02 2.1819133272575453e-01 1.0420063672514516e+01 8.1172026028678790e-02 -5.2995540691563292e-01 2.7475757417482222e-03 -1.5178647463080424e+00 7.9000291889517715e-01 1.8772034421405204e-03 -1.4740863547796508e+00 -6.7717456199616888e-03 8.4768169870212365e-02 2.3224805677614109e+00 5.3703405046879880e+00 4.6828846038557970e-02 -7.7081734205730387e-03 -8.4006003605097013e-03 4.5896915269165817e-01 2.7851050644217992e+00 6.7147050654829954e-02 2.4073309132411715e+00 -1.1995587068206817e+01 -2.1230932783243106e-01 -4.5276175723610361e+00 2.2729869910501684e-02 -6.6503993706029529e-01 -6.1511033106868485e-01 -2.0255846955830512e-01 -2.3307982075614522e+00 2.7799964463942627e-02 -1.5128490209501610e-01 -3.6483545631617265e-01 9.0648028065185571e-01 -2.0715059547069448e-01 7.9209410358589263e-02 6.5556340296465510e-02 1.0134225863177129e+00 1.1437639455266435e-02 -1.4875925972679838e-02 1.0636419547799754e+01 7.1154091317812060e+00 7.4441658171725322e-02 1.0036221593602850e+00 -2.1655383421881391e-02 -7.4969049592720083e-01 -2.4455115031615904e-02 -7.4931772962727039e-01 3.2394030880715263e-01 9.2646538787306651e-02 -5.9378600814601989e-01 4.8291567162865690e+00 5.8197568135304323e-01 -7.8837238971257584e-01 4.2317087733357456e-01 2.3636477760258950e-01 3.9118362357714602e+00 -3.0730151644587949e+00 3.5830258164568574e-01 7.7522385722872826e+00 -9.0405679191322719e-01 -6.3999392086254758e-01 2.7178065706105157e+00 -3.0674934798143205e-02 -2.0571037586040717e+00 3.4816826010598673e-01 -3.8577786765333711e-03 -8.6866267078998192e+00 1.3685695045409249e-02 -9.4813847044990796e-03 -2.5642947133639993e-01 5.7680558698709516e+00 -7.0528890677758263e-02 4.4306040516502318e-02 -1.5284346160694672e-02 1.0804829790598536e-01 1.9110815611176957e-01 -1.4842661979843214e-02 2.0417087538647663e-01 9.8069990479255011e+00 3.4947096683032086e-02 1.8077775321958143e+00 -2.8832571978806942e-03 1.0115641432819267e-01 -5.8651169114010644e+00 
      </Row>
      <Row Index="90">
        5.2356974155598436e+02 8.3699302107561380e-01 -1.9763958425521851e+04 -1.5351829965075012e+00 2.3689970713166986e+00 -1.4096954585313797e+03 -1.9658533306121826e+03 -1.2492855664467788e+02 -7.0703211004221966e-01 -1.4143710378749583e+00 -5.0662665348500013e+03 -3.4417616724967957e+01 2.0963945269584656e+01 2.5177981569431722e+00 -7.4180197970562920e+04 -1.9691092014312744e+01 -2.3599543437957764e+04 -4.3037058010231704e+00 -5.6684403085708618e+02 -6.9940126365423203e+02 5.2184104034677148e-01 -2.8948630062341690e+03 6.9141006784047931e-01 2.1712481271242723e-01 -5.1969812774658203e+02 1.9852005632221699e+03 1.4506295442581177e+01 -3.9351328869815916e-01 -3.2910734406323172e-01 1.2412602545511909e+03 2.6267596423625946e+01 -3.5128112368285656e+01 5.1173610817641020e+00 -2.8646948692033089e+04 1.3008732441067696e+02 2.4000844597816467e+04 1.9394623751286417e+00 -1.9571936691902156e+03 9.9058455567806959e+02 1.2520743597997352e-01 -2.5622224410850322e+03 -8.5451907769311219e-01 1.3787847347557545e+00 -3.2382357823848724e+02 -2.1755783630371094e+04 8.9613371153351153e+01 -4.3704270129092038e-01 -1.4346997454413213e-01 4.2447251807004213e+03 2.1703903502225876e+02 1.0688641507178545e+02 1.4257666985232412e+01 -1.2435764732459188e+05 -4.4765181641109223e+02 1.0884406958535081e+04 4.3566508307121694e+00 8.4213381782174110e+02 3.5551104412111454e+02 2.1363241850631312e+00 -5.4570444128513336e+03 3.6975968857877888e+00 3.1879478744140215e+00 3.2592494630813599e+02 -3.9136189050674438e+03 -1.6233049483597279e+02 -9.2582876153755933e-02 -2.8199678380042315e-01 -2.1329997468872130e+03 6.3367058992385864e+01 -2.4829379676841199e+01 8.4854723140597343e-01 -8.9404509467461787e+04 2.2735179640096612e+02 -1.2678251886846730e+04 2.6573793776333332e-01 -1.0135698080906974e+02 6.4995482253096998e+02 1.3467316292226315e+00 -3.3524696259498596e+03 4.8681121363770217e+00 2.4555868354509585e+00 1.3908367883190513e+03 2.1135054657459259e+03 9.0441841537132859e+01 -6.1579091247403994e-01 -8.3191094723171399e-01 5.0995660423628260e+03 -3.2860261201858521e+01 -3.6614042237401009e+01 2.9928271185299309e+00 3.4693471046957653e+05 -8.5189708471298218e+00 -3.4903671073261939e+03 2.4076975285641797e+00 9.1611310243606567e+02 -5.2840545438430195e+02 -1.1414204532383654e-01 1.3572181464164980e+04 1.6009327213214135e+00 6.5864968101597920e-01 -2.2004004639723235e+03 1.5495971207729308e+03 2.6012268860000972e+01 -5.8118291615746664e-02 -1.8746233152050262e-02 3.7187351546287537e+03 -6.2196602011279197e+01 -6.7154692668287225e+01 4.5788777692504770e+00 -1.0969189448547363e+05 -6.0180013846130947e+01 1.0036521832669999e+05 1.2725149115572405e+00 -9.7683606362342834e+02 7.5819056786317378e+02 4.3910668627350571e+00 -9.7130579573473260e+03 1.4531468289444194e+00 -5.0051258749317640e-01 -3.2380123954027413e+03 5.5537859129053249e+03 1.7092249358920861e+02 -3.1604488793594676e-01 2.6229340629295383e-02 -9.0387251988525054e+02 5.9149981144045000e+01 1.5358060907729350e+02 6.4510975762779097e+00 4.0737300469398499e+04 -7.2643518338945682e+01 -2.8387574435534334e+03 6.6658694934328444e-01 2.1101086571180323e+02 2.1499205603708148e+02 1.1366459688821084e-01 -9.7062378972961451e+03 -1.2929632365458450e+00 -1.5244503511502732e+00 5.1755321955680847e+02 -6.6254132995605469e+03 -1.0079902249574661e+02 -1.0917068931518017e-01 -4.7425521940578041e-01 1.3511394211053848e+03 -9.6881065688094623e+01 -1.8470893750155231e+01 5.3053469657897949e+00 -1.4975614461570978e+04 5.8123706579208374e+00 -5.2444638698577881e+04 4.2790890847954755e+00 4.3856357693672180e+01 -9.7189045892807746e+02 1.7563147495357834e+00 5.2402286127476422e+04 1.5339907711271801e+00 -1.1039602501395778e+00 1.1959823618597998e+03 1.7010867789918524e+04 8.2174906712817844e+01 -3.4009777345104519e-02 -5.4229039303177040e-01 3.9288862023725360e+03 6.0443724389220279e+01 7.9013954067597950e+01 -1.1958154827783291e+01 5.5501114936470985e+04 9.1544023459881529e+01 -3.8996706049928172e+04 -2.3974825770709787e+00 -2.9200039671568618e+01 -7.9280845699757276e+02 -4.5745719534704860e-01 1.7719237796514262e+03 -2.2137047166717778e+00 1.0292162096310760e+00 1.6528078270053597e+03 1.9480886090781099e+04 6.9809515255789705e+01 6.3023322570441431e-01 -4.4262099071985989e-01 4.9776628410902831e+03 8.5394847426176966e+01 -5.9542564847914790e+01 1.3941155587272771e+00 -8.0617698849190565e+03 -4.0280928952697295e+01 -6.1505149733094549e+03 1.4750209804917465e+00 -3.3727442492262008e+02 1.4910999292906581e+02 -1.8586219413444978e+00 -1.0494169522227996e+04 6.3921022761443025e-01 1.0636123898047445e+00 -6.2120295218911190e+02 -2.4822504148233493e+03 -1.6195529781559458e+02 3.8168841718486823e-01 -3.2022130153469625e-01 -1.9188045939527854e+03 2.0698129500163691e+02 8.2828399286883155e+01 -1.6716895015540853e+01 -4.4502687089933912e+04 1.0315784413963632e+02 -1.4184343672882555e+04 -5.6270665233670867e+00 2.3062687377256907e+02 -2.2118224451346928e+03 -5.0423057346195677e-01 -7.4931031882824573e+02 1.1567983805415665e+01 -2.4388529011794127e+00 2.4223844868549604e+03 -2.8039634307737397e+03 -5.3123244386976671e+02 2.9484860409759062e+00 -5.6722443244219516e+00 2.8553257029724837e+03 -2.3589327658743014e+02 5.1274969666867094e+01 -1.2174414884747489e+02 -1.0968218034118711e+05 5.9726995332976549e+02 -3.2232671895750580e+04 -4.4794570956002367e+01 4.8141979268560208e+03 -7.6261061766045964e+02 1.0701543172371217e-01 -6.6756999854209382e+04 4.6553497445853270e-01 1.9542644214970495e-01 -2.5691298505046802e+02 3.5264441195851992e+04 -6.3391632247750927e+01 -1.9209754501950999e-01 -1.1489658739468194e+00 1.2036106560739154e+03 1.9883512958234817e+01 1.4324582016710082e+01 -5.6628411309485993e-01 7.2144147889128522e+04 7.9709155392493628e+01 3.5115002649078480e+04 3.9596141773003413e-02 -5.8190699162900160e+01 -3.5199577913242050e+04 
      </Row>
      <Row Index="91">
        6.4133803664086031e-01 1.5745573397981616e-01 4.8043753448873758e+01 7.9779520720421715e-02 -2.3306644256336995e-02 -4.4758520188508555e+01 2.2423723716288805e+02 -2.3076714821997939e+00 -2.2788917001346365e-01 4.2302387533996136e-02 -9.4233153708133614e+01 1.7720192726701498e+00 2.3035904348362237e+00 6.5048103719163919e-02 -1.9609078198170657e+01 1.7526221277657896e+00 3.1359517500549555e+02 -3.5279514926060074e-02 -3.3927743039675988e+00 2.7960720361443236e+00 -1.3619556148114498e-02 2.6855585394427180e+01 1.0680604113531444e-02 -1.4247933691990511e-02 6.7159070783294737e+01 2.6409640366685926e+02 -6.2707162904553115e-01 -3.6301811878729495e-03 2.8236901007971937e-03 4.8386627524818778e+01 -1.7920938776805997e+00 -3.5008953513461165e+00 -4.6929464415825350e-02 -8.9712604442595165e+01 9.3388673389563337e+00 -4.4556731009576470e+02 -6.3635777723902720e-02 9.3876195475263017e+01 -1.4159782586939400e+00 -3.8572018969034616e-02 9.9149710238677926e+01 8.8938422641149373e-03 -7.3427234512564610e-02 2.8518813413102180e+00 1.0883266125246882e+02 2.7199881159165251e+00 7.7339446747828333e-03 -2.7439807525979631e-03 2.7964689824060770e+01 -1.2489585630479269e+01 -4.4416243244922953e+00 7.4998573439675059e-02 -6.1316212233505212e+01 8.3429342535417881e+00 4.5658106041840483e+02 -4.2923277440650054e-02 -1.1417310509132221e+01 3.5195086459911362e-01 -8.9324150136917524e-02 1.6025511039723642e+02 2.9675133230739448e-02 2.2789506320144426e-02 -5.8260958264581859e+00 -7.4232258201809600e+01 -1.9838225521380082e+00 -1.2961546557804127e-02 -1.5611062503410267e-02 -6.6064564820007675e+01 -1.3323051029030466e+01 1.3201642489457299e+00 -4.5441943465675649e-02 -1.1295411819563179e+02 1.9184546874683747e+01 1.1475510810975861e+02 3.3497936332423706e-02 2.7136587604067959e+00 -2.3095279007102363e+00 1.4042150003319875e-02 6.1530226161703467e+00 1.1384304548300861e-03 -6.9032252118574888e-02 5.4495546062797075e+01 -1.0074285236420110e+02 3.7279901837355283e+00 -4.3979149152164609e-02 2.4935716285804443e-02 -2.5908799156788376e+01 1.7851940938271582e-01 3.7454542385530658e+00 -7.0048100626991072e-02 -8.5189693263084934e+00 9.6737035140860826e+01 2.0547354349034174e+02 1.0427487133344106e-01 1.6230723311193287e+01 8.5198530367356340e-01 1.0764355064622949e-02 -5.3350532079103296e+01 -1.5362757777982496e-03 -3.5747580207108186e-02 3.0778454785632363e+01 -1.4604146693589036e+02 -1.4364322166276946e+00 9.5563934321569663e-03 6.3055608362623371e-03 9.8363562282174826e+00 7.8304444729823928e+00 3.5594669261381089e+00 2.2069198028014159e-02 -3.6679878767579794e+01 -1.3802469023145314e+01 2.9702992190207164e+02 -5.2228194476650183e-02 3.8237757973372936e+01 -1.6117254111031798e+00 1.4013733632803654e-01 1.6531205704264369e+02 -1.8354744561774158e-02 3.0274381972694511e-02 5.6280356766661043e+01 2.3266473721025750e+02 5.3762737649927850e+00 -1.1595362641269109e-02 7.5470142821821538e-03 -4.1076296923763522e+01 -9.8182964729158728e-01 -2.8132485607046460e+00 2.5121330749864257e-01 -2.9344872801378369e+02 1.0868793883153709e+01 1.7441134832306375e+02 3.6127838274337964e-03 -1.1599065756273626e+01 2.1886259309508982e-01 7.6891080100792708e-03 4.8963091964652904e+01 -8.4438159998150644e-03 4.2270696115282336e-02 3.4950785859487951e+01 -2.6292408460378647e+02 -1.7520067190780537e+00 -1.0867915136201587e-02 1.0893675468810791e-02 2.1942427452653646e+01 1.0252314417204113e+01 -1.0433854942666572e+00 9.6180573294986971e-02 -1.0243092288833577e+02 1.4074865887756459e+01 8.6209374256432056e+01 -3.3935374980065491e-02 -5.2610313056502491e+00 2.0152921245904603e+00 -9.8950012288213235e-02 -8.1763949833254557e+01 9.2788466278532794e-02 6.0556406714775621e-02 -3.7691671421057251e+01 -3.4673337567039243e+02 5.3475989709140537e+00 2.1838193934091026e-02 -1.2834957904803716e-02 -1.1411662231790245e+01 -3.9541490508795274e+00 -8.2127631749383543e+00 6.4098432822798590e-01 1.2564295449806377e+02 1.9009312448629402e+01 1.0339892410688032e+02 -1.8907056652073753e-01 -4.5767381589344236e-01 2.2093366835653798e+00 3.0491411779569468e-02 -1.4428263079512254e+02 -9.3866663902291703e-03 2.9404736928932553e-02 -5.5606618463489923e+00 -6.7370675278393719e+00 2.4615344246885362e+00 3.4339016981887811e-03 3.5804493339766075e-03 5.4235293831659419e+00 -1.7675923102299890e+01 2.7361594317865983e+00 -1.3182029666513231e-01 1.6958884559978134e+01 4.6323633053302061e+01 1.9422074680073320e+02 -6.2390672837333502e-03 1.2741157904592569e+01 3.2980814845330917e+00 -5.7578567316029880e-02 -3.0246098724070734e+01 -5.2706031841719134e-03 9.8800263266636157e-02 -3.9541570075957033e+01 -6.4754800383034478e+01 9.9101087719272352e-01 1.1431365130108066e-02 -1.3736956819086502e-02 -1.3394892449004206e+02 -1.5335855423998730e+00 -5.2549166597074786e+00 -1.0342542303169694e-02 8.5884775666584247e+01 1.1412106152921996e+01 1.2981943204955712e+02 8.8441521580339688e-02 1.1398422074661196e+01 1.5999887827456257e+01 -9.5702259816753910e-01 4.5222283077775160e+01 7.0300159762047376e-01 9.3874390128503848e-01 -2.2320335781101682e+02 6.0836826720709183e+01 9.4824179620941997e+00 1.7389384596295375e-02 -1.8512944721109276e-01 -4.8696921824151264e+02 3.1754640470500135e+01 -8.9295961857932866e+00 4.6088532591143920e+00 -4.2078806188148974e+01 1.1871978477069045e+02 -4.1469830236419767e+01 -1.3619670487813014e+00 -7.6332096558693635e+01 1.3516009765689678e+00 2.1407898408822138e-03 -5.9933407755488233e+01 -1.3877289323200829e-03 -1.5603750318657261e-03 1.7797322424604829e+00 7.7946505609816015e+01 7.0363507278078413e-02 -4.5098096338554987e-02 3.6753532164839682e-02 8.2872913190250603e+00 -4.5882708904858927e-01 -7.9161822279880134e-01 -1.0880422095850979e-02 9.1572394092612228e+01 5.5817746703035294e+00 -1.2618207116948037e+02 -2.3343329742530852e-02 -3.2812739523851633e+00 -7.8017745241879609e+01 
      </Row>
      <Row Index="92">
        -1.2752522216679517e+02 -1.0771111342082804e+00 1.9582035461068153e+03 -3.3353932794379944e+00 1.5615081031364753e+00 -1.6409056761115789e+03 2.8950419120192528e+03 2.1309526165841817e+01 -1.2280600220153049e+01 2.7919054905768252e+00 -2.2517163098277524e+03 3.7015193372964859e+01 -3.5845841625705361e+01 -2.4210590446135029e+01 7.9324645658914342e+03 -7.6460123589262366e+01 4.2553694750785828e+04 2.7133745880419156e+00 1.2443754632025957e+02 2.0017909877188504e+02 5.7174143916927278e-01 -8.2617872430682182e+03 2.1698902069329051e-01 -3.2521814406427438e+00 -2.4469034525752068e+03 3.3737060545049608e+03 3.4160247214138508e+01 -1.0133523441036232e+00 8.0321055118474760e-02 -7.4830520402215188e+02 -9.2667324442416430e+01 1.0832397199701518e+01 7.1331430301943328e+00 -4.1525583111761371e+03 2.9191792324185371e+01 -3.9965898232340813e+04 -4.0403847342531662e-01 2.8597740117020817e+03 -1.0013483329256997e+02 1.0765354242539615e-01 -4.6798527977022532e+03 7.1680515335174277e-02 -5.1398369018425001e+00 2.5896158584058285e+03 -3.2345834630131721e+03 -6.5319974699737941e+01 2.1140207720964099e-01 -8.0552619994705310e-01 -2.3933382808957249e+03 1.4725796528160572e+01 1.6599727023066953e+02 9.0850616206924020e+00 5.4383349441401660e+03 -2.8684945251085583e+02 -9.9537726874423679e+03 1.6008597303516581e+00 1.2241961848530918e+03 3.3664271985461767e+00 -9.5220281423098641e-01 -6.1483545498698950e+03 8.8318354302100488e-01 -2.8390552603434571e-01 4.7210241256654263e+02 -5.8422733773216605e+03 7.8138905052095652e+01 -3.1790553712107794e-01 1.0274393083909672e-01 -2.0847989971844865e+02 -2.0225366512592882e+02 -4.3383696534030605e+01 4.0012325271527516e-01 1.3746412197759624e+04 3.1295091654203134e+01 9.2919336340371519e+04 7.9181325715035200e-01 -1.3651322463816621e+02 -1.5549349264171906e+02 -1.6962530768432771e-01 3.1250158917307854e+03 -1.6044289970595855e+00 -3.3449732703847985e+00 -1.1147787586261984e+03 -1.0172682349532843e+03 -1.9684935728786513e+02 -2.9962644612642180e+00 1.2649664493060491e+00 -2.0558436895761242e+03 2.6385700802505016e+02 -2.2116977518424392e+01 1.2693043148901779e+01 -3.4903673231132889e+03 2.0547354291751981e+02 4.1350967711567075e+05 5.7790439210804774e+00 -4.4528961524367332e+02 1.6718751734343039e+02 7.2841461208434621e-01 -9.0550536561976478e+03 -2.6721573299158807e-01 -1.3226790030219906e+00 -1.7048857270506214e+03 -2.2355620736274286e+03 -6.1187586716377922e+01 -4.1937868849867810e-01 7.0097649248053728e-02 1.1776021787971258e+03 1.8709636377302718e+02 5.0523533447322848e+01 7.9051447671407704e-01 -1.0991427278757095e+04 1.7627548415697584e+02 9.2520796076074213e+04 -1.3452846096157955e+00 9.4231258201599121e+02 -1.2960454485809896e+02 -1.9593139068364172e+00 -1.0508170963421386e+04 -6.6817709940405190e-01 -3.4913809402016538e-01 -3.0603984092586302e+03 -1.5529975216348830e+03 -7.4171471150246333e+00 -3.8449602211828993e-01 1.6094594900067691e-01 -5.7593818898972484e+02 -3.5482759309417020e+01 5.2963876229019434e+01 5.0506634252173370e+00 -1.0227071864366531e+04 -7.0941799368987162e+01 3.4250357553070819e+04 3.5219950992731919e-01 3.7244898734391023e+02 -3.8313527722571607e+01 2.0044747388546043e+00 -1.3630204732208280e+04 -7.9568966564478161e-01 2.4551082187389408e+00 -5.3862069917842746e+02 -8.4308015213012695e+03 7.0222456708084792e+01 -4.7965959937039859e-01 -1.5734365667621053e-01 1.6702321655675769e+02 2.9321320399034670e+02 1.0671600148562113e+01 -5.2137343417853117e+00 8.3158005623146892e+02 1.2867041346803308e+02 -5.5572145618915558e+04 2.0573998679835248e-01 -4.1269391171634197e+01 1.6493513837945383e+02 -1.6062252040364531e+00 1.8515190862043630e+04 -4.6669987438738891e-01 -1.7969997726001723e+00 4.4627750533289818e+03 -7.1661528110708396e+03 -1.2706840867418235e+02 5.6498217857784083e-01 3.1609447538609431e-01 1.2131639396179708e+03 -1.2666195185404194e+02 8.5612723540488815e+01 -2.9129284507454170e+01 -5.2992088520452380e+03 -1.7674087613115867e+02 9.2367688583649695e+04 1.9009102735744459e+00 2.3104027837478498e+01 3.3839896430629074e+02 1.4402796287067547e+00 -5.2909611687187607e+03 -1.2003277343190133e+00 4.2879943885799117e+00 1.1431443936965327e+03 9.5744606631411152e+03 1.0659440095603819e+02 -8.6888411899821882e-02 9.4742291486100227e-01 1.5921748998386088e+03 -1.2801660022083524e+02 -5.9325086282301797e+01 -2.0278802358476778e+01 -5.0457541781897862e+03 -6.6806338478305278e+01 2.0151014524897846e+05 -3.1111071109356727e+00 -1.3186026901037110e+01 6.5689464748551913e+01 -1.7933151452763356e+00 -9.0395346163753857e+03 1.7295091431757135e+00 -1.2924528188499051e+00 6.6263427121162545e+02 2.6798051099923050e+03 1.0791090026310701e+02 -2.7379041961168649e-01 5.9782020500700450e-01 2.1815529705778013e+03 -1.4458907989872587e+03 -6.3630148443809730e+01 5.8325537246499186e+00 1.5708324401324790e+03 -1.9389799365823342e+02 1.2572668691875711e+04 -2.1410918843654505e+00 7.8610712247083984e+02 1.3527964782732895e+03 -1.2381459544057206e+01 1.0187479419559490e+03 1.2275875896904829e+00 -1.0571152755262947e+00 9.9456545651994202e+03 -1.3286944859093153e+03 6.0965352890806378e+02 -7.9773516664010122e+00 5.5085142258886037e+00 1.3369725411818743e+04 -4.6331419387351752e+02 -4.5882070881720369e+02 -2.9482503672620896e+02 1.7718477507894531e+03 -3.5904714055482032e+02 4.2896286084689877e+04 -4.4762750066374792e+00 -6.0624902663663124e+02 1.5418114920570687e+02 -1.1958247412239542e-01 -1.2696692602445306e+04 1.2008408136101156e-02 -3.0318191440114062e-01 -2.3403972929362408e+02 2.4213742436768443e+03 1.0662378059723022e+02 -2.8731157264326934e+00 1.7066309133746596e+00 1.5541573275620021e+02 2.8546657652796483e+00 8.6687822718300680e+00 5.0560502953502351e-01 -2.0080789748898887e+03 -6.5441021577028010e+01 2.3122323604933568e+04 -3.4181045091477347e-01 -2.4190280717451719e+02 -2.5296087030711819e+03 
      </Row>
      <Row Index="93">
        3.8383592433810954e-02 -4.3147932147468371e-02 1.5277423236693721e-01 -1.3704287311123586e-01 -7.1698278357061884e-03 -1.1007081127900165e-02 2.8213678897300269e+00 -1.1778056999897757e-02 1.6404343183110001e-02 3.9772501975757553e-02 -3.7856041641362026e-02 2.7368189250410069e-02 -7.2809547402357566e-02 2.3187055812542212e-02 -1.3558093766933368e+00 -4.7611369476271648e-02 1.3772885694634169e+00 -3.2875717733686116e-01 -8.2180146732753201e-02 -5.6497267369650217e-02 -1.9148861764797687e-02 1.0113852517679334e+00 -3.0124136563074444e-03 -2.5896451136525833e-02 3.4764544571225997e-01 3.9171813939187814e+00 2.3419258013746003e-02 1.1764755440477614e-02 1.3725762050249557e-03 3.5634139079364502e-01 -2.1537587112106849e-02 6.6882920805028334e-02 -6.1602642124242379e-02 -2.8932410380098856e+00 -3.7974800468873582e-02 -1.4197245965624461e+00 3.9391672557109558e-01 -9.7244097769911914e-02 9.2364880305581210e-02 -1.5019075858434761e-02 -9.8251389386430077e-01 -1.1277314787918158e-02 -9.4548307377451124e-03 -9.1767241221532458e-02 1.2284139935800340e+00 -6.0880327208714599e-04 7.1137331896165001e-03 -6.4707766998362004e-04 -2.9919229927190827e-01 1.2923944861086056e-01 9.0287930082695311e-02 -9.0632873178840070e-02 -2.6617204156536900e-02 3.5418866315908626e-02 5.2986239423871098e+00 3.2355907883243162e-01 3.0766405738449976e-01 3.3452249704618131e-02 2.3249262646096724e-03 -8.9012654265025049e-01 7.6151634595346351e-02 9.3703968498375922e-03 2.6879254700179445e-01 -9.9701980668396573e-01 2.1202615990887352e-02 -8.7181267224245573e-04 1.6820572859228555e-03 -9.2197111580135549e-02 5.2158377197656591e-02 -2.4400978171712495e-02 1.7998056992958311e-02 3.1882105762619695e-01 8.6987168126725578e-02 -6.5794120678327772e-01 -9.9525225919187221e-02 -9.2158974630729418e-03 2.5427604498815981e-02 -4.0527441193702884e-03 6.4455507832462899e-02 -4.9874345991185010e-02 2.4248083758417138e-02 3.4600663977647628e-01 -1.6284244171110913e+00 -5.6553270914037057e-03 1.0872461434274783e-03 5.9264742292341795e-03 5.7997492125269190e-01 -8.8049022924678866e-02 -5.6116231793112092e-02 -4.1954768467213910e-02 2.4076974542269345e+00 1.0427487112974632e-01 5.7790439228939086e+00 5.2348720208721400e-01 -1.8048683635424823e-01 -6.0475861795391328e-02 9.0299511736589167e-03 -5.0027103547393281e-01 3.9211368673958177e-02 2.2264102474609686e-02 -4.3144105251030851e-02 -2.0823500815965224e+00 -2.8507556566324643e-02 -2.3045001269419762e-03 1.2560311168021429e-03 -2.6026514217664953e-01 -1.2532530087033189e-01 -1.7507380768160080e-02 2.5033899760935119e-02 -1.4253594491165131e+00 -5.1437168878065376e-02 -3.3882086630287489e-01 -7.7165242495707040e-02 -4.3088792372145690e-02 6.0941157806581714e-02 -3.3407837294744773e-02 4.5794172635797281e-01 2.9445509343280652e-02 -7.1192979778004362e-03 3.0023215313953733e-01 2.1148379564271345e+00 6.2031131702732431e-02 3.2645148893944331e-03 8.9396260823030509e-04 -3.2886944538462104e-01 4.6927946672308873e-02 -4.5551680541682273e-02 -2.2674938270793397e-02 2.5413271546131000e-01 2.2105595782922427e-02 2.0127901177554151e+00 6.5949860736100457e-02 -1.1217734731066464e-01 2.9526015984334995e-02 -1.1278197564227616e-03 -1.8330352575580946e+00 -5.2017833797221989e-02 -2.6625999767265728e-02 1.2695514482766157e-01 -1.7153269099071622e+00 -2.2274748430845648e-02 1.2269977357279430e-02 2.6949513799472006e-03 -5.3296778304684267e-02 -1.5522463856127217e-01 6.9096672428073894e-02 -7.9605611439035329e-02 1.0375844123745992e+00 1.0818225273396820e-02 4.5982437481870875e-01 4.1249365308191299e-01 5.3449217382876668e-02 -7.0059818569092547e-02 -2.9136386095193027e-03 1.8241892867648142e+00 2.2145083331467801e-02 -1.2205939856921432e-03 -1.4394148501837967e-01 -2.9282134506981450e+00 3.9314918729583398e-02 1.7064941610443101e-03 1.5029893614352590e-03 -3.3151606952509388e-01 1.1150201188870845e-01 1.8998134151286111e-01 -3.6204100541608678e-02 -1.7043227838130406e+00 1.0814419878468055e-01 -1.3520820095181989e+00 1.4682755882301751e-01 -4.4171063648818043e-01 -1.0781750784560684e-01 -9.8390998698531726e-03 1.2234058536590808e-01 -8.7370991676954349e-02 -4.4383068948097480e-02 6.1830285003247032e-01 9.5302041010993577e-01 2.0195244044137528e-02 2.3416045185692264e-03 1.0345423945640241e-03 -2.1595809410973743e-01 2.7864352660836861e-01 -7.9794308408101533e-02 -6.7918073951444662e-03 3.1610980376957620e+00 1.1334844005567107e-01 2.1188156342244113e-01 1.3748986461297352e-01 1.3180634665957536e-01 1.5055572563163255e-02 -9.3446342590259197e-03 4.4401460285147909e-02 3.7976256244965489e-03 -2.8391568428709740e-02 -1.1563066633073604e-01 -9.5921051338579666e-01 6.0549473297563106e-02 7.7215214168542060e-03 -8.6952446537110525e-04 -2.3362783532377174e-01 1.4863083857320980e-01 2.3276730546142432e-02 -3.8145297733387859e-02 -3.7648543534774461e+00 2.7919287008669524e-02 4.0821625244635582e+00 6.0173148235889921e-02 -5.6817817855326469e-01 -2.2096932328121022e-01 -6.8819441783848190e-02 -3.9152931914366818e-01 1.8909270160246652e-01 -2.9900721850516976e-01 1.5906692691829107e+00 6.2850159113213522e-01 3.3326788667788954e-01 6.7140159958881812e-02 -3.2914117693105288e-02 -6.8675825928537648e-01 2.3361938895462764e-01 -1.6559188673935038e-01 -5.0971967496481962e-01 1.6504238860657949e+00 3.1876389347139522e-01 -2.6308430046455555e-03 -3.4355585739320144e-01 -1.9264660172790826e-02 -3.7803685388092027e-02 -1.0709902491938608e-03 2.2519628492199573e+00 2.1764089568535511e-02 1.5333297829714487e-03 3.4069390963875068e-03 8.6829045744867228e-01 -2.2168177834729030e-02 5.5373415168275611e-03 1.4035508779202437e-02 2.9966715120799625e-02 1.4967308819087394e-02 1.7021685658219196e-02 1.5765601430252482e-04 -5.6128261736161278e-01 6.0996233580979942e-03 -5.7405548632368664e-01 4.8362497531452983e-02 -4.9697504145189697e-03 -9.0744670621520818e-01 
      </Row>
      <Row Index="94">
        5.3678825400640449e+00 4.8488015837278908e-02 -2.3232494480907917e+00 -1.3585382031715199e-01 4.0164808477356928e-02 1.2874061678489670e+02 -6.8363042156398296e+02 9.2806984117565889e+00 9.0842923187389582e-02 3.2133633019456442e-01 1.3058485869111610e+02 -4.9891621973365545e+00 4.5221853887196630e+00 6.5019330808536324e-01 -2.5002648946369834e+02 -1.7019639229867607e+01 -2.8179125815629959e+02 3.3333384016259515e-02 -1.1576633668679278e+02 -1.0086589341284707e+01 3.9903554809825437e-02 2.4908345898427069e+02 7.8445675514558388e-02 -6.1393631187002029e-02 1.8265476149693131e+02 -9.6824809070321498e+02 -1.8112813960760832e-01 -2.3825703436159529e-02 1.1856389822241908e-02 7.9775818216932748e+01 -3.6591530919540673e+00 3.8078322356450371e+00 1.3766058658620750e-01 5.6202818043985667e+02 1.6527055694023147e+00 1.4375123380711302e+03 -3.1137108244820411e-01 -4.5179203467019801e+02 -1.4535097800748190e+01 5.9451394589814299e-02 8.2312571630295679e+01 4.0688666598725831e-02 7.6955510661719018e-02 -5.8581250644288957e+01 -9.4288078565523028e+02 1.1298251841003029e+01 1.9976722805381542e-02 8.1153453423667088e-02 -5.2863888017658610e+01 6.5152547392062843e+00 -8.7508327433606610e+00 -2.5141043059775486e-01 3.2701437919167802e+00 -3.5894484157673830e+01 -3.2233325397378485e+02 7.2673998278787622e-02 3.7751396574231330e+02 9.3965949797993229e+00 -1.2494482943429830e-01 3.7670811026636511e+02 -1.2785328392237716e-01 1.3231234853321894e-02 6.0058983557857573e+01 2.6150971660390496e+00 2.3871678779833019e+00 2.3661220607891664e-02 -7.3493325100457696e-03 9.3214226676017930e+01 4.7055257550673559e+00 8.8643303011849639e-01 6.6227381403223262e-03 2.3876916338004455e+02 -4.1349775860835507e+00 6.4815785197257071e+01 1.6137178173812572e-01 9.9346776665565670e+01 1.3879426227140357e+01 -4.6155320318575832e-02 3.2504061441868544e+00 -1.1430104790633777e-02 -1.3495238378959584e-01 -7.8433714809507364e+01 3.8718551974929869e+02 -1.9652642512664897e-01 1.8823375083229621e-02 9.2037287476990678e-02 -1.2302737118743451e+02 -1.2307615755125880e+00 -9.9908005390898325e-01 3.5964628677720611e-01 9.1611311038414738e+02 1.6230723335174844e+01 -4.4528961533030235e+02 -1.8048683639426599e-01 5.5384567539021373e+02 -1.4948670043232843e+01 -1.2005909169981821e-01 1.2323059781234983e+02 -1.3054885092616264e-02 -1.8616956967968265e-02 2.7210083553101867e+01 7.1347446074875245e+02 -7.9850753996075756e+00 1.9325164978508870e-02 -1.4701999772816100e-02 -8.1618933411315084e+01 -4.4581910322866509e+00 -6.0149628984810377e-01 -6.3149370278388461e-01 5.8418802624195814e+02 1.5570114986862372e+01 6.1111775258399109e+02 5.2714592460390008e-03 -9.5890789953991771e+00 8.2338641855785681e+00 1.8594931497438269e-01 8.4733595452775478e+02 -2.4740538489819563e-02 -8.0279262648499730e-03 4.7004454977435401e+01 1.2521572541685105e+03 8.4190436885318167e+00 -2.1430429869138672e-02 -1.6992986673730323e-02 -1.5853587458489454e+01 4.2628206606801733e-01 -4.3967946459959606e-02 -3.9643395611481475e-02 1.0189609967768192e+03 -1.0056798597978270e+01 -3.3206608990937400e+02 6.8823853706811475e-02 -7.8608472836364228e+01 7.5641511017981795e+00 -4.6197754928105739e-02 4.4490021671123395e+02 1.2828072559972159e-01 9.3523108097468888e-02 -2.4449216376058757e+01 5.1737326860427856e+01 5.9479785343864933e-01 -3.3195285671194355e-02 2.0366897722297286e-02 2.9501411681529135e+01 -4.3071147612426515e+00 7.8958551654202558e-01 -9.2210298098507337e-03 2.9196380210423376e+02 1.9154616955202073e+00 7.6757091121375561e+02 -2.6412679447751297e-01 -5.5418213168624789e+01 -1.8699964377975451e+01 -1.0509687494205498e-02 5.9537828263286190e+02 1.0757563307664897e-01 -1.0188586731579502e-01 -9.2083200779743919e+00 -7.5344286820885611e+02 -1.2920668242672486e+00 -2.1609824524415476e-02 -5.9402657773325471e-02 -5.3332821927977477e+01 5.9371967546305768e+00 3.3661801904281248e+00 -2.8481929495042424e+00 -8.9810829437803477e+01 -1.5955177085081878e+01 -7.3575407978985459e+02 1.9966020453612987e-01 -4.8609336921252850e+02 -1.6328517154807123e+01 5.7766742198855345e-02 -5.2648041649001527e+02 9.8080518789541715e-02 1.0842855848989046e-01 -6.0894802087198286e+01 4.7031939341801524e+02 1.4790787889176615e+00 8.9019420367877217e-03 4.8534115978994541e-02 -1.2162498379955477e+02 8.7536328179071230e+00 3.1109221095325239e+00 1.2041724258144870e+00 -9.2355052734842252e+02 -5.5966583931503084e+00 -1.0291135668282413e+03 -8.6348878921801597e-02 5.1551004564109135e+01 -1.0127593550220356e+01 -2.0438455354178858e-02 -3.1994951885294461e+02 -5.1735025443954481e-02 -1.0338005136025175e-02 1.6904369481252147e+02 5.1770662072391667e+02 -4.4068944312441864e+00 -4.6952871241961826e-02 -6.3041750809892549e-02 1.4271124755455742e+02 -8.3350837759146241e+00 9.3678893884311378e+00 7.5959712244107935e-01 -1.4836424039708618e+02 3.5064485395978338e+00 -3.1261622934069294e+02 4.9070428514868161e-02 -2.8775449650275152e+02 -1.0476346339318459e+02 -8.1066463926078247e-02 1.3697628614791847e+02 7.7673735828125889e-01 -3.6845420090188807e-01 6.6169227507519508e+02 -1.4431542348153903e+02 -1.6565539665286508e+01 -2.0462803721720391e-01 -6.7113506463854722e-01 4.2983234579090748e+02 1.5867147607599691e+01 5.0430567324798247e+01 -1.4630673277379188e+01 -1.1527147399736032e+02 5.4336170178582563e+01 2.5682157226744027e+02 2.3361222283195513e+00 3.2708211350593888e+02 -6.3914848205763679e+00 6.9987316786697222e-03 -8.2512606868855084e+02 -1.5351646530273096e-02 -5.2206635078038801e-03 4.0695750996705300e+00 -1.2372362299933094e+02 1.3935442093202823e+00 2.5587495924146511e-02 2.4769796343492578e-01 -1.1246184913750135e+01 8.7794578744366480e-01 -1.6851284300206946e+00 4.5819327531360504e-02 2.2352193783854989e+02 -6.2674157582311754e+00 4.0683542551958840e+02 3.0297463504208935e-04 5.5437205917097018e+01 1.2203491969701729e+02 
      </Row>
      <Row Index="95">
        -3.9980718007960320e+01 5.7631240845637421e-02 -4.2468111267313361e+01 -3.7976946569301617e-02 3.7334230781027600e-03 -9.8225089690648019e+01 7.2980756834149361e+00 -1.5907165773005545e+00 -4.9957498620360363e-01 8.0680041365871244e-02 -1.3469063741125865e+01 2.1378105350304395e+00 1.2284751003608108e-01 -3.4857181133702397e-02 9.0693412029304636e+02 1.9880500395665877e+00 -2.9964644314348698e+02 4.3210588745751011e-02 1.6363723820366431e+01 5.2788678904704284e+01 3.6686058526356646e-02 1.5036342770792544e+01 -3.5306446995036822e-02 8.9227670060836317e-03 -7.6662233613431454e+01 2.6242161932459567e+01 -7.0084409043192863e-01 -3.4597834072883416e-02 7.1313500662881779e-03 6.9419515306094581e+00 1.0995792106259614e+00 1.0169786992482841e+00 -3.8444182954663120e-02 6.9934991683096371e+01 4.3254210929153487e+00 -1.4091801113821566e+02 -4.9750242972550041e-02 1.1035213820129280e+02 -5.0684255058265990e+01 -3.1038045027798944e-02 -1.2715841677194931e+01 1.4143988346404512e-03 7.4530410564875638e-02 3.3444946066942066e+01 9.4060892906039953e+01 1.1978345946370210e+00 4.4122476641632602e-03 -6.1327023001922498e-04 5.2422380244242959e+00 -5.7387908734381199e-01 1.6206514276855160e+00 -2.5373528643862336e-01 3.8285623667133041e+02 6.6360521927686795e+00 4.2489874642958405e+01 -2.2111653878255311e-02 -4.0372710210504010e+00 -5.2944787612788403e+01 2.8110053506452459e-02 -3.3744042688515037e+01 4.2860327776907070e-02 -2.0272028643887552e-02 -1.7172251853160560e+01 -9.2602942238096148e+01 -1.4728772146918345e+00 -1.6484599969999181e-03 5.0280758029828121e-03 -3.0982751029914169e+01 -1.9640089457971044e-01 -2.3136763494767365e-01 2.1727157418285969e-01 4.4111232486689858e+01 1.6363385799759271e+00 -2.3090262345600624e+02 1.7812197494095017e-02 -1.1129243868422192e+00 -7.8240996417654969e+01 1.0747911223916162e-02 -2.3895411115139723e+01 5.3425362326379400e-02 1.0402099844571921e-01 6.1549980285468337e+01 -8.1290181716904044e+00 -2.0978179862431716e+00 -1.0384339105348772e-01 1.6066706061963032e-02 2.0278782824617977e+01 -1.3487741160206497e+00 -4.2401108389894944e+00 5.8702443775928259e-01 -5.2840545163840488e+02 8.5198530519846827e-01 1.6718751815526008e+02 -6.0475861491340765e-02 -1.4948670076206326e+01 8.4483856413115475e+01 -9.0463484041834706e-03 5.7848564096359233e+01 2.9520122536866276e-03 2.0314794730799855e-02 -5.4578767011873424e+01 -3.2436834791420125e+01 -1.0034631908612153e+00 -2.1225354511039823e-02 4.3158509745428479e-03 8.1149672949686646e+00 4.8764026410507411e-01 -2.2913809554062148e-01 -3.7293911172526206e-01 -2.1707096405327320e+01 -2.7253333242873223e+00 2.8059969078265556e+02 2.0228719260920982e-02 4.3042447350919247e+01 -6.6810766168624468e+01 2.2129660768494298e-03 -6.3135045551048961e+01 1.3496257747383494e-01 5.5687518003536593e-02 -5.9397478138383860e+01 2.6784736248420842e+01 1.5160754576662863e+00 2.5995554453333552e-02 6.3537657295950102e-05 -2.2994176193195526e+00 -3.1896697232376470e-01 1.9998371154462731e+00 2.7592671639795580e-01 -6.7500319997966290e+02 3.1796005925285158e+00 -1.4984430590968529e+02 -5.4318723671019351e-02 1.6000893534381682e+01 -3.5917132569277996e+01 -3.1292937963983178e-02 -6.4529031582181233e+01 -3.8981776016476705e-02 2.3771583904229751e-03 1.6839112252753694e+01 -7.9785303294658661e+01 -1.5705305608571507e+00 -1.4854814266590674e-02 2.7658805706225150e-03 -2.8386935609509237e+01 5.4679651910043270e-01 -5.0066076392572501e-01 1.8910125914408127e-01 -4.6780938038416207e+02 1.7258527483791113e+00 -4.2832157589495182e+01 -6.5334790947064000e-02 1.2334028831683099e+01 9.2213769866859550e+01 3.7950410421719080e-02 1.7692568708141280e+01 -6.9607201015981710e-02 -4.2791657735783209e-02 8.5768136048647705e+01 4.4590943120629220e+01 4.8247949205661356e-01 5.3361644124734174e-03 -6.3750519925536951e-03 -6.5904576995566622e-01 4.2483348443869318e-01 -1.5468166076442857e-02 -8.3447527227802865e-01 -2.3583525476604700e+02 2.4715444455159314e+00 7.0290127614978701e+01 -6.2502648976103123e-02 5.7061047911123794e+01 1.0589315204755860e+02 1.2412597380122518e-03 8.0854177617558889e+01 -3.5421008655173808e-02 -6.5606000191677283e-02 4.7693968106816996e+01 -7.4078764833684517e+01 -1.3016180277530172e+00 -4.7184824549408875e-03 -1.8706793183067179e-03 -8.2248892009052881e+00 -2.2602937796869984e+00 4.6023643223857924e-01 -1.9172790964516950e-01 -3.2665977256057022e+02 4.5547518068479320e-01 1.2152639476935537e+01 -5.4144896530290351e-02 -5.9891958546142785e+00 -2.4355957224454524e+01 2.5672320330552657e-02 6.7925351226372356e+01 8.9921918523980793e-03 -2.5132715839740596e-02 1.9122757560965347e+01 -4.4583823232328591e+01 -2.6775520953859022e+00 1.3461868851610966e-02 -2.4151883249488382e-04 -3.3923632475880467e+01 -6.3683759274411944e-01 -1.0969218676605430e+00 3.2029416271013550e-01 -4.8309353361346911e+02 2.9492524185399134e+00 2.3180207787411504e+02 -4.0015047952687066e-02 7.7242839405467222e+01 2.1988792382864577e+02 3.5470370916744531e-01 -2.6734684643952640e+01 -6.0854582812612257e-01 -7.7890784235441901e-01 1.1101434496311614e+02 2.2842098871832583e+01 -1.9448808907933653e+01 -4.2764207083882921e-01 -1.4035739384385437e-01 -1.8323622559168697e+02 6.6527424619308597e+00 -1.3794538729705692e+00 -7.7655808953534908e+00 -8.8353910210408429e+01 -1.6325590659251347e+01 -2.1743362438492275e+02 -4.8347826043588515e-01 6.8675476652280949e+01 4.2795943133677653e+01 -6.9841533292881231e-04 7.0824830861729424e+00 7.3947194698490478e-03 3.4415420794192235e-03 -6.3624965189921721e+00 1.0377428163465250e+02 -1.4514767094645797e-01 -1.0780488388045206e-01 2.9080358851409048e-02 -6.9952265731188845e-02 7.6022410796916640e-01 3.6916513982357196e-01 8.1064917088802153e-03 2.6211837391436734e+02 2.3862003129245437e+00 -2.1409706277045871e+02 -1.1432697134564731e-02 -1.5130200612460786e+01 -1.0365280540488446e+02 
      </Row>
      <Row Index="96">
        2.6967657306292470e-02 -5.8188473545948582e-01 4.1461571410764009e-02 1.6412173769354332e-02 3.0376194295052450e-02 -2.4550290471233893e-01 5.2717206283705309e-01 1.2937380243334573e-02 -6.5338298800507497e-02 -4.4492472319069019e-02 -4.5242644525842479e-01 -5.4899650087463669e-02 -8.2510868433018913e-03 2.1943272985964768e-03 -1.0420552599780208e-01 -7.9887615174811799e-04 1.2335283330758102e+00 -1.2911784318781372e-02 9.5136338734846504e-02 -2.5050362939509796e-02 -5.0605397478754810e-02 5.3900523282209178e-01 4.3492166516738706e-03 -1.6299916982182694e-02 -3.6889786286337767e-01 4.1310479381536425e-01 1.5699311330536148e-02 -3.2520377026550307e-03 -5.2530413206213211e-03 -2.0750931346446322e-01 4.2500813553488115e-02 7.2164120933848608e-03 2.1811799394768627e-03 -3.4030423713763902e-01 9.9983747295482317e-03 2.0826075638615293e-01 8.0119097778350579e-03 1.5051331508480176e-01 3.6789406779007550e-02 -6.1677726173172687e-02 1.1400302324636868e-01 4.9287190824003346e-03 -1.6479924449718908e-02 4.8801244816058897e-01 4.8199039275641553e-01 3.2510277179526502e-02 1.7118689003847720e-03 -1.1197133912084212e-03 6.4322319342409173e-02 1.4832801981810917e-01 3.2201680194930304e-02 -5.6901547515383233e-02 -4.3122630751986435e-01 -4.8294974765746568e-03 -2.5488601575590408e+00 2.7380632013027650e-03 -2.0774641990192322e-01 2.0291968623035728e-02 5.4684949797557891e-02 3.0185068432547268e-01 -9.8115988151477040e-03 -6.1437022436855449e-04 -7.4140360928140581e-02 -9.6406854381712037e-01 2.5481553038389393e-02 -1.8954031720206377e-03 -6.3606004881266998e-04 -3.1784821838637878e-01 3.1496746484663163e-02 -1.0191708366932062e-02 9.0202613562890832e-03 -6.6554894773696560e-01 1.3607858376786908e-02 1.4856008316164449e-01 -2.8173020313175812e-03 -3.8965007693242959e-03 4.2491518269287099e-02 1.7438234024625032e-01 1.7888749479607213e-01 -2.2704145470484605e-03 1.4552076372210898e-02 -4.2142031395655977e-02 -2.3107403281028382e-01 6.8323381538561989e-03 -2.2649792218391696e-02 -1.7082757939343107e-02 3.1660549473785871e-01 -1.0247350873760297e-01 -3.0092064523614681e-02 3.2565119955989985e-02 -1.1414206590648313e-01 1.0764354972707224e-02 7.2841461597338419e-01 9.0299511752647277e-03 -1.2005909185972996e-01 -9.0463485380496422e-03 3.1629684449824852e-01 5.0843803797754106e-02 -1.5893106995422124e-02 -3.6249887928389776e-02 -2.7757246548662806e-01 -2.0925433277093752e-01 -1.8909234079482751e-03 6.9960322267122680e-03 6.6630657495952029e-03 3.3197145497979363e-01 4.8465948137805803e-03 1.3877688845733316e-02 3.1909089950701235e-02 -2.7709653892088681e-01 -4.3683210372096326e-03 -6.6779932153477972e-01 6.2860358926400406e-04 -3.8919379090657458e-02 3.7320369750773352e-02 -5.1645907923452683e-01 6.6426674576621991e-01 1.5657824383482465e-03 -2.6050327343217574e-02 -6.0240306266196786e-01 3.6963235588945618e+00 -2.7367642213359793e-02 5.9570439613232306e-03 5.1545713859928481e-03 -1.4025992421578976e-01 5.2038191413511015e-02 2.0465511756196507e-02 4.4113195955641261e-02 -3.5268292445107363e-01 -8.3405455560943143e-03 -1.9892172641910784e+00 5.8116922594592443e-03 -7.2208279500238226e-03 1.4823580054903977e-02 1.4257415151744166e-01 -3.0158414601601180e-02 1.0667365533264498e-02 1.6341382780408323e-02 5.3279287049008417e-02 -1.5324851553887129e+00 1.5211341313715820e-02 -4.3717138245253683e-03 -5.7929653773719017e-03 1.8850020792069699e-01 -1.1658420743153113e-01 1.7960886997176642e-03 -4.6165535935415392e-02 1.1930473490883742e-01 1.2421896288287826e-02 6.5368546859826893e-01 6.1289285690391705e-03 2.3049996052577626e-02 -4.6657612798041190e-02 2.1735457073888680e-02 -3.5831824728897743e-01 -1.3022093362011298e-04 -2.0590753669175517e-02 6.3766567677270380e-01 -1.4615195899239621e+00 -1.0484210642708032e-02 6.2013860928168650e-03 -3.7162288438185509e-03 3.6995273622191543e-01 9.1121730283141744e-02 1.1058524994537522e-02 9.9690831963821034e-03 4.8990134086670878e-01 6.4927014401878549e-03 6.7695288552204147e-01 5.8921189993548740e-03 1.8315838405661555e-01 -5.1293921687099397e-02 -1.1278125156337980e-01 -1.2380805871845979e-02 1.2147286427993422e-02 1.6266061092452159e-02 1.4571576099747130e-01 -1.0376234967346991e+00 -1.5262698438466671e-02 4.5978408849842558e-03 -5.8488834986588573e-03 4.0188959886744158e-01 2.1783602492405157e-01 -9.1932366289701195e-03 1.9575858902243920e-02 1.6648913361568418e-01 -1.2214387050147324e-03 1.2298695669904625e+00 3.3582126271901247e-03 2.3495814678604621e-02 -2.9045237507097851e-03 -3.7700645946284778e-02 1.4779895070644677e-01 -3.9953455688707968e-03 -3.1546109702979407e-02 -4.8870024811403123e-02 -1.1567237359175886e+00 -3.7885671171651314e-03 4.3309985289797237e-03 1.2253545836170368e-03 -3.1728445688224638e-02 3.0224353674197180e-02 -1.5487152081834210e-02 9.4204424528455233e-02 -4.0556649119753096e-01 2.9812652519696781e-03 1.1951630185845319e+00 6.7877439841950368e-03 1.0109433974696902e-01 -9.7011113358813184e-02 -1.1695662942179490e-03 -1.8524090180728814e-02 -1.9611834941182561e-02 -1.6592404928197002e-01 2.3766331900777615e-01 6.4037082515882471e-01 -8.4942449496358541e-02 -6.6876872276090751e-03 1.9660331521334465e-02 3.6992883118134579e-01 8.4356558873048826e-03 -1.0660221685206744e-01 1.7292368106801614e-01 -8.1243759700202212e-01 1.9183826860147857e-02 3.2780010011170191e-01 3.0237360771469213e-02 -1.8072291644528971e-01 -4.1942848339171501e-04 -1.7840636945051627e-02 8.2469023374915196e-01 -1.1779620133822231e-03 -2.5561002242132629e-03 -2.5281538741209530e-02 9.9787927706430202e-01 4.6036245738924914e-03 -1.1386744523464831e-02 -2.1816230339146141e-02 7.3509665433134141e-02 1.0744181876719605e-02 2.4251131027635819e-03 1.2631316293929187e-03 2.8375256483752764e-01 1.5569205102902606e-02 -4.5459855508136116e-01 1.4993242786683954e-03 -1.0264084680664975e-02 -9.7368691909677274e-01 
      </Row>
      <Row Index="97">
        -3.6225529020048270e+00 -7.8872412996133789e-01 3.3887204942703247e+03 8.9044410696078558e-01 2.9222443862818182e-01 6.6398352339863777e+01 3.9625174347162247e+03 -1.8946793882096244e+01 -9.6524316018249179e-01 4.2043283102479706e-01 -1.4430344871804118e+02 -5.0403085917234421e+01 2.0234457388520241e+01 -7.1083402913063765e-01 3.2754981841495373e+03 2.0582332555204630e+01 1.5579006361961365e+04 3.9134183185524307e-01 -1.8731255594268441e+02 5.8419217437505722e+01 -3.4422439057379961e-03 -8.7202791966646910e+03 -2.8464835937484168e-02 -3.3816585061867954e-01 6.2106811404228210e+00 5.4556461606565863e+03 -1.4332425445318222e+00 -1.2164804976782762e-01 5.5203218475071480e-02 -4.2118670697527705e+01 -9.9215323030948639e+00 1.0523179210722446e+01 -1.0655758873908781e+00 -1.1989615112598331e+03 -9.7708820097148418e+01 -1.1675672961294651e+04 -9.3010591837810352e-01 -1.1219061503300827e+02 -7.3006412836723030e+01 -1.0427812480338616e-01 -1.0499490182418376e+03 1.8622301766299643e-01 -1.5821299955132417e-01 -2.3983448906242847e+02 3.2535207414627075e+03 1.1188538438203275e+02 4.0869432090403279e-02 -3.5225176914536860e-02 7.2011764304153621e+02 6.9821070998907089e+01 -2.1965537853538990e+00 -2.3607240767211985e+00 -2.4810744024030864e+03 1.6857564800846532e+02 -1.1716171023331481e+03 -2.1216919705329929e-01 2.7714014445617795e+02 -6.0447086462166411e+00 3.4071868736646138e-01 -4.7303153154850006e+03 1.8000410096283304e-01 -2.4859010871023202e-01 -6.7442979875206947e+02 -1.1106292256712914e+03 5.5321086708456278e+01 -6.0085750251346326e-02 1.9325211604154902e-02 -1.1751793421412240e+03 1.9644401500001550e+01 1.5942116966471076e-02 8.5811168325017206e-01 -1.9272026384451897e+03 4.3159333186718868e+01 4.9862206015382399e+03 4.8758605058537796e-01 6.8958609932074353e+00 -7.9766632255632430e+01 1.9159952245536260e-01 3.4874228705763817e+03 2.9856142122298479e-02 -4.4325755136014777e-01 7.4384550645528361e+02 -2.1182069626152515e+03 -1.1330197691917419e+01 -1.9827377749606967e-01 1.8548295107029844e-01 9.7561451707344122e+02 -3.8065981775522232e+01 1.2885585408657789e+01 -1.4885693474207073e-01 1.3572181505539163e+04 -5.3350532218813896e+01 -9.0550536205194676e+03 -5.0027102304738946e-01 1.2323059648275375e+02 5.7848563801497221e+01 5.0843807955970988e-02 9.9159300803644047e+05 7.9789506511157349e-02 -3.1480371135073337e-01 6.6353962492197752e+01 -4.3967128943595308e+03 -9.6955091526611255e+01 -9.8344478050003958e-02 -8.9545096654565226e-03 3.5833314454555511e+02 -5.5655425987029687e+01 2.5465211787840474e+00 -1.3617398999766441e+00 -1.2829629671812057e+04 -9.9571755692647912e-01 -3.0674894920858969e+04 -4.2993284997798487e-01 1.9353741168975830e+01 -6.2172898181714118e+01 -4.5696767823750062e-01 -1.0256920585025335e+04 8.4133122964246375e-03 -8.9702787967594497e-02 6.8439771377436853e+02 -4.3222661767614700e+03 6.3079146892058930e+01 -2.6172093931998486e-02 1.1763923910989980e-02 6.7582826480875838e+01 9.6859300796131222e+00 1.6993855426444895e+01 6.1324814795632943e-01 1.5840955352783203e+02 5.7754016302595744e+01 1.5313909431599395e+04 -9.9250070109115171e-02 -6.6609405513400645e+01 -1.0630359449601038e+01 1.0950620660451387e+00 -1.7266922095640912e+03 3.3798610893237435e-01 2.8157551638313638e-01 -7.4366207918152213e+02 -2.1777892684936523e+03 -7.4156912686303258e+00 -2.2200966730702376e-02 -4.0420468628920153e-02 -1.1275914910063148e+03 -7.5462353053119855e+01 -8.1998573730666209e+00 3.8576204609125853e-01 -1.6990330840349197e+03 3.3888700194656849e+01 1.6865524911880493e+02 -7.9891423952213758e-01 -4.1797601714730263e+01 9.1869072390613582e+01 -2.8606983573200817e-01 1.1593997925024581e+04 -5.1665492402496793e-02 8.7897219517948447e-03 -2.1105578427298917e+02 6.5055176821812129e+03 4.5985139929573107e+00 -1.5013970614683111e-01 1.2939022910639236e-01 5.7246363487510689e+02 8.7260907163259276e+01 8.8366696713954482e+00 -6.6414507807590517e-01 -8.8458795703947544e+02 1.8949049521255802e+01 5.1045450159013271e+03 -8.4414400838305848e-01 -4.5475211203329872e+02 7.0462236598995958e+01 -1.2775168925177932e-01 -7.6971375053438496e+03 -2.5364138543939918e-01 2.2733940217370013e-01 4.4204635777079568e+02 -2.2871196963111579e+03 2.6632554223939152e+01 -2.0888007969377911e-01 1.6447114919469982e-01 7.4964617525738367e+02 1.4712734553186311e+02 1.6864424845274506e-01 -2.8322357484211875e+00 5.0349689051951327e+02 1.6705732180076744e+01 -3.9729397826242125e+03 -2.6063459880420847e-01 6.6014429541066193e+01 3.6284370466358432e+01 7.8209770611736507e-02 -1.0162592283646434e+04 1.2775817565428527e-01 -2.7328968649060748e-01 1.0702705489079736e+02 -4.2419991312399652e+03 -4.5595134305013161e+01 -1.3663770694658289e-01 3.6948426713996459e-02 -4.3052570390213037e+02 -8.1639257079184148e+01 1.2808524731353899e+01 6.6104132335709986e-01 -6.3686655942763782e+03 5.3364473930171826e+01 -1.3981258564014752e+04 9.3567191461337029e-01 -4.3448655145555750e+02 3.5950573919793055e+02 -2.5333825272112276e+00 2.3275650199599154e+03 -1.7885524602691172e+00 3.2689648327032894e-01 1.2254484142782521e+03 8.2126811963682940e+02 -1.4879923491649018e+02 -3.2423932221690062e+00 1.6311361839845264e+00 5.5304741663076788e+02 2.9411664620723809e+02 8.0515333063789541e+01 -1.8023581519580603e+01 4.3976393054333366e+03 -1.8225426362288846e+02 1.0269867144480037e+04 -1.6653450194371544e+00 -1.3853027786944822e+03 3.7486830375702063e+01 -1.7855844311001890e-02 -1.3913668986092036e+04 4.6394640508277761e-02 -2.8586036796858345e-02 5.9932941696440025e+00 5.3599794487692407e+03 -5.4550420969489899e+00 -2.6995882375452274e-01 5.2760448544516503e-01 1.8026922378209059e+02 2.1107805898933393e+01 4.6124266580367719e+00 6.3530486701576155e-02 3.4021919623976009e+03 1.4805923837256032e+01 5.8585646448326188e+03 -1.1161179221421944e-02 1.3433450057322486e+02 -5.3550809309223669e+03 
      </Row>
      <Row Index="98">
        3.7544966521251277e-03 3.3146978557314410e-02 -2.9065310013538692e-01 -3.1397415225778369e-01 -2.7418406261448314e-02 4.7595013820682652e-02 5.4930808147037169e-01 -1.8381438229840175e-02 4.3871011688063101e-03 4.9109014140846202e-02 1.3090066683389523e-01 2.9946104717055277e-02 9.9020800280413823e-04 2.3024705887312535e-02 1.3507000853689135e+00 1.5111150858729161e-02 -4.7530847846064717e-01 -6.4821107852193194e-02 -2.5215663470817162e-02 -1.4653313391136180e-02 5.1001123440741480e-04 -2.4056263210513862e-01 -6.8942729141078907e-02 1.4764039439300269e-02 6.3311368030554149e-02 5.5877079305594179e-01 1.1842864751088200e-03 4.7730402039647402e-06 -9.5153672548242696e-04 -1.9559880474084146e-01 -7.8539479545725044e-03 3.0868950305887211e-02 -6.2081690014821334e-03 2.2128066037169258e-01 -2.1525594815102522e-02 -7.7091524683055468e-01 5.4364954048812919e-02 1.9403331715415517e-01 3.3512563371743909e-02 9.1371753924831545e-03 6.7927838694174625e-02 -8.2749464295124753e-02 2.9624459067818520e-02 -2.0970053352357354e-01 -2.0220242048526416e-01 2.3997315739236930e-02 -1.0488163999338163e-03 -2.9867450950038510e-03 -2.9468517165162211e-01 2.4720209003135096e-02 -5.6527488604274367e-03 -2.2578130261802457e-02 7.7480748176549241e-01 3.1970973422622007e-03 5.5822997544601805e-01 5.1001429524350606e-02 5.9608672601598300e-02 -2.2604561762128855e-04 -1.2661467041850116e-02 -3.6338529643217043e-02 2.8592722208316523e-01 4.0885910502111433e-03 -1.1533484950086859e-01 -3.7081535352263018e-01 1.1960377492869156e-02 1.5879525070792155e-03 1.1446418688131565e-02 -3.1793567535691775e-01 -3.5389494203172944e-03 8.9284284551354176e-03 1.0207110818491572e-02 -4.3364940530622320e-01 5.5701417100996409e-02 -3.0252853249670153e-01 -3.0902179204090885e-03 -1.1251353740328929e-02 -1.2032755239744120e-02 -6.1970063366243444e-03 -1.6526345400052378e-02 3.0776576022331525e-02 4.6342171437971924e-02 1.1900737638086412e-02 -2.2478469417728775e-01 -5.7806377572546808e-03 7.5444908749622286e-04 1.2995677631779223e-02 4.9004885693975986e-02 -1.9189386039215606e-02 -1.1299884846152963e-02 6.9460733443946765e-03 1.6009327203946608e+00 -1.5362757931143278e-03 -2.6721573053598124e-01 3.9211368674555658e-02 -1.3054885159363039e-02 2.9520122202484345e-03 -1.5893106995287010e-02 7.9789505718508735e-02 2.7565117035006614e-01 2.2381469224267599e-03 2.3919719062428157e-01 -5.6002819374895407e-01 -2.4582386440580341e-03 -1.8378705431813254e-03 -1.6773711120927452e-03 -1.4395355590568215e-01 -1.3934922551208428e-02 1.1930818707706500e-02 -1.6996776118586451e-02 3.1380850488494616e-01 4.3076177161590068e-02 -8.9821720042518827e-01 -3.5631932267221778e-02 1.9703633396056830e-01 7.3906053487462486e-03 2.3869989019918852e-02 -3.6786242404875136e-01 9.9729363686055339e-02 1.9880156893215461e-03 -7.9988581143064730e-02 5.8065952280056954e-01 -1.3283657311897840e-02 6.2572501982550901e-07 3.9180591430021732e-03 -2.5710256449213781e-01 -1.7989028409567953e-04 -4.5334762199084631e-02 -1.2263925992472929e-02 1.3091233523518895e+00 4.1924613129570715e-02 -3.4745665868835651e+00 1.4806440537657116e-02 1.2567956080144518e-01 4.8717339230153235e-03 -3.3984061532129628e-03 1.5934259529285555e-01 -2.6942528651626130e-01 -1.2464117208536726e-02 -1.5858534564927140e-01 -1.9070645514875650e-01 -5.1989517705237631e-03 -5.2891277359023168e-04 -7.0726563432222623e-03 -7.4798950378863083e-02 -3.1010627445396382e-03 2.6624411781538560e-03 -3.8021442498177294e-03 -4.1998667977850346e-02 4.5878845539846225e-03 -2.3815263022843283e+00 5.6877646062402656e-02 2.6266104044225358e-02 -1.9934858625797879e-02 -2.2942617527801170e-03 -3.3218418004633588e-01 5.4353853320495818e-02 1.8229916565291666e-02 -2.2584188043908962e-01 -6.4804337754023722e-01 2.4920842023545210e-02 -8.1450625314858727e-04 3.5878644594633871e-03 -5.3441639879973357e-03 1.6137462883740739e-03 1.9431674087752260e-02 4.9733059029327849e-04 -8.0072411145101796e-01 -7.9667243163821788e-03 -4.8545258210651809e-01 2.8431573189684471e-02 8.9717953097187220e-02 1.1814816258972072e-03 3.2546122909266846e-02 4.3915012235046014e-02 -3.5236558725418210e-01 -4.8032568056714707e-02 2.4828501117762514e-01 7.2761097565987853e-01 -2.9490309897108741e-03 -5.9683808086812159e-04 -1.0688088614161387e-02 1.3606624682362956e-01 1.8028556805510909e-02 5.0657785561930568e-04 6.6885732956577064e-03 -9.8229422914145381e-01 -2.1153766075219960e-02 1.3674484009322114e+00 1.3887785077595916e-04 1.2594698344081268e-01 9.9879284684478431e-03 8.1991143703154037e-03 7.2842719287174784e-02 5.4468148108961674e-03 9.3385567635717072e-03 9.7682576483703598e-02 2.5051083242487948e-02 -5.5287226161615521e-03 -8.7350025097696939e-04 -6.0740620130728630e-03 1.7004497370966465e-01 -5.1242893543810286e-02 -1.2343080521493022e-04 -5.7156935784612242e-02 -1.8270687959709964e+00 -6.4159665881033057e-02 1.9613124332952956e+00 1.0482435935096551e-02 1.8811957218688313e-01 -3.9207885092869432e-02 1.0638629660519287e-01 3.2901467073067403e-02 4.3512699336336269e-01 -6.3572714369964187e-02 1.4645375677102521e+00 6.1214728257949602e-02 3.5358223189983828e-02 -5.6597428430561411e-03 -1.0251756512189772e-01 1.8446712293491552e+00 2.8484919254421204e-03 4.0452845924445313e-02 -7.7572193524066080e-02 -4.8454171900496412e-01 -2.8168604756561821e-01 -7.1273471077120876e-01 -4.2199588709798452e-02 8.2252994339492069e-01 -1.2363743579267367e-02 1.1185928672080322e-03 -4.3059873471707122e-01 5.0370002864006613e-02 2.7971716416479377e-03 -2.3744567775143111e-02 3.1931474430114620e-01 -1.9532600210720542e-02 1.5724086172047651e-03 1.8832356760925661e-02 1.1736328326010681e-02 1.7464964928017856e-03 3.9942782082592193e-03 1.3476653894812247e-03 7.9640506356636820e-01 1.6884512811148444e-02 -9.1479800573472403e-01 1.5541191022477814e-02 -4.7782017861142334e-02 -3.3772930512343774e-01 
      </Row>
      <Row Index="99">
        1.6156451223259261e-04 -3.9019456523793128e-02 -1.5141358919208869e-02 -2.4755241854399923e-02 -1.4611954629849899e-01 -1.2273282198293600e-02 4.1892381974321324e-01 7.2090139338363279e-03 -5.0812335345590577e-03 2.1878565968232459e-04 1.2486283246516905e-01 1.1109157765531563e-01 -8.8295927712351840e-03 1.9878979438971101e-02 2.2028380186500840e-01 2.2329262419589213e-02 3.1894467401434667e-01 -2.1450070068631533e-02 -2.7580735506035126e-02 3.3460852963344223e-02 1.1124453338222651e-02 6.5278136167762568e-02 -5.2772075950491271e-03 1.4845536462543585e-01 -1.3758232242253143e-01 9.6490026617789226e-01 3.6663602895714575e-03 -4.1629376972220911e-03 -4.3193501475475848e-03 2.4147908085602765e-01 -3.9140848189163080e-02 6.3239229906457695e-03 -1.3058434437688504e-02 -4.4998947680451984e-01 -1.2886309395526041e-02 3.0755674149986589e-02 3.2518916403521558e-02 -2.1851960859384907e-02 -7.4760796154350828e-02 1.1572736157156704e-02 -3.8189434606064054e-02 -7.8940202959820738e-03 2.8555994980604638e-01 3.2112436727220484e-01 1.7106771480757743e-01 -2.9934339072010194e-03 -5.4940521300581580e-03 -4.7143081503420170e-03 1.6589718130853726e-01 -8.4292095913497178e-02 4.5061474546628233e-03 -5.6391986151688583e-03 1.7480523000131143e-01 -1.2884048899095557e-02 -2.1399184541100915e+00 2.8650824060273195e-02 7.1776600492285070e-02 -2.8845322260200978e-02 5.9299263317225126e-03 9.1253034976034542e-02 1.7377562896190746e-02 5.9198275294173874e-02 -1.6733440212192363e-01 1.0063801653395785e+00 -1.1462422250360760e-02 -1.5742961091151919e-03 -2.7251251395976617e-04 3.7807235749694934e-01 -2.2277219397892623e-02 -7.6185939727935192e-03 -3.7223096141296708e-03 3.1763326220842458e-01 -6.5404923222409650e-03 -1.8381496177853620e+00 -9.1087028630738587e-03 6.2871730292048955e-03 -4.7236811612634710e-02 4.7733221704262974e-02 3.3181763494212646e-02 -3.2174378935891923e-03 5.0331024203354935e-01 -7.9792624680408153e-03 -2.5812620531723951e-01 -4.3184635183024511e-03 -1.2038379921918363e-02 -9.8398922488871499e-03 -4.4548707003483967e-01 6.3314888762761257e-02 -3.7322122836712879e-02 -4.8581740861727951e-02 6.5864967716224854e-01 -3.5747580191582529e-02 -1.3226790061876006e+00 2.2264102473522840e-02 -1.8616956840560306e-02 2.0314794761929988e-02 -3.6249887928743618e-02 -3.1480371132056462e-01 2.2381469223695660e-03 3.4525761705864177e-01 6.0217586180897342e-03 -2.7134978804846988e-01 -1.1870151489975278e-02 9.8732415668020667e-03 8.4470595190777650e-03 2.4063019591267221e-03 6.1900832643612791e-02 9.8815629034766372e-03 4.8013292420616763e-03 -1.9223964377306402e-01 1.3007431261112812e-02 -1.2506462167773407e+00 -5.3451274562917594e-03 -1.3243373590375995e-01 -5.1713814150915027e-02 -1.1224511951098828e-02 3.6056607484962200e-03 7.4206747008521571e-03 3.0304751308728027e-02 -3.9847238319215883e-02 -2.1545070399778634e+00 -1.3206270369459728e-03 -1.0805223824345315e-03 -7.7807330018244271e-04 3.6176289488931646e-02 -2.7655621242378636e-02 -1.7226806609238299e-02 -1.0519394983953823e-03 -3.2527176047733519e-01 3.3919404372854123e-03 5.3243562233277020e-01 6.6571267109741331e-03 -6.9627126910887238e-04 -1.5034828155117110e-02 2.2785835714412145e-03 -1.0022187825443325e+00 -1.6338009922298675e-02 -1.2233421369618648e-01 -1.6283921850344996e-01 2.9533319175243378e-03 8.6054104091317640e-03 3.0777631346726991e-03 9.7346849651751732e-04 -4.0148677546949330e-01 8.2688034523226123e-02 2.3210007803087934e-02 1.6564829362266664e-02 5.9737683641287731e-02 4.5765553850287688e-03 3.8524451080593280e-01 3.6372843471738907e-02 -1.7813745098465006e-02 6.1111523853473182e-02 2.3344525692762602e-02 4.9406914255429868e-01 1.8502668462819934e-03 1.7393762460630527e-01 2.9253291762995293e-02 -5.6301222402140638e-02 -2.9583985738014046e-02 -3.3633443415417045e-03 -3.8029105641621546e-03 -3.0153870414218575e-01 -2.9103314760061672e-02 3.6780036508638703e-02 -8.7038584435941181e-03 -1.5716498962592595e-01 -1.4515973867126886e-02 -3.2229035361524438e-01 2.1318181663417354e-02 -2.6801474921048188e-02 5.3672643085221017e-02 -3.8717610703889779e-02 -2.0890308901484023e-01 -2.3564035378719778e-02 -3.4122947926135927e-01 8.6428295021836021e-02 1.6467375678930241e-01 -1.0101041449103287e-02 8.2383739983530220e-03 2.6917666347125646e-03 -3.3657801945399513e-01 -1.3991036326154049e-01 8.6909591509951034e-04 3.3527970336193966e-03 -5.9246745376999588e-02 -3.2579733884938011e-02 -6.5703582869253374e-01 1.8492900633146236e-02 -5.9651268450763517e-02 -2.1394732450110587e-02 1.1772833813570669e-02 -1.3398265017435373e-01 -5.8971129673278224e-03 1.5509481402318719e-02 -1.5338141990870113e-01 5.3290318804812209e-01 -1.0261477638268790e-02 -7.3910774856518046e-04 -2.2007301426615190e-03 1.2034490566966272e-01 -9.7793557325053099e-02 5.4872780278877441e-03 -3.5106460253835535e-02 -4.2364371557752634e-02 -4.4273674492884496e-02 3.9738669868112109e-01 1.3795086952500769e-02 -5.9223306490523875e-02 3.9085665820023818e-02 3.5205836412843743e-02 2.6008033974250111e-02 -3.7465858321538044e-04 -1.5798256069066957e-01 -2.2841584821246030e-01 -2.0535294050397468e-01 -1.1076160964597781e-01 2.7696083245636743e-04 -2.0893080289506202e-02 1.2977317445111680e-01 2.3234839563109944e-01 8.8341660494354657e-02 -5.4285944470723657e-02 -1.3839730611546486e-01 -2.0104663420329927e-01 -1.4181241354223495e-01 8.2345818175610874e-02 -1.6923114595686073e-01 1.1823211175614636e-02 1.2031190881743716e-03 -8.3933319555956842e-02 3.0193054748296907e-03 1.6457109430198836e-02 1.5655327768854477e-02 -4.7431853625741360e-01 1.1005657039457989e-02 -1.2180724915560799e-03 -4.9426620454333589e-03 -5.5822657883144805e-02 -7.6907846631437682e-03 6.5849191819126740e-03 -5.3198843005744728e-04 3.3408310179455114e-02 -9.3561646248353503e-03 -1.3910300081445826e-01 3.9834797568109731e-03 9.7126806759902928e-03 4.5787766995461693e-01 
      </Row>
      <Row Index="100">
        3.1213269276840720e+01 5.9259773752501133e-02 -1.8931804709658027e+03 -1.0616149612528716e+00 -4.4021819080580826e-01 1.5911794984806329e+03 4.8025618320703506e+02 2.5970720751979616e+02 -5.5404411815172949e-01 -4.6179331547419150e-01 7.3894081727846060e+02 4.5456543483771384e+01 2.8253491251263767e+01 5.6996873470779974e-02 -1.9940467876856233e+03 -6.5557486137608066e+01 6.1041947895288467e+02 -6.0830194976733765e-01 6.2484347327146679e+01 -5.8717039778828621e+01 -3.7864600348984823e-01 -2.5817644227761775e+03 -7.9420379023758869e-02 -6.5366158882170566e-02 3.1536662859991193e+03 9.3882919830689207e+02 2.3255547327362001e+02 -2.6745760504127247e-02 -5.3093359010290442e-02 3.6341361675983535e+02 9.1008673049509525e-01 -1.5598977967863902e+01 -4.3050813614900107e-01 -1.8046853755190812e+03 -3.6803192936815321e+01 3.5048978245183825e+03 4.8635571792328847e-01 9.1147176016825995e+02 -2.1261314223287627e+01 2.7595316261522385e-01 -1.2059661195969420e+03 -2.5018148801063944e-01 -1.5982357580651296e-01 -2.0428854766879231e+03 -1.0537297862172127e+03 -2.3205712027347468e+02 -1.1894166349975421e-02 6.5665484680721420e-03 6.1967858030577190e+02 -9.0098543933592737e+01 -5.4783293688786216e+01 3.1374671453315992e+00 1.9729022576191928e+03 5.9247015422661114e+01 1.8993006537132480e+03 5.5251765793946106e-01 1.2013247545622289e+02 2.9209830430653970e+01 -7.7526559699435893e-02 -1.9915112022329122e+03 6.6160936913456680e-01 8.5696183112759172e-02 1.0158520248457789e+03 -7.5812096878886223e+01 4.2193257555039600e+02 -1.9048308529249880e-02 -2.2899406296005509e-02 1.1634433696288156e+03 6.6661382531747222e+00 8.8684913541947026e+00 -8.7407273961616738e-01 8.6324838099702799e+02 -4.1550261035601579e+01 -2.5712044044386579e+02 5.9109222792540095e-01 1.0737754822137880e+01 4.1763828726747306e+01 2.1334241324439063e-02 -7.1809297648817301e+02 2.0001946913907886e-02 -1.8350757934058493e-01 -1.6690554466576141e+03 -4.7046697089076042e+02 -2.1014638909167843e+01 -1.4910029291877436e-01 -1.2913619643131824e-01 -8.0261993625284776e+02 5.2530740417540073e+01 2.9609400945715606e+01 -2.0677466929992079e+00 -2.2004006315147385e+03 3.0778454411774874e+01 -1.7048857398255011e+03 -4.3144108107298962e-02 2.7210083924233913e+01 -5.4578767515893560e+01 -2.7757246968440086e-01 6.6353936538100243e+01 2.3919718934666889e-01 6.0217605951038422e-03 4.9054273854980711e+03 -1.1849546697874637e+03 1.9545473980200811e+02 4.1381579073228918e-02 9.1424351537141776e-04 -4.0623949553072453e+02 4.4459001530021638e+01 6.4758227803586550e+01 1.0658614888275852e-02 -2.1404567626714706e+03 6.9804676751076371e+01 -1.1794856695466510e+03 -2.3156738175499347e-01 3.6823879191279411e+02 2.5495736003758793e+01 -1.3323970038609356e-02 -5.2503807233357857e+03 2.5451701128483928e-01 7.7685536407186478e-02 2.8168601884888744e+03 -1.2619875417931050e+03 -1.4202787303851051e+02 5.7081459352203420e-02 1.6874654846850676e-02 1.3013229414083398e+02 -8.4587756253502313e+00 -2.8011657223802921e+01 9.8465875219173571e-01 -1.2679285225123167e+03 6.2351679181095339e+00 -4.9873183520705135e+02 3.8333059116768214e-01 4.8446812411645162e+01 2.2706175361541813e+01 9.8314532892170070e-02 -4.2824655267425132e+03 -5.2148212219643075e-01 1.1695691763999948e-01 -8.3950976268877275e+02 -9.6300819396972656e+02 2.5098488794919103e+02 3.1786843624280810e-02 1.2050382499905820e-02 1.4739996691602282e+03 7.9946306201917110e+01 9.3772345784632627e+00 1.5016651817131788e-01 1.0986329188686796e+03 2.2792910559102893e+01 -2.6145691242814064e+03 -1.0971907090848455e-01 -1.5796511353924870e+01 -3.7448107740311890e+01 4.0162512639730891e-01 -9.0534342270627644e+02 3.5548168781879375e-01 1.0528725158427492e+00 -4.4341811920853124e+03 -4.9904999190395483e+02 -5.3164666888186935e+02 2.0076926188802716e-01 -6.4594437240885177e-02 -2.5713867299644380e+02 -6.2569672306098255e+01 -8.5475669540141212e+01 3.9266067944612195e+00 -1.7252285679290071e+03 -4.8772897287114176e+01 -1.5162727134209126e+03 -1.8275173216955826e-01 4.0479056176931977e+01 -9.1316894345506370e+01 9.9433678337748244e-02 3.3835320168789649e+03 -4.6162866335101227e-01 1.2381847567299691e-02 -4.4301891122771112e+03 2.7844110759440555e+03 -3.0618400500233779e+01 -3.6133079670121325e-02 -1.0421752268702827e-01 -5.2182622255872570e+02 -1.1454099086220350e+02 6.2429067386834653e+01 1.9731849112482440e+00 3.8449636475721559e+03 -5.0364059111621238e+00 -2.5860393465263060e+03 -1.1041858010543855e+00 1.3180940238551861e+02 2.8081248376216099e+01 7.4651798853895196e-02 1.7658050391813072e+03 2.0018067738346060e-01 4.6962944237292567e-02 -1.8914324198265075e+02 1.0861812078859762e+03 1.9328716627822703e+02 3.4566026425117746e-02 -4.5844360207406544e-02 -4.1734247592390324e+02 1.9482543763506214e+01 -3.1788310596502114e+01 -6.2970064321845820e-02 -1.6473725717229172e+01 -3.9799091711081303e+01 -9.8752175443754925e+02 7.2117367802165533e-01 1.0207226896667058e+02 -2.3537586580040090e+02 3.9926782922360839e+00 -8.7988686613729828e+02 3.9860195401711467e+00 8.3710092757805619e+00 -1.0374639793434450e+04 -4.5786012909744636e+02 5.6769083771866508e+02 1.1699279228690500e+00 -7.8639425785850392e-01 -2.1983853156992495e+03 -1.0357931996184799e+02 3.3411779097708504e+01 4.3374613726315147e+01 -1.3454629069252560e+03 -1.7522865042854107e+02 -2.4492393318482505e+02 -5.4155145578009183e+00 -4.5135158599264150e+02 -3.5697474134453458e+01 -3.4483062454947408e-02 4.2238526431345690e+02 1.4873993941475014e-01 -1.5493948983241794e-02 4.5123489981988007e+02 4.1530954530633124e+02 3.0006691708608281e+02 -2.0091100572833889e-01 -3.4996219059241801e-01 -1.1043835469853377e+02 -3.0458021665737952e+01 -1.3719516544040388e+01 -7.4854772299430078e-02 -2.6816877823938430e+03 -6.1240432301105386e+01 -2.6462074590385373e+02 8.2853746353955593e-02 -1.5952789392680010e+01 -7.1501521970729459e+02 
      </Row>
      <Row Index="101">
        -2.7493346710311016e+01 -2.5347164182021515e+00 4.8837322850227356e+03 7.3070387099869549e-01 1.0049793397993199e+00 -5.3074388575553894e+02 6.1360521906852722e+04 -1.0030754765524762e+01 4.8803747690340114e+00 -1.4045453933516026e+00 -1.3240861006081104e+03 1.2294588643312454e+02 -2.1258789986371994e+01 -1.6910711778327823e+00 -6.3089273620813401e+02 3.9837820932269096e+01 -8.0083829669952393e+03 1.4609242053702474e+00 -4.9821315957605839e+02 -6.9833754450082779e+01 8.1992781721055508e-02 1.3345190757513046e+03 1.9544741074787453e-01 -1.1929640933522023e-01 -2.1469390773773193e+02 8.3113467355281115e+04 1.0063446652889252e+02 1.3619798037689179e-01 -4.1707438489538617e-02 1.2630146545992466e+03 4.9059942424297333e+01 1.7113137781620026e+01 2.8214215368498117e+00 9.0086652310267709e+02 -4.2675125211477280e+01 -1.0319386992931366e+04 -1.0178278198000044e+00 -3.6602347181806590e+03 2.8461141680926085e+02 -4.5448067720280960e-01 5.7163802238906501e+03 5.6246289657428861e-01 -2.0742053468711674e-01 4.6334295511245728e+02 5.7556190446853638e+04 3.1240789065598221e+01 -2.6198819660930894e-01 -8.1200451197219081e-02 8.4223756564706564e+03 -1.6043270966410637e+02 9.3512121289968491e+01 4.2666536121791676e+00 -2.1918591978102922e+03 -4.6993785036055601e+02 -8.7742074882984161e+03 -4.5549603970721364e-01 -2.2682530963420868e+02 2.4522226533783851e+01 1.4646334710414521e+00 -2.9299725687503815e+03 -1.2876953856903128e-01 -2.0445860776635527e-01 -1.7949627184867859e+02 -8.9791853468418121e+03 9.9694268681108952e+01 1.0056288393388968e-01 2.2864901305729290e-01 -3.4094863736093907e+03 -2.5475705913454294e+02 -2.2206690520979464e+01 4.3774178571766242e-01 2.1243365864801440e+03 7.5723020184086636e+00 -7.2180618397234721e+03 8.3996446430683136e-01 1.3433424645664229e+02 7.0597569923847914e+01 2.9993536230176687e-01 -1.8805274243354797e+03 4.8513424699194729e-01 -1.4013996381254401e-01 5.9579217561520636e+02 -3.2977923712015152e+04 -1.0016251248493791e+02 1.0258343683672138e+00 -4.7802175611286657e-01 3.6130543960419391e+03 1.3501976764202118e+02 7.3520199730992317e+00 1.1860812315717340e-01 1.5495965006452107e+03 -1.4604146936535835e+02 -2.2355619660755106e+03 -2.0823500435799360e+00 7.1347445678710938e+02 -3.2436838563531637e+01 -2.0925433508818969e-01 -4.3967130193710327e+03 -5.6002819759305567e-01 -2.7134977781679481e-01 -1.1849545676261187e+03 9.4930882854820590e+05 -7.3258453053800906e+01 -2.5509361362717053e-01 -1.8735791807340690e-01 4.3407064487934113e+03 1.9770336326950093e+02 -1.7615896695580950e+00 -1.2872656139238567e+00 2.2561910686492920e+03 2.5909627087853960e+02 -9.8128530538060586e+03 -2.6897799334830563e+00 2.1714301824569702e+02 9.4176461060065776e+01 -1.2910823271755372e+00 -9.2131469268838591e+03 -1.3844481978078527e-01 -8.0637010763653871e-01 -9.9524564691586147e+02 -1.5184354258124265e+04 1.5226974698351279e+02 -2.7578206928759619e-02 -1.9515030830013269e-02 -4.6302566241864611e+01 -1.2730500776176129e+01 7.6136572087562115e+01 3.9854524115805283e+00 3.4309110603332520e+03 -1.4518033363408304e+02 -8.3808210264099398e+03 -1.6622923168686103e+00 4.6957779272283597e+02 2.5013646730542632e+01 5.7879609885854788e-01 -2.6725283713847457e+03 8.1768875254080697e-01 1.4531408183145800e-01 8.5769721105694771e+01 -7.5687466583251953e+03 7.3834361344575882e+01 -9.1738656886753533e-02 -3.6249268808175250e-01 -3.3428517806529999e+02 2.0155322719907284e+02 2.9732889601834316e+01 -4.1576217710971832e+00 1.8817089228332043e+03 5.1845164239406586e+01 -3.0300203800201416e+03 -8.8645351998071820e-01 1.7566539442539215e+02 -2.9828851218025562e+01 -1.2989357712188321e-01 -1.2620811799055446e+04 -9.9229520523326731e-01 -8.8703067641987232e-01 1.5096263682507138e+03 8.0745533046603068e+03 -2.0011107996776479e+02 -1.2659005442477076e+00 6.9157365065741064e-02 4.8545771076913688e+03 -5.5304467317211333e+01 1.1936522151910044e+02 -2.2702213189292770e+00 3.8143250811100006e+02 -4.4526176331850587e+02 1.5385475798845291e+03 -2.6733269514058848e-03 -7.1642004072977443e+01 -1.2857517274419550e+02 -5.3273034079334280e-01 1.6951064122141261e+03 6.2930227155834517e-01 3.4822085595877184e-01 1.9593010745456318e+03 -2.5596898898786705e+04 7.5255732383898902e+01 -3.1586819988117931e-01 -2.0263539189118121e-01 5.2716808621648815e+03 -2.8549018808979378e+02 -4.2801828002528126e+01 9.8106162719786916e-01 -1.7935574547139333e+03 -7.9080843429636161e+01 2.0007809272516738e+03 -1.5567349838918658e+00 1.6115321301770433e+02 2.8764973725296824e+02 1.5593811579419697e-01 2.7333283854864094e+03 4.8312671606194718e-01 -1.8447392658279582e-01 9.0552689923269418e+02 -3.3743720549937359e+04 3.9481551161733814e+00 -4.2971488117507950e-01 1.3749768673398932e-01 -3.3954404898802227e+03 -2.8843577867227037e+02 1.5823958218489153e+01 5.8914541938292562e+00 -8.0523305677322787e+02 -3.4812700848927170e+02 2.2571573529163384e+03 2.4208120774587591e+00 4.9289400271140431e+02 8.5634919071442641e+02 -2.1346377280861164e+00 -2.7130288808391924e+01 -6.9233739479857110e+00 -5.2045649944278569e+00 9.8921671383149205e+03 1.3948143673428976e+04 8.7358130865803446e+01 -8.0516262925437072e+00 1.4964377502919031e+00 1.9052941976173915e+03 4.6669925118197875e+02 -2.2948668603488699e+01 5.9979037626011404e+00 1.1629526963758468e+04 -1.0846093773173673e+03 -2.6162476776036165e+03 7.1321250483116643e+00 6.3871301724077257e+03 -1.3064194586261280e+01 -4.3155297820001486e-02 1.1069282163565233e+04 1.3648572903831625e-03 -1.5229340433993356e-02 -1.1724155410338170e+02 2.5127217695916999e+04 2.6736968965436736e+00 9.9209820729779841e-01 -1.0086732950394011e+00 1.3158558697572028e+03 -5.5040540220169021e+00 1.8739519536683105e+01 1.5365824396010302e-01 1.2330753964530131e+03 -1.0854757818242612e+02 -1.8054724723457621e+03 1.9276631042945847e-01 -1.4055649582247156e+01 -2.5129254389476700e+04 
      </Row>
      <Row Index="102">
        2.6227257320601893e+00 1.3642546796390320e-02 -6.8406567815691233e-01 -6.6924258162259775e-03 -4.5502086425202037e-02 2.0289238504483365e+00 1.9023721652105451e+01 -2.0548855234574148e-01 -2.6460967706553998e-02 -2.8231632638276580e-02 -9.6796261722782219e+01 6.2561530044185929e+00 3.6352478394110221e+00 -1.3347443555016980e-01 -4.5168816468167435e+01 -2.1164927006902872e+00 3.0365413427352905e+01 3.7936244353772963e-02 3.2832557010551682e+00 -9.2513594878255390e-01 -7.0865898196643684e-03 -1.3176095986994915e+02 1.9447664941310450e-02 -7.6700943719458792e-03 1.8649942175415345e+02 1.3071140386506158e+01 1.7084069658129010e+01 -5.3125939572851166e-03 -6.9100860237369943e-03 4.5875210362856365e+01 -1.2941708938742522e+00 -1.2491478679294232e-01 -2.1714941062441540e-02 -1.5063245127676251e+02 -7.1119868585665245e+00 -2.2627055645221844e+01 -1.2601766714169571e-02 1.5856901629552093e+01 5.7295462324582331e+00 1.0844099185050027e-02 -3.5330434711525641e+01 -1.7294387906758857e-03 4.1681097533000866e-02 -1.1432494277931983e+02 1.6086944544455037e+02 -2.3793396304691857e+01 4.5981081935195789e-03 -2.7448467805442078e-03 7.0056163864333939e+01 -1.7708486515184632e+01 -4.6837774328596424e+00 2.9166456141050329e-01 -1.8836585477401968e+00 4.7774113718239092e-01 1.4116698324447498e+02 -1.8746346709178852e-02 5.1336431866366183e+00 5.1588067936622712e+00 -1.8891680078752415e-02 -4.5582332416204736e+01 -6.9733868355115192e-04 -2.3283518230968525e-02 9.0379432753426954e+01 2.8997184707550332e+01 7.9195904744556174e+00 -4.3900499415556737e-03 -3.5330331539640270e-03 1.3320840636969741e+01 -4.1877425578131806e+00 2.6281473949120482e-01 -4.2635523787794227e-02 3.6507850423688524e+01 -3.7120238179456919e+00 1.5943909160561242e+02 -2.0440587335315286e-02 -2.8721184896531176e+00 2.4287577468494419e+00 2.2608277932647525e-03 3.3502055661287159e+01 -9.6296120557326503e-04 1.3671134053012679e-02 2.0093232923945834e+01 -3.8335068208049051e+01 5.5872140047176799e+00 -1.2391155833597622e-02 -7.0020123010223756e-03 2.7822368876468587e+01 1.5837731525592972e+01 1.7421780510630924e-02 -1.7738414664995616e-01 2.6012266827185520e+01 -1.4364322219626047e+00 -6.1187586738532190e+01 -2.8507556588579064e-02 -7.9850753976497799e+00 -1.0034631984526641e+00 -1.8909234494515204e-03 -9.6955091859679669e+01 -2.4582386633937858e-03 -1.1870151465075196e-02 1.9545473985566059e+02 -7.3258454126589641e+01 5.1467203573514226e+01 -4.2756814027070074e-03 -1.0542594186865794e-03 3.5328731397516094e+01 1.2173670256806194e+01 -2.8874997113646952e+00 2.7329456479322469e-02 -3.9686787882540375e+02 1.2297314141683555e+00 -4.6614315752980602e+01 -9.6518805210665318e-02 -5.0940068184863776e+00 4.6587791749475400e+00 2.9316378556544911e-02 -2.0525759669235811e+02 -3.4144663473096521e-03 -6.1294327788479755e-03 -6.4940550969983633e+01 -2.5603896327999905e+01 -2.1090980753148205e+01 8.6111663495218814e-04 -4.1903886262988571e-03 -2.4561555923553584e+01 -2.0952904998704698e+00 6.0942255843896556e+00 1.2701359274226770e-01 -4.8588164922315627e+01 -2.0270228562233190e+00 9.9264456804798570e+01 -2.7622930822650972e-02 -4.8526463597975011e-01 2.1853118494046200e+00 -1.0863093776666145e-02 -2.2185434865349566e+02 -6.0464008548259899e-03 1.3120224747461297e-02 5.4369833777600434e+00 1.2449358689785004e+02 1.0001120951361372e+01 2.3864070813354741e-03 -6.6518754541644489e-04 1.1871617530161166e+02 2.0615112893055542e+01 -9.4743546543288037e-01 -6.7541676211476442e-02 5.6447127864725189e+01 -1.5932252558122855e+00 9.1250068660825491e+01 9.7171995936655431e-03 2.1429889440187253e+00 -8.5275336689685233e+00 -2.7387280361404427e-02 -8.2646835157357287e+01 -1.2282040394363805e-02 5.5253545603204432e-02 -1.6979761704219436e+02 1.7716863804385773e+02 -1.3680269772339328e+01 1.5093042476982690e-02 6.9984905325258008e-03 1.1911332423411645e+01 -1.3318040049316821e+01 -8.5668304299459166e+00 -1.1906644440525814e-01 5.3652720799436793e-01 -1.8880028063656078e+00 1.8361618820927106e+01 -2.7454350125500418e-03 1.3903233210873672e+01 -1.1974310230992362e+00 2.1760731725144668e-03 8.5385969890870385e+01 1.1654882071158223e-02 -2.4220649945893284e-02 -1.5247258357540960e+02 -1.2632373938411132e+02 -1.0636229220350591e+01 -1.3412766686147731e-03 -1.3424211092534746e-03 -9.5561585029463174e+00 -3.3230519213828060e+01 3.3558474002340164e+00 2.3839279920622897e-01 1.5811131529065614e+02 3.4954207128993131e+00 -1.2499438862134208e+02 -6.9692767346644952e-02 -2.8991007487559477e+00 2.5407244401357989e+00 -6.2479921748734351e-03 2.4279250169450471e+01 -9.2172718801327729e-05 -2.0007165616840166e-02 -2.4878265270693909e+00 -9.6784834691784368e+01 1.4786383995385398e+01 6.7780639519028178e-03 1.3482221168915971e-03 -1.0634214874903246e+02 -3.2099286683328305e+00 -1.9252315825254209e+00 -1.1684161213337094e-01 1.3946838406801015e+02 -7.6209898467688451e+00 -2.8613125946312311e+02 -1.0939464946238162e-01 7.3411726066524823e+00 -1.3993660587182497e+01 -2.0639210545982403e-01 -1.6159698414720552e+01 -7.0674065557586485e-02 2.5217892422019078e-01 -4.2427712580419291e+02 2.8703817274917199e+01 5.7335723855689288e+01 1.0584122774539395e-01 5.6694570181570536e-02 -5.9233109439213808e+02 -2.0774740450989775e+01 -1.1949390565588811e+01 1.6136226832119505e-01 -1.4217432354322369e+01 1.4048677935905193e+01 2.0689800238488192e+02 -5.0624380583236617e-01 4.2705317921562198e+01 -5.2844883341445827e+00 -3.6342517478120525e-04 1.3157637336171115e+02 -6.4747986542140409e-04 7.3694380836320113e-04 -2.3705054376156820e-01 2.0716230244978899e+01 9.2643468034800350e-02 -4.5937178794635772e-03 -3.2073486217683154e-02 5.4211885140735614e+00 -5.6815509679598817e+00 -7.3356000928198617e-01 -1.0237029296072970e-03 -1.2273127953102320e+02 -1.8419248670545176e+00 8.9749082880600454e+01 -7.2338610513554590e-04 -2.9530328053967878e+00 -2.0773819426653652e+01 
      </Row>
      <Row Index="103">
        4.3679618867487058e-03 1.6270239119127505e-02 4.6405127650359645e-02 4.0373879615263064e-04 2.4127397722710775e-03 -4.1258006440330064e-03 2.7683993935352191e-01 -4.2213498798568949e-03 2.4668380552041999e-02 -4.2682825903705450e-03 3.8721100221664528e-02 -1.2068247770002927e-03 -1.5317759316531010e-03 -1.6459560109360893e-03 -5.0966851205240715e-01 1.9934403349679997e-02 -3.6021253473882098e-01 1.0512319587316910e-03 -1.2333562841149615e-02 -1.7501059200071722e-02 1.9562883703017064e-03 -8.9342219233913056e-02 3.0618492774348027e-04 -3.4853041390205952e-03 -3.2920875128183980e-03 4.5322540202857908e-01 -4.4373342170729302e-03 1.8655474788085158e-03 -1.3105378781275157e-04 2.7167642596003461e-02 3.6672087639999518e-03 1.5600691809254386e-03 -4.3255717942614069e-04 -3.2406746437072576e-01 1.1544868712235257e-02 -5.3641293456894346e-01 -3.8658850919102150e-03 -5.0833862613444331e-02 2.3791005640674712e-02 1.1433256700064121e-03 8.1639722239470913e-02 3.9924063752660999e-04 -6.1791254246301719e-03 -6.2744257033955364e-02 3.4562349712359719e-02 -9.7901717731530627e-03 -7.7231491414808673e-05 -4.2714978399027714e-05 -1.6805720136630953e-02 4.5056394085349893e-03 -1.5012441832595869e-04 4.6799372405369882e-03 -1.2531380237510348e-01 3.5601587848432814e-04 1.7933710995930596e-01 -2.0810265484758617e-03 2.4360732070590529e-02 2.9013172414569605e-02 -1.5853416966127298e-03 5.2328630032207002e-02 -9.5284571660281259e-04 -1.8647974301124193e-03 -6.8805195271124830e-02 2.7824646345834481e-02 -9.7939258544101904e-03 4.8132319260102419e-04 -3.8887006387211542e-06 1.2284384533036286e-01 -1.3486875348576177e-03 -1.7156286044723856e-03 -1.6155524181105108e-04 2.1333858066636413e-01 -7.8426854202362506e-04 2.2284481925493260e-02 8.4533210255344216e-04 4.0986949596142352e-03 2.6848635055259251e-02 -6.5306177455499714e-03 2.8741336973325815e-02 -1.7891652903454514e-03 -1.1334627323414281e-02 -3.8101868012148543e-02 -2.0576623791930615e-01 4.8638815681556480e-04 6.7174600783661553e-03 -4.7042668628727302e-04 -1.7830068733484450e-01 2.4828309506119695e-03 -4.4674029256270842e-03 -3.2452191760548033e-03 -5.8118291722780491e-02 9.5563934428355424e-03 -4.1937868997825012e-01 -2.3045001274812904e-03 1.9325165038026171e-02 -2.1225354490667314e-02 6.9960322265589792e-03 -9.8344477693899535e-02 -1.8378705431825182e-03 9.8732415667814877e-03 4.1381577920333257e-02 -2.5509361812916609e-01 -4.2756814174467195e-03 8.8700704317884876e-03 2.1472708038851400e-03 -6.5466904352433630e-02 2.9744400814429917e-02 7.0264688075136819e-03 -3.2564172683104235e-02 -4.2319291504099965e-01 -4.9783661830394010e-03 2.4562982945843359e-01 -7.7527637499417157e-03 -3.3365981649694731e-02 2.8726787215049399e-02 1.4704416262528325e-02 -1.7344797156900071e-02 -2.8998148519104525e-04 1.6190108635873212e-05 4.6966485725793955e-02 -7.5705653076761159e-01 -8.3977161549569322e-03 -1.3150808661769120e-04 -1.8528041780646983e-04 3.0697614051096028e-03 -2.7162212091574184e-03 9.7935819189782190e-04 -1.7663907908929063e-03 7.1571353932085913e-02 3.8866199549487668e-03 9.9248475429084798e-02 -3.1389718225596167e-04 8.6043035615993024e-03 1.6161780589869411e-02 -4.1814430880680251e-03 1.2455709343080912e-01 2.1716628497396410e-04 2.9136404796633597e-03 -1.2792782399401403e-02 1.4917447697371244e-01 -1.6862991104744651e-03 4.6090344242684898e-04 -1.4166666768104336e-04 -1.2037191792524027e-01 -3.2263440581772329e-03 6.5878168783149726e-04 1.5456917594462993e-03 2.4778433857591153e-01 -3.8804443261142296e-03 1.7581214313395321e-02 -3.4225205632177702e-03 -7.9449001059401780e-03 -4.1058451160956258e-02 -9.2036194174170086e-04 9.3649219047702958e-02 -2.5735692051775483e-04 -2.6972377235078074e-03 -9.8708447996206788e-02 -2.5480528085861343e-01 2.8115569054160509e-03 -1.7212990486523425e-03 3.1880367799143843e-05 -1.5403038398057886e-01 5.9131680235191553e-04 3.4221881192735837e-03 6.7474814039195736e-04 -1.8942965361247843e-01 8.5079098509368983e-03 -1.0930919236761838e-01 -6.0705423302657188e-04 -3.8591684516571412e-02 -3.7818338466141806e-02 4.5581489406865214e-03 -2.1047734249501016e-01 7.5633942773212833e-04 8.5345844204564522e-03 -1.3474777794642456e-02 5.8747389280280382e-01 -2.4671801848651365e-03 -1.0623011137896954e-03 -4.5478235747045518e-04 -2.0472324639961659e-01 4.9931802790472157e-03 7.2363795439818468e-04 -1.1415100057608524e-04 4.7815543322546761e-01 3.2416558855470554e-03 -4.8067689180839279e-01 -1.8886168693926840e-03 2.7499751229248526e-03 1.6949124720777073e-02 1.3415553974689706e-03 -1.7457039062269897e-01 -2.5904670461855461e-04 1.6953719424868752e-03 2.0896969196912085e-02 3.3808710090991401e-01 7.5875653353853212e-04 -1.1437941137361620e-03 1.7562397729666517e-04 4.9868467994698129e-02 1.6659394148237888e-02 4.5188817983975310e-03 -2.7518151914705468e-03 -8.0452975803222859e-02 1.9119108317427302e-02 -7.2698786287406059e-01 -4.8753261458664887e-04 -3.0717696549272949e-02 -6.2720132518197774e-02 5.6309584377230585e-03 7.8904430847841378e-02 -2.3702241781455441e-03 2.5230891384408274e-02 8.7763582027384546e-02 -1.4905767926993768e-01 9.5258274748756255e-03 8.3234593882737760e-03 4.7445715886957176e-03 -1.8887528436012957e-01 4.8239493255701760e-03 2.2864853746416842e-02 -5.1467544811126843e-03 1.6698776539675014e-01 2.0593957593071699e-02 2.6654015839886414e-01 -2.0752930147430737e-03 -6.7605831670996985e-02 -1.8193469868264277e-02 6.2403173362175334e-04 -3.9729347844687157e-01 -6.8053307523870891e-05 -5.5476530122643966e-04 -9.2080860020060662e-04 -2.6031578560675717e-01 -3.5364327742219894e-03 4.4853809421567638e-03 -1.1774460918946303e-03 -3.2621940845423636e-02 -2.7007795153681045e-03 1.0202470393537166e-03 -9.8689178259757138e-05 -3.2156559820053543e-01 -2.7453118283034539e-03 3.0339361269201959e-01 -5.8645253251304104e-04 8.4973944020353964e-03 2.6517272298602940e-01 
      </Row>
      <Row Index="104">
        2.0069450987915127e-03 1.0153512980287716e-02 -1.9114443695798400e-02 -4.8993114258540915e-03 3.7200076919347014e-05 1.1900632754532126e-02 2.4594612057262566e-01 1.3355934414978066e-03 -5.1924553671226304e-03 1.2946213046614821e-02 4.8448328719047140e-02 -2.8986714453367313e-03 -3.2218173191722599e-04 6.9484978755038895e-03 5.3610993691661335e-02 -1.8975356234136598e-03 6.3017065163876396e-02 1.0667165433462245e-03 1.3987612840367092e-02 -9.5906953413305018e-04 2.0568944673682310e-03 8.5740792123488063e-02 -2.1323128933168345e-03 -1.7906281128897694e-03 -3.3500853460282087e-03 3.7763417376152120e-01 2.6104696962647722e-03 -1.6489455892321203e-04 1.4553702138553337e-03 2.3312488755184546e-02 -1.4540435768140014e-04 -1.7101244671380300e-03 -5.1166158815618701e-05 -5.4311732613304908e-02 1.0975563024089752e-02 -2.8485675421143242e-01 9.0623480604445916e-04 2.7190864340616711e-02 9.1173922088074733e-03 5.2785677601385750e-04 1.9096563424437552e-02 -2.7146481180908566e-03 -3.6817247100278117e-03 1.9886667470927932e-02 7.6393109091441147e-02 -5.0205798608481209e-04 3.0123364677947517e-05 2.4219013274545675e-04 4.1460483537491655e-02 -8.2138325694813830e-04 -7.2998922996703186e-04 1.0904266289919085e-02 -2.6297473563090534e-03 7.1313714665004468e-03 -1.7475791884862701e-02 1.2308395999856003e-03 -1.2164790326892216e-02 -2.9685501333944209e-03 -1.2946094439756362e-03 6.5964205179625424e-02 1.0034967230491132e-02 -1.2213840686778818e-03 -1.8937558194011217e-02 6.8337942241669225e-02 1.2544159332890104e-03 -5.3839334770794389e-05 6.4463652048202258e-04 7.6834393825760960e-03 1.8417539031929664e-03 1.4188076996610732e-03 -2.3812524997925966e-03 -1.4963211465589765e-02 1.0136087378849190e-02 -8.7175388190008807e-02 -8.3995192010632991e-06 -1.2765501789704925e-04 3.4470638163810463e-03 -5.2707711484640818e-03 -8.5694491572212428e-03 2.0828377298696132e-03 -7.6506151087945007e-03 3.8470388700496017e-02 -1.3312301969563123e-01 -1.5916772271182822e-03 -9.8224090355447657e-04 3.7928097819826811e-03 4.8245638042241135e-02 3.0454470488621155e-03 2.6753870671711866e-03 -6.4771636707936509e-03 -1.8746230186202806e-02 6.3055608467266211e-03 7.0097648892312625e-02 1.2560311166560645e-03 -1.4701999763019558e-02 4.3158509891156882e-03 6.6630657496173917e-03 -8.9545091923355358e-03 -1.6773711120716683e-03 8.4470595190340170e-03 9.1424306987164528e-04 -1.8735791782552269e-01 -1.0542594222577861e-03 2.1472708038635657e-03 5.7951862723835106e-03 8.3635824412340298e-03 1.8829193793047372e-03 1.9310284218184287e-03 -2.3469996496549465e-02 -1.6641613675164990e-01 -1.8104563023398523e-02 3.8863097977440120e-01 -5.6839614819999620e-04 -2.5040653285032022e-02 2.6122283133567237e-03 1.0138007029070972e-02 1.2912532913431995e-01 3.7807437273054342e-03 1.6320889192863639e-04 2.0970485487437962e-02 -3.7485782261460088e-01 1.5674291769655296e-03 -2.4268604363225009e-04 1.4188622216922646e-05 9.0202201243893589e-03 6.3312793797386246e-04 -1.2180740225670172e-03 2.3064392189491960e-03 -1.7069181474653305e-01 7.4872237276860307e-03 -4.0039578309290613e-02 1.0126198961846178e-04 -6.7444578725554538e-03 -2.6327839726578497e-04 -2.5310390090954715e-03 -7.0731267521807695e-02 -9.2234105604834995e-03 1.4273681155815444e-03 1.7931403568923088e-02 -1.6690702119376510e-02 1.4361129792632710e-03 -1.8800824120350761e-05 3.4936537825277223e-04 9.8964694399228392e-03 -5.6329441778907655e-04 8.9338932041797998e-04 4.2036226979575986e-03 -1.5488281677221494e-02 -1.3727015773383755e-03 -2.5407807375449920e-01 2.5458003502696084e-04 -8.6101404772307433e-03 -2.3503370068079128e-03 -1.2947010761746396e-03 1.4492609161223236e-01 2.5212782833660091e-03 -2.4301489923073813e-03 1.5255813303681032e-02 -2.6108489821500591e-01 -3.6275835523060735e-03 2.9826339863919999e-04 7.2354353700848455e-04 -1.6542399791951403e-02 4.6554751433014463e-03 4.8706926565112579e-04 1.0460870932480894e-03 6.9962646438852971e-02 2.3354426429686673e-02 6.8621647184045287e-02 7.1218524170664401e-04 -7.4100653818359730e-03 -2.2330370720376469e-03 3.6843962156079303e-03 -9.1718830078902025e-02 -1.2052000303814606e-02 3.4943305236318331e-03 -7.5554075023136491e-03 2.7146136341885474e-01 -2.1917624801712221e-04 -2.0485391098852004e-04 3.9593313484935722e-04 -1.8551363236626317e-02 -3.1489989221215528e-03 -3.8836712738499202e-04 8.3520953173566261e-04 3.1962436793989801e-02 2.0319432463371374e-02 1.7475579265319752e-01 -5.8256092972575643e-04 5.7676606570956079e-03 3.6743095797393474e-04 1.1721426490906286e-03 -3.9496675435006290e-02 1.1178461111367418e-04 5.6319725674106296e-05 -2.6911978141199056e-02 1.9589740193734695e-01 6.4351653074042059e-04 -3.8705679782351140e-05 -5.5169529613799471e-04 -5.7234515584364029e-02 5.0846557728813913e-03 1.5583329456820161e-03 -1.0079567077703466e-02 2.0521514932327867e-01 2.1225780637724956e-02 -1.2852928424493693e-01 3.8311499265751515e-04 -1.0273912210245761e-02 3.2359918627636874e-03 9.5316034030244381e-03 1.8573768746064090e-02 1.0766251854854303e-02 3.9177386696469013e-04 -1.1092431429153748e-01 -5.6917859579399099e-02 -6.6120326258367612e-03 -3.4724849892719852e-03 -7.3660038180537457e-03 -2.9740313049875078e-01 2.3951683513654232e-02 9.1962184121303098e-03 4.4123404611117190e-03 -1.3543389739623324e-02 7.8776926266541203e-02 -8.2862073276626202e-02 2.7993987296787183e-03 -9.1785004783653423e-02 -2.3315153363778415e-04 5.7744653173738547e-04 -1.2813047752783047e-01 2.5248464538829085e-03 -2.5482746016483821e-04 1.0288523991786036e-03 -9.5157832549368673e-02 2.9270271512317619e-03 -5.5465663551094557e-04 6.8561193788470292e-03 -4.0748542033984120e-03 -4.5568640678542036e-04 3.6362766985429534e-04 -2.8585812682131349e-04 -1.7492952555539176e-02 5.6122002103920210e-03 -4.9326698743627162e-02 2.7388734213745921e-04 9.2630776449162400e-04 8.5473948497970770e-02 
      </Row>
      <Row Index="105">
        -1.0802644052114488e+01 -4.4028556810008013e-01 7.9880496834218502e+02 4.3491138215586034e-01 1.6628631394365812e-01 1.2992716423235834e+01 -5.1793033192679286e+03 -4.1066972260364309e-01 -6.9800118144128076e-01 9.7062454387356528e-02 -2.0769154872527579e+03 1.2120751698501408e+01 9.4269314582925290e+00 5.4519028310096473e-01 -2.9811426296441482e+01 -1.1948522414313629e+01 4.2318924815952778e+02 -4.4875637901895971e-01 7.6720011532423086e+01 -1.0537627620622516e+01 8.7428685174018028e-02 1.2005280781164765e+03 9.9610980127181392e-02 1.1790850932834473e-01 -6.0106567236036062e+02 -7.3498703899597167e+03 1.1668420051224530e+01 1.0411864000161586e-02 3.0186883733676950e-02 -3.4558427084487721e+02 -5.6502540549263358e-01 -1.3327404362615198e+01 -4.0358492563791515e-01 4.6847591419023013e+02 -2.4414747973671183e+01 8.6150901462323964e+02 7.4077873074202216e-01 1.8864931660770480e+02 3.1632191382988822e+01 1.2183092541181395e-01 3.1902288643685824e+02 1.1491394371932984e-01 2.0825412290287204e-01 2.7853195502236485e+02 -8.1288993724435568e+02 2.4515416377961515e+01 -3.0366393750909992e-02 3.3992125764029879e-02 2.2696918119967449e+03 -1.6763550169765949e+01 -1.5374702998145949e+01 -5.1768312080944479e-01 -1.7832957316261018e+03 5.5418280171772018e+01 2.6932973786331713e+03 1.0578935429657577e-01 -7.3012400934472680e+01 -4.7792167488168875e+00 -3.0188220506033758e-01 1.2889302429491654e+03 -4.8448371720496652e-01 2.5644179690803526e-01 2.3404406293667853e+02 1.5976340645058081e+03 -1.7754668433335610e+00 5.6836891803925482e-02 -1.8702743549624756e-02 -1.3989453419026875e+03 -5.2264747890876606e-01 9.5635061607754324e-01 -6.2801234876042145e-01 -1.5727729522882073e+03 -1.4587218026652408e+01 4.6194926988804832e+02 8.6737375877419254e-02 -1.1765718054970112e+01 7.0078439504432026e+00 2.3157462145627505e-01 4.5828976865857840e+01 -7.0670174736733316e-02 3.4263820665364619e-01 -2.4966232218821824e+02 2.8839144041221589e+03 3.2215164274384733e-01 -2.2858985023094647e-01 3.3778849955979240e-02 1.4681635471680440e+03 9.5148511109873652e+00 3.2677571238018572e+01 7.9992066666090977e-01 3.7187352145975883e+03 9.8363563509192318e+00 1.1776021845363375e+03 -2.6026514032128034e-01 -8.1618933668360114e+01 8.1149674561165739e+00 3.3197145679696405e-01 3.5833315356820822e+02 -1.4395355540546007e-01 2.4063012215265189e-03 -4.0623949405958410e+02 4.3407064948378247e+03 3.5328731443500146e+01 -6.5466904786944724e-02 8.3635822429641848e-03 3.0178769837990403e+03 1.4585587131238889e+01 3.5332886341353500e+01 1.2075641240073078e+00 1.9725556454062462e+02 -3.4948043748344006e+01 1.5107497916235891e+03 -1.5121737057549036e+00 -1.0848770993202925e+02 1.1092759698873124e+01 -2.6413852239787405e-01 3.4395313659707522e+03 -1.2375499355957859e-02 -8.8019499023939629e-02 -1.0288299178993359e+03 3.9431711893089209e+03 2.9318633468159014e+01 -6.8926609233401867e-02 -3.8350976103075002e-02 -1.0678325588149949e+02 -3.2197812592753650e+00 2.8837475471339644e+01 4.6031837331240877e-01 5.0064225140213966e+02 4.2241269407013871e+00 1.5806456025684902e+03 -3.0954840404925676e-01 -1.3883939535945700e+01 -4.1986181605108559e+00 2.8557749882593142e-01 2.1191407865714182e+03 4.5908200406184885e-01 -3.4123632177815066e-01 -1.6140921214642003e+02 1.3726892943382263e+03 7.8853389980504289e+00 -2.9101801270773053e-03 6.5606544180981552e-02 -5.7326011358946562e+02 2.0691006799185953e+01 -7.6452646140255709e-02 -1.7647241876693442e-01 -7.2392121177678928e+02 -3.1943256395403296e+01 -4.9492824979126453e+02 1.6412163308479516e-01 -1.5218245293013752e+01 -8.9370827367106394e+00 7.2764248220013039e-02 -1.1740242949683441e+03 1.0784998920579195e-01 -1.6382359708983157e-01 4.4542329052190064e+02 5.1865374305903069e+03 -4.6365366099902676e+00 -2.0831080016704237e-01 -7.4828909804074695e-03 2.3395493973122029e+03 1.5283370292587790e+00 -4.6012456881307472e+01 1.6011550382816175e+00 1.2571272295857780e+03 4.3101302279026015e+01 -7.6819540986418724e+02 -2.8285662047606568e+00 -2.4221916951943154e+01 3.0917619714960196e+00 -2.3483139845278361e-01 -9.7549425410340018e+02 3.2292088778918693e-01 -1.7647833367354371e-01 1.5630671446084727e+02 -6.8415426731254565e+03 -1.3931955044418743e+01 -1.2730904032339058e-01 3.8071389117963976e-02 2.3607293378160139e+03 -3.3649162295136904e+01 1.9433016112452727e+01 1.5387510940786975e+00 -1.0986587151673539e+03 -1.3432404655570460e+00 -1.3751899476720819e+03 -1.4798885755031221e+00 -2.4204005803173505e+01 -8.0300631745915361e+00 -4.0844009475639459e-02 -6.3345881165823258e+01 -1.9280357806526185e-01 -1.8425689300197456e-01 5.9764497822735598e+02 -2.6664104342829737e+03 8.5846291809052566e+00 3.8667956441706022e-02 -1.8638597212689456e-02 -6.0050377699350304e+02 1.0873487214346994e+01 -1.7619831849251952e+01 4.4152588609765142e-01 -4.3809803136469145e+02 5.7533172815368857e+01 -1.4916481200449596e+03 6.5258144066614321e-01 -1.4618647497232701e+02 1.6674786178083195e+01 -1.4637675309816878e-01 2.5854143553403463e+02 -5.2941828671639934e-02 -2.7002537579504775e+00 2.4468639248758391e+03 8.4355666243399537e+02 1.1037250160715374e+01 -2.7025530772598554e+00 2.0091654229128508e-03 8.1453845049967322e+02 1.3931347977322696e+02 -2.5673254614561188e+01 1.7355732764679601e+01 -9.0860342544745436e+02 1.5375599940254574e+02 7.9154185634900978e+02 -2.7600886550865152e+01 -8.9230919058743825e+02 -9.1607391072708266e-02 -1.8549166949802659e-03 1.9303867666059195e+03 -6.0551374683792111e-02 1.6215924174735642e-02 -8.2867179683141359e+01 2.0935908145816475e+02 -2.8804708148743664e+01 -1.0762651640052665e-01 1.1397346557339608e-01 3.8190694862317071e+02 -3.3181179220420183e+00 -3.3019878498850046e+00 -1.5291790682388350e-02 1.7105436720785597e+03 1.1690741789896691e+01 6.3661691814125834e+02 1.4492920640122753e-01 -2.2289226354314735e+00 -1.8078928750323519e+02 
      </Row>
      <Row Index="106">
        4.3272729451246050e-02 1.6381482101337497e-01 -3.6569877795875072e+01 -1.4275893325520883e-01 1.0763528023062463e-02 3.1315731890499592e+00 -4.1829763422906399e+02 2.0156978008421902e+00 -7.5675454843995626e-02 1.0088206055951120e-01 -6.0792826367425732e+01 1.1526207797694951e+02 1.2862982805818319e+00 -1.7696298773080343e-01 6.3896192377411950e+01 5.9366543663199991e+00 9.1669581502676010e+01 4.3603550955594983e-02 5.0482988094445318e+00 2.5283257013652474e+00 -1.1718966467014980e-02 -6.1689601966179907e+01 -4.4790183362238167e-02 7.7945665684637788e-03 7.7548526279628277e+01 -5.0587885444448330e+02 5.3813110664486885e+00 6.1078235939930892e-03 1.0787927913497697e-02 6.4542397438628541e+01 4.9950923415832222e+01 4.9120061089051887e+00 1.5991837572073564e-01 -5.8381865040602676e+01 3.2951651937328279e+00 -4.4416286494582891e+01 -1.7736930342289270e-01 3.2808964070612845e+01 -1.3742516792262904e+00 1.1224658057562920e-01 -1.0990641802232858e+01 -6.5312312699461472e-02 -1.1821991665783571e-01 -2.0606424709782004e+01 -2.0808309313654900e+02 -6.3794481201937128e+00 2.3640121737344089e-02 1.5055181468824230e-02 1.0004629308334552e+02 -1.4439853455405682e+02 2.2111304311547428e+00 1.2254764452954987e+00 6.1245112689211965e+01 6.7009866840543806e+00 1.8279128655418754e+02 -1.7604705261692288e-01 -3.8893931102938950e+00 2.8324669226752786e+00 -8.7925007658668619e-02 3.4672927210107446e+01 4.1354404129378963e-03 1.4300368676288144e-02 -1.2922063696384430e+02 3.2486924350075424e+02 -6.7863538453821093e+00 2.6964411699736957e-04 -6.4763205325562012e-03 2.9414291043602603e-02 -1.0428002703003585e+02 1.5771125603205292e+00 -4.2749555850605248e-02 -6.5722692870338051e-02 6.5469394511492283e+00 7.3165597815270829e+00 7.5737073126219912e-02 -6.6445358144446409e-01 -6.1326212022686377e-01 -1.2979168087167636e-01 3.4559326149523258e+01 -3.3289999702901696e-02 -2.3578335678848816e-02 -1.2484751080861315e+01 1.7421283481270075e+02 1.0888058046402875e+00 -5.3208266408091731e-02 1.8860846224470151e-02 -4.1120838079202713e+01 1.1730136802047491e+02 -2.7461919524939731e+00 -2.0998237798266928e-01 -6.2196591825673721e+01 7.8304445133544505e+00 1.8709636199894703e+02 -1.2532530148746446e-01 -4.4581909738481045e+00 4.8764032614417374e-01 4.8465948598277464e-03 -5.5655423961579800e+01 -1.3934922482803813e-02 6.1900832477476797e-02 4.4458999834954739e+01 1.9770336341316579e+02 1.2173670239513740e+01 2.9744400741037680e-02 1.8829193832061719e-03 1.4585587888956070e+01 2.0861484278882784e+02 -2.2608253481971770e+00 8.5429470849787936e-01 -9.7490917414426804e+01 -9.7497155441060777e+00 1.1068123442373820e+02 6.2901377174563594e-03 6.9082527458667755e+00 -1.3794357450387906e-01 2.6973933222411339e-01 1.9278294442558604e+01 5.0890973682801884e-03 3.4204880359363192e-02 -9.7073540961029309e+01 -7.6712168436372053e+02 -1.5372302965746851e+01 -2.7265894627696036e-03 -1.9342350841657485e-02 -8.3357827945897025e+00 -1.1717851677220617e+01 1.9565017360605039e+00 6.2589676592730459e-01 -1.2121755789220333e+02 3.9892591562740001e+00 9.5007718699062337e+01 -4.7167730370534316e-02 -6.1100868155728065e+00 1.0899470290885114e+00 -5.4920935848652030e-01 -8.9781745960394346e+01 6.5645362680198494e-02 6.4454765397208624e-02 2.2031739781843498e+01 5.5859143662452698e+02 1.5293061267002486e+01 -1.4338661680695092e-01 -4.1648573161619927e-02 3.2738170625641942e+01 2.0525485069095797e+02 2.2379519974307804e-01 -9.0780555267701857e-01 -3.2362887106370181e+01 7.5725455861538649e-01 -6.8243608474731445e+01 -2.1907036767272660e-02 -3.2023850865662098e+00 -1.6488080917569907e+00 3.4330909883340019e-02 1.0160654612406395e+02 4.3022547365315508e-02 -9.3827331432104755e-03 -5.3414098547106775e+01 5.1866584905799596e+02 -1.6168908037216370e+00 1.7706063664759054e-02 1.5954079773736432e-02 -6.2075791310948798e+00 -1.2395013601598238e+02 6.2453824904264721e-01 1.5629325663420895e-01 -6.8609366565942764e-01 1.0244743392217906e+01 1.0188263911753893e+01 -2.7656960276979687e-02 -3.8900462835157232e+00 2.9629527081259752e+00 2.8348245411340917e-02 -5.9744147448791310e+01 1.2714516638261092e-02 5.1032606723118011e-02 -2.5966344996507516e+01 2.3811482147515832e+02 -2.2445209308565328e-01 3.5442974076709641e-02 2.9628009663096609e-02 -8.2306356476132692e+00 -2.9776182051261043e+02 7.2452929598130211e-02 1.3804619461969958e-01 6.0604155648300093e+00 7.9972305195581779e+00 -1.4653072201301885e+02 5.8445480815076910e-02 1.6581697163206108e+00 1.3530229710370554e+00 1.7671029200747307e-01 -7.2319871262236774e+01 8.1408265534271239e-03 3.3113498616502021e-02 -9.0401236514180056e+01 3.3382605644126227e+02 5.1710212338319712e+00 2.5271633676414777e-02 1.3012642956096044e-02 -1.1200058865408867e+02 -1.1591720829451467e+02 1.0173478860839413e+00 -1.1406976076035993e-01 4.1050686105861928e+01 7.9099051964178813e+00 2.5262827969871864e+01 -3.0642760694016863e-02 -5.5183672020307331e+00 7.5215584433057758e+00 1.0610830542453205e+00 1.8515461334064916e+01 4.0843946422700272e-01 2.2717092474417008e-01 -3.0296974712528493e+02 -1.9837185250762454e+02 4.0522407529687072e+01 3.8242551020135629e-01 1.4914752748566343e-01 -5.0969784518619292e+02 6.8924591392955136e+01 -2.2665106945838538e+00 4.4258556833439329e+00 -1.0539588830993426e+02 1.4197003839924747e+01 6.4479891469178241e+01 4.8586530398787975e-01 -6.7804572419548208e+01 5.3553646735675453e-01 1.3957523686746950e-02 -1.2893330129811082e+02 8.7772181818924471e-03 1.5701218778934776e-03 -9.2642481312812919e-01 -4.0999021653429043e+02 2.0225441109140081e+00 -4.1648832411055978e-02 1.3901060083916813e-02 -4.5443074618054791e-01 -2.2191234181218494e+01 5.7689303177697671e-01 -4.1416559983290151e-03 -1.9566176192343860e+01 3.9586795694916539e+00 1.4867845963420677e+01 -3.9524566597402992e-02 -1.2313733095225921e-01 4.0799296672860567e+02 
      </Row>
      <Row Index="107">
        -7.5048312605410672e-01 -1.3728508908521064e-02 1.6978670511860400e+01 -1.6448742873336641e-02 1.2311970136238415e-03 1.4158118317485787e+01 2.8973286957480013e+00 1.2184589238653558e+00 -1.8040480598463297e-02 -4.5155894512103903e-02 -1.1274349185940082e+01 -8.5603924590395764e-01 3.5119101489544846e+00 2.9743750661054946e-02 4.3314289841077418e+01 2.6076424195780419e+00 9.7750587835907936e+00 -2.7395804832167414e-02 1.6467958122229902e+00 -1.1028261419924092e+00 -8.4949618687915063e-03 1.8544793319830205e+01 -8.3605994159938746e-03 2.8267334903375740e-03 -3.0851052484940737e+00 -1.5546990657341667e+01 3.5526969545753673e-01 -2.3581311091334101e-03 -2.5853407846483378e-03 -3.4481390065278219e+01 -5.6767292381846346e-01 -3.3157902335733525e+00 -2.5333881885330811e-02 1.2754890742688687e+00 4.8279083480301779e+00 -2.9180452010594308e+01 -2.7965159182599564e-02 1.5458756326529468e+01 -1.0210765586216439e+00 2.3772340089749378e-03 2.2868416312236889e+01 -1.0188633965924510e-02 1.2593318009066934e-02 1.4261170081095770e+01 8.6572184246499091e+01 2.5475896238516254e+00 4.4559782963915495e-05 7.2903836456816862e-04 1.4322665176368901e+00 2.4518585563346278e+00 -9.7784948378939589e+00 -6.2215918962465366e-02 1.8858606002904708e+00 1.2465263657210690e+00 7.5821508697816171e+01 -1.7769812419146547e-02 7.8372315502783749e+00 -4.9934405543497173e-01 6.1818831009645692e-03 5.3993536788213532e+01 1.9066031574624276e-02 6.8111201411458211e-03 -1.5928413267480209e+01 3.8623725833778735e+01 7.5414741459098877e-01 -2.3808982520812094e-03 -5.5239973791287866e-04 -1.5421960293711992e+01 3.2332464180144598e+00 -1.1491287212411407e+00 5.8557295495063499e-02 -2.1914931207236975e+01 -1.4654384260347797e+00 -2.4152170451954103e+01 1.6227783904014359e-02 2.6156633007328356e-01 1.0306889908042649e-01 6.6989144470142037e-03 -2.6420204615220428e+01 5.8210953692423573e-03 -4.1151199292386309e-03 -2.1505427638292531e+01 -1.8379152838606387e+00 -1.5686845707568864e-01 -1.0480532418142730e-02 -1.4658471533614659e-02 -8.2029027065296365e+00 -2.7743802197510377e+00 7.0336023480376753e+00 8.9984437908015025e-02 -6.7154693929747282e+01 3.5594669226557016e+00 5.0523533452169367e+01 -1.7507380767256109e-02 -6.0149628948420286e-01 -2.2913810048339656e-01 1.3877688820628009e-02 2.5465209684334695e+00 1.1930818696100687e-02 9.8815629208957034e-03 6.4758227835911384e+01 -1.7615903162186441e+00 -2.8874997112525307e+00 7.0264688171874923e-03 1.9310284234848041e-03 3.5332886309130117e+01 -2.2608253380167298e+00 2.0816639333440492e+01 -2.7005678092776944e-02 1.1442041526548564e+01 -1.5750968888467303e+00 -2.0349965960406280e-02 -5.2535996003471579e-02 -3.9922570710768923e+00 -1.5079315173807117e-02 -4.0900248349131842e-02 5.9247885956517393e+01 1.5848318603259148e-02 -1.6275506846295654e-02 -1.0101256592079361e+01 -3.8660329662713773e+00 1.5071401837593452e+00 -6.9540661691934571e-03 -1.7314404578908336e-03 3.5566917168156698e+00 5.0228131421813216e-01 -5.3636350246841324e-01 1.7995371518459941e-02 -6.5420731489546597e+01 5.2699985441602326e-01 2.9871466526492682e+01 2.8569239128765946e-03 8.5253685634811838e-03 -1.1959213619745140e-01 2.2593184337299489e-02 -2.7324520850059145e+01 -2.1255861706946846e-02 4.6443511400086207e-03 -1.2372899186084396e+01 7.3141896292567253e+01 -1.5356779752619332e-01 4.6272079804281965e-03 1.7120341951289393e-03 -2.6587138933871756e+01 -2.6842474154457641e+00 3.2178073208295430e+00 -5.6180788006713556e-02 -3.0997062606140389e+01 -2.5588346002041362e-01 1.6077466029673815e+00 -3.8130827097949294e-02 -1.5438861828297377e+00 -3.6965140848205524e-01 -3.0589388630956695e-02 -1.0792482608764219e+02 -4.3603987335124078e-02 6.5498570065956718e-02 6.6140518836240170e-01 1.4146694776975642e+02 1.3943377488571242e+00 4.5328318774067768e-03 6.0636952811624033e-03 3.6625206083774700e+01 3.1503009098187444e+00 -1.3881260276745028e+01 -8.8840223847466357e-02 2.0456256900884910e+01 1.8953360896983225e+00 7.1131436332943849e+00 5.8347005920996224e-02 -4.5884847468445109e+00 -1.5762321851100847e-01 -8.3225109884092017e-03 3.7436233537420280e+00 -2.0941891046655128e-02 -1.6377025273862349e-02 1.8814472467456948e+01 -1.7758613807898959e+02 -3.5725663889301984e-02 -3.7692009482124299e-03 -9.1397547695437655e-03 6.0207492159063271e+01 4.9259333721104115e+00 6.4491260067202552e+00 5.5392992465442249e-02 2.2821200860195983e+01 -4.7947772641830788e+00 -7.7661784961320137e+00 -5.9394870367276253e-02 -2.0963184610573444e+00 -1.3612406367589291e+00 -1.2145093910149125e-02 5.8838860983543945e+01 -1.1939343144904496e-02 1.0106320142252555e-02 1.7609869490787588e+01 -1.0129102438332562e+02 2.0818847763499200e+00 4.5118764786694571e-03 6.7052223252485029e-04 2.7719065906839365e+01 3.1997375866900040e+00 -8.8385349528667945e+00 3.7335478340129208e-02 3.8146670111855698e+01 4.0577773867495202e+00 7.3439671289165446e+01 3.5957861655603086e-02 -6.5530253152252085e+00 -7.6269397415671438e+00 -2.8957282683719093e-01 -1.7260411116952667e+00 -3.8889962778844300e-01 4.9616615338867759e-01 1.8129474001822911e+02 3.3797467489695038e+01 7.6467689944947210e+00 4.2012755150693026e-02 5.4724393186593057e-02 2.9082203093174019e+02 1.6777502676956818e+01 -8.4989721087402224e+00 -6.6413588835586879e-01 -4.2295028550283860e+00 -1.0575682590369210e+01 -4.5647874018357726e-01 3.5898647631675518e-01 -4.2711146896735784e+01 -1.2590096026229541e-01 -2.1965818688464414e-03 1.0813799795156235e+02 5.2760090010405911e-03 -6.8078498650726762e-04 5.2016749911292148e-01 1.5580269869901729e+01 -5.4175666819898638e-01 -1.3383087458808065e-02 -2.9037876112700381e-02 3.9275570478663546e+00 3.8303812917965691e-01 -1.2501450263429967e+00 2.3390969697087080e-04 -1.2070125677061583e-01 1.6381487106979442e-01 -3.9759815080315377e+01 -4.0069898851369072e-03 9.6959650404176401e-01 -1.5005188939397152e+01 
      </Row>
      <Row Index="108">
        1.3741924860922872e-01 -1.3113516344381182e-02 1.9787788925459608e+00 -4.1739173101984051e-02 -2.5810983610208282e-03 1.0393415504950099e-02 4.7622247574036010e+00 -4.5958343019592007e-04 5.8636425809784065e-05 6.3196371697993400e-02 -1.3821807211434134e+00 2.8895304691832280e-01 7.8975749784149230e-04 1.9773301623754946e-01 -4.4104501293664953e+00 -1.1125405166058044e-01 1.2581346533261240e-01 -2.4233129707752710e-02 2.1818058208555158e-01 -2.7507797268117429e-01 -6.0078806381795857e-03 1.2796576568434830e+00 -1.3113179128964703e-02 2.0202123542919281e-02 1.0548683755332604e+00 6.8207975986824749e+00 5.1510415432858281e-02 -2.5764531369603105e-03 4.5594536030897359e-03 6.5069792104893054e-02 8.1722633109166054e-02 -1.8132552456336271e-02 -3.0113421227278536e-01 2.0798777374940158e-01 1.0470688441273523e-01 7.9741602911963128e-01 1.2042833006773890e-02 1.1698493228381326e+00 4.6068566363646823e-01 -2.0070515555921986e-02 8.6119418865034447e-01 -3.7976906828802726e-02 -1.1721745420823027e-01 -5.3664713078615023e-01 5.8253840836696327e+00 4.1489128237939148e-02 1.1835702331488562e-02 1.9316313568358723e-02 1.5730070915669785e+00 -6.0286894960518111e-01 -2.6007084526099788e-02 2.0674760110044872e+00 -2.5980219583016151e+00 7.6278589041884892e-02 9.1377290213131346e-01 -1.1576911949191526e-02 7.7712340191283147e-02 2.5480361742158930e-01 1.0657092464846585e-02 6.4859682973474264e-01 3.3191836599836932e-02 1.1600552862649050e-02 1.0116522029275075e+00 -2.2952741033514030e+00 1.3948049098507909e-01 -4.3294586865556539e-03 -4.2396504530648471e-03 -1.5623519004047464e+00 -3.9871420449344441e-02 -9.3698398663946136e-03 -6.9183434147124956e-01 -3.2910668873544289e+00 1.3051706468036173e-01 -5.9876827542820763e+00 3.7786958097285606e-03 -5.7147604910138039e-02 5.0282577596431111e-01 -1.3985779506242579e-02 6.4823293776134960e-01 3.1765133787359900e-02 2.7439757938100939e-02 6.2762253759137820e-01 -2.4271394523530034e+00 1.5395715347040095e-02 -2.5263633857974810e-03 4.1242231991285294e-03 2.6222614222282363e+00 9.4872287030739244e-02 4.1073688717006007e-02 -1.4637387615285888e+00 4.5788778301471647e+00 2.2069198046665406e-02 7.9051449657819006e-01 2.5033899768061474e-02 -6.3149370354949497e-01 -3.7293911174265304e-01 3.1909089953970238e-02 -1.3617398936767131e+00 -1.6996776117863988e-02 4.8013292415447495e-03 1.0658627497832640e-02 -1.2872655240157655e+00 2.7329456664574536e-02 -3.2564172683567705e-02 -2.3469996496910284e-02 1.2075641198607627e+00 8.5429470702001709e-01 -2.7005677970009856e-02 2.9566965901664339e+00 1.1628492025192827e+00 -8.4181678657192727e-02 -6.8850929347917145e-02 8.2057987996107980e-03 -5.4428882192587480e-01 4.1209480438260471e-01 1.9319853917742262e-02 2.1594715433901044e+00 -3.8702595620034967e-03 -1.7657503644842105e-02 2.5316410830822456e-01 4.2596763307857479e+00 7.4691000793144974e-02 3.4225129410397123e-04 5.6330517635102030e-03 2.7983409359792599e-02 -1.4243076292186707e-01 -2.1548024701549817e-02 2.1850435823240019e-01 3.7883605028619058e+00 1.9227554518334300e-02 -4.4792694137209850e+00 -2.3366027802349202e-03 1.5940316165299651e-01 1.7581881042630254e-01 -1.3462580816202718e-02 2.0669053179863113e+00 -2.7336629624510209e-02 -3.3174408513528715e-03 2.0193889612528437e-01 -2.9364434368908405e+00 5.6660427617316600e-02 5.6910098946123724e-03 1.0034358197798965e-02 6.7149891704320908e-01 3.8133317896377555e-01 1.2512610152465464e-02 7.8316123940362559e-01 9.8817550966123235e-01 1.2632789416966261e-01 -8.9025279693305492e-01 9.2259013087974129e-03 -6.5834329267090652e-02 -5.1413299248291922e-01 -3.1477246177875912e-03 2.0979889529412432e-02 7.7109556551259372e-03 6.3568934949493625e-03 -3.1447873488800648e-01 -5.2403338032339661e+00 -8.5669184197909948e-02 -6.1665611640484945e-04 2.5422069131745785e-03 1.8196370202690153e+00 -2.0551082123951403e-02 -4.8715780313641432e-02 1.0771675687056503e-02 1.9511357528244844e-01 2.2352874287300950e-01 -5.9613051365740830e+00 2.4046236316406090e-03 3.0514779798211755e-01 -5.6627235124490438e-01 8.1374891752046818e-03 -2.5163875840552041e+00 -1.7331713930133830e-02 -7.4401655448424232e-03 -2.3906078746462001e-01 -5.6194826854398396e+00 -9.3138527778702240e-05 -1.7833184829161876e-03 6.5919997460546637e-03 1.9891009337575838e+00 -6.1392194462196492e-01 -1.1001023996075054e-02 -6.7404699256071043e-01 -9.4266800365521419e-01 -1.1414896361431448e-02 -6.7162602423920461e+00 -1.0595854303940746e-02 1.3138056158541467e-02 2.8616875076291659e-01 2.6016718289848667e-02 -2.0257113585256636e+00 3.9757112165953512e-02 9.4622633190741212e-02 6.8559476616870629e-01 -3.2164266068937550e+00 7.1834633360871258e-02 -1.7065289212930997e-02 -2.0589532264162463e-02 -1.2600774261675207e+00 -2.5510679350131360e-01 -7.5774432056177510e-02 -2.4467392257911702e+00 -3.7535775445447754e+00 7.4977735150312252e-02 3.5683673255663955e+00 2.1204183165988003e-02 1.0264648778142327e-01 -5.8332062794903994e-01 4.6196764024321157e-02 7.9676069521305504e-01 1.8869895624361510e-01 3.6399898093657035e-01 5.4561757324119498e-01 2.1084070304299369e+00 1.9589730088452040e-01 -8.4000065255782935e-02 -1.0055993279934283e-01 -2.7345274298845084e+00 2.6607420694816106e+00 -3.3542670381051964e-01 -1.6001698687950658e+00 -1.4544530352627589e+00 1.7964648768710312e-01 4.9545165823407444e-01 -1.2814071511805913e-02 -1.3188311539532567e+00 -2.5108697867378704e-01 2.1242660637273785e-03 7.4113932331524790e-01 4.0163127165212462e-03 -2.0978793729344416e-04 4.6541729529181453e-03 2.6642605982131289e+00 -1.3488617215060459e-02 2.6067853718637168e-03 2.6876163292148699e-02 4.2091871716354112e-01 -1.7111334843801188e-02 -4.0479626171667366e-03 -4.8146524374081262e-02 2.3694611502160541e+00 3.0671373359035581e-02 -2.7344785967562046e-01 4.1093828905413013e-03 -4.8643471689306494e-02 -2.6373177667844532e+00 
      </Row>
      <Row Index="109">
        -2.0169968481767137e+02 -4.3650557252112776e-01 6.5226191418170929e+03 1.7861801761755487e+00 -1.0925483567625633e+00 2.7874706137180328e+02 -1.3457468910217285e+03 1.8478557629193529e+02 -3.4673389608813547e+00 2.1276721173698014e+00 2.7324000535346568e+03 -1.2071031564474106e+02 1.7772265195846558e+01 -1.1274082381278276e+00 3.7468434639296131e+04 3.3579648539423943e+01 2.9951526742935181e+04 8.7763164236675948e+00 -3.3488640509545803e+02 -3.7969759114086628e+01 6.3634562434162945e-01 -3.1531701862812042e+03 -1.9733361326216254e+00 -2.4733541352907196e-01 -1.1393833186626434e+03 -3.9908101531714201e+03 2.4554752439260483e+01 -2.7928384568076581e-01 4.6409058981225826e-01 2.6773578738898505e+02 5.9909176230430603e+00 6.6897144615650177e+01 6.3267906365217641e+00 5.9333730718985156e+04 2.4283639892935753e+01 -2.3493385264277458e+04 -6.1894002202898264e+00 -3.5693311193961181e+03 1.3475531565956771e+02 1.0195453079359140e+00 -5.5064009829725255e+03 2.6832900196313858e-01 -7.6952692749910057e-01 2.6592811155319214e+03 -1.2661050530433655e+04 5.5114131134594913e+02 1.1535222468955908e-01 4.4209008388861548e-02 5.3016315071284771e+02 2.5487823691964149e+02 -2.9610656630247831e+01 -2.5944143485045061e+01 4.2167088209271431e+04 -3.5111507696697032e+01 -1.5055403758525848e+04 4.0454551100265235e-01 -6.4448744046688080e+02 -1.8515198294521892e+02 2.1933605603408068e-03 -3.6383829104900360e+03 -2.9699099892750382e+00 8.2955423184102983e-02 -1.0671666716337204e+03 -5.4509213159680367e+03 2.0074342802911997e+02 3.7633834702137392e-01 4.1367388095386559e-01 -9.2705644300821348e+02 -4.0087741676717997e+01 2.3953164365608245e+01 2.1497517470852472e+00 4.3973383990890052e+03 -5.1641001966898330e+01 5.8768332759491532e+03 1.3458807027200237e+00 1.9284846633941697e+02 -2.2074044147506356e+01 -2.8764427488204092e-01 8.4064396390914917e+03 -2.5240415894659236e+00 -1.5540772246749839e+00 5.8310460668615997e+02 1.6374226301908493e+03 -1.5949009017739445e+02 -7.2772777848877013e-01 6.9707779162854422e-01 1.8488839863438591e+03 -5.5492030680179596e+01 3.3694737061858177e+01 1.2681665620766580e+01 -1.0969189308822594e+05 -3.6679875031113625e+01 -1.0991427276066941e+04 -1.4253594477777369e+00 5.8418802511692047e+02 -2.1707091126590967e+01 -2.7709650792530738e-01 -1.2829629442214966e+04 3.1380851496942341e-01 -1.9223966362187639e-01 -2.1404568122252822e+03 2.2561917991098017e+03 -3.9686787885474041e+02 -4.2319292506726924e-01 -1.6641613963292912e-01 1.9725559842586517e+02 -9.7490929275751114e+01 1.1442041609436274e+01 1.1628493323805742e+00 2.0286591103363037e+05 -8.6974102232774868e+00 -9.3725249991251039e+04 5.5647136256352869e-01 9.0230196845531464e+02 1.2909405846148729e+00 -2.0782857234567098e+00 -4.0527029581880379e+03 1.0084803826086621e+00 4.3035462597599028e-01 1.6558668464820555e+03 -7.4722502675408250e+03 4.4747460793657655e+02 9.4471654618316969e-02 4.7833910694224546e-02 7.3008156850005946e+02 1.5631744640356942e+01 -8.8578261788128884e+01 -7.9679233506852363e+00 2.1524495432853699e+04 -2.2613678600668564e+01 -2.3487894773057393e+04 3.6249750912553136e-01 -1.2916008236114982e+02 -6.8771613995778111e+01 3.1589552254432869e+00 -4.2872935109984828e+03 8.5155244655026163e-01 6.3169717109193435e-01 -7.0888644531369209e+01 -5.8636778106689453e+03 2.7427129652351141e+01 -1.6028790368075707e-01 6.1051436270695258e-02 -6.7819891698658466e+02 -1.7568409894365496e+02 1.2001113278443054e+01 -4.8749068565666676e-01 -1.0024587312385440e+04 -3.5943368285894394e+01 6.1639750014305115e+04 -3.2279210588556264e+00 5.1833628356456757e+01 6.1803870156475568e+01 -3.9149720940229515e-01 1.7834300912710867e+04 -1.7746978088439531e+00 2.1658615414082449e-01 3.6426819666448882e+03 -2.5849237902520668e+04 -2.0470734551764298e+02 -1.1311594069220404e-01 4.7261107547647835e-01 4.0000481706069547e+02 3.1281708239802811e+01 3.4334698130899085e+01 1.7158458240198339e+01 2.0283125081598759e+04 -4.0987728604042466e+01 6.7911020556092262e+03 -6.0960707817913762e-01 -4.1462295189269855e+02 2.2629589234459752e+02 3.5830075097447456e-01 -1.4144749927069151e+04 -2.6383445230001001e-01 1.3216186039267300e-01 2.1603398662255859e+03 2.5048260209173917e+04 9.0278257519751378e+01 -1.6720411471463689e-01 6.8840943247697151e-01 1.2053865235927060e+03 2.7388701256670419e+02 -5.9867261570537096e+01 1.0417896262279918e+00 -7.6339458094974456e+04 2.2563794247969980e+01 -7.4970037646760538e+03 5.5984253761084690e-01 5.2050811829770410e+01 2.9226149303973614e+01 -2.0131824037881341e+00 -1.4267677454112389e+04 -1.5194117282655273e+00 -4.7475380156116564e-01 2.9671852454471946e+01 1.9041464395519284e+04 -2.8092445938519279e+02 -2.9056441450394177e-01 3.0961480896827598e-02 -3.0355861903100288e+02 -3.3726219038649162e+02 4.1571926077686058e+01 3.6811996487008194e+01 5.5720137212558417e+04 8.2668076078739261e+01 2.6761664382486579e+04 -6.6710385428514840e+00 5.3608237932182305e+02 1.1577167151285844e+03 -8.3854081556871787e+00 3.5806701001873935e+03 -2.1422165651032454e+01 9.0719206783973760e-01 8.7885065544524714e+03 -6.0694944286004857e+03 -1.5505790708635559e+03 -4.8968715297113850e+00 4.2368662518658695e+00 2.1787626454503816e+03 -1.0780998670812899e+03 9.5254061625945496e-01 1.9492081130441056e+02 -1.1377873327358251e+04 2.6850797001413309e+02 2.8088533376871441e+04 1.9857751088164406e+00 4.7365878234666006e+03 1.5247783518767790e+02 -6.1384612762969831e-03 -1.0413437101077679e+04 -5.5324530785842785e-01 -7.1758076549072403e-02 -8.6281476499820769e+01 -1.5098496203117156e+04 1.7818584208207068e+02 -1.3820521105017756e+00 1.3586354881334903e+00 1.4302629901801782e+02 7.1370511790278982e+01 1.5090956721401660e+01 8.0632276969204497e-01 1.5035709943507274e+04 1.7252459573499550e+00 -2.0054642601389711e+04 -4.5249181913292835e-01 4.4937906274282795e+01 1.4918678961236132e+04 
      </Row>
      <Row Index="110">
        1.2245590599031857e+00 -1.4906498827701853e-01 -1.8641982268542051e+02 -1.4766408146624599e-01 -5.5668034780183007e-03 2.0869865419343114e+01 -3.2324414527416229e+02 -1.9005559306019677e+00 7.1323092517569298e-02 -1.0373973893384265e-01 -1.8278113796084654e+01 -6.6009497195482254e+00 -4.3977462472394109e+00 2.1880075569060864e-01 -3.6625272230986127e+01 -2.4631873184349388e+01 4.2470923317968845e+02 5.7750815818508272e-02 -5.9921902138739824e-02 -2.3701241021044552e+00 -2.7366399257516605e-02 -3.7094617590121925e+02 -2.3893424689504172e-02 -1.1311397520330502e-04 3.2519660387188196e+01 -4.6160630983673036e+02 1.5818513752892613e+00 5.7728094652702566e-03 -1.4880908087889111e-02 -3.2692973632703797e+01 -5.3162686945870519e-01 3.0702215941855684e+00 2.1293012617570639e-01 5.3119767652824521e+00 -3.0753124953946099e+01 5.0057583815418184e+02 1.4163359495250916e-01 -1.7530767323425561e+01 1.2452127604628913e+00 1.4668266572243738e-02 -1.8650052629157835e+02 -5.4226854121225188e-02 1.9681153620695113e-02 -7.3896949868649244e+00 -4.5092789293080568e+02 -3.3894584488550992e+00 -3.8296927341434639e-03 1.0376978446402063e-02 -2.9686990513349883e+01 1.5436843322124332e+01 3.5114070413983427e+00 4.3021126294843270e-01 1.0846584951016121e+02 -3.4820305952244652e+01 -7.3108007989823818e+01 1.6204263712188549e-01 1.8966945910360664e+01 1.1969359070726469e+00 6.4540064700850053e-02 -3.1186672599893063e+02 -2.1305123347246990e-02 4.2398926282643856e-02 1.4011807293444872e+02 -2.3295267787296325e+02 9.2476281533017755e+00 1.6715763786976368e-02 4.0486445610554256e-02 2.1056315163348494e-01 6.8407483557821251e+00 -3.3440750984082115e+00 -6.1393836856041162e-02 1.1412848649931510e+02 -2.4619128128137163e+01 1.1308042651754438e+02 8.6348708497098414e-02 6.2908612292248085e+00 1.9209784592530923e+00 3.8013832646356605e-02 3.0403852775692940e+01 2.5993177418058622e-02 -1.8120122090067525e-02 -5.7856920289312257e+01 2.0029664704948664e+02 -1.6898112578201108e+00 2.0285713895191293e-02 -3.8720408892118030e-02 -5.6630121863033366e+01 -5.5892942082136869e+00 -4.8407688622246496e+00 3.6680758337752195e-02 -6.0180025082441318e+01 -1.3802469059126452e+01 1.7627548494923809e+02 -5.1437168624033802e-02 1.5570114970207214e+01 -2.7253333772532642e+00 -4.3683212006726535e-03 -9.9571957066655159e-01 4.3076177074908628e-02 1.3007431431105942e-02 6.9804677756386809e+01 2.5909626724888221e+02 1.2297314220631961e+00 -4.9783661006586044e-03 -1.8104563011775099e-02 -3.4948044249787927e+01 -9.7497154870070517e+00 -1.5750968847714830e+00 -8.4181679947505472e-02 -8.6974154412746429e+00 6.3788538449632831e+01 8.0676865223215955e+01 -4.2902010289994699e-02 -1.9796611219644547e+00 1.8529501471057301e+00 -1.4289584960977139e-01 -7.2885588605215867e+02 -9.5021379258793965e-03 3.1285601149386014e-02 3.4882369053705865e+01 7.1843962222125890e+02 -1.7268559899274474e+00 2.2575673210823537e-02 1.8984248252735328e-02 7.5550666373176281e+00 2.2441656791472022e+00 -3.7263888265060294e+00 1.2438200786041839e-01 1.4947560355812311e+02 -2.2929730516930839e+01 2.0155107078159890e+02 7.5957286671641033e-02 1.3859077516709611e+01 8.6422597411289492e-01 1.0728713758516119e-01 -4.2970722817893926e+02 -4.3744502830199795e-02 -2.1387814896912730e-02 -6.6299293433316052e+01 -5.5014390635490417e+02 1.0192177887074649e+00 1.3176769186811103e-02 -1.7998385401887942e-02 -6.0458597028627992e+01 -1.6313923692741312e+01 2.0064905264504680e+00 6.5219249081565067e-02 8.7035406712908298e+01 1.0997184771113098e+01 -2.6165766200423241e+02 2.5224139428008108e-02 -4.0054507274180651e-01 -2.3053178612093865e+00 7.1270477735635829e-02 -4.9909868413975197e+01 -2.6014519535768013e-02 4.1632749032563246e-03 -1.1153731237966680e+02 -2.4838898655064696e+02 -2.0064033338506189e+00 -9.1571729559990888e-03 2.5645824943395477e-02 -1.6650341721401912e+01 9.1564557014272836e+00 7.2674075080848048e+00 1.6870431894429327e-02 -1.1226433829078451e+02 -7.2281175997861823e+01 5.7961937392130494e+01 3.1364424395553020e-01 -3.2574058971684750e+00 -3.7722765561314944e+00 -1.4765686223847951e-03 4.1429565940554539e+02 -7.5725233571994455e-02 -2.2207996763985015e-02 -6.1701061701439912e+01 7.7876447950075203e+01 -4.2430117121933977e+00 -3.1445895843041356e-03 -1.0772940414040056e-02 -2.4961591469587972e+01 2.6423250939881736e+01 -6.7940401353835487e+00 2.6085517198111446e-02 2.2898038234081149e+01 -4.3904700994449470e+01 1.7219340763773911e+02 4.3011299585651003e-02 2.8210787615685398e+00 6.3197882604314803e-02 1.9883528089138625e-02 1.8293301023670296e+02 -5.0191636722462928e-02 -4.2196594836102930e-03 7.3640602366014392e+01 5.3684528260899640e+00 7.6880102137411246e+00 4.5212714283376955e-03 1.4710039994165373e-02 4.4703518786470362e+01 3.6848323488470571e+00 7.5313636168562237e-02 2.4009488435128723e-01 -2.5427894956224463e+01 -7.3477214050287714e+01 1.0831768228483642e+02 1.8931435912786854e-01 5.8490937046579106e+00 -9.6361467416210331e+00 6.9940425757780678e-01 -1.0937157042598081e+02 -3.9127706654098343e-01 -6.6168110777569511e-02 2.6811782260035699e+01 2.9250957850554492e+01 2.1243159939250926e+01 -2.3079660187040607e-02 2.6246827219904001e-01 1.7173006720256853e+02 -1.6194432705309367e+01 -2.1055091019578608e+01 1.5353768477659244e+00 -5.2048516915527088e+01 -2.0417699216045878e+02 -2.1316672425300901e+01 2.7085112015267692e+00 7.3685222691500201e+01 -1.2561452680556919e+00 -7.0843488990698037e-03 6.6750446763729002e+01 2.4114820463707724e-02 -1.0489558541019448e-03 8.5093095366304325e+00 2.5527588968411712e+02 -2.5477833205250633e+00 1.9438795652481307e-02 -8.8001496572587407e-02 -3.5372909716655681e+00 1.9066908465044436e+00 1.8358453851022960e+00 8.8820638116092199e-03 -1.1052625175362766e+02 -2.2646088337255332e+01 -2.6431757036441638e+01 2.0606419789291456e-02 8.6070845951537223e-01 -2.5266724156420639e+02 
      </Row>
      <Row Index="111">
        -2.1430773596838117e+02 4.5944374307509861e-01 1.2636996711730957e+04 -2.4682507008183165e+00 1.9366675660385226e+00 2.2479586181044579e+02 1.5007879482626915e+04 2.5034296721481951e+01 -6.5845261933241961e+00 4.4599194400269200e+00 -4.8971830808389932e+03 8.8809149630367756e+01 -8.9773300401866436e+00 -7.0701762912794948e+00 1.1734775984188964e+04 1.9388994088210166e+02 -2.6433008941650391e+04 4.7037003174336860e+00 -4.7988501671515405e+02 1.6362155103497207e+02 -7.3116834592656232e-01 -1.3720725378341973e+04 1.7336934940249193e-01 -2.7792160953140410e+00 -1.9960945010185242e+01 1.7648191256799735e+04 4.9844687588512897e+01 -1.0297487110146903e+00 3.0723328288877383e-01 -4.0320537145431445e+02 -2.4475001469254494e+00 3.5494640623219311e+00 2.6902406950684963e+00 -1.3957580552697182e+04 2.4568467355892062e+02 1.4116913577914238e+03 -3.5950967935496010e+00 1.5733174676611657e+02 -2.1938265727506950e+02 -9.9250853319608723e-01 -8.3570172129020575e+03 7.9959907736338209e-01 -3.8611898540402763e+00 -4.7663057672232389e+02 -3.9381833794116974e+03 1.4115347744789131e+02 1.0423289424579707e-02 -2.5890889593574684e-01 3.3794454048257321e+03 1.6534892868250608e+01 8.6161261706613004e+01 5.6520342386211269e+00 -2.0267192847898230e+04 -5.0467351044979080e+02 2.9467052819699049e+04 -2.2385456443444127e+00 1.0667986072860658e+03 -1.4616066589386458e+02 3.1880087075187475e+00 -9.8977339094504714e+03 6.4081511562835658e-01 -1.8888178041997890e+00 9.8063568262755871e+02 -4.5023924240022898e+03 1.0657244033087045e+02 -3.9019575256997996e-01 7.6636896732452442e-02 -1.0805294752215982e+03 -2.7346826437208802e+02 -4.2618940941873007e+01 8.3985284145455807e+00 -6.8628209909376292e+03 1.6217326811190287e+02 8.4427608652319614e+04 2.7726472439244390e+00 1.0819301138076844e+02 -2.9131918501667678e+02 -1.8916575602670491e+00 1.5682075263440609e+04 -7.0281728063127957e-01 -6.4065291397255351e+00 2.4994156541209668e+02 -5.2993002396225929e+03 -7.8087328223744407e+01 -1.6305344530373986e+00 1.4343678688737782e+00 1.3321244394318360e+03 3.3790220849215984e+01 -2.7658716442994773e+01 1.2610449097672245e+01 1.0036521879909773e+05 2.9702992283552885e+02 9.2520796127843423e+04 -3.3882084928336553e-01 6.1111775034666061e+02 2.8059969196049497e+02 -6.6779930725897430e-01 -3.0674894852101803e+04 -8.9821719552855939e-01 -1.2506462221208494e+00 -1.1794856441989541e+03 -9.8128526702397503e+03 -4.6614315319340676e+01 2.4562982592760818e-01 3.8863097841749550e-01 1.5107497891336679e+03 1.1068122816644609e+02 -2.0349674858152866e-02 -6.8850898067466915e-02 -9.3725250294685364e+04 8.0676869455724955e+01 3.3287254501775757e+05 -1.6515847984750791e+00 3.1640896141529083e+01 -1.9910291495674755e+02 3.0198300469227273e+00 -1.1890300833934627e+04 1.5958260768351329e-01 -4.7160093024207872e-01 -3.0813300914081519e+03 -2.9854150811190921e+03 1.4482627907718268e+01 -3.2084630191513697e-01 7.7993551815068507e-02 1.7610019945964700e+02 -3.1836622996879271e+01 9.3787112484835561e+01 7.1134799557181196e+00 -9.1146551972627640e+02 -4.0899900634854561e+01 2.4449937155220323e+04 -8.6291007624277660e-01 1.9284650344970053e+01 -7.5479059036911408e+01 -1.0797391372928202e+00 -2.0661750160575408e+04 -2.0469272151418805e-01 2.7391857281818321e+00 -4.1283868474699557e+02 -1.3201517591476440e+04 -1.7002628610003740e+01 -4.6680136114363868e-01 1.8083978637646736e-01 7.3707040261477232e+02 8.3780015727386001e+01 2.7279974532035709e+00 -5.4678315201308578e+00 -6.5737472855709493e+03 9.8499686982482672e+01 -6.6165296492576599e+03 -4.8676421902679241e+00 -3.0649954741448164e+02 2.3239905383879358e+02 -2.5613533834134241e+00 5.6919955102130829e+04 -4.1616870744199730e+00 -2.1203552524917897e+00 1.3494152149278420e+03 -1.4670413863674290e+04 -7.9121904035744521e+01 -1.0337338648247574e-01 1.0374212342870643e+00 1.5124717405703350e+03 -1.3133961533644742e+02 8.4033294558950402e+01 -2.8780861384269190e+00 -1.3548467839956284e+03 -1.2989589542798200e+02 3.7306942903280258e+04 -4.1972200366079058e+00 -1.6058359571284718e+03 3.7167698082591539e+02 3.0997986558830508e+00 -3.3905470247065852e+04 -1.6107870662818176e+00 1.8635376948633238e+00 -6.0294973053467254e+02 1.4328474003358224e+04 -1.9396269860089149e+01 -8.2331523286988695e-01 9.2501098797175119e-01 -5.5798358492666921e+01 1.9924505705838146e+02 -7.8129236784079392e-01 -6.0664605862704466e+00 -3.7783585611103263e+02 -8.3945671587813436e+01 2.6665828608044565e+04 -6.3026132988977066e+00 1.1543701743815359e+02 -2.1641893297635147e+02 2.3664177061101670e+00 -3.9475000045380155e+04 -1.1331904998729523e+00 -2.2588285647541060e+00 1.5750935735641401e+03 2.9269149792894186e+03 -1.2161408814926222e+02 -5.2604698725263199e-01 4.5693462116821731e-01 -1.9141650785831254e+02 -1.0591188424181514e+03 3.7565721465942374e+00 5.2099609029379597e+00 -2.9217545314543415e+04 2.1307368030756948e+01 -1.2814171992180269e+05 -5.8905903173594099e-01 -1.2772893758426651e+03 1.8985971087225153e+01 -2.4728804581527886e+00 8.8705791293610200e+03 -3.8848774078389333e+01 -1.4231110581281960e+01 5.0642726660491680e+03 -1.2659833447039355e+03 -6.3963340974404332e+02 -1.0779702292047995e+01 9.1003013968236246e+00 -1.3061659533949654e+04 -5.6461950632590106e+02 -1.3988957057370840e+01 -3.6665601292878932e+01 2.2123473438168181e+04 -3.5238819176317884e+02 3.3170987972734889e+04 -3.7163327613735561e+01 -4.9779190830609004e+03 5.5365131691769506e+01 3.3877068203733388e-02 -4.0274417301335830e+04 -1.2247912917691686e-02 -3.7415026499985654e-01 -2.5765457313192269e+02 2.6915214980992614e+03 -1.8494939757885856e+01 -1.7933747251838614e+00 2.7387241642524014e+00 3.2012073351102077e+02 4.8918986983570946e+01 -9.5705569588080692e+00 1.4684016424187601e-01 2.0119658020799223e+04 3.5144753707298264e+00 5.5161086950512457e+04 -5.0750514446229844e-01 3.2811323781020269e+02 -2.6752435787162458e+03 
      </Row>
      <Row Index="112">
        -2.4052350078088924e-02 -3.2461287625817903e-04 -5.0450470909709111e-01 9.3278698000363036e-03 1.5694042962594468e-02 1.1791666252975119e-01 3.0712319207377732e+00 -1.7514151979781900e-02 -1.7618029339151020e-02 4.6231154707196704e-03 1.8273679281198838e+00 -2.6427454053191468e-02 1.1721408549419721e-02 -2.2304565341599414e-02 8.2351681913621633e-01 -3.9518864198271331e-02 5.9315922640962526e-01 1.6051582772966100e-01 1.9170720759575488e-02 3.9181969816581841e-02 3.5492284341742675e-03 -7.2545621262543136e-01 -6.4128731986770049e-03 -1.0032961385793016e-03 5.1506328405230306e-01 4.7126075359878996e+00 -4.6709700009159860e-02 -4.8230279666654496e-03 4.8718073934850281e-04 9.8419582500611824e-01 -1.0827490134033724e-02 -1.0919156440195366e-02 4.4751472275947890e-03 1.2653149789148301e+00 4.0370157408688101e-02 -3.4763266230656882e+00 -1.3274299543616053e-01 -3.8933901191023379e-01 -8.8374890503473580e-02 3.2710440834264887e-03 1.0702934243035962e+00 6.3078115633885545e-04 -1.7627857784148659e-02 -5.8473263416090049e-03 -6.8483677675249055e-01 6.2058811216207564e-02 -1.3069854542600012e-03 -5.1496391692840149e-04 -4.3721503705637588e-01 -4.8136238817278354e-02 -2.4826738181218388e-03 1.7122835313848839e-02 1.2281119229419346e+00 -4.2114389511961114e-02 1.3687102867697831e-01 -1.4288445612628919e-01 -3.1370064384827856e-01 -2.5254060999046229e-02 -3.0926203442831479e-03 1.4272455519785581e+00 -1.2144346962106312e-02 -4.5276734762402238e-03 -3.4948755765799433e-01 -4.1250834181118989e-01 -6.7763889020397983e-02 7.7160742100823576e-04 -4.0849606211912359e-04 1.0961302189827953e+00 -4.0492720142992766e-03 2.2168194623304771e-02 -2.5640148365635440e-03 3.7780230443969920e-01 5.5460549040823537e-02 3.8636513527480432e-01 4.7223839865615957e-02 3.2369215667333862e-02 -3.4534783976368999e-02 -3.9974186939968348e-03 -2.9063441557809711e-02 -3.1780000280363652e-03 -2.5260093007953177e-02 1.2099049117438199e-01 -1.5398671197981457e+00 2.3122265277947918e-02 -4.9537505351029409e-03 9.1566539040899286e-04 -9.0330229481406143e-01 -5.5019791165250354e-02 -8.6125399329830543e-03 5.8862471019338614e-03 1.2725149568038949e+00 -5.2228194338567846e-02 -1.3452846123632867e+00 -7.7165242496210595e-02 5.2714593111886643e-03 2.0228719465649192e-02 6.2860358996275068e-04 -4.2993284211843275e-01 -3.5631932266777966e-02 -5.3451274569411567e-03 -2.3156738449688419e-01 -2.6897799156150768e+00 -9.6518805237366223e-02 -7.7527637502905478e-03 -5.6839614823100959e-04 -1.5121737040535663e+00 6.2901374394641607e-03 -5.2535996013261865e-02 8.2057988045605157e-03 5.5647137685446069e-01 -4.2902010243324185e-02 -1.6515847844711971e+00 2.4165763318168820e-01 -1.4689432315208251e-01 -5.0323507181190053e-02 9.4560436923653100e-03 -5.7440776580608865e-01 -3.2342011523521785e-03 1.9596125782574219e-03 7.0625629301532200e-01 -3.7698085838302742e+00 3.8863416223660657e-02 1.6793166806721804e-04 -3.5125096486809157e-05 1.1615646056554302e-01 -7.0346393004280250e-03 -6.7831258179341658e-03 1.0888231936066750e-04 1.4296101463842206e+00 -1.4665449893254467e-02 -1.6717331925957168e+00 -3.4511577165226626e-02 -1.2914291624297802e-01 -1.1597362567694822e-02 -9.9476449423246613e-04 -2.9066037524785315e-01 8.3567374484563930e-03 1.7794880436149324e-02 -2.4504239713678544e-02 -1.3777046250179410e+00 -1.2847096545556269e-02 -5.1871719930485574e-03 -1.5060418914876947e-03 -6.1991138618395780e-03 4.1831023889069147e-02 -1.6354696488684525e-02 1.4732282644331463e-02 -2.8783967821163969e-01 -6.5945492171522346e-02 -4.0148191008483991e-01 -1.7521463603995499e-01 2.1494300715858117e-02 5.7810298802684817e-02 -9.9339772466070842e-04 1.2630092755709117e+00 -3.6136211167438087e-03 -8.4077598373622133e-03 -6.5111418409902544e-01 -5.2160443534928014e+00 1.7429158074108303e-02 4.5632291853347508e-04 -4.3254820554587274e-04 -1.8959160603955709e+00 3.5054751227567849e-03 8.0537173342025703e-03 2.9264635766652856e-03 -1.0933321170177805e+00 9.8430993328382343e-02 1.7133027045201743e-01 -6.2951746606534784e-02 2.2036194716087820e-01 6.2927430023773323e-02 3.4334148158076125e-03 -1.7541610473936888e+00 1.8183805989873982e-02 3.4259831531209227e-02 -2.7920967588742407e-01 6.8073592090153952e+00 5.1263702818639012e-02 -1.2347032710729941e-03 1.5502871736756802e-03 -1.4647767753705025e+00 -6.3013116137791814e-02 -1.8605591482118933e-02 -1.5313306651765592e-02 -1.6723308057790873e+00 2.1550666587118426e-02 1.0125073273389660e+00 -7.0953593508250895e-02 -5.6681148483675434e-02 4.1734790600641558e-03 7.7762247209706660e-03 -1.0801078200156398e+00 6.6928431829984120e-03 2.9532371674280845e-03 -8.6476360955485188e-01 3.7436683838917819e+00 -1.1369461647577217e-01 -2.0954294732754598e-03 -4.9018256572008604e-04 -4.6490936968790098e-01 2.1954311151350048e-02 4.3478392420446876e-02 2.3472473938878544e-03 -2.4012491731485355e+00 6.1906929080426387e-03 7.9411475084385041e-01 -3.1341700388379121e-02 2.9710711696367831e-01 1.2503963301312093e-01 1.6047190805452943e-02 6.7049083078789096e-01 -1.3080018989127837e-02 7.5250667211372871e-02 -3.0176740690907504e+00 -1.2642154705588098e+00 -3.8543828122522195e-01 -3.1148989685267664e-02 5.2636736002655352e-03 -2.9216799897542813e+00 3.8850673853913698e-01 1.2164068009359619e-01 1.8772587183483402e-02 8.3862931904234728e-01 2.5487288658510421e-01 -2.2080027851663537e+00 1.1720850118057573e-01 9.6225617016448872e-01 2.2084974896749265e-02 2.5006413121610334e-04 -5.6886243957686080e+00 -3.7752713786886353e-03 -1.9967462003054881e-03 3.1614273509476098e-02 -8.6036983459496663e-01 3.9795462082847240e-02 -2.6370450887792307e-03 6.5338535645431337e-03 -1.8182845831015093e-01 -2.6355778252366083e-03 -5.8358433261098963e-03 7.2631081819602651e-05 7.9229999346535074e-01 6.2274169793031353e-02 -2.2659144591562352e-01 -1.7455821530650534e-02 -1.9196348520416073e-03 8.3093469297167155e-01 
      </Row>
      <Row Index="113">
        -2.1508699917091121e+01 1.3441201677665049e-02 -4.6865205460041761e+02 -1.8446932157849005e-01 3.9016682546844095e-03 7.9364838313311338e+01 -1.1191379886120558e+02 1.8669353568788665e+01 -1.1981201993550574e+00 4.5390391523841056e-01 1.0148722255078610e+02 -1.0773979919031262e+00 3.9049689020030200e+00 -8.9807442679375526e-01 2.9973634215260091e+02 -5.8343318563420326e+00 4.1210431379079819e+02 9.6425570882274769e-03 -1.7501080534420907e+00 2.4641300297109410e+01 -5.1574323053500848e-02 -8.0378949360828847e+02 -2.8736922666212195e-02 3.3722759644660982e-03 2.9202894663438201e+02 -2.3091479315923061e+02 6.3051697695627809e+00 -6.0132661701572943e-02 5.6172042439811776e-02 8.6653746286814567e+01 -5.0587324113585055e+00 -3.2343394325580448e+00 2.4989825956618006e-01 -5.9296768886968493e+01 -1.6889736219774932e+01 1.0616179407723248e+03 -7.0244916490992182e-02 8.2778403016016046e+02 -5.1384953554370441e+00 -9.4099170587924164e-02 -3.3069008088609826e+02 -6.3576614760677330e-02 -1.9029128958754882e-01 -1.6444033662788570e+01 -4.6583956795930862e+02 3.6653227685956224e+00 2.6925010574814223e-03 -3.1922168187065836e-02 -4.2496987620485015e+01 -1.8532355257309973e+01 9.0674451841041446e+00 -3.8213267913306481e-02 1.0399478497868404e+02 7.0838783961953538e+01 4.5423059933632612e+02 2.5974868381217675e-01 -6.8749835544032976e+01 -3.0150514078578308e+01 -2.8172252474178094e-02 -7.2139621575269848e+02 2.5773245035543368e-01 9.8134698336878046e-03 2.0562418067827821e+01 1.5471945105399936e+02 1.1344857909716666e+01 -4.4885394713787719e-02 -2.0625431662892879e-02 8.3167898600134421e+01 -4.3058770552743226e+00 6.5581802525994135e+00 -1.4733919737500401e-01 -2.6116599796071336e+02 -2.7839573097535322e+00 2.1041093959325462e+02 2.3002920172802988e-01 -3.5059478892061151e+01 -3.1324570389944711e+01 -2.4215647031269327e-02 4.6662090670317411e+01 8.3451071108356700e-02 -1.7286056331022337e-01 -2.3999490637556300e+02 1.1820360678061843e+02 -2.4154178556782426e+00 -2.8892107155979829e-01 1.1703801674241276e-01 -2.9194404445223228e+02 1.2397506384178996e+01 3.3119550719857216e-01 -4.7383908467600122e-01 -9.7683608741083890e+02 3.8237757907249033e+01 9.4231258200527611e+02 -4.3088792286653188e-02 -9.5890789814293385e+00 4.3042447258543689e+01 -3.8919379562230461e-02 1.9353737168014050e+01 1.9703633375502250e-01 -1.3243373558907479e-01 3.6823879280337133e+02 2.1714300712564727e+02 -5.0940068143681856e+00 -3.3365981476890738e-02 -2.5040653248652234e-02 -1.0848771056160331e+02 6.9082529237493873e+00 -3.9922570694179740e+00 -5.4428882419597358e-01 9.0230196672677994e+02 -1.9796611897181720e+00 3.1640889972448349e+01 -1.4689432301020133e-01 7.6311731950938702e+02 -2.7221172006575216e+01 -7.1383205286975504e-02 -1.7499286861942060e+03 1.3504554058759038e-01 4.2631053784477423e-02 1.7031323918042719e+02 -9.1523558823766507e+01 -8.6042577868002823e+00 1.3026181198336463e-02 1.9467359348058884e-02 -6.5874731252375881e+01 -2.3638393423263366e+00 -2.3148694930664031e+00 3.2601647861373739e-01 -1.3444926917850971e+03 2.0486963680343283e+01 -7.8162010545960879e+02 -4.4404028747043134e-02 6.1085925894730963e+01 -1.6878436465396270e+01 -8.2237781441371005e-02 -9.3956085075379451e+02 -1.6096264868836552e-01 1.8153054732852281e-01 -3.1479478718014434e+01 -2.0760704112052917e+02 1.2925280964584090e+01 -3.1326853322553028e-02 -9.5749689742491012e-03 3.4516283791512251e+01 1.5000941838392356e+01 -2.3316340959517579e+00 5.9752398601267487e-01 -4.4284649180946872e+02 1.1451204798184335e+01 -4.0291555139422417e+02 4.7068199763821150e-02 5.7393732712604105e+01 4.2987503535111557e+01 3.4938619186351385e-03 -4.6885058547003479e+02 1.0020900411254817e-01 2.6178063459941892e-02 -3.1686753537677731e+02 3.1568235351188440e+02 -9.0842419199670132e+00 1.0807790368024672e-01 4.8795355956557498e-02 -9.3430828744682145e+01 -7.1794766388385369e+00 -8.1639228317929877e+00 1.5260661674220739e+00 4.1657378753833473e+02 -1.2867951295488567e-01 8.4879117505624890e+00 -2.0456445006263806e-02 3.6247781862133286e+02 4.9060302321694358e+01 7.5615515458031426e-02 1.1356355337131081e+03 -1.3121284029817543e-01 -2.6665954498849773e-02 -3.5456440302792788e+02 4.5620045728421701e+00 -2.6767047160344992e+00 1.6764209777029890e-02 2.5456680843114136e-02 -2.0348268594305279e+02 -2.6773640844885339e+01 8.2586790412505664e+00 -3.9240168717726465e-01 -6.2661972513746690e+01 3.4262265973102572e+01 6.1878095770648338e+02 -1.7738641182444242e-01 1.9982008152830636e+02 2.7962900727790929e+00 2.8580657926065955e-02 5.2103781368993373e+02 1.1455673038917359e-01 5.3651715118080534e-02 -3.3796867707700597e+00 -1.7394593868561168e+02 6.2579158613418961e+00 6.5229594045226519e-02 4.9119082515867871e-02 -2.1424173942471022e+01 4.7328906603847187e-01 -5.6272985159792359e+00 1.0406865946770023e+00 6.7658236666788935e+02 -9.0206317864934853e+00 1.4615901225068940e+03 -2.5031072510291785e-01 5.4054994518470539e+02 1.5553888092839691e+02 4.4140774671068939e-01 -2.8486546952864353e+02 1.3160974434863726e+00 3.3849949327900386e-01 -1.0237851973230061e+03 -5.7772968662737867e+00 2.9862838013720243e+01 4.3560249335083623e-02 3.1911017139011788e-01 -5.3535086072987724e+01 1.9381200978929769e+00 -1.0213342783416490e+01 1.1994224257919484e+01 -9.1596416729525959e+02 -4.8139086500856642e+01 -4.1339672166710011e+02 -1.7057627778373288e+00 1.4746692144080234e+03 1.6949605923341316e+01 -6.5464811694062146e-03 4.6071578488014825e+02 3.0314279049695241e-02 -7.7852998621888601e-03 4.9400707675718294e+01 2.9992151056408773e+02 1.2139476203774835e+01 -2.9650289208737030e-01 3.3265727965779379e-01 -2.3767715020004129e+01 -4.8741197528437770e+00 -1.6997168173956891e+00 -1.7501734798002534e-02 1.3739159497732953e+02 3.4132952130418648e+00 -8.1547079761924942e+02 -2.9644698657239704e-02 -9.4926718263380167e+01 -3.1232866591254407e+02 
      </Row>
      <Row Index="114">
        3.0005081816448353e+01 -1.0889055576626561e-02 9.6105564124882221e+00 6.7110039023873469e-02 6.1094645028276773e-03 5.4443358301883563e+01 -9.8534494437277317e+01 -4.4045925382600899e+00 4.2497284607900820e-01 -6.2201426407622031e-02 -3.2984015497495420e+01 -1.7666420435998589e+00 1.5593268290394917e+00 1.1106501883932651e-01 -7.3348702656061278e+02 -9.0316773566883057e-02 9.8702532310038805e+01 -2.4566018608766171e-02 -8.2548435706412420e+00 -5.1552054310741369e+01 -5.3384047114377609e-03 -4.8014304307522252e+01 4.0081947312501143e-02 3.3961735807679361e-03 4.3196217708289623e+01 -1.4309670239756815e+02 -6.5113010024651885e-01 3.6708892940851001e-02 -1.4648953863911629e-03 -3.4439022774063233e+00 -7.6427394582424313e-01 -1.0212515074090334e+00 9.6077573671209393e-03 -3.2895397208631039e-01 -2.4931569313630462e+00 -2.0034545069746673e+02 3.6801092734549457e-02 -8.2181609960776882e+01 9.0478197792806895e+01 3.3834800505815110e-02 -2.3613394498535399e+01 -1.0260428245146613e-02 -1.6323896796166082e-02 -4.7330573936924338e+01 -2.1612600771710277e+02 -3.7684509854508743e+00 -7.3065595734078670e-03 4.3633367045003979e-03 3.4434652021736838e+01 8.3390526275616139e-01 -1.7224770444008755e+00 2.3783539955547894e-01 -4.9410136178077664e+02 -5.6121815334344962e+00 5.8915913741104305e+01 1.8732674991042586e-02 9.8330912870587781e+00 4.7240715883185914e+01 -2.8652366929691198e-02 9.1880125417374074e+00 -3.9306350650122113e-02 3.7589956861090457e-02 2.9785897773690522e+00 -1.6022387041011825e+01 -5.9010319836670533e-01 -1.9968362366853398e-03 -2.6810113903934507e-03 -1.8101044796755126e+01 1.7859853704867419e+00 5.1589516261810786e-01 -2.0729282522734138e-01 -1.4521372802891511e+02 -1.7645660173534452e+00 1.1102034748162345e+02 -1.3737030960328411e-02 3.4352338289284678e-01 7.7063094868783082e+01 -7.4531847292291786e-04 5.0531676655635238e+01 -2.9460361171459226e-02 -7.9610101168157144e-02 -2.0187396633991739e+01 5.4571081377565861e+01 2.9889447007371928e+00 8.4546036905408073e-02 -1.0101813082087574e-02 4.6610818534085908e+01 2.8060567909851670e+00 6.6224946063011885e+00 -4.8246633134112926e-01 7.5819057064045785e+02 -1.6117254017153755e+00 -1.2960454511880519e+02 6.0941157681554614e-02 8.2338641975075006e+00 -6.6810766154332669e+01 3.7320369782719354e-02 -6.2172897662967443e+01 7.3906053607970534e-03 -5.1713814186769014e-02 2.5495735672302544e+01 9.4176461501658196e+01 4.6587791716865468e+00 2.8726787196148962e-02 2.6122283105678434e-03 1.1092759850434959e+01 -1.3794358156155795e-01 -1.5079317192430608e-02 4.1209480473253279e-01 1.2909426800906658e+00 1.8529501401935704e+00 -1.9910291356965899e+02 -5.0323507130087819e-02 -2.7221172040328383e+01 7.6136872115715960e+01 3.2409706900544934e-02 1.7087587632156996e+01 -7.6635409553808542e-02 -2.8781383134405737e-02 3.4477806668789391e+01 8.5540848469472465e+01 -4.1360089179284314e+00 -2.7860514088191162e-02 -4.6169935298374714e-03 1.0402251881566814e+01 6.7731347314536583e-01 -7.6253621584205011e-01 -2.1691595369736988e-01 6.3805191842280328e+02 -1.9290705319117323e+00 7.1906276630909076e+01 3.4152382404216322e-02 -1.9353532308646613e+00 3.2183348948563925e+01 3.4631711047426621e-02 -7.0146577954292297e+00 3.1676910186695564e-02 -5.5644152768240807e-03 -8.8699180667754263e-01 2.8402777373790741e+01 4.9106549414864276e-01 1.6448315871782637e-02 -8.5651407589727908e-04 9.7006360411178321e+00 3.3666562887442875e-01 5.6109566049477899e-01 -1.3136376715556253e-01 3.2055174779234221e+02 -1.3466798921581358e+00 1.6404464878141880e+02 5.9018296021838543e-02 -9.2131199981085956e+00 -9.5782189670154366e+01 -5.2388127220984688e-02 1.9073089428315379e+02 6.3875777767602268e-02 3.4160521806169394e-02 -6.4988880946959569e+01 -1.4452404878574177e+02 3.9512718564259850e+00 3.7884159678970844e-03 1.1634835200355116e-02 1.3337452765264679e+01 -1.2199591263655485e-01 -1.2489001051167858e+00 8.0576807295909003e-01 3.0365366894705221e+02 -1.6761053167216378e+00 -1.2665983820520341e+02 -2.4057359499463183e-02 -3.0152612540031612e+01 -9.8034891463013537e+01 -9.8584363016316102e-03 -1.0401075034694023e+02 2.8250664855963364e-02 5.0481539306602874e-02 -1.7389951265685571e+01 2.7493036023853352e+02 -9.7101708065143733e-02 7.3962131336345969e-03 -2.0652132089421663e-03 2.1438008756592041e+01 2.6997441140330736e-01 -2.1413070724634062e+00 2.9526569286712906e-01 1.1404785097106983e+02 -1.6793457755976835e+00 -8.5406239891525729e+01 2.0769838185890767e-02 4.9014497822951419e-01 3.6283872856111451e+01 -1.6571502559544274e-02 -1.3430316328921043e+02 -1.3444634326988430e-02 4.6223675954267934e-03 -1.3101841523720514e+01 1.2303371670599822e+02 4.2174751559618482e+00 -5.7589350990374941e-03 -1.6400176590816685e-04 -3.7106537199828225e+01 2.8307828817272815e+00 8.9167758149387266e-01 -1.5150730905223714e-01 3.5912408613989146e+02 -1.9338011301039142e+00 -1.5587602611601383e+02 -5.4437120931233283e-03 -2.6391086610508729e+01 -1.4572701727555557e+02 -4.7428458187916622e-01 3.2072566530012594e+01 5.0401198661921587e-01 5.2256063422445131e-01 -4.5794581183421940e+01 -6.0700927089565312e+01 2.6083494422215583e+01 4.6968140924197976e-01 1.5769661691927594e-01 -1.8230189279229364e+02 -3.4818800024006542e+00 -8.5399582817105539e+00 8.1807137696134902e+00 2.8724558580059920e+00 1.3485223954984676e+01 1.5649014312851514e+02 -3.8762717229567745e-01 6.3599577623179883e+01 -4.3286385971059701e+01 3.2444203805217240e-03 -2.0290499278226233e+02 -7.2465455394912677e-03 -1.4520962595582793e-03 -1.4053308788227277e+00 -8.1881999082237044e+01 -3.1554892422029761e+00 9.3484216611897250e-02 -1.1541517031406188e-02 4.4052975546531403e+00 -1.1673062712571429e+00 -1.9878683368980532e-01 -5.7670321164487734e-03 -4.6208381588018057e+01 -2.7766347344065023e-02 2.1889405545498460e+02 8.4119938967120444e-03 2.0418489709545753e+00 8.5043231045859372e+01 
      </Row>
      <Row Index="115">
        -4.4427762114629843e-02 2.6452197653566518e+00 1.8215376959997229e+00 -6.2240924591741020e-03 -1.4904666373024700e-01 4.1316694409761112e-01 3.6272511724382639e-01 -3.3157010712798751e-02 2.4039393587640778e-01 1.4989450711608096e-01 3.8872488280412654e-01 1.7792490772262681e-01 2.7532086460269056e-02 -2.0001011238974797e-01 3.1082155189832861e-01 -1.1406808495485166e-01 1.6956490506418049e+00 6.2841022975419492e-03 -2.1867912648485799e-01 2.8824147237173747e-02 2.1124644525644953e-01 -1.4849954793317011e+00 2.9125618279124410e-04 1.1353466884410679e-01 9.1931720648426563e-01 1.3842970918976789e+00 7.4423179321456701e-03 9.9574622640687949e-03 2.0521549425430052e-02 2.6169123478420886e-01 -1.0716959886485711e-01 1.2043329146763426e-02 3.2310847418841604e-02 1.3029437671793858e+00 5.0851408806920517e-02 -3.1495041403686628e+00 -2.6378498954585439e-02 -3.3400113468333986e-01 1.4063973588554290e-01 2.8514504854179989e-01 1.7129050001828858e+00 -5.5051300480073451e-03 1.6333354989458826e-01 -1.5438998445024481e+00 8.4890215599443763e-01 -7.8544766875753805e-02 -1.2448895401449889e-02 -2.0050750810636231e-03 -2.6748543959001836e-01 -7.5112062861080631e-01 -7.2080666672263760e-02 -1.3195700457970361e-02 2.9202070765313692e-01 6.9723118323309130e-02 5.5578447198786307e+00 -5.8462385243558401e-03 3.3946115993967396e-01 1.2510531972640848e-02 -2.5227399653751093e-01 7.2273851475620177e-01 2.0515797216916098e-02 1.2153099576835524e-02 1.1188786855200306e-01 3.2966757219546707e+00 3.9880726999399485e-03 8.0870959603984716e-03 2.8623558819784733e-03 -3.2423351611353635e-01 -1.5476343974933116e-01 2.4420659333259209e-02 1.8984026248809016e-02 8.0352086163861713e-01 4.4126318109505291e-02 -4.1018270551624028e+00 5.1763326386833342e-03 -2.1129475475611947e-02 1.6439583023156956e-02 -7.4533039705783466e-01 -7.1116171189351007e-01 9.2711776524652123e-03 7.5029114392846097e-02 7.4980466895635800e-01 -9.0174114427645691e-01 -2.5870225473681785e-02 8.9926027271513220e-02 6.6375790481188801e-02 5.4559672381327950e-01 4.7036653998657130e-01 7.9066785166105547e-02 -5.7512868439147269e-02 4.3910669084192140e+00 1.4013733658430283e-01 -1.9593139203904713e+00 -3.3407837300416077e-02 1.8594931563711725e-01 2.2129664462227083e-03 -5.1645907923505874e-01 -4.5696766790933907e-01 2.3869989020113280e-02 -1.1224511951951399e-02 -1.3323983905138448e-02 -1.2910823486722620e+00 2.9316378420389810e-02 1.4704416262173226e-02 1.0138007029194540e-02 -2.6413851673714817e-01 2.6973933259796468e-01 -4.0900248438902054e-02 1.9319853926688779e-02 -2.0782856151927263e+00 -1.4289585027927387e-01 3.0198300903430209e+00 9.4560436950530402e-03 -7.1383206959581003e-02 3.2409707052750036e-02 2.6927338068859052e+00 4.7261852062487897e-01 -5.6050114786378794e-03 1.2164216481212195e-01 1.0214143152251829e+00 -8.6055428348887197e+00 4.4567290097013823e-02 -2.0575484442757079e-02 -1.8150805145979589e-02 2.5980627336494089e-01 -2.1624529619024013e-01 -5.4627068449412230e-02 -1.8692373254906605e-01 2.9998192916391417e+00 1.8843882703696191e-02 4.0978737699207102e+00 -2.2618213375904243e-02 -1.8738692725472172e-01 6.1153774645958947e-03 -6.8214881771494018e-01 6.0160229392349720e+00 -1.7725571458994841e-02 -9.2365874804368892e-02 4.1657954305446765e-01 5.6591429766267538e+00 4.6194662236302975e-03 1.9316791400873931e-02 2.3350706869534013e-02 2.4906782566904440e-01 5.3298748948706842e-01 -1.3282995926051810e-02 1.5466351224040409e-01 -2.2840965873911045e-01 -7.2413556583342142e-02 -5.6759937158785760e+00 -1.1970882252936153e-02 -2.0028468751115724e-01 -1.4842971278808736e-02 -9.4094073655703631e-02 -2.4274572904454885e+00 7.8869897284992857e-03 1.4838032755200647e-01 -1.0012914791133838e+00 4.0174799680949604e+00 -3.0453227091516488e-02 -2.6206113883749493e-02 1.3589311624615831e-02 -4.5066411350740229e-02 -3.5679555615905478e-01 6.0111546230361412e-03 -3.7030818142015948e-02 -1.4909092046509613e+00 2.1688531761620411e-01 -1.7165909919422120e+00 -2.2571374328248021e-02 -4.7965603218091957e-01 -4.9963664293818377e-03 4.7766257709903936e-01 -2.4603727426742594e+00 -2.7752692757557984e-02 -1.6144048318286741e-01 -2.3098111057350934e-02 1.1823538582734514e+00 2.0874550645106016e-02 -1.6599221162721903e-02 2.2717832902820537e-02 2.3582999011085803e-01 -1.0416733794911521e+00 7.1564195128984709e-03 4.9467181889952527e-03 7.2372307176962636e-01 1.5526492424351712e-01 1.4332381132719334e+00 -1.9095772426148037e-02 -8.3855107563932663e-02 1.8989400114252791e-01 1.6666075055813262e-01 -1.1806932911607397e+00 1.3604907245033653e-02 1.5039228416696646e-01 4.3414985920090388e-01 2.1824418951312445e+00 3.7870016481129198e-02 -1.2012837333069036e-02 -7.3274284000819211e-03 -4.7796449352114490e-01 1.2685672758526734e-01 8.4931612194958817e-02 -1.3509810488045898e-01 -6.9482600866643907e-01 1.5072669226844765e-01 1.4386500022576243e-02 -9.5468049966427188e-03 -2.5314888881549180e-01 4.6647592304332797e-01 -5.0062239618454574e-02 9.7046276453088964e-01 6.3329927470040917e-02 6.9810820345339153e-01 1.1629029398654609e+00 -1.2259327588434772e+00 2.6385026603776818e-01 3.1700450057042577e-02 -6.1361936750769230e-02 -1.5125793023790379e+00 5.8302177097472274e-01 3.9337139990568204e-01 -3.6317212570573432e-01 6.9344876511321019e+00 8.7855200040683279e-01 -1.9831492509538151e-01 -1.5539849989523669e-01 4.9861703574814698e-01 -8.6375752958510466e-02 8.3060334311321024e-02 -2.6835889558436463e+00 6.3248655545483879e-03 2.0626601918862501e-02 3.2536965535214790e-03 -3.2285811537795110e+00 -1.0543639669905887e-03 4.5765605697272144e-02 8.4300040418336303e-02 2.2584192132227315e-02 -7.1842738546360085e-02 5.5602930746984081e-03 -1.5862420380608928e-03 -4.2413916454961509e-02 2.3029912787757123e-02 -4.1279909761726685e-01 -7.2580661844535346e-03 7.0783525654096735e-03 3.1054048000657062e+00 
      </Row>
      <Row Index="116">
        2.8490814663191850e+02 -2.6959623834409285e-01 -3.2464716405868530e+04 3.8108502182294615e+00 3.7045751667756122e-01 -2.6150776052474976e+03 -1.7169064188003540e+03 -3.6558478036843007e+02 -4.5959720381384628e-01 1.8851464214697364e+00 -3.2922855786383152e+03 8.7121138215065002e+01 7.8948006212711334e+01 -7.3184181330725551e+00 6.2672675517038933e+03 5.6087403878569603e+02 1.9618850591659546e+04 8.8915273291058838e-01 -1.2888043086975813e+03 6.8463829457759857e+01 -6.3601662265136838e-01 -7.7203782174944878e+04 -3.2402684690896422e-01 3.2323221836122684e-01 -4.7018643512725830e+03 1.4679668204486370e+03 -1.7827834004163742e+02 -4.3812642921693623e-02 4.0782481986389030e-01 -1.0253390140002593e+03 2.3743696987628937e+01 3.9299701832234859e+01 -5.5870411014184356e+00 7.0097079471349716e+03 4.4314648422598839e+02 9.0393237175941467e+03 -1.6369073684327304e+00 -3.7033865821380241e+03 -3.7640932600945234e+01 2.0281437714584172e-01 -3.4250159717292292e+04 1.5411075786687434e+00 -1.0550125155132264e+00 1.9108450813293457e+03 2.3693348608016968e+03 3.3369720158203660e+02 1.4243676491605584e-01 -2.1062742505455390e-01 1.6364800228327513e+03 7.2753710150718689e+01 -4.2719693236052990e+01 -2.0965707954019308e-01 1.2503678987875581e+04 3.6295907231467118e+02 -9.2362602491378784e+03 -3.7738556051626801e+00 2.2236269663870335e+03 2.5303017566149879e+02 3.6519749317085370e-01 -7.6692355843305588e+04 -1.3663974702358246e+00 -1.9377692180696613e+00 -4.4899094395637512e+03 -1.4520811484217644e+04 -2.6694195385277271e+02 -1.2530665400845464e-02 -5.0751461595064029e-01 -7.1207471830897302e+03 1.2279385698586702e+02 -1.1850948948413134e+01 1.6038067042827606e+00 1.0566307550300691e+04 5.0115794597659260e+02 -8.5347402917030486e+03 -2.6826578457839787e+00 1.6669461162244551e+02 -7.2266880869865417e+00 1.7906581499846652e-01 2.8346758303642273e+03 -1.2982176039367914e+00 -2.7752527913253289e-01 3.5932395593374968e+03 -2.8170088672637939e+03 -1.7616947013884783e+00 -1.0187519475584850e-01 8.0035834750742652e-01 5.1351107427326988e+03 -4.5957044601440430e+01 7.1893835112452507e+01 -2.0283701685257256e+00 -9.7130586023232281e+03 1.6531205445528030e+02 -1.0508170843323958e+04 4.5794176752679050e-01 8.4733595013618469e+02 -6.3135049548000097e+01 6.6426674308604561e-01 -1.0256920715332031e+04 -3.6786242749076337e-01 3.6056716926395893e-03 -5.2503806137442589e+03 -9.2131469265706837e+03 -2.0525759555213153e+02 -1.7344792489893734e-02 1.2912532902555540e-01 3.4395313167572021e+03 1.9278294295072556e+01 5.9247886609286070e+01 2.1594714472303167e+00 -4.0527037353515625e+03 -7.2885588219761848e+02 -1.1890301236152649e+04 -5.7440778356976807e-01 -1.7499286742210388e+03 1.7087587143760175e+01 4.7261854415181404e-01 8.2219495580487419e+05 -1.6956415022587685e+00 3.9724416508270100e-01 -1.5661423971719610e+03 -3.1069991810563421e+04 9.1031301334412717e+01 -1.7513147293426456e-01 -5.2379095103360140e-02 6.8924325326030839e+02 5.5217988981365522e+00 1.5691641553895289e+02 -2.1154333476716278e+00 1.5937472355842590e+04 4.4771802373707840e+02 8.8382158754199772e+03 -4.3769651275273791e-01 -9.6884642744432062e+02 8.7986524542327970e+01 4.2053968193940818e+00 -1.0834616436767578e+05 2.5923850391056922e+00 -1.5653489653947315e+00 -2.2711071831882000e+03 -3.8113509643554688e+04 -1.8959632286429405e+02 -1.6121399291843164e-01 3.3700128784902350e-01 -7.1947327745258808e+03 9.1272306190009914e+01 -3.6482097217214772e+01 -2.7395542487502098e+00 5.3322318690717220e+03 2.6693733334541321e+00 -3.1140069637298584e+03 -9.1587918616764541e-01 1.8724108934402466e+00 3.5149044196429600e+01 2.0823350038858925e+00 -3.6305185963979377e+04 -1.8335961513354260e+00 -1.1162680531412814e+00 5.8569657497936378e+03 4.4832675703701498e+04 4.9282574462262806e+02 -1.4256351568060777e-01 2.9565697343769093e-01 3.2615210266444196e+03 3.4714631727263395e+01 4.7504778367081769e+01 -1.5765170468560161e+01 -1.7243928381800652e+04 9.5375372724783244e+02 -5.5678882503509521e+02 -8.8083952822272860e+00 -2.3516734102334203e+03 -1.3591264567772549e+02 3.6592951250163774e-01 1.0065805156906569e+05 3.0800912065008763e+00 8.7391935904320595e-01 5.7530672438418305e+03 -1.2367868680318228e+04 1.4589851280220151e+02 -2.0242823537633320e-01 7.2307405355790533e-01 4.3730791672174255e+03 -4.7724329915893804e+01 -3.8342288055259338e+01 2.4760316633723995e+00 5.4187441063290053e+03 2.2766914110402638e+02 -4.3118603428278966e+03 -2.0048808346436386e+00 9.2109571209559817e+00 4.4439658467899721e+02 8.8090659209151068e-01 4.7549028569631722e+04 7.1498980159247938e-01 -2.6886163161767923e-01 7.6724296732753521e+02 -1.9494640877974911e+04 -1.9603751723468301e+02 -3.2581609170651338e-01 3.8884475035401656e-01 -2.1451230242226102e+03 -1.6359000656271462e+02 1.1665177237852441e+02 -7.2557791671241727e+00 -1.4379968440784700e+04 1.0257653027015735e+03 3.0033927638692976e+03 -2.3357579211461270e+00 -2.5540045919864519e+03 1.4734194954486184e+03 2.0262307663160843e+01 -2.6803218231077044e+04 -9.7246507733932042e+00 -6.2185811245048290e+00 1.7965174147027359e+04 1.1923710696191865e+03 -1.1309621166468219e+02 -3.2463232872789689e+00 6.3469214455140204e+00 -2.7982262079059456e+03 8.5983502914087148e+02 4.2762841285500747e+02 -1.3022123846367867e+02 4.2325653269077156e+03 1.7999592633114580e+03 4.8710778483074699e+02 -7.2194852770480111e+01 -1.6121175368542774e+03 3.7825109556004477e+01 5.4465593310978333e-02 5.4109192640863068e+04 -8.9532374306313767e-01 -1.8231293702432691e-02 -8.3323885749135047e+02 2.6771888156363864e+04 -2.8023306731424270e+02 -1.8582025741665445e-01 2.5549539039468261e+00 7.2148281150215939e+02 1.7963874215223548e+01 1.3970202186896508e+01 3.2289971944882624e-02 -1.0620565498899137e+04 5.3427867006458928e+02 -3.1134371062661667e+03 5.1676930842416979e-03 9.9158432626242984e+02 -2.6494256292155111e+04 
      </Row>
      <Row Index="117">
        -7.2083523111747150e-02 -6.9772959996354800e-03 -6.0816566292487551e-01 -1.9097290368250652e-01 -1.3377953975318713e-02 -6.2634902695208439e-02 -1.5077671836479567e-01 2.1867005233999759e-02 -2.9336498285067111e-03 2.0698964950978831e-02 4.1306184608174590e-02 4.7636412644351367e-02 -4.7585782831447432e-03 2.8294528215901948e-02 1.0296770340800698e+00 1.6649997854983667e-02 -6.5633248537778854e-02 -5.1220819950074770e-02 1.1965968039567088e-01 3.1051846759510227e-02 1.5869086145272604e-03 -8.1648648965892789e-01 -4.4007591170256433e-02 5.5405174070939367e-03 1.9600463092501741e-02 -1.9058769975754331e-01 2.5535062226481386e-02 -3.5848866720478156e-04 -9.0820305717720373e-04 2.6336957740976885e-02 -3.0582627023250097e-03 1.5726852405464342e-02 -1.0315627415611317e-02 -8.6831968417754979e-02 -2.6763705618577660e-03 -6.4891893976528081e-01 4.1929780139032147e-02 3.1503544193853489e-01 -5.3616274196429003e-02 1.9948163764444971e-03 -4.3483700929660607e-01 -4.2231781645098110e-02 1.2634845544937434e-02 6.0874653281643987e-02 -6.2454364626319148e-02 1.8620203104470351e-03 -5.3122143345740724e-04 -1.9754833697136487e-03 1.2842071470140581e-01 -2.2420294592848222e-02 -3.0029364461370278e-04 2.8987130357716495e-02 -7.2515227059284371e-02 2.6153914699928449e-02 5.6946917212917469e-01 3.4967489170192323e-02 2.1098125589560368e-03 -1.2879085615802577e-01 1.7515238952139356e-03 -1.1102955875212501e+00 1.6654743924306015e-01 3.8657284655586044e-03 3.9987089621718042e-04 -3.5710976196060074e-01 4.8703405070227745e-02 1.2457241414847164e-03 6.9090344469311393e-03 -6.6979674020800295e-02 -1.6909864012745857e-02 -7.7223043706453609e-04 -1.2067739155430246e-02 -9.2351543274671100e-01 1.9509524886345275e-02 -5.3862994369360706e-01 -1.2173761474087996e-03 7.4658312246743130e-03 -1.1037328960279069e-01 7.8096286311328811e-03 7.1289686529780738e-02 1.8907375026735451e-02 2.8551411806698290e-02 -1.4117126849396300e-01 -1.1905790415767115e-02 -1.9236031669521481e-02 -1.1789815124680914e-03 4.8011267768981458e-03 1.6375903443859841e-01 -4.5522945365519263e-03 -2.0783473877941105e-02 -1.9750223697251101e-02 1.4531468262993417e+00 -1.8354744586758898e-02 -6.6817709684211479e-01 2.9445509344242282e-02 -2.4740538588957861e-02 1.3496257742878015e-01 1.5657824385866270e-03 8.4133111449773423e-03 9.9729363686059003e-02 7.4206747009046836e-03 2.5451701345241418e-01 -1.3844481245513407e-01 -3.4144663174942025e-03 -2.8998148517933586e-04 3.7807437272725508e-03 -1.2375500147754792e-02 5.0890972502202203e-03 1.5848318622943225e-02 -3.8702595630457637e-03 1.0084803651552647e+00 -9.5021377853754529e-03 1.5958259992476087e-01 -3.2342011530523962e-03 1.3504554092651233e-01 -7.6635409583190039e-02 -5.6050114790950796e-03 -1.6956414951831107e+00 1.3977526806828589e-01 -1.1695771872189828e-02 5.1803606030478289e-02 7.2122765453101589e-02 -3.6773541642529778e-03 -7.6521523400581697e-04 -4.4743983403392647e-03 -2.8894407022865609e-02 -1.8577270822049519e-02 -1.5309882998078922e-02 -1.6711320512950711e-02 -4.9039927954436280e-01 7.6272829167600698e-03 -1.8746063571871407e+00 -4.7656945507675175e-03 1.0023294550288298e-01 -6.1823696265150829e-02 3.4970082222187671e-03 -6.3882026774808764e-01 -1.5868939118070335e-01 -8.9277527630220732e-03 -1.2447859438225350e-01 -2.5940056471154094e-01 2.3968174488004479e-02 -1.9997919357017538e-04 -4.3759395623624974e-03 -8.5280605344451033e-04 1.9301093999597937e-02 8.4304054260446112e-03 9.5138863190413758e-03 -7.0567651450301128e-01 6.3035003995537409e-03 -2.0539575909788255e+00 4.0049408339598233e-02 4.1666274037197581e-02 1.4194231288831766e-01 1.1936286800884885e-03 1.9209883069259737e-01 3.4538869220110652e-02 9.2061077184767449e-03 -6.9363357720326591e-02 7.4859176179759701e-01 -4.8374255855708884e-02 -3.1895955070659188e-05 1.4962089809918179e-03 5.2013081129669680e-02 -2.1614854653860149e-02 8.5792591823161679e-03 -7.1634086462234658e-03 3.7002719421525399e-01 1.9554956945520820e-02 -2.2268089541830705e-01 2.1579314288229394e-02 1.3704639146899966e-01 1.1231937725856962e-01 1.1649755267528863e-02 9.1061870285372182e-01 -2.0182305993599625e-01 -2.6590708416229143e-02 -1.4106227398535687e-01 1.6042704340698055e-01 -1.0210416868419961e-02 -4.0174510172918140e-04 -6.3396931940501652e-03 1.3885719140457997e-01 1.6537836461052533e-03 4.6844691897451607e-03 -2.5932901166848057e-03 -6.9661325615340886e-01 3.9759689617123728e-03 6.2693093315575155e-02 -3.2280477633479044e-03 6.5294323851100344e-02 -3.7425722476114288e-02 4.3398300048154764e-03 1.2150517218231371e-01 1.6117780573033008e-02 1.4219408744456530e-03 4.5317750334063600e-02 -2.5049394508306033e-01 1.6579920144470073e-02 -9.1538011821419227e-05 -4.4351551786051598e-03 -9.7364711014173932e-02 -8.4034413718914958e-02 -8.3512037784438942e-03 -6.7492287303262233e-02 -3.7167962643371055e-01 1.8142514123517639e-02 4.7925961776724879e-01 1.8647510797211615e-03 2.2245820850184828e-01 1.2763192564065307e-01 6.3286165840475084e-02 -2.3122769810922383e-01 2.3481766999511397e-01 -4.6342370346354876e-02 -1.6202599689862751e-01 -2.3925403637239384e-02 4.4164412985401302e-03 -4.2121621621110800e-03 -5.1909229708251500e-02 9.5803637350553750e-02 1.5757112143659935e-02 1.8134986128111485e-02 -8.9909890084153177e-02 -1.1112132482842449e+00 -4.2043256459481704e-02 -6.9032698276726912e-01 -2.2664171424458424e-02 3.9232393579425051e-01 2.8859449995903591e-02 -5.7875199306311185e-04 -1.2005060697153791e-01 2.9767430655442659e-02 1.5509867332547328e-03 3.4001073848032526e-02 4.8251117381570424e-01 2.7804081092101078e-02 -1.8150799554288177e-04 6.5780497073441102e-03 1.1279638049892349e-02 5.6375591368706957e-04 6.3906694677487927e-03 3.6773339981531136e-05 1.0976467821372822e+00 -7.6001199876875175e-03 -5.6844114253628675e-01 1.1290649101069214e-02 -4.3276443605610337e-02 -5.2907342883948971e-01 
      </Row>
      <Row Index="118">
        -4.5301630506723978e-02 1.3140937234943184e-01 -1.2522030550462659e-01 3.7621663308708975e-03 -3.6212742736037473e-02 -9.3114850242272951e-03 9.2544636229285970e-01 6.4006342680400508e-04 1.9687213946168104e-02 2.0490454266570205e-02 7.8123349890347527e-02 6.5648021736706141e-03 -9.1014923418697435e-03 -9.7789655800113451e-03 4.5010546016423092e-01 -3.8725970474843052e-02 -2.0468754082685336e-01 6.0278668940654256e-03 -9.9748206603180734e-03 6.6038850187396747e-02 3.6669199973644595e-03 4.2300070362398401e-01 -9.6404820413376058e-04 4.5637413730874599e-02 8.5158025773125701e-02 1.4175581150134349e+00 -7.9112416970019694e-03 -1.2973635201518618e-04 1.2552613968201953e-03 3.1560157400640776e-02 4.6143645324264071e-02 1.9690123407599458e-02 1.4531989074733076e-02 2.6047606702559278e-01 1.1988671532890294e-02 -1.0857177986545139e+00 -8.6988738030271406e-03 8.7934545840566369e-02 1.5316552169792885e-02 3.6724766658370100e-02 -8.3150162476655964e-02 -6.0276125502483069e-03 7.2925905893846732e-02 -1.5154358633299125e-01 -3.7532173533691093e-02 -2.3195359220093751e-02 -1.9383722893246969e-03 -6.0295597758752706e-04 -9.5430764304182958e-03 -7.4458012332797807e-02 2.7097670027160348e-02 -8.3886055787388614e-02 6.2477646394472686e-01 -3.1649326514456622e-02 -6.5775082355685299e-01 -2.0221383188747666e-03 2.6688007646953338e-02 1.1896583516470827e-02 -1.1508406870417431e-02 1.0562186683091568e-01 2.4099538090442962e-03 1.2603697780189604e-02 8.8161228239187039e-02 6.6768888590013376e-01 -4.3914238353863766e-03 8.7766597090555010e-04 4.2968743387294950e-04 1.2347569959708338e-01 -7.8866180429031374e-03 -8.7022238405438657e-03 3.8788478570079832e-02 -2.9086542110890434e-01 1.9432430394189737e-02 -1.6948661390786697e+00 1.6917420203057532e-03 1.1321302274700740e-02 -4.5333829198398234e-02 -3.6507124175031436e-02 1.0356207909353543e-01 7.8389691223179625e-04 1.1731074622972359e-01 1.1757440504709393e-01 -6.4113524724234594e-01 2.2637741976154757e-03 4.2112891810806019e-03 5.6066282142572810e-03 -2.1674589370714870e-01 3.4730445149762090e-02 -1.3124334046324293e-02 5.7081381794517938e-02 -5.0051258536492504e-01 3.0274382016614254e-02 -3.4913809904867321e-01 -7.1192979795675626e-03 -8.0279260582756251e-03 5.5687518077206732e-02 -2.6050327343713597e-02 -8.9702786732232198e-02 1.9880156893350431e-03 3.0304751308673161e-02 7.7685532482973940e-02 -8.0637012196052638e-01 -6.1294328269809739e-03 1.6190108613756138e-05 1.6320889199938904e-04 -8.8019497488858178e-02 3.4204880594188580e-02 -1.6275506876922918e-02 -1.7657503643143002e-02 4.3035466072615236e-01 3.1285600877936304e-02 -4.7160091853584163e-01 1.9596125793057695e-03 4.2631053220247850e-02 -2.8781383069656385e-02 1.2164216481326125e-01 3.9724414994353197e-01 -1.1695771872175076e-02 2.1937071765914998e-01 1.1208555768766781e-01 -2.0458007724025284e+00 -5.9496941470236174e-03 1.2491926784726532e-02 9.6401557037214380e-03 1.1929204541056393e-01 3.3959633347603102e-02 2.1075934005292670e-02 1.2681630827916512e-02 1.1926408727886155e+00 2.9235646044014629e-03 -2.4233176271577328e-01 6.8789244405158016e-03 3.9902318411764170e-03 -7.7957939455473024e-03 -3.2597280810861662e-02 -7.7068155631422997e-01 -2.7501417530547030e-03 -3.4609122449877738e-02 -1.0493976120596926e-01 1.1689142603427172e+00 -2.6994351183020626e-03 1.3386633388934727e-03 1.9871814880324376e-03 -1.7657507089188584e-01 5.5599334412364587e-02 1.4787844542639247e-02 -1.2548512568059778e-02 -1.5138640221539390e-01 3.9368043764625327e-02 1.9219799194252118e-01 -3.7508775949009780e-03 -5.4728149309084984e-02 3.7317702519059082e-02 5.5207927487430943e-04 1.1510469899579920e+00 1.6447608014677855e-03 4.6178532376630867e-02 -1.8039121973421512e-01 -9.1817549276295107e-01 1.0899635609522441e-02 -3.2406705802129039e-03 5.2311508967316364e-04 -1.9820388461185473e-01 -8.4781151082831130e-03 3.2603653916870146e-02 2.1282606152505119e-03 -7.0157411933359981e-01 -1.6252289797707542e-02 -1.0241143307139282e+00 -4.9457334085134148e-03 3.9788651280809328e-02 5.6564195072438664e-02 1.4064894000668354e-02 -2.7495784851215355e-01 -1.4163731940171065e-03 -8.1815009848998643e-02 -7.2962207885961305e-02 1.8433500600582509e+00 -5.5414370476684072e-03 7.5186860435222760e-04 2.9469647138483991e-03 -2.3806664582767922e-01 -1.0213691221549892e-01 -1.8705400012714812e-02 3.9818425686653239e-02 1.7414835178425347e+00 3.2453486151760302e-03 -8.3669386622213437e-01 2.0283949193223008e-03 -3.9514038621809355e-02 1.8034721954446720e-02 8.3527675759124415e-03 -3.2697373141499853e-01 1.6689767776604035e-03 6.6593665263225505e-03 3.9435883045140674e-02 1.4044297844797029e+00 1.8386500651423665e-02 -1.0958062978217401e-03 1.1199716062876397e-03 -6.9495150071770428e-02 2.4917957017271508e-02 -3.5578820666539723e-03 9.3149108098137631e-02 -1.7104410696329344e+00 -6.1825423981562988e-03 4.8655343023958797e-01 -9.8276644242823634e-04 1.5608004216664995e-01 3.0428449870682261e-01 1.7116436601915051e-02 4.5882953226429990e-02 2.2341882866518736e-02 -1.8404892934904102e-01 -9.2641236885137701e-02 -5.1567842157117738e-01 7.8069793331787096e-02 -1.2169629824803910e-02 -1.4532240278396676e-02 -8.1924295107980072e-01 1.9472062397926582e-01 -1.0012657379776257e-01 1.0158268283164729e-01 3.9687355501938058e+00 1.9570867640881673e-02 -2.4322419174291099e-01 -1.5789087233149202e-02 2.0849815389229365e-01 6.2825231323739489e-02 6.4384565180687454e-03 -6.2294421147973722e-01 3.6950700417664572e-04 4.9807002508976891e-03 -1.8109184617554064e-03 -8.9326280750614340e-01 -1.1252499399448360e-03 3.9215493710624428e-03 9.9226439539835884e-03 -4.9854371332487823e-02 -6.6242571629285540e-03 8.1157947318650780e-03 2.6106237648080097e-03 -3.3654410093615184e-01 -8.2076666768198248e-03 -1.1361569678133066e-01 -1.9223135516121198e-03 -1.3201340164547659e-02 8.7926087261514996e-01 
      </Row>
      <Row Index="119">
        2.4235241659199346e+01 1.2772782944985011e+00 -1.9637582905590534e+03 -5.6191251253221708e-01 -2.2306908354403276e-01 1.9997139766886830e+03 -1.4664867812395096e+02 2.3559413036724800e+02 1.5591448063681597e+00 -1.4475187461957281e-01 2.1027848541620187e+03 -4.9227628462016582e+01 1.5499447932466865e+01 1.5766530816617887e+00 -1.0701977783465099e+03 -5.5694433957338333e+01 -9.1722547757625580e+02 7.0912572368979454e-01 1.0423910532519221e+02 -4.9536717578768730e+01 -2.8884248211397789e-02 -7.8322740592807531e+02 -3.7179512401053216e-03 1.4910460355349642e-01 2.5108614557087421e+03 8.8454572927113622e+02 1.4774785160273314e+02 1.7833855798380682e-01 9.5105740538201644e-03 4.1815146534855739e+02 2.0243409276008606e+00 -4.8194656999316067e+01 -3.9289282361278310e-01 7.1338369689881802e+01 2.1259324837476015e+01 -1.4436081192791462e+03 7.1416002348996699e-01 1.7688409048416088e+02 1.1551798736676574e+01 7.4997710329625988e-02 -9.8054818786281248e+02 -2.2568671045883093e-01 -1.5224851416132879e-01 -1.9642731791064143e+03 -3.0059016212224960e+03 -1.2555126589686819e+02 -5.8450571910725557e-02 8.4891610524209682e-02 1.4635223619081080e+02 7.2629252348095179e+01 -2.6525370462797582e+01 5.6501517513243016e-01 2.3945888041928411e+03 -1.9464158730783684e+01 2.8151596670150757e+03 7.5801694823894650e-02 -2.2024647338688374e+02 1.2972780873828977e+01 -1.4644495315224049e-01 -4.3171920680254698e+02 2.9694980999920517e-01 3.5807670960218729e-01 -4.9534451246261597e+01 6.9600259115546942e+02 4.0861948587093502e+02 6.8768872967211792e-02 -4.4147164526293636e-03 6.7615834979706392e+02 1.0915379691869020e+02 1.7482903719763272e+01 -9.9397258990211412e-01 9.4366646168424984e+02 -6.4406577436398948e+01 -1.3368746975485151e+03 6.0587296052835882e-01 4.1325176458912424e+01 4.3241657788748853e+01 -3.6190112125768792e-01 -1.0988209560215473e+03 -2.0806771174102323e-01 -1.1617004447452928e-01 -2.7913216963666491e+02 -6.9820978909730911e+01 -6.9359977026237175e+01 4.7289036757138092e-01 -1.4997344776020327e-02 7.5370527817135530e+02 -1.0458968705683947e+02 6.8640139447990805e+01 -1.2956107408390380e+00 -3.2380124690941234e+03 5.6280356686562300e+01 -3.0603984274205645e+03 3.0023214827815536e-01 4.7004455566406250e+01 -5.9397478207480162e+01 -6.0240306549167144e-01 6.8439770451188087e+02 -7.9988581732322928e-02 -3.9847237676440272e-02 2.8168601809134707e+03 -9.9524571969383396e+02 -6.4940551089122891e+01 4.6966486195742618e-02 2.0970485842553899e-02 -1.0288299153745174e+03 -9.7073539735749364e+01 -1.0101256661815569e+01 2.5316410628875019e-01 1.6558669388294220e+03 3.4882368046790361e+01 -3.0813300811052322e+03 7.0625629628193565e-01 1.7031323766708374e+02 3.4477806936251000e+01 1.0214143235982849e+00 -1.5661424757191653e+03 5.1803605096210958e-02 1.1208555938653039e-01 6.0363464864949565e+03 -4.4814874647360730e+03 6.0154446839688184e+01 2.5973142253289165e-02 3.9099644078620707e-03 9.9602498987449383e+02 2.0870971014333591e+01 -6.0152700291992574e+01 -1.3777961212908849e+00 4.8878703379631042e+02 -2.8524993863273082e+01 -5.8213917291925782e+02 5.4519141021483342e-01 5.1656078695554143e+01 1.9904349565884331e+01 1.5678624506108463e-01 -3.5816209278106689e+03 -1.5913515320665578e-01 -2.6836729016460947e-01 -6.1205194961838424e+02 -9.7854498481750488e+02 1.8831440035253763e+02 1.6426008120300289e-01 5.4118346980161880e-02 3.0333608801662922e+02 -1.3298713997139723e+02 -2.0674132427750642e+01 1.2326945618260652e+00 7.5271695107780397e+02 -6.4925562925636768e+00 -4.6284976255893707e+02 -5.5053693641998158e-01 -1.1169188365340233e+01 -4.0171595759867728e+01 5.0279311343585653e-01 1.2866851169888005e+03 -8.1649238055197015e-01 1.9805156656304568e+00 -3.6540060428704833e+03 -2.6986081219399230e+03 -4.8080897283837555e+02 -3.2294121471268866e-02 9.1006585278346555e-02 -2.7831363985152836e+02 1.3073389777200282e+02 -3.4422322835085467e+01 5.5364382429860468e+00 -1.6751996161304414e+03 -1.8355765474986235e+01 -1.4357905539870262e+03 2.9887673767688627e-01 4.2586391692511512e+01 -9.0028637339171411e+01 2.0114923395798048e-01 1.6504768309628189e+03 -3.6019002613530970e-01 3.1042714902601903e-01 -2.7978168974463888e+03 6.7238130484398134e+03 7.1177103384339986e+01 -1.2197578750942288e-01 -3.1204888950171157e-02 -1.7646024034224956e+02 2.0252057335643656e+02 1.3755117238529612e+01 1.1547607625532136e-01 1.3239860197395540e+03 -7.1016593069064186e+01 -3.8132916222237316e+02 -7.3875240512673868e-01 8.4195502844703555e+01 1.8784238846338738e+01 -4.8316012480696502e-02 1.0467284588416546e+03 1.7324524025261891e-02 6.2947227985650966e-01 7.2263211958294050e+01 4.1014821646997707e+03 1.3825790470275868e+02 -8.7804824838471657e-02 -6.0882600382532875e-02 -4.4338763352233605e+02 1.7484990013652103e+02 -6.6579253976400565e+00 -5.0069137127146746e-01 -7.7118846606437319e+02 4.5553533604265255e+01 2.8724200539686108e+03 1.6121221966733805e+00 6.5918491929769516e+01 -1.9576516548295132e+02 3.6634791993907996e+00 -4.6332519122804621e+02 -6.4280776672932269e+00 1.8825441717657355e+01 -7.2059684327706846e+03 -1.6246378822425900e+03 4.7955566562104286e+02 4.4008506225382504e-01 7.1381341837965806e-01 -1.7560057237198021e+03 5.1356018893625514e+02 8.4544608436977839e+01 4.5375753044140765e+01 6.4206091840351655e+02 8.6302138720405424e+00 -3.5345947319308943e+03 3.8771397587980800e+00 -1.8999432195084773e+02 -1.9931540731362663e+01 2.9923906692911409e-02 -1.9481865357318529e+03 2.7049778128996581e-02 -1.0072608875714865e-02 4.0535651580176204e+02 -1.6678163930372859e+03 2.7389464984086459e+02 4.0073276278157433e-01 1.2833941334548016e-01 -1.9225115262556923e+02 1.4009140421047384e+01 -1.1419385938157376e+00 -9.5143452369234494e-02 -1.4212517984363981e+03 -5.3144271376762063e+01 -1.6169956729089708e+03 1.1489094514036857e-01 -3.3425946858644124e+01 1.3937395508560867e+03 
      </Row>
      <Row Index="120">
        3.7752744215773419e+01 -8.4842294433619827e+00 -4.9263099594116211e+03 5.3462239552754909e-01 -3.4176641376689076e-02 -1.6846538681983948e+03 -2.0710183631896973e+04 -9.3101571349194273e+01 -1.5352049112380719e+00 1.6707991536064652e+00 -4.4559412730038166e+03 -2.9719160699844360e+02 -7.8839162349700928e+01 -8.9221168290823698e+00 -8.9507276316704301e+03 -3.2226962089538574e+02 5.5848712463378906e+03 -4.2311927992850542e+00 -4.7497655582427979e+02 -3.2409946918487549e+01 -1.8324869601055980e+00 -7.8373090329170227e+03 -3.6046498548239470e-01 -1.5058331389445812e+00 -1.9009838504791260e+03 -3.3014085425734520e+03 6.0208084344863892e+01 6.8789600161835551e-02 2.7675343910232186e-01 1.4123173042964190e+03 1.7562059640884399e+01 -9.6569255143404007e+00 2.8073319466784596e+00 -5.5262061095237732e+03 -3.5228122413158417e+02 -1.7007318306922913e+04 4.0730534605681896e+00 -3.4165261509432839e+03 3.4863375213742256e+02 -1.6374810582492501e+00 -6.8071689092214219e+03 -1.0030550225637853e+00 -2.8969398038461804e+00 1.1460120391845703e+03 -1.6612831115722656e+03 -1.2977580003430336e+02 2.2279325657291338e-01 -7.7629957406315953e-02 8.1458994876146317e+03 7.4256134891510010e+02 3.8348348605632782e+02 -1.8267398716881871e+01 1.8863812231361866e+04 -9.5592469886702861e+02 1.0435249404907227e+03 3.2308027292601764e+00 2.1281818227171898e+03 1.7658497139404389e+02 1.9199968178290874e+00 -1.8063580310344696e+04 -1.8905989811755717e+00 1.9464545244409237e-01 3.9004429383277893e+03 7.4090662643909454e+04 9.9730114012956619e+01 1.6928920870122965e-01 3.9286620230996050e-01 -5.6220902924298234e+03 6.0897202131152153e+02 -1.4514474181830883e+02 4.4115300218109041e+00 4.7032659847078849e+03 1.2792039167983457e+03 -1.0805911428377694e+04 -1.5970680378377438e+00 4.7322727467549100e+02 6.1068808965384960e+01 2.1444262336008251e+00 1.6362191772460938e+02 2.4025961104780436e-01 -4.2478744055842981e+00 -3.2370701901614666e+01 -8.1140388917922974e+02 8.8094025742262602e+01 -3.8668835768476129e-02 4.2010710688191466e-01 1.7181787772851785e+03 -8.9153566503524780e+02 -2.6225778093934059e+02 8.6217596633359790e+00 5.5537879840411697e+03 2.3266474580764771e+02 -1.5529979314324239e+03 2.1148378103971481e+00 1.2521572704315186e+03 2.6784749433398247e+01 3.6963235622970387e+00 -4.3222657527923584e+03 5.8065953431650996e-01 -2.1545070740394294e+00 -1.2619879217147827e+03 -1.5184354404553771e+04 -2.5603900421410799e+01 -7.5705654552439228e-01 -3.7485782126896083e-01 3.9431713576316833e+03 -7.6712168145179749e+02 -3.8660354167222977e+00 4.2596766455098987e+00 -7.4722475318908691e+03 7.1843960759043694e+02 -2.9854136848449707e+03 -3.7698085149750113e+00 -9.1523603439331055e+01 8.5540850598365068e+01 -8.6055428964557610e+00 -3.1069991952434561e+04 7.2122788405977190e-02 -2.0458008188904624e+00 -4.4814877243041992e+03 7.0966214213139273e+05 4.0852486151947659e+01 5.4255712114281929e-02 3.8305019819450292e-01 -1.3481916436546076e+03 -1.9537033562889178e+01 4.0763317490533507e+02 -9.3256040681153536e+00 1.2936740829467773e+04 -3.4154883033858522e+02 -7.8837610511163803e+03 -2.0049247016704435e+00 2.2509296644127076e+03 4.4625284580513835e+01 4.6530815176665783e+00 -2.6499568359375000e+04 3.4401243058858011e-01 1.2025738427513843e+00 -1.9401260244250298e+03 1.0400269964599609e+05 -2.9530022606253624e+02 3.3958065941224991e-01 1.0778630099500786e-01 -2.0311556520462036e+03 -9.7662111306699921e+02 -1.9639936234105051e+01 -2.5662407651543617e+00 6.8838587951660156e+03 9.3575460672378540e+02 -3.6833484420776367e+03 5.3831009674321333e+00 1.0107286119461060e+02 -1.2257560205323443e+00 -2.8852537638297395e+00 1.7824279459470948e+04 4.3654013939346759e-01 -5.5632602966243097e+00 1.4741930605400953e+03 1.1162948667564608e+05 2.2931310666021074e+02 -8.1614612616677107e-01 -4.4340045625563085e-01 5.3547807091681989e+03 4.5702984912935563e+02 2.4066516960741927e+02 -1.0152760082592268e+01 -6.3164245500564575e+03 -6.4845106181398614e+02 -7.8993107366561890e+02 -5.0190536122052922e+00 -5.3380533867749386e+02 -1.3022030271641279e+02 -2.5592116009587018e-01 1.0326601004807002e+04 8.4556661611877360e-02 9.7945094859646320e-01 1.2306876658260080e+03 5.7370866212880675e+04 -2.5818127927112343e+01 -6.3468649964048462e-01 3.2901786682905926e-01 4.7837655385269718e+03 1.3539539884904327e+03 -7.0773999216592657e+01 2.3271725965659140e-01 -2.0085384225731241e+03 -8.3059867561141982e+02 9.8381504628328512e+03 -3.0945237523932798e+00 2.9659139194105478e+02 6.4887433027196869e+02 -2.1598223210807270e+00 -1.4525775365499967e+03 -8.7614008939303845e-01 -1.9350211934109383e+00 1.4314550186700039e+03 7.7243751252270158e+04 1.8245483122610443e+02 -1.5242046667376319e-01 2.5307030888688775e-01 -1.4548955211260702e+03 1.0941906612084354e+03 -2.1493513026491655e+01 1.4949505728546303e+01 -1.7190176652061573e+03 -1.5351808959489981e+03 1.2149561067490249e+04 -2.3024968054546990e-01 7.7212654078006744e+02 2.0094215572374469e+03 -2.7418431979900198e+01 -3.0782212804113169e+03 -1.6135469382363041e+00 -4.2868784109241346e+01 8.6391388573634958e+03 -4.5717305492200016e+04 1.0079985902589746e+03 -1.2220826476212991e+01 -2.7323306419861133e+00 1.0475549753827514e+04 2.3185501040262352e+01 -4.3521400154226797e+02 -7.5066527096445498e+01 1.0977901295109406e+04 -6.9861253179858450e+03 -5.8851624442746615e+03 -7.4653650977667198e+01 7.9347421189968809e+03 -1.9857165121656735e+01 -3.5521426536113077e-01 -7.5042995623310844e+03 -2.0387277857037045e-01 -2.5244025963944583e-01 -3.8235554390522918e+02 -9.1823642396398413e+04 -2.2399881180126923e+02 1.2295807367289785e-01 8.6703579444154033e-01 1.9755016962389295e+03 1.7693535792284672e+02 3.6156388501244138e+01 4.7617327373366686e-01 -6.1855763364312334e+03 -9.7524502715692478e+01 -8.1523429213900927e+03 -2.0142922473565772e-01 6.6553018200942461e+01 9.2046790470558815e+04 
      </Row>
      <Row Index="121">
        -1.9495315320589217e+00 1.0788524078854245e-01 -2.8699996568204369e+01 3.5041568980886950e-03 3.7796313716548902e-02 -1.5506957360674278e+01 -1.6081725940597244e+02 -4.5673326661924882e+00 -7.9393070144799793e-03 4.2240367022161607e-02 2.9764826199047093e+01 -9.3891535057191504e+00 -1.1768501832157199e+00 3.4948474213024383e-02 2.2911046182411920e+02 -2.9339785603406199e+00 1.5343110902933404e+01 -3.2454297345708483e-02 -6.7383346981005161e+00 1.6201993567483441e+00 5.2658613584213754e-02 5.3558726611227030e+01 -5.4277592147187192e-03 -1.4147127776180213e-02 -2.9914362560841255e+01 -2.0390576501317264e+02 -5.3260376414327766e+00 2.6034417263076648e-03 7.7671840535522563e-03 3.7503752286037198e+01 -6.6979255579644814e-01 1.4517851461114333e+00 -2.1386894570412096e-02 2.7142615761893103e+02 1.2996093988695065e+00 -5.6166166047885781e+01 1.8425027503496949e-02 -3.8863605607677272e+01 -4.8372535501234779e+00 -3.4956476808595482e-02 1.8642289291342180e+01 1.4706138916835698e-03 -3.4075048520008977e-02 9.2806285806669621e+01 -1.9690019345283508e+02 2.9971660480180386e+01 -3.5463158343134182e-03 1.9228426346646899e-03 6.3977682447573898e+01 2.0257732860154647e+01 -3.2486683488295967e+00 -2.9847545404336984e-01 9.3429169618291780e+01 -6.7889675608446909e-01 -5.4467847810214153e+01 1.5597115717540078e-02 -1.7728090521450213e+00 -3.4043648298734297e+00 1.1034664006693617e-02 1.0219318366478547e+01 -2.9632981608571640e-03 4.4837676105449198e-03 5.7279296429012902e+01 3.8011826117552118e+01 -6.2841846358514886e+00 6.1727877828179345e-03 -1.1599934330837058e-03 -3.6911665970263783e+01 6.1562211048603785e+00 6.9376325919972714e-01 3.5903671069803522e-03 -6.0942243696254096e+01 3.8379176235587806e+00 -1.1653201572178129e+02 1.3197640497253360e-03 9.6502357334838806e-01 -3.1960084085578728e+00 -2.8326452657495338e-02 1.9407364709768444e+01 -9.6173376675778854e-04 -2.2497502536351632e-02 4.6948943083962149e+01 1.0087228207310545e+02 -3.3879264247086667e+00 4.0502083687812274e-03 1.4050636954015872e-02 8.4080952715922166e+01 -1.9225355520058656e+01 2.1930943640754776e+00 1.1524853884506570e-01 1.7092250359956111e+02 5.3762737867764372e+00 -7.4171463340572785e+00 6.2031131968680597e-02 8.4190436546050478e+00 1.5160754865405579e+00 -2.7367641937864562e-02 6.3079148410935886e+01 -1.3283657222999068e-02 -1.3206271609931264e-03 -1.4202787285433624e+02 1.5226975403395409e+02 -2.1090980747347317e+01 -8.3977162279076367e-03 1.5674291501106552e-03 2.9318633513525128e+01 -1.5372303081057908e+01 1.5071401878403776e+00 7.4691001533423673e-02 4.4747460362548009e+02 -1.7268559177873612e+00 1.4482628721510991e+01 3.8863415985616712e-02 -8.6042577008483931e+00 -4.1360089416069741e+00 4.4567289221659374e-02 9.1031308820937539e+01 -3.6773540212227118e-03 -5.9496943943150018e-03 6.0154446436445141e+01 4.0852460257633268e+01 4.3288732872140500e+01 -9.7242376165431448e-03 -1.8291290532884250e-03 4.1335829548759200e+01 2.5845916432062048e+00 -9.7145046667405808e+00 -1.4179524973326352e-01 1.3986382193746977e+02 -2.9767812252553372e-01 -1.4393369966780767e+01 3.0972336782137726e-02 -7.3195446711966676e+00 -1.4678334927370997e+00 4.9445396457485913e-02 1.5994281116500497e+02 1.0688888270950521e-02 -1.6990349872522778e-02 2.2708119296843506e+01 -6.4929670132696629e+00 -1.1341053408448715e+01 4.8047419920275716e-03 8.5404349877007922e-03 -5.2526501659023779e+01 -2.4150072243389026e+01 1.0073854443940990e+00 8.5473690304297634e-02 -1.4118557503708871e+02 7.6336603981326334e-01 -4.1256048449780792e+01 6.4476998896635870e-03 -1.4294139801932033e+00 7.4651717060042628e+00 -4.7544671406423364e-02 1.3560673932484957e+02 -1.4407779041204157e-02 -4.4478115832382002e-03 1.2544012991880970e+02 2.1347635730244313e+01 1.2007363686385911e+01 -2.4889070639943525e-02 -2.1984796359658409e-03 4.4683840645843446e+01 1.5797361191670717e+01 3.4364878582416600e+00 -6.2535323443125845e-02 -4.5371824939429644e+01 4.8873034336857444e+00 -1.3770391124518937e+01 5.0073086682886063e-02 -1.2313346426484223e+01 1.7816566469871025e+00 1.6691602863223819e-02 -5.6450341301572351e+01 -1.3294814520081105e-02 3.0756211503734355e-02 1.3824160657385687e+02 3.6955417912835969e+01 8.2030782951134658e+00 -7.9554883467126847e-03 5.2489999378715416e-03 8.0193929190463706e+01 3.8273957822529376e+01 -3.4199395534581241e+00 -2.5973191380228322e-01 -3.9384331237540630e+02 -4.3956598878591069e-01 1.6102521877383495e+02 2.0718131996309556e-02 -2.1935498191923930e+00 7.7684209992479192e-01 -2.0495871034015636e-02 -7.6010487506545175e+01 -3.7235206451202542e-03 3.6413750265546482e-02 1.3440851962376431e+01 7.3727095795604626e+01 -1.4471243972215246e+01 -7.3430704524623386e-03 -2.8295438009405694e-03 -5.5680479945992914e+01 9.7207036555792534e+00 1.2073018802360924e+00 -3.5023088846428921e-02 -3.2738033083668682e+02 4.4806174723205654e+00 2.8734803556980768e+02 4.0833672128410665e-02 -1.3586079018081364e+01 2.2145949205601575e+01 -4.6442748117736166e-01 1.5372778676492089e+01 -1.7734715910347479e-01 2.2797072072971014e-01 3.2475107679602138e+02 -3.2974755481299262e+01 -6.5949710193569572e+01 -2.5209408087924690e-01 -2.1666519015237862e-02 -1.6636588344391441e+01 2.9789913844315826e+01 4.6458953163800460e+00 -1.9693298824398084e+00 1.4590043873426305e+02 1.2499649463254883e+01 -1.9252708766213621e+02 4.6253857127533315e-01 2.2598192940240835e+00 5.2175207923146303e+00 3.9725290635481561e-03 -1.8138493308957533e+02 -6.6283772330167842e-04 -9.7127522831220027e-04 -4.7123377620384987e+00 3.4669135171396004e+00 -4.2874399612460712e+00 -1.1292296254735148e-03 4.3448842866495439e-02 9.0579277375790017e+00 6.1566960913481745e+00 3.0533065130471160e-02 -1.0997892630845159e-03 2.9360643554277505e+02 -3.2253796204927820e-01 -8.1399551521663653e+01 6.3814305055815770e-03 3.7049146887750481e+00 7.6931286791550269e-01 
      </Row>
      <Row Index="122">
        8.5400061212307331e-04 -3.5569526865027970e-02 -1.1162567626365671e-01 -1.9159955947357643e-03 2.6701478497134605e-04 -2.6127461349460646e-02 9.6746359695316642e-03 -2.1279979164409921e-03 1.3715454955924411e-02 -6.5927063628911341e-03 2.6566820050257789e-02 -3.2969229348594808e-02 -4.5846891587331129e-03 -8.2947454557928402e-03 -5.0078330806884708e-01 -2.2461103985452979e-02 1.6515974102640030e-01 -1.6194417257527349e-03 1.4743249756381971e-02 1.4662281205730210e-02 -6.7775503391267478e-03 -8.1769926160362161e-02 -2.2787039893264194e-04 -2.9829698751351469e-03 -1.8800246523767328e-02 8.0281546528992109e-02 1.6278717031070755e-03 1.0675765174859159e-03 -7.4256606878165751e-04 -1.1947000619150550e-02 2.6938606344643290e-02 5.4933623012001220e-03 -4.8512937251345145e-03 -2.9399784916122940e-01 -1.7895440318262956e-02 2.1774883929145972e-01 3.1275165284357365e-03 -1.3498973242307158e-02 -3.6532038733144923e-02 -4.3296045865452645e-03 -3.7606864475752649e-02 4.8102605544858568e-05 -5.3511825215238062e-03 2.8648766828482053e-02 -1.0396027656724982e-01 -8.0909089451621889e-03 6.2573199036182817e-04 -6.3220968685030743e-05 -8.0061410568204039e-02 -3.8937270196726104e-04 7.7472354371384000e-03 5.6618309927516930e-03 -2.9175997382377972e-02 -1.4533397673198944e-02 -1.6102840117912365e-01 2.5948987670104257e-03 -6.2431910226155907e-02 -2.4214569360725635e-02 2.7201833677652915e-03 -2.7800783847169441e-02 2.3576722452518795e-04 -6.3754944773865155e-04 5.9801860866400602e-02 -1.0216289226256947e-01 8.1523571279742413e-03 3.3253547923136392e-04 1.2220375857548496e-05 5.8080815069925240e-02 -3.5411280264501244e-03 -3.9948554865519847e-03 -2.9962903616924108e-03 1.8033217976491400e-01 6.5860546389318042e-04 4.6787045491072377e-02 -7.9460210331044889e-04 -5.2016523928104519e-03 -3.8655664016980396e-02 7.8840893304003012e-03 1.7695303999460066e-02 -6.9600331726457632e-04 -7.6444707415215876e-03 -3.9086330823638882e-02 -6.0517061483608359e-02 -1.5926172998568244e-03 3.0678794055535932e-03 -1.9723119520302698e-03 -7.4380968131873004e-02 -6.3534680049599501e-03 -1.0354225512747561e-02 -6.0347328670281031e-03 -3.1604489638574895e-01 -1.1595362659789998e-02 -3.8449602269788841e-01 3.2645148892270215e-03 -2.1430429843576349e-02 2.5995554428939194e-02 5.9570439610883361e-03 -2.6172095172910304e-02 6.2572496126178656e-07 -1.0805223823237842e-03 5.7081459328259143e-02 -2.7578212612074715e-02 8.6111663052579335e-04 -1.3150808655911644e-04 -2.4268604360672130e-04 -6.8926609297562891e-02 -2.7265893700381127e-03 -6.9540661725957520e-03 3.4225129348933181e-04 9.4471657794201747e-02 2.2575673153541587e-02 -3.2084630266570002e-01 1.6793166826356565e-04 1.3026181133682257e-02 -2.7860514070745079e-02 -2.0575484441988388e-02 -1.7513147895421355e-01 -7.6521523410764958e-04 1.2491926784942139e-02 2.5973142686495976e-02 5.4255732925934552e-02 -9.7242376197950488e-03 7.9710016059724668e-03 2.3817173526179247e-03 4.0147659105844447e-02 1.6795041580597747e-02 1.0273136761970642e-02 -2.4692893841191832e-02 1.0303199133352337e-01 -4.4286978986243231e-03 3.4674136208725503e-03 -4.8192030493017634e-03 -2.3665814332143320e-03 -2.0081656019561855e-02 7.3823330935127718e-03 -2.4210442901676288e-01 -5.0834477973754882e-04 2.6827299769513410e-03 -5.6402869836603031e-02 -2.1026220398198348e-01 2.5011600969815362e-03 1.4266543435594806e-04 -5.6994236711943569e-04 -7.2996595634919004e-02 -8.4521724659921971e-03 2.5640333790602210e-03 -1.4171562672471438e-04 2.9282638606244404e-01 6.0590414904879708e-03 6.5117739811739739e-02 3.0524160866466322e-03 1.5464996604009684e-02 4.8610618771551220e-02 1.1758232173107723e-03 3.4074749729984255e-03 1.3467056472429346e-04 -4.6340448485952396e-03 -5.3269743090359589e-02 -4.1276748121862195e-01 -5.9479832645341641e-03 -9.3165693856507115e-04 -3.2197550525360144e-04 -7.6168163985108228e-02 1.4128834885626607e-02 1.2732130419160215e-02 3.8907564132571563e-04 -2.9897636116623971e-01 -2.8826879633148887e-02 -1.8842934363271979e-01 8.5586919213685459e-04 5.7739714403981346e-02 3.8773000240750345e-02 -5.2341152434372245e-03 6.9847337985456281e-02 -3.8076535189351338e-04 6.7425434227586824e-03 -5.7832868720734787e-02 2.4434222163813857e-01 -4.3465521156255682e-03 -2.8899318234895264e-04 -7.3266870047480990e-04 -9.1667983339082770e-02 1.6351479636708244e-02 -5.1712263508856687e-03 -1.6239566235310508e-03 4.5644177104309236e-01 4.9737543610457666e-03 -3.0886314704926043e-01 1.3265680135980617e-03 1.7357458971314355e-03 -9.6263575212454794e-03 2.6207640763845426e-03 2.7243196544961990e-02 -2.0888066763812972e-04 -3.1424778208626889e-03 1.7357509384821723e-02 2.0319817746127011e-01 7.2223813757074096e-03 1.5726717300423485e-04 9.2010385843106931e-05 7.0478831012668691e-02 2.1191085983202074e-02 3.9621434465260535e-03 -4.7665048710916307e-03 -5.7950153037253949e-01 -3.1162941230803487e-02 -1.2779741467404368e-01 1.7726960169872478e-04 2.8192736091199322e-02 8.9720844575113881e-02 1.4971278113713486e-02 -8.7868874754575277e-03 2.2076885173755827e-03 -2.2790027607722561e-02 -1.3638285604337153e-01 -3.2650274694093540e-02 1.8184667876456097e-02 -1.0478304680637742e-03 1.8041178209038979e-03 6.6166683057012454e-02 5.4974982207584080e-02 -7.7798293530467189e-03 1.9423439168700374e-02 1.7433002159217303e-01 -4.4315917404090355e-02 4.3013471360698219e-02 4.1056467492917026e-04 3.9802171156863519e-02 2.0216077353217038e-02 -1.5166713101956574e-03 -1.0041451179256317e-01 7.8047588970609974e-05 -6.8454275716571186e-04 7.0714890397195751e-03 4.9151558134534756e-03 2.5425049687774837e-03 2.6835558696512115e-03 -2.8786925637897748e-03 -1.7689931496263273e-02 -3.5067406916798691e-04 2.4131261550908445e-03 -5.2998304228607702e-05 -2.5213931771902409e-01 -9.3636173044320814e-03 5.2229808302598713e-02 4.2758411105496698e-04 1.0022680261100869e-03 -4.1149228181383097e-03 
      </Row>
      <Row Index="123">
        -7.6696984309567728e-03 -2.9897794263713584e-02 -9.2301922319165897e-02 -2.9991177237007616e-03 1.0533085979924084e-03 -7.7553385754072224e-03 2.7424584128311835e-02 4.6069422469141585e-04 -4.4574803953313378e-03 2.5254355691475272e-03 3.0549797362994013e-02 -2.5308771306299604e-02 -5.7961957678571707e-03 9.7764135387237161e-03 1.9829575305299940e-02 2.5688589386163585e-03 -2.2771836767788045e-02 -4.0529568738350008e-03 -5.4785536307235816e-03 7.3581323880489435e-03 -5.5704563506928650e-03 -1.8490902963549161e-02 -9.9579206321154246e-04 -2.2509331310354153e-03 -5.1248235220555216e-02 2.7413077186906776e-02 -2.3273299038919504e-03 -4.1655858961542336e-04 -2.6299196953405435e-05 -3.4391968943356055e-02 6.7687490466141753e-03 4.9792650446534026e-04 2.0229798733346627e-03 1.6891117162504088e-01 -1.0552700484822708e-03 -1.8800033818479278e-02 1.4908175291772352e-03 1.9565854068479528e-02 -5.1972413974681331e-03 -3.3731960097000968e-03 -2.8674656729059667e-02 -1.9466136928150135e-03 -4.1320397754436300e-03 5.0592913351920288e-02 -1.3451045490364777e-01 3.3395468846605762e-04 1.8183924238435178e-04 4.1653136605557251e-04 -2.4763429709480533e-02 2.4193379672396986e-02 5.5135481557613275e-03 2.8414166450696499e-03 -8.5320585067847787e-02 -1.6227254643755573e-02 1.0343198042028234e-01 1.7909948912011586e-03 -1.0039345738960037e-02 -2.2191263244986104e-04 2.2512084410508670e-03 1.9272380173788406e-02 6.4867560594830120e-03 -8.0036698891129687e-04 3.6851750392088434e-02 -1.8976475569479589e-01 1.2286144800555121e-03 -3.9105295352226399e-05 2.9323767451255867e-04 3.1403029158052820e-02 1.6113382889784589e-02 -2.2810961374588601e-03 -1.5277004233991143e-03 -1.7541029786778495e-01 -2.3432219725467718e-03 -2.1990620994122168e-01 -6.2959158949738026e-04 -2.3603942792571608e-04 -9.1526341379406517e-03 6.1643536641649010e-03 9.3986619922361569e-03 1.5977401549349679e-03 -4.8123685322840615e-03 -2.4945719756175322e-03 -1.6620450933260145e-03 5.1695473531765401e-04 -1.2732320917441253e-03 1.4650320362530334e-04 -6.8655245777833329e-02 -2.0723012350572390e-02 -3.5553107644545889e-03 3.6757345237443673e-03 2.6229341558516639e-02 7.5470142776339344e-03 1.6094594991913524e-01 8.9396260856045018e-04 -1.6992986709738034e-02 6.3537648088640708e-05 5.1545713860963183e-03 1.1763923841499491e-02 3.9180591430199030e-03 -7.7807330017565235e-04 1.6874655481728951e-02 -1.9515027804686724e-02 -4.1903886179248673e-03 -1.8528041781251670e-04 1.4188622203370471e-05 -3.8350976339643239e-02 -1.9342350892088689e-02 -1.7314404523744997e-03 5.6330517633176314e-03 4.7833904754952528e-02 1.8984248303922868e-02 7.7993549955863273e-02 -3.5125096699673009e-05 1.9467359450572985e-02 -4.6169935417523789e-03 -1.8150805146228400e-02 -5.2379091914772857e-02 -4.4743983403189302e-03 9.6401557036952974e-03 3.9099646260183363e-03 3.8305018791550305e-01 -1.8291290930927406e-03 2.3817173526505288e-03 5.1442035392867073e-03 4.7870032937507023e-03 4.7334979648780973e-03 1.0851182284924016e-03 -2.2337331703667473e-02 1.3084355504906853e-01 2.3695618707511024e-03 3.1389896634820813e-01 -9.9726025523479535e-04 -7.0326440023532055e-03 -9.5793385065334746e-04 5.8607517862263592e-03 -1.5519012149889022e-01 -5.6159346349109974e-03 2.3844661071074219e-03 -2.7697447518789886e-02 -1.5356541739311069e-01 -2.6516693446296813e-03 -3.5941666942900831e-04 -3.8909268516665823e-04 -3.2968749967494659e-02 -3.4596468398732372e-02 8.8578815961453880e-04 1.4199149294569224e-03 -1.0377964827534925e-01 8.8269918242076528e-03 2.3327547260851134e-01 1.6686287309926450e-03 5.5790213968975877e-03 5.3814758522245931e-03 2.3180693864266900e-04 1.0298762170394049e-01 1.8314246107675109e-03 -3.3633609251978824e-03 -7.1022549873044349e-03 -2.2787282962914734e-01 4.1445537918332444e-03 3.6806571563351679e-04 7.6019630997576867e-05 -3.5796197137946170e-02 3.0257454431038333e-02 7.2262932894969212e-03 3.4480441548584971e-03 4.1408981117911026e-02 -2.1986155011756242e-02 -1.8353070749390099e-01 6.6965631555314441e-04 4.4313979039566576e-02 8.0220976602955081e-03 -4.4302748203809321e-03 1.2838375377117461e-02 -6.8144889694342538e-03 4.0742292164658274e-03 3.1491882714718145e-04 2.3959230349975336e-01 8.3114515499888020e-06 -8.3304651596602738e-05 -3.1683899496527657e-04 -4.6155407543957083e-02 5.0983883894250251e-02 -3.9836900483581983e-03 -1.2703810797247868e-03 -1.1605020975729552e-01 -3.1783230600750112e-03 -2.1031877286335821e-02 4.3108878784674991e-04 -5.6368538361024623e-03 -2.7351522177539722e-03 -5.7625559970759339e-03 4.3467150307681113e-03 4.0597927073939108e-04 -7.1828474332536493e-04 -9.7016676596217710e-03 -2.0537946535443385e-02 1.1177278533333057e-03 1.1309975676132714e-04 -6.5689010261647384e-04 5.7228712477876725e-02 2.5534284557482440e-02 -1.1892467068053136e-04 -4.6332753283158910e-03 -2.1957462841848674e-01 -1.9278045648177311e-02 2.1569189956602230e-01 7.5639220413891350e-04 7.2658874945545904e-02 7.3739145269915429e-03 -2.9440325468998340e-02 -6.5591813333121252e-04 1.6638229840063239e-02 -1.4336223148098752e-02 -2.9979680549608645e-02 1.7894744893263592e-02 8.0267910619542526e-03 -4.5018210954415293e-03 -8.2797248978152202e-03 1.8773462446399836e-01 4.3211568450152837e-02 -1.5455142164262702e-02 3.5517252806342839e-02 2.2313127171881708e-01 -5.0918812569843791e-02 -4.7054211180594385e-02 -2.3052234951146180e-04 1.6738133589238463e-01 3.9885162791174628e-03 -1.1391153907014089e-03 -1.7258657397340782e-01 1.5874924554451014e-03 -4.9418274040188511e-04 -1.4102478145485708e-03 1.4530302828709299e-01 -1.5339884919435265e-03 -6.5309020800955624e-04 1.3370161327461091e-03 -8.6396357536603213e-03 3.8969358509125356e-03 7.9060727130305514e-04 -1.6254269637645103e-04 1.7104672530249498e-01 -1.9830473870374871e-03 8.3336807428224802e-05 1.9638244317227168e-04 -5.3481712958777239e-03 -1.4440363595940367e-01 
      </Row>
      <Row Index="124">
        -5.0260177861450757e+00 3.5213969324649952e-01 -2.0208947539329529e+02 1.3610571555545903e-02 6.2724529498837001e-02 4.4748040798492730e+02 -1.2299681213498116e+02 3.0486343593845049e+01 5.0719363024253239e-01 -4.3286377890581207e-01 3.4115073400316760e+02 -2.7598738092929125e+00 -3.4829634698107839e+00 4.8171119356993586e-01 -8.2783922814565301e+01 4.5085679269395769e+00 -4.5142148441076279e+02 1.4364940432278672e-01 1.9849049098324031e+01 -1.2547988195437938e+01 1.2920752195350360e-01 2.5681217967718840e+02 4.4138597884739283e-02 1.7640495584601013e-02 2.1850657342374325e+02 8.7232650844613090e+01 -9.7504380494356155e+00 6.7561480507720262e-02 -2.9605017226913333e-02 9.1299308617792121e+01 2.7026854678988457e+00 -8.6561137120006606e+00 -3.8260910492681433e-01 2.2924793425202370e+02 4.1403637153096497e+01 -9.6522668109089136e+02 2.4506353464676067e-01 -9.0649682026223942e+01 3.1186909215641208e+01 -1.7757277648343006e-02 -2.2837396134562005e+02 4.4135959964478388e-02 5.5162580483738566e-02 -1.7446804860979319e+02 -8.1146324563026428e+02 1.4464224327699505e+01 -3.7506953808133403e-02 1.8485435546153894e-02 7.8818263057572767e+02 -1.3959560906514525e+00 -1.5659381568664685e+01 1.2909335334334173e+00 4.2940685644606128e+02 -4.9522002998734699e+01 1.1742209181264043e+03 -8.8745499459037092e-02 -7.8803535567130893e+01 3.2735380035592243e+00 1.0404574704989500e-01 4.7578779710084200e+02 -1.1631646276964602e-01 2.5253839738979877e-02 -1.7273253931477666e+02 9.2554800409823656e+01 5.6872130429837853e+00 4.4852156383285546e-02 1.3259503163681075e-02 -4.6859072279169439e+01 1.2768117879750207e+01 7.3870949231786653e-01 -4.7567413964679872e-01 2.8714324240855188e+02 -2.1414102861792344e+01 -2.4705856078204329e+02 1.1059642374311807e-01 4.9647670529640138e+00 1.0058266942156479e+01 -6.8820153532215045e-02 -3.9225770238041878e+02 -1.8510174028051551e-01 2.8487043994573469e-02 9.6905217407853343e+01 -2.1364002577960491e+01 2.0490293908922467e+01 1.5165599932061014e-01 -1.0710954290857444e-01 3.8640292689848502e+02 -1.1746775645762682e+01 1.8311602105619386e+01 -5.0852505659713643e-01 -9.0387249613475080e+02 -4.1076296836137772e+01 -5.7593819212543303e+02 -3.2886944633719395e-01 -1.5853587374091148e+01 -2.2994174889754504e+00 -1.4025992399274401e-01 6.7582831010222435e+01 -2.5710256427191780e-01 3.6176289107970661e-02 1.3013229116052389e+02 -4.6302561980555765e+01 -2.4561555951891933e+01 3.0697612251060491e-03 9.0202201254214742e-03 -1.0678325447440147e+02 -8.3357828576117754e+00 3.5566917016403750e+00 2.7983412532194052e-02 7.3008158823847771e+02 7.5550665690097958e+00 1.7610021096467972e+02 1.1615646091377130e-01 -6.5874731555581093e+01 1.0402251880965196e+01 2.5980627226050357e-01 6.8924325774657086e+02 -2.8894406696963415e-02 1.1929204484532255e-01 9.9602498740144074e+02 -1.3481916633057413e+03 4.1335829758866566e+01 4.0147658929081204e-02 4.7870034115597444e-03 1.0638767771821640e+03 -5.7854782510548830e-01 -1.2623782649593197e+01 -2.4846550059737638e-01 3.4277855288982391e+02 -2.3177952280191185e+01 2.4700478697778436e+02 2.5170027181402660e-01 -2.4703642051271046e+01 2.0566554387041833e+00 1.6621746915916447e-01 -1.3892391510009766e+03 1.3214784704678140e-01 -1.6100538920048724e-01 -2.3512005724105984e+02 8.7720394134521484e+00 1.0243158772937022e+01 1.8194398695872749e-02 4.4184453407419572e-04 -7.4958247170504183e+02 -1.5283121447562626e+01 -8.6466138587696406e+00 5.5327769857831299e-01 2.4097521515935659e+02 -9.1004470735788345e-01 6.2700872457027435e+02 -1.4288741392569146e-01 -5.5095914267003536e+00 1.6245018985777513e+00 2.2312210904496646e-01 1.0777686271000734e+03 -9.9190765807845263e-02 1.0490185478035702e-01 -4.3565036893391789e+02 -1.0613693264895280e+03 -1.9088726901171476e+01 -1.4454699468843960e-01 -1.3706894099044256e-02 1.8460029781607759e+02 6.8425581389938088e+00 -1.3592955818261107e+01 1.4718941946119686e+00 -2.8294373512826860e+02 -3.2226431925201894e+01 -4.1868224693834782e+02 -7.2407663495800634e-02 1.0133782108545644e+01 -1.9634180772076050e+01 -7.6818768990051661e-02 -2.9884872372426378e+02 1.4040091866772486e-01 1.2774866075326524e-01 -2.0211517823724364e+02 2.0895897694386763e+03 1.8229110724955476e+01 -8.1313542972906730e-02 -3.9809411794361496e-02 5.2465920523185014e+02 2.4285232045392238e+01 9.4223461525033763e+00 3.4986046436830581e-01 1.1600545941319592e+02 -3.0033488705781867e+01 -9.4311268617218366e+02 -4.7969006854208893e-02 -2.2506081328958643e+01 4.1937702951545162e+01 1.0315614186158684e-01 1.4801735517669289e+02 5.2815378453583389e-02 1.5109450709413738e-01 1.4292524013285856e+01 1.3520937521231788e+03 5.3528401393104668e+00 -5.4400840698958015e-02 -2.6915282405550354e-03 -7.2069564996097859e+02 8.4020364780595376e+00 -2.6874647332573307e+00 -3.8320320990060613e-01 6.9231849539476684e+01 -2.3951653107695208e+00 -2.4705285967708375e+02 2.1167436586442620e-01 -2.5914482502266765e+01 1.4021409388702671e+02 1.5517816193992180e+00 2.6809171566765187e+01 -5.5032610438479068e-01 1.7061249073244444e+00 -7.6260344665548075e+02 -5.4633750058382998e+02 3.8807873061899556e+01 -1.2295413365982952e+00 5.4286407361936462e-02 -2.9698568158314206e+03 -1.8151664551337717e+01 4.9756866704959606e+01 1.5019050394632018e+01 3.9914931763493314e+01 -8.8072059187206349e+01 2.8239026003851484e+02 1.9517762537873384e-01 -1.0494693579101727e+02 4.6781066880385627e+00 8.6723199769678135e-03 -9.0464573662378416e+02 -4.6218646868162960e-02 -3.5741210529148600e-03 2.4246467723275234e+01 -7.6011978433825607e+02 1.9957345705401327e+01 1.6987559311793021e-01 -3.0657627023689471e-01 -8.4576081557129413e+01 -6.0987390223704274e-01 -5.4003252594697937e-01 -2.3119982331028743e-02 -3.8568454472996291e+02 -9.8468863921110881e+00 1.1383414407158853e+02 2.7773688716269840e-02 4.1735760216032531e+00 7.4044669453848724e+02 
      </Row>
      <Row Index="125">
        5.8996144635287351e-01 -2.3842289981391929e-01 8.3545254328055307e+00 2.1585601177299907e-02 3.9868507470385950e-02 -3.8843851515266579e+00 1.7666765797417611e+01 -3.4425916910007714e-01 -8.2916708812716275e-02 -5.0486919626784754e-02 7.7633853607876517e+00 -7.1996255531266797e+00 -4.4170586068503326e-01 5.8552669033474558e-02 -1.7315087945085175e+01 -9.0304780852966360e-01 2.0523905386216938e+00 -3.0348595324312555e-02 2.6602085998820257e-01 -8.1663681789723341e-01 -2.4140503039404848e-02 1.6751344353077002e+01 1.0350277737956048e-02 -4.6644973739880413e-02 -1.7808484498411417e+01 2.6329389318510948e+01 -1.0166243638086598e+00 1.0643264295140398e-03 -3.4868943362447169e-03 -1.0214204846465208e+01 1.2401760484397528e+01 -8.6288120972858451e-01 2.3691371471124967e-01 1.5015576225501718e+01 -1.3823186509616789e+00 -3.6324882204644382e+00 5.8668757969826402e-02 -7.8260722132183957e+00 1.1984667100414299e+00 -5.3648169321149908e-03 -4.0750728654385000e+00 -1.1631720734328610e-03 -5.9460667005453161e-02 6.0963010438717902e-01 -5.9263974886853248e+00 2.0678683604189108e-01 -1.1228091658818329e-02 -4.9249372872921526e-03 -2.1862631798350776e+01 5.2126182428575703e+01 -7.1404539445211412e-02 -1.0673794790884585e+00 -2.4259377471782500e+01 -1.7972588880394806e+00 -3.5797088773164432e+01 3.6162860805461605e-02 -1.9004956092685461e+00 2.0235672880335187e-01 6.8227862062997247e-03 -1.3432623423752375e+01 9.7597106755529239e-03 -2.8455082745082017e-02 2.9004089232068509e+01 -7.7280858007725328e-02 2.2256729364180501e+00 -5.0223907233100107e-03 2.1486607174381334e-04 -1.1781999874511700e-01 1.1592719369375118e+01 -5.8088510266998128e-01 3.2230030530773490e-01 -1.2825386936761987e+01 1.5099096939669039e+00 -2.3588778065235033e+01 -1.8171016748510738e-02 5.5243777486188916e-01 7.5012685485580732e-01 7.7204488441921626e-02 -2.6225742322858423e+00 1.6726954059919308e-02 -1.4002493783970493e-01 4.9426650497457558e+00 -1.4359621702402364e+01 -2.2730330380454689e-01 -6.0257128021419248e-03 -8.6863714629963340e-03 6.7947447482818237e+00 -1.1345478791394271e+01 4.1359267603365879e-01 6.8834313683493065e-01 5.9149981321703258e+01 -9.8182964659645222e-01 -3.5482759330818595e+01 4.6927946659820918e-02 4.2628206720110029e-01 -3.1896697131833207e-01 5.2038191414311541e-02 9.6859301155200228e+00 -1.7989028575016164e-04 -2.7655621244321082e-02 -8.4587756518340029e+00 -1.2730500792865314e+01 -2.0952905001925046e+00 -2.7162212102496142e-03 6.3312793761127750e-04 -3.2197812471422367e+00 -1.1717851677072758e+01 5.0228131400763232e-01 -1.4243076289668011e-01 1.5631744837854058e+01 2.2441656781375059e+00 -3.1836622879840434e+01 -7.0346392947158165e-03 -2.3638393457513303e+00 6.7731347328253833e-01 -2.1624529619734295e-01 5.5217989041394588e+00 -1.8577270820934189e-02 3.3959633343346979e-02 2.0870970996315009e+01 -1.9537033619892355e+01 2.5845916451854478e+00 1.6795041579156955e-02 4.7334979655321262e-03 -5.7854782388244530e-01 2.9262011875487588e+01 -3.0685908266182121e-01 2.0385756953555756e-01 4.0011922314297408e+01 -6.3813582815357250e-01 -3.1505638075483041e+01 3.9288314822394869e-03 3.0514669384156727e+00 -2.3485230881760799e-01 -5.5612833819168372e-02 2.4519944954663515e+01 -2.4021812648729619e-02 2.9500840071661760e-02 -3.9460593123585568e+00 5.4607606276869774e+01 -2.4827770099145710e+00 2.3550125484446231e-02 2.2045651925671926e-03 -6.8409384525148198e+00 -3.9008043309140064e+01 1.9055787550486772e-01 -5.8586890446713369e-01 4.8051591246257885e+00 1.3161532192898449e+00 -2.0433942916803062e+01 1.8610809512763254e-02 8.0091793587780558e-01 -8.1835707270425773e-01 1.0537237603322945e-02 2.1007600324529925e+01 -9.6241566834368089e-03 -5.4302197972557857e-02 8.8968254266904978e+00 2.8357375757370832e+01 -5.4441557592425327e-01 8.3389620892880441e-03 -1.2162937745426607e-03 1.6478510872395467e+00 3.5955413914874491e+01 4.8457615086744066e-01 8.0089030873871231e-02 1.9834484868071740e+01 -1.4676885659875758e+00 -1.2040316130092833e+01 -1.6708131530136089e-04 2.4554141032173460e+00 -4.2064081311765822e-01 -2.0566850410173837e-02 -2.6793291755358890e+00 1.5803993371509284e-03 7.6194155241808864e-02 3.5668983447455584e+00 2.1725323391087251e+01 2.4328364538820368e-02 -8.3786564311417993e-03 -1.1270427297612327e-02 -2.4336966317299158e-01 7.0986624826456818e+01 -1.2863362673855139e-01 2.2977431178327357e-01 -3.0152940294403294e+01 -3.8645601589354985e+00 5.5561120689011432e+01 -1.1860353159713989e-02 -4.8748173685604534e-01 -7.5174665590143047e-02 -1.6023785106615632e-03 -7.5330093397162230e+00 1.6771990285826367e-02 -7.5451067529086535e-02 1.9811842453568559e+01 1.0496912763252197e+00 -8.3444130158218721e-02 1.6091387442384260e-02 2.9030264019222346e-03 2.8066203795661782e+01 4.5025905722785296e+01 -4.2237916993370439e-01 9.3904383297622307e-01 2.9444965599659838e+00 -3.2034050250582986e+00 9.1189532717290120e+00 5.1322416850858553e-03 2.7895072612300282e+00 -1.1961251850776708e+00 1.5927040063935483e-01 -1.0185214670136844e-01 8.3057860367218850e-03 -3.2184184618160877e-01 5.9515085623539278e+01 -4.0684682174517661e+00 -4.0985095299841916e+00 -8.0532338072208942e-04 2.9951698682225095e-02 1.1782769637466727e+02 7.7343216753245684e+01 -5.4367225365646998e-01 7.5375011733428110e-01 1.0055483124932081e+01 -1.6171241418072675e+01 -6.9865283980684580e+00 -2.1321558651164274e-01 1.3637643283859916e+01 -5.3221091483950322e-01 -1.3667069015123389e-02 -2.9725606380682965e+00 -2.5049470280902627e-03 -8.0868417905514793e-03 -4.4329796867399551e-01 -6.7795967869937979e+00 -5.2613730098716249e-01 -2.3701861467950173e-02 -1.1435619085719918e-02 8.1667520783161240e-01 4.1380593930670813e+00 -1.3199425183239868e-01 2.1038836925746492e-02 2.3374121892314076e+01 -2.8411484430096268e-01 -8.5120940656877622e+00 1.3555968413097346e-02 -4.5905625618947177e-01 7.2927139190729573e+00 
      </Row>
      <Row Index="126">
        -1.7185306526781972e+00 -2.0928887005197794e-02 2.1615226129069924e+01 4.0556598164926072e-02 8.0973271374205069e-03 -3.5000489545054734e+01 -2.2386105433106422e+01 -9.9587878147373203e+00 3.2869167630616480e-02 -3.9044393257313459e-02 -5.1730801645811880e+01 -3.3679579850286245e-01 5.9184909228351898e+00 8.2027841750459629e-02 -5.5142748624497500e+01 -9.4902955053839833e-02 3.7201280780136585e+01 9.1399771510623395e-02 1.0531088952557184e+00 1.5205376383964904e+00 -2.0581292214956193e-02 7.4026413383893669e+01 6.8555719851701724e-03 4.8079386945119040e-03 -6.0054850406944752e+01 -8.9424882474035257e+01 -5.4486270702909678e+00 6.5111531675938750e-03 -2.2055629636952290e-03 -2.9148183566296666e+01 -4.3600359698757529e-01 -9.3811460426222766e+00 -5.6542047931543493e-02 -2.0028882949147373e+01 -3.5024814133066684e+00 8.0294318090192974e+01 -3.4542825960670598e-02 -8.5062376288840600e+00 -3.0804766356595792e-01 -2.1840591161208067e-02 -1.2750263613816060e+00 2.3362239110610972e-02 -1.6822917701574625e-02 2.5082618363667279e+00 1.8001975566148758e+00 -6.7038959670968223e+00 2.4850595623320260e-03 8.9512150088921771e-04 -2.7378764805907849e+00 -2.8205996837932616e+00 4.2343479173723608e-01 7.8467411227393313e-02 -1.0474085043201922e+02 -2.0375661642677079e-01 8.5758145644329488e+01 -4.4542952430447258e-02 5.7760349212330766e+00 1.6377933326657512e+00 1.5378066686253078e-02 6.4723692903993651e+01 -9.2869201350026742e-02 1.6434676044958962e-02 -3.1567732580006123e+00 -4.5895882112206891e+01 -8.4740945464291144e+00 -2.9113158708042874e-03 -3.0269993568197151e-03 -3.9970783198726288e+01 -3.3949165484809782e+00 -2.8330544921718683e+00 1.9724295023934246e-02 -8.3432686947038803e+00 3.3819439607859749e+00 9.8097374458922388e+01 1.4794402780353266e-02 1.9501564603607840e-01 -6.3128901757590938e-01 9.1817918131482656e-03 -1.2752474325709045e+01 -1.7841990190845536e-02 -4.3275170032643473e-02 1.3211909269171883e+01 2.4791580146178603e+01 5.3567937435873318e+00 1.0015551240485365e-02 -9.7979040841380538e-03 -1.9115507936421086e+00 2.6147047225385904e+00 2.5311091015755665e+00 -2.4618452052891371e-02 1.5358061062433029e+02 -2.8132485611131415e+00 5.2963876889206503e+01 -4.5551680353128177e-02 -4.3967966921627522e-02 1.9998371134570334e+00 2.0465511839574901e-02 1.6993855567649007e+01 -4.5334762185575528e-02 -1.7226806617372858e-02 -2.8011656868446153e+01 7.6136574321135413e+01 6.0942255892859976e+00 9.7935818195082902e-04 -1.2180740332041751e-03 2.8837475343607366e+01 1.9565016985870898e+00 -5.3636349961743690e-01 -2.1548024737512605e-02 -8.8578265395015478e+01 -3.7263887921290006e+00 9.3787111729383469e+01 -6.7831259339072858e-03 -2.3148694336414337e+00 -7.6253622466720117e-01 -5.4627068683516349e-02 1.5691641792735118e+02 -1.5309882975827804e-02 2.1075933968290883e-02 -6.0152700203470886e+01 4.0763316709572649e+02 -9.7145046870423926e+00 1.0273136781157908e-02 1.0851182318489931e-03 -1.2623782728906008e+01 -3.0685908324085176e-01 2.4165542926506312e+01 -1.9469790118819219e-02 7.2507039278745651e+01 -4.3825209977342183e-01 3.6823269809484309e+01 -1.9029873149422262e-02 2.0169176636577637e+00 2.1081465564020618e-01 -4.0634576311276760e-02 1.7991705119609833e+01 4.5745525477729962e-02 1.4986753859343727e-02 -1.3930557186249644e+00 3.3095867037773132e+00 -5.7418851069523953e+00 5.6180611333742948e-04 -2.9801246010111252e-03 -3.3315477948519401e+01 2.7758748022056006e+00 -4.0005223447064102e+00 4.9024174950318411e-03 2.6889134205353912e+01 -2.5349806501762941e+00 1.0774502240866423e+02 -3.3129433282199604e-02 -1.2271054736338556e+00 4.5018887185363177e-01 -3.9056040467518927e-02 -7.7332935557761004e+00 3.7399825549981357e-02 -2.7117738041005139e-02 1.5725465858176033e+01 -7.1869130748901924e+01 1.4761626261205949e+01 3.8746653382793154e-03 -1.0897540690201456e-02 1.9151314157304771e+01 -3.2066182613765335e+00 -1.3779612828131196e+01 -7.7827138319042893e-02 5.8579469008138403e+01 2.5803774552426662e-01 -3.2780786157120019e+01 -9.3258396803083940e-02 -7.8135383042426847e+00 2.3415065838161890e+00 -2.6929993750800241e-04 -3.4846734092590928e+01 7.5890947358444621e-02 4.1666817803329481e-02 3.0055284929635011e+01 -1.5243603287181804e+02 -8.0117344185744210e-01 -5.2820687145048962e-03 1.9323783869835821e-03 1.6420147925791724e+01 -5.0551884501762627e+00 5.5239824479819681e+00 7.5667864569568977e-02 -5.0867911964687899e+01 6.7176173653016384e+00 -4.9651907626379369e+01 -2.6157021731681454e-02 8.7568795252495057e-01 3.6854269826004260e+00 -2.1778393221506313e-02 6.3136578501709124e+00 -1.8716956473864781e-02 -1.0226330366929440e-02 -6.5377543216881495e+00 -1.0030068348321490e+02 1.8546900231002936e+00 3.8555026073732214e-03 -1.2482360246254516e-03 -5.3677142702881619e+00 -3.4477705579116344e+00 -7.4519522221954491e+00 -8.2043096211597596e-02 6.5780610990783842e+01 2.2478447207175809e+00 -5.7613910346510835e+01 -7.6663697157783886e-02 -5.6421803549164906e+00 1.4231123059338813e+01 -3.4595148350707688e-01 6.6694809440224709e+00 2.7521828080443056e-01 -8.8007876424782597e-02 9.9826958707741653e+00 5.7277911401916413e+01 2.0799946890305023e+01 4.3836977210775785e-02 -4.1656592494129452e-02 -2.0621959139025989e+00 -1.7198870740344340e+01 -2.9076038462268500e+01 -3.6047398837538935e-01 -1.4482961032656465e+02 1.0326112283433435e+01 5.5464550522013596e+01 -8.5394152804018830e-01 -7.8772166129858192e+00 -1.5674295102375424e-01 -2.1426590886735033e-03 6.7493669012978700e+01 -1.9819584847530304e-02 -2.9775171402949474e-03 -8.7130113980773096e+00 7.7837061798346767e+01 -7.2877243690322970e+00 8.8532554672242567e-03 -2.0890260915961894e-02 3.8740136558683904e+00 -4.1668418623020470e-01 -1.6022026216899590e+00 -1.5664026870423602e-03 7.7022430646463391e+00 1.5241359683259597e+00 4.3175217360357237e+01 -2.3246215729153891e-02 8.3734526223983963e-01 -7.0502414509326229e+01 
      </Row>
      <Row Index="127">
        -1.0438714352787137e-01 -2.6601694650426921e-01 -4.3820691746077500e-01 -9.4424633058700636e-03 7.1051149256926571e-03 -9.3732850224478170e-01 -5.7154976607998833e+00 -1.4425455446094304e-02 -5.7419253234313433e-02 -3.2797058224162789e-02 -1.3573148222039890e+00 7.0938697495512315e-01 2.5533531990731717e-02 2.3641266146461248e-01 4.0246232540613960e+00 8.3527761000368628e-02 -1.4913793420419097e+00 4.6426838481181676e-03 1.1923392236803920e-01 1.1273379409522022e-01 8.6484957621024705e-03 -5.7594206628709799e-01 6.2131786703645275e-04 -2.4073606062827935e-02 2.5975363704492338e-01 -5.9255139388797033e+00 5.5684404171188362e-02 -3.5098363533805355e-03 -2.3789619934744266e-03 5.1754881827939414e-02 -2.7636498132414999e-01 1.1659619661486431e-02 -3.7824073785436951e-01 9.9269927616114728e-01 -1.5089412321685813e-02 4.5526224054192426e+00 -1.9464149144283738e-03 2.0319914502360974e+00 -1.7879861251753937e-01 -6.2024214104475561e-02 -1.2983727523415922e-01 -2.2225170040925946e-02 -4.8734500697563021e-02 -6.2996328904409893e-01 1.2575156897073612e+00 -1.7325596067358107e-01 9.5450439179733948e-03 1.0641484389399380e-02 1.3051618632780446e+00 -8.8290196704110713e-01 1.4900190732078045e-02 2.1358231032058796e+00 6.5504420405522978e-01 -4.4535442425098992e-02 5.5872484193678247e+00 1.2552193616173213e-02 1.1969166549533838e-01 -2.8861592847988504e-02 3.7366427970738414e-02 -6.1471738541877130e-01 1.0061927728315823e-02 7.3427314727844140e-03 1.0964743082877249e-01 2.6347526034660405e+00 3.0334480557030474e-03 -7.7802925085732610e-03 -6.1413290709246837e-03 -4.1442250701426886e-01 -5.6820150995554286e-01 2.2585746011998253e-02 -5.0425204945015878e-01 1.2059829098131161e+00 -2.3585533580941842e-02 -2.2117403705054812e+00 -1.7844798294532893e-03 4.0698483865437396e-02 -2.4648140078045344e-01 1.0537630374287588e-01 -2.9432215137057938e-01 2.4905905137771356e-02 -4.6917750030043059e-02 -2.4536158977093692e-01 2.2732320687791798e+00 4.3630099132428768e-02 -2.1174312364154346e-02 -1.6942527821038667e-02 -5.9532321303345270e-01 8.0820929067704128e-01 -5.2136079159936344e-02 -1.2041745115108000e+00 6.4510975843402045e+00 2.5121330758338445e-01 5.0506634151264791e+00 -2.2674938274271028e-02 -3.9643395211896859e-02 2.7592671655975209e-01 4.4113195955036488e-02 6.1324815152329393e-01 -1.2263925992598956e-02 -1.0519394986374664e-03 9.8465874546673149e-01 3.9854523897079162e+00 1.2701359264798384e-01 -1.7663907909586385e-03 2.3064392190299543e-03 4.6031837601913139e-01 6.2589676627976587e-01 1.7995371464621712e-02 2.1850435823594694e-01 -7.9679232909111306e+00 1.2438200740416505e-01 7.1134799781139009e+00 1.0888232139905085e-04 3.2601647761475760e-01 -2.1691595361599525e-01 -1.8692373254808944e-01 -2.1154333702213535e+00 -1.6711320512936112e-02 1.2681630827744428e-02 -1.3777961244031758e+00 -9.3256040007364902e+00 -1.4179524928563580e-01 -2.4692893841540837e-02 -2.2337331703598202e-02 -2.4846549962097697e-01 2.0385756953965029e-01 -1.9469790048347591e-02 1.9865232532617370e+00 -2.0487108713132329e+00 1.8604607355438674e-02 8.8286287069668461e+00 5.1210040275018895e-02 1.9662111558328377e-01 -4.1422258925820188e-02 9.0302674574900266e-02 -6.8539418745785952e-01 -1.0959332053623740e-02 1.7478989737354234e-02 -1.2721300706198235e-01 -9.0815232135355473e-02 8.0414532159466034e-02 3.5211474155020656e-03 6.6687167501151209e-03 2.2622046100150328e-01 1.2143632462101577e+00 -1.6320739202263068e-02 6.5962749154539324e-01 -1.7800224681122927e+00 7.6399772722652415e-02 4.6207274484913796e-01 2.7575927387811488e-03 -1.3155760273366468e-01 2.6909126120204518e-01 9.1378061268779006e-03 -2.0062238453777717e+00 -4.3818482458275517e-03 -2.5810329776122996e-02 -6.2357780015165110e-01 6.3959256571246144e+00 -1.7586785508023575e-02 5.3913663317717575e-03 -1.9538506853986580e-03 4.6560488003006895e-01 -9.3126555084748475e-01 -9.5239206678014998e-02 -5.9077209509119750e-03 1.0916390309066628e+00 -2.4160659048566391e-01 5.9234802938590292e-02 4.7524092780892140e-03 4.7295420183867964e-01 3.1147457336753104e-01 -4.5194795366514252e-02 1.8848478835691687e+00 7.8860225809752882e-03 5.3674696754922924e-02 -6.6047285834771863e-01 -6.7609970543431004e+00 -1.9762297625026015e-02 2.0424289430990682e-03 -3.9798457068666209e-03 2.4181313196241661e-01 -1.8022874580406916e+00 1.3881781814169436e-02 -4.7184139038113315e-01 2.2030464117384341e-01 2.2970809634349054e-02 -1.4949103445747056e+00 -1.1753349185033228e-02 2.4437815858812506e-01 1.3909854732411220e-01 5.1672445584054122e-02 1.9046375611349333e+00 2.2156600741881614e-02 -3.1415312232450671e-02 -7.1468574857231459e-02 9.8496372445923441e-01 1.3177407790134588e-01 -6.3192256461918912e-03 -1.6209623208441919e-02 -1.5208316895557519e+00 -9.6812201051972058e-01 -6.8304134808568284e-02 -1.7306036084962459e+00 6.3942701267488040e+00 -1.5803685337703932e-01 3.7684362434713554e+00 -3.7647474399315137e-02 9.6304558187330258e-01 1.4664425486029642e+00 2.1665106937518996e-01 -5.8641420359696284e-01 8.8123065614001767e-02 -1.0851790965514896e-01 -1.5522111924499029e+00 -7.5852435580654642e-01 6.2172505453463911e-01 -2.6681948265556719e-02 -1.7141721744981020e-02 -5.3883531631676931e+00 -8.4578009265758070e-01 -2.5116489395342390e-01 -2.0872904363598463e+00 -6.5847143812936793e-01 -6.2943414986310664e-01 -1.4993305928957312e+00 -1.2069578838523598e-01 -7.9768487480222916e-03 2.3230326177833421e-01 -1.2767808011937845e-02 1.9004851161393645e+00 -5.5183123904756571e-03 -4.2256384667917566e-03 2.6581952955515575e-03 -1.5938713029572364e+00 1.7293052980290775e-02 -8.4962338103778661e-03 -1.2587925896959715e-02 4.1675394311781799e-02 -1.2753175979535453e-01 -1.9461333140013970e-03 -3.6075678177956275e-02 -1.1056960652894645e+00 1.3981559336042615e-02 -4.6729634254565156e-01 2.1569507132123112e-03 -8.2527476033315672e-02 1.6286692557433988e+00 
      </Row>
      <Row Index="128">
        5.1714019358521909e+02 1.6691386120437528e+00 4.2406074364185333e+03 -1.0258670231414726e+00 1.1077562914251757e+00 1.5398775638639927e+03 -2.3886059379577637e+02 6.6121014855016256e+00 5.6724642737887869e+00 5.0812319934630068e-01 8.2827279988676310e+01 -8.6308059483766556e+01 -2.1919599041342735e+01 6.1413010889664292e+00 1.4017564994530927e+04 -7.7042649157345295e+01 4.8226293039321899e+03 -2.1418896091636270e+00 -1.1912723733782768e+03 -5.6897742655873299e+02 2.7953036315739155e-01 6.1802379835546017e+03 -1.5080781000433490e+00 -7.8892569222080056e-01 -4.4897984862327576e+02 -2.0857465883195400e+03 -6.2101121902465820e+01 2.1029483719030395e-01 4.1434879414737225e-02 1.1697108456760179e+02 2.1331862658262253e+00 4.9157960290089250e+01 -4.6645130694378167e-01 8.3014453667223454e+04 -1.8888487462699413e+02 -1.0586742157578468e+04 -8.8997368002310395e-03 -1.1466554279459178e+04 6.2024099863506854e+02 2.0504588884068653e-01 2.2577873584370827e+03 -2.3775277900858782e+00 -1.2253127949079499e+00 -8.5269605475664139e+02 -7.5430050954818726e+03 1.1173238165268450e+02 -3.3118413991905982e-01 1.7707991392671829e-01 5.7388141629844904e+02 2.0039515829086304e+02 -3.0243786796927452e+00 1.4611167579423636e+00 1.0119233735238016e+05 -6.7326828653172299e+02 4.9277419689893723e+03 4.2652384337270632e-01 -4.6422461854666471e+02 3.5901614267937839e+02 2.3342177396989428e-01 6.6751651788949966e+03 -1.0348806864931248e-01 9.0963906313572807e-01 -2.1091949683427811e+02 9.7782708299160004e+02 -4.7138733785599470e+01 6.3010485377162695e-02 -1.7191187984280987e-02 2.7762601849343258e+02 3.2288967419415712e+01 -9.7366712638176978e+00 -6.5116763097466901e-01 1.9589134366804006e+04 3.5663298119034152e+01 1.0938348673334345e+04 6.8276859843172133e-01 2.6742251631196723e-01 7.7745587531849742e+02 -8.5676652527763508e-01 3.8844718027114868e+02 -1.5221978969639167e+00 -4.6988751929893624e-01 -2.8699379251524806e+02 -1.2543619215488434e+01 7.7888020006939769e+00 1.3715821023943136e+00 1.0609570388623979e-01 2.2345800885953781e+03 -8.9587729513645172e+01 -1.7857069414108992e+01 1.8142649044748396e+00 4.0737300776785451e+04 -2.9344872681796551e+02 -1.0227071909534279e+04 2.5413270294666290e-01 1.0189609985351562e+03 -6.7500319814682007e+02 -3.5268292555701919e-01 1.5840961408615112e+02 1.3091233582235873e+00 -3.2527176459552720e-01 -1.2679285609349608e+03 3.4309110710024834e+03 -4.8588165427092463e+01 7.1571351159946062e-02 -1.7069181360420771e-01 5.0064227217435837e+02 -1.2121755799651146e+02 -6.5420731807127595e+01 3.7883605469833128e+00 2.1524495777130127e+04 1.4947560189664364e+02 -9.1146533727645874e+02 1.4296101552899927e+00 -1.3444926961660385e+03 6.3805191848822869e+02 2.9998192914142559e+00 1.5937472359557189e+04 -4.9039927288686158e-01 1.1926408675353741e+00 4.8878700754046440e+02 1.2936740715706474e+04 1.3986382513384160e+02 1.0303198827833226e-01 1.3084355669802150e-01 3.4277855508634821e+02 4.0011922296136618e+01 7.2507040128344670e+01 -2.0487108854576945e+00 1.9656476829719543e+05 -2.2644726350717247e+02 1.6731205035884195e+03 -7.0819021249216219e-01 -7.8032732552771654e+02 2.1766399815608747e+02 1.7352494457736611e-01 1.1701012649536133e+04 -6.5267403950210701e-01 6.7367040643140808e-01 -1.9724892254173756e+02 2.9231482162475586e+03 -4.4430325996130705e+01 3.0404785416702040e-01 -1.2697195556444196e-01 6.0251365247368813e+02 -2.1538727718455598e+02 2.5795915463052630e+00 1.1050613345578313e+00 3.0301727269634604e+04 -1.4526445573568344e+02 1.5300496404647827e+04 -5.5129915069085378e-02 -7.1918854773044586e+01 -9.3122228813780976e+02 -8.4672470054061699e-02 -5.9880507244686214e+01 6.3345159956881956e+00 8.6932930623051519e-01 5.6788433325827441e+00 -1.9282555276133047e+04 2.4718904355840859e+01 -5.2481614891934736e-01 -2.8247212485478485e-01 9.8395189186489438e+02 1.0770679190101373e+02 6.2179894023465067e+01 1.0965900209283427e+01 -1.1454093557420373e+05 -1.8807585825784156e+02 -1.8231272914111614e+04 3.7917987688074412e-01 -7.2439893711145328e+02 -1.0510852274116344e+03 -4.2547469735961951e-01 -7.9953241657642111e+03 1.2790884800305768e-01 1.3774616121412455e+00 1.2762915614795920e+03 1.6694863135652857e+04 7.3743792863129840e+01 7.7909198234917265e-02 1.6219664601996719e-01 2.2751583951316125e+03 4.2065794345182655e+02 -3.1068335323181685e+01 3.5251923467986277e+00 6.9355122408878378e+03 -2.0970330062264961e+02 -1.0955542569434072e+04 3.8771217693866000e-01 5.1859251882680690e+02 -2.3411580338008065e+02 -7.2236748608811763e-01 -3.7100149266434501e+03 3.4984217297881184e+00 1.3163625916425730e+00 2.9234129582191957e+02 8.6851354307858510e+03 -1.1442714453123907e+02 -2.5990405425417579e-01 -2.0353648571534005e-01 1.2688016871939244e+03 3.9002241316907202e+00 5.9803230610675485e+01 6.4436722823332833e+00 -1.3829893099818710e+05 -4.9420012805616409e+01 -1.6819029711594125e+04 4.3401757510162398e-01 1.2828707367181778e+02 -4.1692753436309413e+03 -7.5478263716813565e+00 2.1332106353862864e+03 6.3286307611911049e+01 1.5445986467779079e+01 6.7729359397293301e+03 -3.2718217111149406e+03 -2.7428305189245202e+02 1.7445867056386444e-01 -2.8850324971581349e+00 1.0115128587026584e+04 -1.0777679365181530e+02 9.1297483570613736e+01 1.0962230529100378e+02 -4.5780153977162881e+03 5.8423290618237706e+02 1.2123478043099898e+04 5.3709024257986329e+00 2.0028248060928294e+04 -6.0667360625251365e+02 1.5097696811975586e-01 -2.0199620869865902e+02 1.7536429980062207e-01 2.2679063121307578e-02 -1.0800436651298861e+02 -1.1804341558534557e+04 -1.8286855363922214e+01 1.4516914601397883e+00 6.4139398547906956e-02 3.7834335337068069e+02 3.0038037058203439e+01 8.9029313343815772e+00 -3.2061431136753865e-01 -4.2147875663546583e+04 -5.1048279644267822e+01 2.5527894211284660e+04 1.0825007901960762e-01 4.6199367692337785e+02 1.1822640021296138e+04 
      </Row>
      <Row Index="129">
        -7.7719394033300659e-01 -1.8861490760855304e-02 8.7648841254413128e+01 -1.2084620049904515e-02 -1.2416558842033965e-02 -4.3767015282530338e+01 1.9404071598127484e+02 -3.1752331321149541e-01 -7.2247291020242854e-02 5.5519844269724672e-02 -4.4929091425728984e-01 4.5791534963063896e+00 2.3270894773304462e+00 -1.0003723456065927e-01 2.1855486975902242e+01 1.5779962061205879e+01 -1.8369196031987667e+02 -5.7461000405965024e-02 3.3821105791721493e+00 2.1562096416600980e+00 6.6379171603330178e-03 2.5761194217810407e+02 7.6943227877563913e-03 -1.3455808614025955e-02 -3.2661857133731246e+01 2.7558869027128094e+02 -2.4590630684979260e+00 -5.8712029031084967e-03 3.8437113967120240e-03 1.5021093931261930e+01 1.1087739301146939e+00 -2.7304621919029159e+00 -3.5814305464555218e-02 -8.1019925822969526e+01 1.1297225821297616e+01 5.2377465746365488e+01 -3.5772270140114415e-02 5.5131749719133182e+01 -3.4374553065572400e-01 1.1420542074574769e-02 8.5073759688482824e+01 4.8750495207059430e-03 -1.0384133813658991e-02 1.7258383914362639e+01 2.4896618134900928e+02 1.3881345044556581e+00 1.8678632017667951e-03 -6.6568035544491977e-03 8.6806810519192368e-01 -4.5920078883646056e+00 -2.8216998369316570e+00 -2.7302422630873480e-01 -4.7601247678219806e+01 2.3957618858819803e+01 -7.0916328802704811e+01 -9.8210278101760196e-03 1.7650574882689398e+01 -4.2147566084167920e-01 1.7939455215127964e-02 1.5303427307121456e+02 7.1112417553422347e-02 -4.5442775993066675e-02 -3.7180882191285491e+01 7.5920612014364451e+01 -3.2706014357972890e+00 -1.0472213041452960e-02 -1.2679065317826144e-02 6.8562453694170511e+00 -5.3713081890600733e-01 1.3463175945216790e+00 9.7780610134577728e-02 -8.5843206787689610e+01 1.7151600365922150e+01 -9.0127820793073624e+01 -2.3400735346513102e-02 -3.4698459526116028e+00 -2.8677397963328985e+00 1.1262294565995035e-02 -3.7600441986694932e+01 5.0102463296752831e-03 1.2579558782192635e-02 1.0764028130841325e+01 -1.0545933039113879e+02 1.7232516360454611e+00 -2.0166854910257825e-02 1.8066701077685821e-02 -3.3827238371705590e+01 1.2213024478405714e+00 2.6602076634007972e+00 7.3136344028171152e-02 -7.2643515044478690e+01 1.0868793894420378e+01 -7.0941799705315248e+01 2.2105595665834699e-02 -1.0056798586621881e+01 3.1796006094664335e+00 -8.3405455178535703e-03 5.7754016909748316e+01 4.1924613151877566e-02 3.3919403845175111e-03 6.2351675262325443e+00 -1.4518033294643101e+02 -2.0270228597655660e+00 3.8866199315066297e-03 7.4872237252066043e-03 4.2241271184757352e+00 3.9892591455718502e+00 5.2699985248909798e-01 1.9227554931603663e-02 -2.2613676283508539e+01 -2.2929730523290345e+01 -4.0899899113923311e+01 -1.4665449853055179e-02 2.0486963643692434e+01 -1.9290705322891881e+00 1.8843882530497180e-02 4.4771802450195179e+02 7.6272829541608189e-03 2.9235645257585929e-03 -2.8524994199047796e+01 -3.4154883342130279e+02 -2.9767809570421377e-01 -4.4286979196117762e-03 2.3695618859090276e-03 -2.3177952286700020e+01 -6.3813582833972760e-01 -4.3825208877206023e-01 1.8604607232191483e-02 -2.2644726378470659e+02 2.1440595633653174e+01 -9.2616378190127435e+01 8.2111929128730332e-03 1.4408386695981447e+01 -7.0453534067110013e-01 -5.9768533810711233e-03 2.7786649298667908e+02 -3.3688086160780506e-02 2.2034569757008793e-02 2.4987554100691341e+01 1.8980935883522034e+02 -1.2352259065373801e+00 -6.4634551051090585e-03 7.6630007731990964e-03 1.8624223087797873e+01 6.7462226574502884e+00 -1.4079817493872984e+00 -5.3014589531812817e-02 -8.1591556548140943e+01 2.0635377387516201e+00 -1.8338757954537868e+01 2.5172623071890637e-02 1.4734573364257812e+00 2.9223356102574440e+00 -1.8753040200523582e-02 1.7175298324128043e+01 4.3926907854578194e-02 -1.1434388934340858e-02 3.5724469213330728e+01 7.2512683368748426e+01 3.0417910129293113e+00 4.9332951998197804e-03 -1.3637872813366142e-02 -5.8616354287546644e+00 -1.3344808098921916e+00 -4.7422303183828607e+00 2.0172118048320478e-01 8.2236032915767282e+01 3.2505013261367601e+01 -3.1155581840779632e+01 -7.8316401514005582e-02 -8.3385836434011207e-01 3.4905163428958321e+00 -7.3184076942716652e-03 -1.7817072989306081e+02 -2.9440068512641391e-02 -4.4504745697547358e-03 7.8005577799631709e-01 -7.5173576526770688e+01 1.2055679613388088e+00 6.9180023547551518e-03 1.3201828760764018e-03 -2.3026256969677981e+01 -9.9868056990642025e+00 2.7396895138522632e+00 5.0651811249306788e-04 6.2299560228244104e+01 2.3894925073804817e+01 -1.0129632001102311e+02 -2.6006928811909670e-02 2.8625801315359545e+00 3.3912738306986574e+00 5.2679526062173222e-03 -7.2088423548213342e+01 4.8949375927789675e-02 -2.4377838284405338e-02 -2.6355874127446540e+01 -3.4480534227209475e+01 -1.9657714654882106e+00 -5.5248235161298089e-04 -9.3004127309507766e-03 6.1179607163061096e+00 -1.3134886617642891e+00 -1.7082844113975830e+00 3.8710378559697334e-02 6.2357299633385011e+01 2.8492267456268479e+01 -2.5921775501732732e+01 -6.2661342160736322e-02 6.9824347109533846e-01 1.9584296966815348e+01 -1.6814787875669465e-01 4.5317465323866877e+01 5.4330058848056240e-01 -1.9975661687356822e-01 -8.3235899534116001e+01 8.5294685311963718e+00 -4.5984399741848758e+00 1.4613583626385894e-02 -1.6903344004497006e-01 1.4046292962360035e+01 2.9379389523042839e+01 2.6085337436861060e+00 1.0867094673392046e+00 -5.8636240172843145e+01 5.8174367681832926e+01 -3.4120727724209360e+01 -9.0812509293999588e-01 -7.6834503787831352e+01 1.2917806211235712e+00 -9.9998708918448784e-04 3.1077086798403599e+01 5.5606310689764312e-03 8.5226148201930359e-04 -3.5454986134833710e+00 -9.3975574795102162e+01 -1.1911150606139584e-01 -2.5618527971708781e-02 4.6036345352921990e-02 7.3365072830598344e-01 -4.0289154790103110e-01 -1.2217969612702850e+00 -2.6166384041861022e-04 4.1360796311813004e+01 1.0444028168124689e+01 -1.3522593083270980e+01 1.3382734428497038e-03 -1.4381163165425828e+00 9.4048857185301173e+01 
      </Row>
      <Row Index="130">
        9.3256208927319676e+01 2.0263401113588770e+00 -6.1371975906491280e+03 3.1423955312966427e+00 1.2203278306533321e+00 -4.2525244857370853e+02 1.1973201228380203e+04 -6.9570727443715441e-01 1.7480831494303402e+00 3.6172583693187335e+00 -3.5599032504670322e+03 1.3217947093397379e+02 -1.7330383323132992e+00 8.0029751334222965e+00 -2.6198175198644167e+03 -5.0399978216737509e+00 4.2754290766239166e+04 -7.5257834183867089e-01 -2.2750907506793737e+02 -1.2371310891211033e+02 1.5104063411126845e+00 1.3068538065992296e+04 6.8246608132903930e-01 -3.0100291684575495e+00 -9.7435469931364059e+02 1.7684162066328339e+04 9.3332412093877792e+00 2.1238644917320926e-01 7.3061509786930401e-01 -3.8094338317547226e+02 7.4659877330064774e+01 -8.3454179181717336e+00 9.2670259519072715e+00 -8.3705720046758652e+03 -1.7987733101472259e+02 2.9927211519926786e+04 2.9552544755861163e+00 -1.9181564772659713e+03 -4.3619223102927208e+01 1.5129134307135246e+00 2.3906901517191291e+03 2.1535183359519579e+00 -4.8510760706849396e+00 2.7057027128785849e+03 8.7912650214433670e+03 -1.9974391792526205e+01 -4.8912021680735052e-01 1.4765425187033543e-01 2.4914138396158814e+03 -7.0252063915133476e+01 -3.6585919706150889e+01 1.4709516808128683e+01 1.3790816589688882e+04 -8.6592130318616796e+01 1.3253883792531490e+05 1.0703023562818998e+00 -7.0636653162352741e+02 1.8119559561368078e+01 -2.5488817938021384e+00 5.2297945788204670e+03 -4.5894802890252322e+00 2.9862332697584861e+00 9.6051307827234268e+02 -8.2811863418221474e+03 -3.1321787022054195e+01 2.8560913084220374e-02 -4.3503072365365369e-01 -1.2132832182692616e+03 -2.4747854111995548e+02 -1.1513256044127047e+01 -1.5113341475516791e+00 3.1735859649766313e+04 -4.5827359517628793e+01 6.7145963890850544e+02 -3.1264610606012866e-01 -6.9359605859589465e+01 1.0742619951954111e+02 -2.2405245358313550e+00 -7.2209959062933922e+03 -1.4135699087200919e+00 -2.2043179701013287e+00 -1.7067967265429907e+03 -6.8406622044742107e+03 -5.1119719719281420e+01 7.1700716251507401e-01 1.1627954059931653e+00 -1.1276959299272858e+03 -9.7877961844205856e+00 2.3043239318765700e+01 3.5106378061755095e+00 -2.8387576566270691e+03 1.7441134771332145e+02 3.4250357558812844e+04 2.0127901184459915e+00 -3.3206608989834785e+02 -1.4984430678980425e+02 -1.9892172682921228e+00 1.5313909395575523e+04 -3.4745665885711787e+00 5.3243562526768073e-01 -4.9873182135261595e+02 -8.3808211217364296e+03 9.9264456862583756e+01 9.9248476897628279e-02 -4.0039577848801855e-02 1.5806455956995487e+03 9.5007720261812210e+01 2.9871466540731490e+01 -4.4792694351199316e+00 -2.3487894807100296e+04 2.0155107024684548e+02 2.4449937096953392e+04 -1.6717331906838808e+00 -7.8162010511755943e+02 7.1906276859808713e+01 4.0978737847426681e+00 8.8382157716285001e+03 -1.8746063596117892e+00 -2.4233175746849156e-01 -5.8213915487006307e+02 -7.8837606912457850e+03 -1.4393370905887423e+01 3.4674142926736096e-03 3.1389896544916818e-01 2.4700478952936828e+02 -3.1505638055503368e+01 3.6823269167944090e+01 8.8286287162918597e+00 1.6731205483675003e+03 -9.2616377914644545e+01 3.1796379275755293e+05 -5.3169237104772282e-01 -4.3900618446402359e+02 3.8799813172197901e+01 -1.9599281233386137e+00 1.0043353296279907e+04 3.3588797240441641e+00 -2.9900322843558058e-01 -1.9852518089488149e+02 2.2357048053741455e+03 -1.4264413392171264e+01 6.4295829073114685e-01 7.6822865067706092e-01 -2.0924311462044716e+02 2.8689143033971597e+01 3.4034083422264914e+00 -2.3913751496002078e+00 1.3703839556992054e+04 6.0412164218723774e+01 1.4795885805988312e+05 2.6338553762678112e+00 -7.1479183048009872e+01 -8.6243269447742961e+01 -4.5999164980246912e+00 -8.3664570616864276e+03 1.8452421211101333e+00 2.2433096369509489e+00 5.7684337297190029e+02 -7.7038831998648766e+03 -3.8112273432217933e+01 2.5215467746487219e-01 6.5371454662390693e-02 9.4924613211444080e+02 -1.8800902415358973e+02 -6.1581126429930009e+01 -4.4565691104217393e+01 -1.7773811005249619e+04 -2.6766993103484305e+02 6.3827480727434158e+02 3.9493521432554279e-01 -5.6054038753175769e+02 -2.1876678169280802e+02 -1.8366602877157097e+00 8.3089254591036461e+03 4.7602964485674946e+00 6.2179074082584709e+00 -1.8634116629060895e+02 1.0565412760723593e+04 -6.8809770404650436e+01 1.8756902030854039e-01 1.1634744585563150e+00 1.0379184272560842e+03 1.6051845555775486e+02 -2.0040537057473983e+01 -1.3760475540358794e+01 2.7580301955121740e+02 -9.7416969908493499e+01 -9.3239377178147697e+02 1.0310599212169518e+00 -5.1798076736009051e+01 -8.4785792783380430e+01 -2.9232737163280680e+00 1.2063413315701355e+04 -8.8387140361738126e-01 1.9621020662375595e+00 -1.5327358924820762e+03 2.6001464444470698e+03 -2.5564501668020341e+01 6.6662547226975333e-01 4.3934967413659806e-02 -2.5074028431744446e+03 -4.9617665048907929e+02 -2.4305105367273057e+01 -8.4032833379457603e+00 3.1234950101101349e+03 -4.2964387169837022e+02 4.1489321551925786e+04 -1.2966438879293123e+00 -1.3991755843162537e+03 -8.0622603401186052e+02 -5.6128225243097994e+01 -2.3766351820460877e+03 1.0844590544414297e+01 5.0806609363343860e+01 -8.0564301096298732e+03 -9.3027909458618433e+02 -3.2051877377144768e+02 6.0447436734831435e+00 1.5810248820005648e+00 -1.1119602198959319e+04 -9.9429298859169785e+02 -2.6648017394851854e+02 -4.0639326094825219e+02 -3.6499997970080040e+03 -9.1425135941557346e+02 -3.3648015801084272e+04 -8.3148475403670972e+00 -4.5444579146131109e+03 -5.0105482327306646e+01 2.0672016654016312e-01 -4.4135953980071281e+02 -7.5314156318714420e-01 -1.1749500117494616e-01 -2.3422147687203051e+01 3.1831538405248689e+03 -3.3466684655451317e+01 7.4131086874918573e-01 2.4844846908411786e+00 2.0282427548165282e+02 1.8989124501524415e+01 -3.5411981810098645e+00 2.0204047899565314e-01 -1.7951329882473761e+04 -4.7197300541976261e+01 3.7329790735263377e+03 1.8681241644294361e-01 4.9137846402072478e+02 -3.1525301177589677e+03 
      </Row>
      <Row Index="131">
        2.4602205279964540e-02 -3.0682423612966192e-02 -7.8204328005085699e-02 -5.2588909712267040e-02 -4.4699374685477355e-03 1.8221277197517338e-01 1.6368717902150820e+00 1.1025261215102500e-02 8.1269475177962215e-04 -8.1910526454438970e-03 2.6144654731706396e-01 5.3497993185374071e-03 -3.9609412638014874e-02 -6.6152191500883362e-03 4.3650408444815980e-01 -1.6743079990760634e-02 -2.4157296992052579e-01 -1.0021055941908408e-01 -1.6456341480648007e-02 -3.0242443042766354e-02 -1.7286514638286121e-03 2.0732519851708275e-01 -8.9936487537656262e-04 -6.0469921742469790e-03 2.2199198821908794e-01 2.5223962089430074e+00 -1.5812715865195059e-02 2.5581113903720976e-03 -1.2906391790395988e-03 -4.9428183963192041e-02 -8.5834543517648854e-03 2.8474255441466312e-02 1.1690398746863728e-02 -2.5293798462989798e+00 1.1546136295237375e-03 2.0202023374440614e-01 1.0118121461016205e-01 -3.3819895917140463e-02 3.7890485120357198e-02 1.1041672487979159e-03 -6.8397040662853215e-01 -6.5025921395847064e-03 -2.8285731871759978e-03 -2.4084009082116609e-01 6.6611275921968627e-01 -2.2090373469801257e-03 1.9682865035445252e-03 8.2315462755977453e-04 -2.3626533127912808e-01 4.2200379881251138e-02 3.7336700678167745e-02 -9.8214355828734057e-03 6.9167837512009100e-01 -3.5568908327039406e-02 -5.2901481714798138e-02 1.1410414434486738e-01 2.4868075816334567e-01 5.8385119950983722e-02 4.6858228105284283e-03 -9.2131963311567233e-01 2.4754344690763430e-02 3.5836885657436549e-03 3.3037954405426717e-01 -4.3217534330278795e-01 1.5020333059965196e-02 -2.3704706172811285e-04 5.7909255784377445e-04 3.9964987238728455e-01 5.1298196103743976e-02 -2.1362973559583054e-02 4.3893399975880598e-03 1.1079518619800375e+00 -1.2378399802552842e-02 -2.0002512232258596e-01 -2.4901870400379167e-02 3.5548154528099118e-02 4.1150197740044803e-02 1.2650760558822860e-02 -1.1319030964295962e-01 2.0432091887823134e-03 1.8105122266501850e-03 -2.6932472309731281e-01 -9.7963867544967798e-01 -1.5606177411910949e-03 6.6073001498856421e-04 -2.9589112753736213e-03 -5.1726901915276358e-01 -2.9151697990073444e-02 -2.6865412241193098e-02 1.4181769538321731e-02 6.6658688866308635e-01 3.6127836995092366e-03 3.5219950507553222e-01 6.5949860734319188e-02 6.8823853949652403e-02 -5.4318723840140137e-02 5.8116922576605390e-03 -9.9250079110788647e-02 1.4806440537130428e-02 6.6571267117789823e-03 3.8333058987814184e-01 -1.6622923623712325e+00 -2.7622930862499118e-02 -3.1389718181407122e-04 1.0126198980131562e-04 -3.0954840415779472e-01 -4.7167729626949040e-02 2.8569238812394815e-03 -2.3366027844895498e-03 3.6249754075834062e-01 7.5957286188838680e-02 -8.6291007886393345e-01 -3.4511577163593543e-02 -4.4404029355064267e-02 3.4152382556833061e-02 -2.2618213370157500e-02 -4.3769656118338673e-01 -4.7656945515794913e-03 6.8789244420399687e-03 5.4519141282685268e-01 -2.0049245365541895e+00 3.0972336811436185e-02 -4.8192030493502142e-03 -9.9726025547877272e-04 2.5170027320949728e-01 3.9288314944201375e-03 -1.9029873277204956e-02 5.1210040277872793e-02 -7.0819019133341499e-01 8.2111930870425454e-03 -5.3169237715316697e-01 1.1762174502972172e-01 4.0764567648943206e-03 3.2134104642087991e-02 1.3261513533205260e-02 -1.0403853218303993e+00 -1.6630199675601722e-02 -2.7477504978881007e-03 -2.7415881346792048e-01 -5.4138841480016708e-01 -1.1719339113085425e-03 2.0881064236105053e-03 -3.6542720611845199e-04 -3.4152757506603848e-01 -5.1865104533183853e-02 2.0207821915344856e-02 1.3051161811702627e-02 3.0532395043803717e-01 4.6455187771243800e-02 -3.4049892962502781e-01 1.1348849267593013e-01 -2.8855803293936333e-02 -6.1539223294285517e-02 4.8234644652254337e-04 1.2196121194980689e+00 7.0759047977440245e-03 -1.6084819572515113e-03 -6.1461020414734546e-01 -9.4827672025199661e-01 2.1142656907562681e-02 9.4024561534116402e-04 -4.8352932172922129e-04 -2.8071455620599362e-01 6.4752047488752851e-02 5.5339000774523278e-02 1.3758997631984356e-02 -1.1716453729800378e+00 -7.2519787953296458e-02 6.3268116099152394e-02 3.7609425383643029e-02 -1.1198369246029327e-01 -7.5067495731188955e-02 -3.3467652838728747e-03 4.6703600244602139e-01 -3.0103242652252310e-02 -1.0551421853383099e-02 -1.1266216115058691e-01 1.9578573322190329e+00 2.5341574333114736e-02 7.7686547469335283e-04 -1.9136359398125101e-03 -1.3925030429316809e-01 1.0525716777853689e-01 -1.8849539373572421e-02 -2.1238532518314860e-03 2.3060490592729623e+00 -6.7858220951189901e-02 1.4499104717744515e-01 4.6574037229030453e-02 -3.1498304836122148e-02 4.0698555275363174e-02 -1.8817457567162211e-03 9.4356416919572528e-02 -1.7268093594447259e-03 -5.1423418233668772e-03 5.0349144204206109e-02 3.5525120185182146e-01 3.7552213367152920e-02 1.4545459013685555e-03 -9.1248120411201031e-04 2.8468977886258229e-01 3.8520790265312632e-02 -2.2149136699942354e-02 2.6793059783287256e-02 -1.6496027757457021e+00 -4.7482008671793308e-02 5.7011664399608586e-01 6.6903879409654591e-03 1.4556393037082671e-02 -5.0351350964817354e-02 2.3757241656680705e-03 -2.8420625724264958e-01 5.7039402224599287e-02 -7.0656093940987791e-02 3.6312383182548746e-01 -1.4936281418981667e-01 2.4854644729045361e-01 1.9994054749176704e-02 -5.8796916349312788e-03 1.0834863866853421e+00 2.8585041663575006e-01 -1.3701443400933666e-01 8.8450433008678608e-02 1.2750032081308309e+00 -2.8297339246784559e-01 2.5088200182618881e-01 -1.7481935093946888e-01 3.1615187445534776e-01 -9.2762230461614012e-03 -2.1598228116259718e-03 6.7563687848381093e-01 7.7343067244061616e-03 2.0610017545924367e-04 2.3937077187691336e-02 -1.4890604194011153e-01 5.0629756386291703e-03 4.9550349694915587e-05 -5.9474196078247339e-03 -1.0055402953111908e-01 6.3997084398947149e-03 6.2878171169249986e-03 -6.2302399774708710e-04 -6.9785080291356749e-01 -2.4572745285456721e-02 -1.2205370036258500e-01 1.3977614335832214e-02 7.0913638247207533e-03 1.3765658328086372e-01 
      </Row>
      <Row Index="132">
        -1.8771253108600490e+01 -1.1142020208410486e-01 -2.6073344489932060e+02 -2.0486772266872322e-01 8.4036520617019050e-03 -1.4477620674297214e+00 -8.7250402368605137e+01 -9.4922019640216604e-01 -1.0136235690767159e-01 5.7979865224410787e-02 -2.3528166184085421e+01 4.0602591121569276e+00 -5.5658804806880653e+00 -2.1446597703470616e-01 5.0882722889889806e+01 1.0537509609945118e+01 -1.0881609939634800e+03 -2.6511838752412586e-02 4.6849224895471707e+01 1.8910606969147921e+00 5.5956585401872871e-02 -5.0207403716538101e+02 1.2844582903198898e-02 3.6943053823961236e-03 -1.7519666936248541e+01 -3.3594064602884464e+02 -1.1954033905640244e+00 -1.2326171241511474e-02 1.0351655531849246e-02 -1.3147687125085213e+01 2.7430678168311715e+00 -1.7726275040186010e+00 3.7785834521309880e-01 -5.2194731943681836e+02 2.0295481616631150e+00 -1.9146825834587216e+03 9.5901455884813913e-02 1.8236240117729398e+02 1.5950660384522052e+01 -1.9436165480328782e-03 -3.2769881507501577e+02 -8.7298847402962565e-02 8.1957812306427513e-02 -2.7994935222901404e+01 -6.5677314065396786e+02 -8.3098025321204947e+00 -7.6605140304764063e-03 -1.8007618769502187e-02 -1.4010559557238594e+01 1.1546233887784183e+01 1.1369038184231613e+01 -7.4388204150636739e-01 -3.8618874099454843e+02 1.2415239123287098e+00 1.1038648391962051e+03 3.8180475931767432e-02 -5.8354029495036229e+01 -1.0808771217270987e+01 1.4322678319513216e-01 -5.1156141360197216e+02 1.7824826536343608e-01 -6.9680866685672527e-02 3.0358445344492793e+01 1.0797716897539794e+02 1.8530991830630228e+00 -7.6740043864447216e-03 1.9705777232616128e-02 -8.1578270714083487e+00 1.5560150379140396e+01 -4.2110772253508912e+00 7.8296710063114006e-02 -3.6021947510267523e+02 1.7537992457413566e+01 -3.4148087589163333e+02 5.4930431968386983e-02 -8.5669081393688735e+00 -6.0465745884575881e+00 3.2430180689971166e-02 1.1335566359013319e+02 -1.3634379944051034e-02 1.1324138598661193e-01 -1.8211342004884500e+01 4.2763308206573129e+01 2.2930687053303700e+00 -3.5836287238907971e-02 1.6704111552030554e-02 -4.2581639086245559e+01 -9.4608594998717308e+00 -5.7386862728744745e+00 1.5140859866369283e-01 2.1101085793073617e+02 -1.1599065785761923e+01 3.7244898856664076e+02 -1.1217734691308578e-01 -7.8608472887426615e+01 1.6000893489050213e+01 -7.2208279971164302e-03 -6.6609407044947147e+01 1.2567956072962261e-01 -6.9627113953174558e-04 4.8446813524467871e+01 4.6957779198093340e+02 -4.8526462449081009e-01 8.6043036226328695e-03 -6.7444578780850861e-03 -1.3883940061554313e+01 -6.1100868061184883e+00 8.5253749857656658e-03 1.5940316056003212e-01 -1.2916009019315243e+02 1.3859077550820075e+01 1.9284646086394787e+01 -1.2914291641754971e-01 6.1085926009342074e+01 -1.9353532331297174e+00 -1.8738692695468664e-01 -9.6884642819765543e+02 1.0023294539723793e-01 3.9902320190776663e-03 5.1656079547014087e+01 2.2509296686949538e+03 -7.3195447498599151e+00 -2.3665813662229196e-03 -7.0326440421303003e-03 -2.4703642078071425e+01 3.0514669388066977e+00 2.0169176371418871e+00 1.9662111589059350e-01 -7.8032732510566711e+02 1.4408386690387488e+01 -4.3900618339220273e+02 4.0764572863736248e-03 2.2420169215702799e+02 -6.8734001488628564e+00 2.9535855479480233e-02 -6.2089755487442017e+02 -1.2378713437368327e-01 -8.9304172850044328e-03 -3.3242116094334051e+01 -1.8835874080657959e+01 -1.6893840488046408e+00 3.1964235152217683e-03 2.7736996435469771e-03 -6.9125544542446733e+01 -8.0810889936104289e+00 5.3269078789940227e-01 -2.5942427047993988e-02 -3.2006340643949807e+02 1.8625575429759920e+01 1.1648536810278893e+02 2.4738544883736058e-02 3.6910023968666792e+01 2.7441922714484810e+00 2.4008181341565887e-01 3.6080591446822848e+02 3.1953187824808653e-02 -1.3460269661416735e-01 -5.1639331512429429e+01 -7.5290134427809789e+02 5.5481183467398454e+00 -3.3974544015683512e-02 1.1742220539223113e-02 7.9986667381060803e+00 1.1941041797137899e+01 6.1923722393324692e+00 2.5589896537709356e+00 4.6287301891902462e+02 1.8256619804339262e+00 -6.4763973736204207e+01 3.1221189374361741e-01 2.0762963794037245e+02 1.7337305507047915e+01 -3.7695720121689785e-02 4.5163919850693395e+02 -1.6852364973648881e-01 -1.0198374921154668e-01 -1.3094879409420429e+01 3.2421135688319509e+01 -8.6002836962695017e-01 2.0349180951134620e-02 -1.6437165350817573e-02 -3.5267986124687184e+01 1.5147752312998671e+01 -3.1728357344595128e+00 -9.8425548685592112e-02 1.8680015813369209e+01 -1.6919048889562227e+01 -9.7571076809603355e+01 -1.3831038947395091e-01 5.4171096681631781e+01 -4.9000121159395302e+00 9.9802553905492891e-02 3.2299549601686749e+01 1.0987980165158404e-01 -1.0948436278205341e-01 9.0691398878603025e+01 6.8722945973261915e+01 8.9800959731924266e+00 -2.9925468977566420e-04 1.4735860891360399e-02 1.0723275961004509e+02 2.6107888846753589e+01 -5.6682457891095712e+00 1.2922511630138622e+00 2.2501178184555715e+02 -1.5609038044904374e+01 2.2003803067526087e+02 1.8738267765037522e-01 2.1582461722614244e+02 1.6780364783092882e+01 2.2431238781757061e+00 -1.2584104489863817e+02 6.3496052250088564e-01 -1.8970572992259542e+00 2.2251033139544029e+02 -2.9273478643132194e+01 5.1512618559331720e+01 -2.7037550163446311e-01 6.9462252374878242e-02 4.2545098284152414e+02 8.3997958892326636e+01 -3.5010930695661976e+01 2.0753452545143716e+01 -4.7000202776856264e+02 -1.2824534331798512e+02 -1.9179103148399383e+02 2.2503079215247102e+00 3.7305715470068969e+02 2.7735908963143876e+00 -3.1878399455876876e-03 -1.4909508789477269e+02 3.4812193481376097e-02 6.7826205110909383e-03 -1.9908291146849368e+00 2.8497888307925876e+02 -6.4285589063157644e+00 -2.9930487820815845e-02 6.1872675753842157e-02 4.3588994768290803e+00 6.5032681873113241e-01 7.1896415331333774e-01 5.3670678316907680e-03 3.3868168526731989e+02 -3.3607677541597116e+00 -1.7609551380160741e+02 3.0864551402820517e-02 -5.7108934950542846e+01 -2.7864710990795857e+02 
      </Row>
      <Row Index="133">
        1.6246161726158022e+01 7.0237135366824077e-04 2.5320387657731771e+01 5.8557437336048679e-03 -1.7230261268679214e-03 3.2163626672117971e+01 6.0478622838854790e+00 -6.7291386595081804e-01 2.3051416948727166e-01 -3.4127904192047254e-02 1.0052929748242605e+01 4.0329149039462209e-01 7.8037404466886073e-01 9.9520575580754667e-02 -3.1006322887765805e+02 4.3417977934586816e-01 1.2051411391049623e+02 -1.6681381898706604e-02 -7.3290972193935886e+00 -2.1217747321381466e+01 -1.2498123731802480e-02 2.1639163106447086e+01 1.9214553897654696e-02 5.8681638478219611e-04 2.9272981042973697e+01 -5.5946223818900762e+00 -2.7332417550496757e-02 1.8121247859085088e-02 -2.6586726810648997e-03 -3.6500602277480994e+00 -4.0327765344409272e-01 -8.6514877565059578e-01 5.4156714026248665e-02 -5.0211493215290830e+01 -8.8184353726683185e-01 1.0564248550683260e+02 3.0641356047908630e-02 -3.8453654294774054e+01 2.6410516980446118e+01 2.2572842056206355e-02 1.4642288289313683e+01 -3.9951109927187645e-03 -1.8588929110592289e-02 -2.5678401939338073e+01 -8.1839968182146549e+01 -2.2889348060150954e+00 -4.9205396653917433e-03 6.9845381767663639e-04 2.8475873633869924e+00 -1.5633248754893430e+00 -6.6101307704229839e-01 5.6253352123803779e-02 -1.5386625575067592e+02 -2.7793277462243942e+00 -4.4812448215670884e+01 1.8429912104465984e-02 6.4881686188455205e+00 2.9587687701001414e+01 -1.3689643053112377e-02 4.1610210141399875e+01 -1.2730715589611918e-02 9.7192484743899854e-03 3.6226394763216376e+00 1.8105329280253500e+01 -8.7140688671206590e-01 2.7071307366099973e-04 -8.2452677126809704e-04 7.5114778558840616e+00 -5.9343987282773014e-01 2.3611330780840944e-01 -5.5998599951294636e-02 -2.7498308516248400e+01 2.2006742193434548e-01 8.3985366451088339e+01 -1.0200978349530487e-02 9.8549445637658506e-01 3.3723931525219086e+01 -1.5903276639505748e-02 1.1765093001537025e+01 -2.2012879267094831e-02 -4.2742100461197197e-02 -8.2453395996708423e+00 8.8395276265218854e+00 1.8409651144884265e+00 4.3736288947968660e-02 -6.5981436437567709e-03 -1.6538870346019394e+01 1.1719283249694854e+00 2.2843994049617322e+00 -1.4236636924715640e-01 2.1499205547187893e+02 2.1886259375605732e-01 -3.8313528024242260e+01 2.9526015866167654e-02 7.5641511143185198e+00 -3.5917132567548833e+01 1.4823580013967330e-02 -1.0630359483882785e+01 4.8717339134327631e-03 -1.5034828149168789e-02 2.2706175146682654e+01 2.5013645501807332e+01 2.1853118464332510e+00 1.6161780594444508e-02 -2.6327839270834374e-04 -4.1986180881503969e+00 1.0899470492149703e+00 -1.1959213812951930e-01 1.7581881046430681e-01 -6.8771611949428916e+01 8.6422595541807823e-01 -7.5479058453813195e+01 -1.1597362492011598e-02 -1.6878436502069235e+01 3.2183348953430141e+01 6.1153775695651858e-03 8.7986523262616288e+01 -6.1823696277230056e-02 -7.7957939287216504e-03 1.9904349507123698e+01 4.4625288766708884e+01 -1.4678334799179993e+00 -2.0081656029897969e-02 -9.5793385228707230e-04 2.0566554826946231e+00 -2.3485230843652971e-01 2.1081465612633110e-01 -4.1422258878810680e-02 2.1766399878449738e+02 -7.0453533492036513e-01 3.8799812854343713e+01 3.2134104566523547e-02 -6.8734001639240887e+00 2.0011635022611244e+01 6.3434374151256634e-03 6.5086996376514435e+01 7.7837745008111610e-03 -2.2757798673604113e-03 -2.3049894555297215e+00 -3.4844985902309418e+00 7.3015868700167630e-02 8.2599213303214160e-03 -1.6195417576115329e-03 9.9740255886572413e+00 1.6370545633728155e+00 -1.9387557629288577e-01 -8.8954006976564415e-02 1.5221061422186904e+02 -1.7916413373313844e-01 -2.3137576159089804e+01 3.9032651715749073e-02 -6.7021664038766176e+00 -4.3964327095199259e+01 -1.7475735519529054e-02 2.7670287980232885e+01 2.5371435313791605e-02 2.3174342105080299e-02 -4.2339912968093103e+01 -1.2537893614822387e+02 1.2811641698071301e+00 2.3872723985320834e-03 4.2236623652067307e-03 -2.0536818705063915e+00 -1.1945653734586767e+00 -1.5654739047443804e+00 4.1538214031647758e-01 1.0264104769087862e+02 -9.4547333595124361e-01 -2.3750837893458083e+01 2.6900532913724413e-02 -2.8801178519542429e+01 -4.8615726489171202e+01 2.5187833477181704e-03 -6.5624403066721854e+01 3.1666562955828606e-03 3.0005357672116883e-02 -1.6853174010488324e+01 9.2499545865055794e+01 5.4018355668127338e-01 2.9293016746215050e-03 2.5894436461802251e-04 1.1218379396089091e+00 -1.8412466155824223e+00 -5.4384015799392227e-01 1.5804286621976024e-01 1.3518970199323343e+02 -4.3494922413313941e-01 2.7844640401606380e+01 2.6924065387552012e-02 5.5376543826818114e+00 2.1016490724714536e+01 -1.9850785282927608e-02 -4.4333054825962662e+01 -6.5867340402697020e-03 6.5491785180166020e-03 -9.8677276144922601e+00 5.4122743711435859e+01 1.6750918358173215e+00 -6.3541637030237880e-05 9.7459033101761057e-04 -8.7857136691658191e+00 -4.9895042193569950e-01 -2.3779699274130195e-01 -2.2262226488974461e-03 1.9301479390477957e+02 -1.1112309873979207e+00 -5.5667117154539611e+01 -1.1005186274125993e-03 -3.5813590024539735e+01 -7.1859610686308429e+01 -1.6766314616299779e-01 1.9658170288730272e+01 2.1152455856622068e-01 3.4036852075987400e-01 -5.5631852118139165e+01 -1.3765561260131975e+01 1.2936729977473510e+01 2.7992802938917605e-01 7.2235957668126100e-02 2.3400735110313278e+00 2.9874774796052606e-03 -5.6525721401778828e+00 4.1383615186214193e+00 6.6737569030431231e+01 2.5172321874737627e+00 7.1899351042440230e+01 1.2777362216903354e-01 -3.8138831032278432e+01 -1.9043350881140114e+01 1.6155235652136031e-03 -4.5517861281019151e+01 -7.6151757740183768e-04 -1.0391260984217302e-03 5.1612349772627475e-01 -4.5092266422398311e+01 -8.6617428085743398e-01 4.4612478774811087e-02 -1.0941161559686821e-02 -1.2539372321529636e+00 -5.5055159223550321e-01 -2.1037698300608609e-01 1.6557652406985640e-03 -8.7146089339271526e+01 1.7306970529102073e-02 7.3134260748380711e+01 6.8014520348364214e-03 6.9404692944292607e+00 4.5959495589461113e+01 
      </Row>
      <Row Index="134">
        9.4926013208675997e-02 -7.3818433477239687e-01 -1.4428069951245561e+00 1.6427760170731887e-03 4.4900865696845482e-02 -1.6917371500312584e-01 1.7679716442944482e-01 -2.0382019818850239e-02 -7.7183990284264842e-02 -4.2519994851934140e-02 -1.4708036809679470e-02 -5.1365107033052482e-01 -1.1528892274327518e-02 2.0268509247230782e-02 8.2283383300044477e-01 1.4670111693703802e-02 -2.4585313259158283e+00 2.8371958355037918e-03 -1.6398181958811620e-01 -5.5140741627837997e-02 -5.9890922924978440e-02 4.4308993741287850e+00 -1.4196972574289646e-03 -3.5929939725274807e-02 -3.5889305162709206e-01 -2.0522044400695449e-01 -2.6959733480907744e-02 -3.6182311541566037e-03 -6.2229888451375004e-03 -2.5414060740911992e-01 -4.1662058881047415e-01 -1.5027802260192402e-04 1.9780464395381614e-02 1.6788099923578557e+00 -3.5342830762601807e-02 2.9973100450370112e+00 -8.5144276951609754e-04 1.7548151397951267e-01 2.6446539237440447e-02 -7.6422125324819845e-02 -1.4637255522523702e+00 -1.5301510405407726e-03 -5.4374265551686563e-02 1.3433054999768501e-01 1.3331847620429471e-01 1.0498218962448305e-02 2.1999362937270561e-03 -5.5721129829322535e-04 6.2997157569043338e-02 5.1711909257392108e-01 -7.5485404347546137e-03 -5.6273896172299942e-02 4.8797760632805876e-01 -4.0152467033929273e-02 -3.7580694610078353e+00 2.9421310238824105e-03 1.1003117240761640e-01 3.0554345249242942e-02 8.1380875528356711e-02 3.9074151795648504e-01 -4.2752865768544979e-03 -3.2512814249062716e-03 7.5687700601702090e-01 -1.3448481615705532e+00 3.8297534391404042e-02 -1.1700032151766848e-03 1.7112967610151131e-03 -1.5466437904866992e-01 2.2431185882942373e-01 2.1885291721730482e-03 1.2394990607514700e-02 -9.7902802843546510e-01 -3.4506054536961983e-02 9.8752025800786214e-01 -3.9678670027853968e-04 -3.9849612682479219e-02 -1.7904724096240443e-02 2.0766003158231072e-01 3.5311701928731054e-01 -3.9463566948043649e-03 -3.0142257242729009e-02 -2.5700173509551405e-01 1.4632932795939269e-01 -7.4936263765152944e-03 -2.6861053321256989e-02 -1.7595310317175539e-02 -1.0374638627263266e-01 -3.4313448784087086e-01 6.9451834292522108e-03 6.7774326417946895e-02 1.1366460117146793e-01 7.6891079625056591e-03 2.0044747456722689e+00 -1.1278197539716928e-03 -4.6197755160392262e-02 -3.1292938043179674e-02 1.4257415151816666e-01 1.0950620654621162e+00 -3.3984061531668885e-03 2.2785835715559699e-03 9.8314538322938461e-02 5.7879611933435626e-01 -1.0863093716722005e-02 -4.1814430880888764e-03 -2.5310390091934920e-03 2.8557749684114242e-01 -5.4920935884183564e-01 2.2593184375068631e-02 -1.3462580818057290e-02 3.1589551793294959e+00 1.0728713795515432e-01 -1.0797391506785061e+00 -9.9476449557300839e-04 -8.2237780705327168e-02 3.4631710946058547e-02 -6.8214881771674041e-01 4.2053968411348377e+00 3.4970082223360066e-03 -3.2597280810957585e-02 1.5678624749125447e-01 4.6530814451187457e+00 4.9445396147085319e-02 7.3823330937941578e-03 5.8607517862074038e-03 1.6621746839479101e-01 -5.5612833825762209e-02 -4.0634576358804964e-02 9.0302674574502362e-02 1.7352493797079660e-01 -5.9768534947650664e-03 -1.9599281161092676e+00 1.3261513535187675e-02 2.9535855733485050e-02 6.3434374280575412e-03 4.6040358232437484e-01 -4.8547100685536861e+00 1.6978668405529824e-03 8.3874124527085810e-03 -5.4265981902972271e-01 1.1764542451128364e+00 -3.5629644083201129e-02 4.4335765116646133e-03 2.4061581246615903e-03 -6.8310707859745889e-01 -5.6695602845552928e-01 2.3230700993606565e-02 -1.6460224098864273e-03 -2.0014917018970664e+00 5.8577114063155022e-02 4.2235473159234971e-01 -8.6984371010897718e-04 -9.4463802270183805e-03 -1.7977882559201283e-02 2.4197182249683601e-02 4.5986138073657514e+00 -1.2709701385318645e-03 -4.4299254597204810e-02 4.1060338396963658e-02 -8.6955991755581241e-01 -1.0732698084051931e-02 8.1329901454496312e-03 -3.5841456902975435e-03 2.9401837596348612e-01 4.8102701080243104e-01 1.1356945379656924e-03 1.6345816089794810e-02 1.0358551941681071e-01 -1.2684899873662517e-01 5.0317345954317716e-01 1.7796932228065256e-03 2.2252048932724477e-02 -5.2450798047904978e-02 -1.3111544748394230e-01 5.9698084710681165e-01 2.8655466255728991e-03 5.1941573832508622e-02 -1.0720977916757057e-01 2.0908358552244266e-01 -1.8623857236362729e-02 4.6030083048080265e-03 -7.0850103198224533e-03 3.2085475214680770e-01 9.5002987306376840e-01 -1.6128568658437648e-02 1.1079857076932403e-02 -8.6354330096348519e-01 -3.4658992582688897e-02 -1.5239404083632593e+00 6.9650985836949494e-04 7.3569361291450974e-02 5.6330027603170379e-02 -4.6213979396855405e-02 7.3493325001859544e-01 -2.6327265684343826e-03 -4.1853947637292652e-02 8.1586128281455483e-01 -9.1764097270312184e-01 4.8235524110046279e-03 2.9339757840606776e-03 3.6924607333673502e-03 3.1537737819104827e-01 -2.8392052653988253e-03 -3.2036553547844293e-02 1.0091732266915876e-01 -1.7014012033063075e-01 -9.3276321593811717e-02 -3.0864714307568120e-01 -4.3677591552139386e-03 -1.0844835436546418e-01 5.0054126757076656e-02 -6.9730997266404152e-02 -7.2523629772989295e-01 -8.4159370751887216e-03 -1.8613985261953084e-01 2.2201135128636125e+00 4.9411974131280445e-01 -1.0745497097800150e-01 -1.4910035518533416e-02 1.9865218689708780e-02 2.1541396430700335e+00 9.7101671465798134e-01 -1.4071897200435785e-01 1.8994378995446404e-01 -1.2011298102216634e+00 -2.5967591692319303e-01 -8.4692197433904148e-01 9.1995421325545834e-03 -1.8361474197257621e-01 -2.8510863890777893e-02 -2.3126260636045188e-02 2.5125918149329358e+00 -7.8090866330292222e-04 -6.3624826563187051e-03 -1.1826952565552773e-02 1.1468797699971174e+00 -2.8405719302706051e-02 -1.5342773004730470e-02 -2.3749627664422943e-02 8.2986677829027244e-03 8.9078766839651824e-02 -5.3428739545885451e-03 4.0081381300689969e-03 8.7327404101839079e-01 -3.3171767617615422e-02 9.1721571670998969e-01 7.1429951673786436e-04 3.7530502186975179e-02 -1.0856119058484495e+00 
      </Row>
      <Row Index="135">
        1.7193629453622270e+02 3.9641419548279373e+00 -7.3470513544559479e+04 1.9145007117185742e+00 1.0846035071153892e+00 -1.3102615482807159e+03 -9.8134287014007568e+03 -3.0882218756200746e+02 2.4940808446605160e+00 -3.9040531125501730e+00 -2.1060857669264078e+03 -5.2551400661468506e+00 -2.8773512512445450e+01 -7.3173717968165874e+00 4.6029764711104890e+03 3.0264829987287521e+02 1.7697408067703247e+04 -7.9707562457770109e-02 -7.3399248391389847e+02 3.8541833743453026e+01 1.8500894417520612e+00 1.8105305033564568e+04 8.3393502864055336e-03 -1.4572185156284831e+00 -3.1575355820655823e+03 -7.5764158881753683e+03 -2.4566549384593964e+02 -9.7881330410018563e-02 -6.0346440781722777e-01 -1.9059710579819512e+02 -8.2181149721145630e-01 2.8493271172046661e+01 -8.6954902717843652e-01 4.1236595911979675e+03 2.5546408131718636e+02 -2.1820943117141724e+02 -3.4912183890119195e+00 -1.9057312282179828e+03 -1.0020935425907373e+02 -5.2234730264171958e-01 -8.3029252603459521e+04 1.6291103546973318e-01 -1.2575635453686118e-02 6.4526349067687988e+02 -7.6757163543701172e+03 2.7200282317181274e+02 -2.0814223942579702e-02 -1.0633778860210441e-01 1.6848026469200850e+03 1.0578504911065102e+02 3.5304426036775112e+01 2.6051562326028943e-01 1.4491189494907856e+04 3.0471133314207788e+02 1.1252586743831635e+03 -3.7501148090232164e+00 1.3756221928298473e+03 1.8664688696339726e+02 -1.4178350686561316e+00 -8.0768010616660118e+04 -1.0554804390994832e+00 -1.8878832023801806e-01 -3.6416100668907166e+02 -6.5186520559787750e+03 -3.9488941568136215e+02 2.3389498718461255e-01 -1.0233783595322166e-01 -2.3161810725935338e+03 2.4423688595741987e+02 1.6162650521844625e+01 -1.8625752084190026e+00 9.8471310031272278e+03 1.8145850013592280e+02 -6.3980063382387161e+03 -1.0228610802441835e+00 1.0166767879190729e+02 1.2473888508975506e+01 -5.7593623298453167e-01 2.1818106252670288e+04 -8.1623692135326564e-01 -1.5593966851447476e+00 1.3871170363686979e+03 3.1176103100776672e+03 2.2593573033809662e+00 5.5147895170375705e-01 -9.8037578053481411e-01 1.9302304569371045e+03 -1.5031000781059265e+02 -1.9272191680967808e+01 -9.0579828806221485e-01 -9.7062386982528114e+03 4.8963088899850845e+01 -1.3630204606741667e+04 -1.8330352146876976e+00 4.4490021276473999e+02 -6.4529036190360785e+01 -3.0158420209772885e-02 -1.7266923623085022e+03 1.5934259071946144e-01 -1.0022187695140019e+00 -4.2824654055535793e+03 -2.6725284088030457e+03 -2.2185434745810926e+02 1.2455709930509329e-01 -7.0731267507653683e-02 2.1191407318115234e+03 -8.9781745135784149e+01 -2.7324520152062178e+01 2.0669052044395357e+00 -4.2872943363189697e+03 -4.2970722451061010e+02 -2.0661750610351562e+04 -2.9066039342433214e-01 -9.3956083798408508e+02 -7.0146581120789051e+00 6.0160229725297540e+00 -1.0834616445419542e+05 -6.3882027653744444e-01 -7.7068153672735207e-01 -3.5816208365559578e+03 -2.6499567986426890e+04 1.5994280290894676e+02 -2.4210442238836549e-01 -1.5519012532035856e-01 -1.3892391540613025e+03 2.4519944965839386e+01 1.7991702260216698e+01 -6.8539415951818228e-01 1.1701012680053711e+04 2.7786649242439307e+02 1.0043353406476417e+04 -1.0403852680174168e+00 -6.2089755475614220e+02 6.5086997915990651e+01 -4.8547100964933634e+00 6.9123017584228516e+05 -4.1220651149858384e-01 3.4277109314759313e+00 4.9385110580027103e+03 -2.5452673004150391e+04 -2.2511307627707720e+02 2.2632348820513160e-01 4.3995887275941459e-01 1.4367195440828800e+03 -8.2500114342750621e+01 6.3863048490524648e+01 -4.8946475833654404e+00 5.0211093964874744e+03 -3.6692569911479950e+01 -5.2021110095977783e+03 -2.7596123054781900e+00 5.8190515041351318e+00 3.8942110579620731e+01 -1.9507022639302301e+00 1.2104742157456420e+05 -2.3826437942328615e+00 1.8697705264139295e+00 3.5410335619163698e+03 4.5874940277355272e+04 5.6885018465640826e+02 -4.1970498770287279e-01 4.9475144723439030e-01 2.0765670903659047e+03 2.1201780410136689e+02 1.3450960735170173e+02 -1.7553667089253089e+01 -1.7225376713573933e+04 6.0217735290462633e+02 -1.0029125827550888e+03 -5.6193601335603001e+00 -1.3916613085075116e+03 -1.1304414753790363e+02 -4.1732441218976818e-01 1.3148221562965613e+05 9.9505676968056367e-01 2.3088243942093936e+00 4.9630288971596920e+03 -5.9841042096344536e+03 1.8337003174651329e+02 -3.1026783106439859e-01 7.8689925176670450e-02 2.4555455687168142e+03 1.8186608231714393e+02 -8.3523865343663545e+01 -1.7831167400428711e+00 6.8221806625199315e+03 8.6084831621577564e+01 -8.2861545100829680e+03 -2.5387052586812828e+00 7.2655901147487612e+01 2.9014049125141088e+02 -3.2447255505405259e-01 5.0442359621358570e+04 5.0271278148070431e-01 1.5873502329996951e+00 1.3726376792981857e+03 -1.3020790907620390e+04 -1.7386733715847180e+02 -2.1559848491194500e-01 2.3585763525072143e-01 -1.0395107031912573e+03 9.9295128601645757e+01 9.3612104240506255e+01 -1.1333510610956386e+01 -1.3990894178813938e+04 6.7720735233667301e+02 -1.1162531571502723e+03 -1.6277596111865211e+00 -1.5615988277196884e+03 9.6179678493242227e+02 -2.2713699772441611e+01 -4.8990306969129626e+04 -1.8626556732317191e+01 2.9293214925774869e+01 1.9308812566965018e+04 -9.1232783984701746e+02 2.3455864562479258e+02 -2.0876970938181856e+00 7.6629755361325280e+00 2.0356511921253623e+03 1.4741783086678233e+03 1.9484231514413830e+02 -1.7359079096085588e+02 -8.8832669846980207e+02 1.2488500797419524e+03 7.8884004987375920e+02 -4.6128868239832087e+01 -1.2836810633737032e+03 5.3880210631950476e+01 8.0041860914644547e-02 1.1871037815528514e+05 -3.6938198157664387e-01 -5.2097564266752938e-02 -5.5022906269799546e+02 2.9458694523889997e+04 -3.2556163368248440e+02 2.5978984481682854e-01 -2.8813034410990710e+00 6.1006159839203383e+02 1.7597969233069882e+01 1.0164222536488706e+01 -1.5852699462529329e-01 -1.1197920661519564e+04 2.7723893341033340e+02 -2.7149173769557383e+03 -1.0034416798509582e+00 6.3488857269953360e+02 -2.9129225362372679e+04 
      </Row>
      <Row Index="136">
        8.9158618235247976e-03 -2.4934758904730521e-02 2.3884189242130560e-01 5.2064879404949105e-01 4.2490381640271913e-02 -1.2289835911690261e-01 -5.4204459417405815e-01 -1.3996720496973064e-03 9.3618590097608451e-04 -7.8166069517166092e-02 -4.9568517234679277e-01 -1.8786604423212339e-02 -9.9185026448509461e-03 -1.1771694347759487e-02 -1.6526676824792315e+00 -3.6717887524993387e-02 -6.5871771647744026e-01 4.9877543624479714e-02 -1.4450915151414279e-02 -1.2753614035361238e-02 -5.7684855369566357e-03 1.7243883747717064e+00 1.3124302763097334e-01 -2.3172771619938110e-02 -2.1125887816629074e-01 -6.3322615240214475e-01 -1.4965941690121554e-02 7.5755756217921189e-04 -4.6512637120130207e-04 1.2899144471886337e-01 3.5839900208657127e-02 -3.2636554430812481e-02 1.8736190758948945e-03 4.8337695806293368e-01 -5.2306353695996677e-03 8.3636533249318745e-01 -6.8457999184563079e-02 -2.6554854242145054e-01 6.6363604133172771e-03 -1.1254021959360927e-02 -8.6384387685052411e-02 1.4182954629241423e-01 -3.9096676008678333e-02 4.0466537588997653e-02 2.0809555537925917e-01 -1.8473850270420821e-02 2.1610497903620796e-03 4.5519381601806866e-03 2.8118719142713644e-01 -1.0906678445286389e-01 3.7163818481673161e-02 -2.5792794686448128e-02 -1.1659318838356825e+00 3.2826933449702889e-02 -1.2551227492679118e-01 -5.9217111555008972e-02 -8.1315411571694085e-03 3.3681703090040926e-02 1.1531387473976168e-02 8.0916275308300101e-01 -4.4851441208242032e-01 -7.6191226871057133e-03 -1.9789713615887194e-01 2.6034338190868311e-02 -5.6990996933507176e-02 -3.2550938794802219e-03 -1.6335084326246776e-02 -1.3554841813029572e-02 -7.0167311770308771e-02 -1.2161566302782312e-02 -2.0963791015954386e-02 -1.1957820981145506e-01 -3.9491931167362493e-02 1.3506297496251705e+00 -5.3543500480035533e-05 3.4682038406309790e-02 5.4417316160042972e-02 2.2322495332392500e-03 -3.8790940236594906e-02 -3.3456840129861720e-02 -7.2142984060184601e-02 -6.2461394543013249e-02 4.3293978340750527e-01 1.0309138428774567e-02 8.7364202066800289e-04 -1.9466025805322640e-02 -1.3675787412644524e-02 8.1534441430960669e-02 1.9933405602294840e-03 -6.9176787113187643e-03 -1.2929632263424848e+00 -8.4438159781541344e-03 -7.9568966527496343e-01 -5.2017833796925927e-02 1.2828072555316794e-01 -3.8981775981680400e-02 1.0667365533567716e-02 3.3798611106840326e-01 -2.6942528651619679e-01 -1.6338009922432617e-02 -5.2148212196544108e-01 8.1768876027468629e-01 -6.0464008518654744e-03 2.1716628491438850e-04 -9.2234105605190075e-03 4.5908200403027877e-01 6.5645362555201814e-02 -2.1255861706793056e-02 -2.7336629623640196e-02 8.5155243938697822e-01 -4.3744502752780079e-02 -2.0469271889487572e-01 8.3567374483743961e-03 -1.6096264864938803e-01 3.1676910152919291e-02 -1.7725571460065370e-02 2.5923850486009563e+00 -1.5868939118058975e-01 -2.7501417532584532e-03 -1.5913515356812979e-01 3.4401240122808474e-01 1.0688888278336181e-02 -5.0834477970724927e-04 -5.6159346348670933e-03 1.3214784689303949e-01 -2.4021812654794417e-02 4.5745525498731010e-02 -1.0959332054239601e-02 -6.5267403609641406e-01 -3.3688086193834788e-02 3.3588797256263376e+00 -1.6630199675597770e-02 -1.2378713431784671e-01 7.7837744844295731e-03 1.6978668409124431e-03 -4.1220650106697576e-01 4.8869009864092605e-01 1.9756529944197486e-02 3.3915775860648978e-01 -2.9907099931733683e-01 -3.9255672952194232e-03 -1.2307333881027777e-03 4.5794551700048371e-03 -5.7657285631265154e-02 9.9063370207670837e-02 6.4567185142985761e-04 1.7528279762974108e-02 -1.2957397688009564e-01 -4.4750642822037889e-02 4.1498446208315727e+00 -7.4638933323764242e-02 5.4701653959909891e-04 -3.4518843943082127e-02 2.3647893176254584e-03 1.2657620650487011e+00 -8.2574664726945635e-02 -2.6037361971470996e-02 3.9095109420010865e-01 2.2248584833945761e-02 1.7895440227081255e-02 1.0395158223886571e-03 -4.8160109632851850e-03 3.2823355937712440e-01 -8.2221106648198372e-02 1.6095157656676573e-02 -9.7161900097329380e-03 1.3425519578019873e+00 3.3593817986316166e-02 4.2247672601882869e-01 -3.5544980307067028e-02 -1.8232990405950389e-01 -4.2335269348338811e-02 -4.8529736204245909e-02 -5.7552245193445728e-01 5.3549379241311168e-01 6.6409960022188172e-02 1.5841394714853152e-01 -1.2104538088719785e+00 2.2593053034658042e-02 7.4343712075692519e-04 1.0809292806772021e-02 2.7591532230648053e-01 -1.9667090406611931e-01 -7.1260814887719182e-03 6.8291196583367408e-02 4.4104885169674546e-01 -2.7098833934182998e-02 -1.9892435696609851e+00 1.5231710397882278e-02 -1.8268863208180974e-01 5.8909305339804874e-05 -1.2349953818494602e-02 -1.7790313583309825e-01 -6.7333823338045079e-02 -9.8687985751919789e-03 1.4513359667461301e-01 -4.0412198894867402e-01 3.8646655088410142e-03 2.3754278535086958e-03 1.1259964467947867e-02 5.6154311353731223e-02 6.6694096147037030e-02 2.8792958746550745e-03 1.0873109276700441e-01 2.0729631229590844e+00 7.6382669381620083e-02 -2.5872256482927813e+00 1.2601053108777190e-02 -2.6469104459403070e-01 -4.1604771311471112e-02 -1.7507596507823209e-01 2.3451263580376303e-02 -8.2493740790925885e-01 9.9696678414975509e-02 6.5084439242696135e-01 1.7753831200307957e-01 7.8958617503462669e-02 1.8603037630754757e-02 1.4289348106536184e-01 3.1515213390657770e-02 -1.4460322039703510e-01 -4.2096444002563016e-02 3.2839011011040053e-01 2.4821996061714602e-01 1.8671400948490546e-01 1.4690370815600784e+00 1.1994292039867582e-01 -1.0332130269023434e+00 -6.9774436726480760e-03 -7.4289636874327793e-04 6.4778128924160328e-01 -7.2575333770668854e-02 -3.8915709049023753e-03 -1.8739216766988420e-02 -1.2006423937123404e-02 -1.3626726726934877e-02 -1.2838958543787808e-03 -3.2157037582033407e-02 7.7104005261352304e-02 -1.3313978591429354e-02 -4.4427136071253093e-03 -2.5509625180364197e-04 -4.3274159910225762e-01 -3.5516188099106172e-03 1.3337156799370717e+00 -1.6946051093724847e-02 4.4414890527904927e-02 7.8061899995843120e-02 
      </Row>
      <Row Index="137">
        1.0121095958425919e-02 -9.2001026885272008e-02 1.7727377580013126e-01 3.5604722687837764e-02 1.5165176146316606e-01 -1.4682908276517992e-01 -2.9779765612329356e-01 -2.9261193005897468e-02 -1.0615117898523940e-02 -1.4373854330202551e-02 1.1458622551162989e-01 9.3257522221392719e-02 1.0399666394732776e-02 -7.7295699699035936e-02 1.2576071748087685e+00 7.2681018355069682e-03 -2.6921512820990756e-01 4.2582766492358815e-02 -7.8560861612459121e-02 -1.6591139240063058e-02 -1.4158563156613013e-02 -1.8062067501523416e+00 4.2425371882295337e-03 -1.5455520992052385e-01 1.4392196526750922e-01 -5.2411190162865751e-01 -3.7836226350918878e-02 1.4988020431943028e-03 2.8897262797649148e-03 1.6134892551579583e-01 4.9137730165966786e-02 -1.5362344583991216e-02 5.9452681735137958e-02 1.0814541030485998e+00 5.5004460886266315e-02 -6.8549999265815131e-01 -5.6333199194916972e-02 1.2712864535514351e-01 -2.8122439099320218e-02 -2.7123371746501590e-02 5.1645864229272220e-01 1.4611973310941551e-02 -2.9058215722565706e-01 1.1574325884794234e-01 -6.6316950731561519e-01 1.4732214430843708e-02 5.2500187313047064e-03 2.5966084306836557e-03 -1.7135393064199889e-01 -2.8077552111426485e-02 -1.9703660999994099e-02 -4.5645875692770232e-02 1.1713868759707111e+00 -3.7538261475895673e-03 9.8708445160445990e-01 -4.1658624007265388e-02 5.3153822075728385e-02 -6.6875238705961237e-03 4.4491358813019133e-03 -2.2944334093335783e-01 -2.2481639143798304e-02 -7.0534800867445180e-02 3.9836031283630291e-01 -8.7632092529020156e-01 -4.0643548937623564e-02 1.4846866873705622e-03 -2.5973331073014805e-05 4.3365036781513483e-01 -4.1348287550590612e-02 3.0807631435152416e-03 3.0466474042457392e-02 3.3084755323880444e-02 6.2224311093217466e-04 2.9221310942302807e+00 1.3705592793030519e-02 -1.2799014382402163e-02 -1.0500329846649947e-02 -4.6392950097811081e-03 -5.6424907292239368e-01 7.7014002617374899e-03 -4.6472010116011742e-01 -8.8125389532592635e-02 2.4253759560087929e-01 1.1828396860835255e-02 4.7754427520985132e-03 3.8163699526658768e-03 -2.0256707940893648e-01 -6.2233106698840857e-02 5.0819375982200654e-02 1.2540684093654875e-01 -1.5244503531026456e+00 4.2270696062587376e-02 2.4551082249290630e+00 -2.6625999765055752e-02 9.3523107861983590e-02 2.3771582955305348e-03 1.6341382780916902e-02 2.8157551481854171e-01 -1.2464117208473624e-02 -1.2233421369606035e-01 1.1695692223383958e-01 1.4531409757773872e-01 1.3120224797944502e-02 2.9136404796883397e-03 1.4273681155154705e-03 -3.4123632356204325e-01 6.4454765133632463e-02 4.6443511741927068e-03 -3.3174408533440669e-03 6.3169713068054989e-01 -2.1387814587797038e-02 2.7391857148322742e+00 1.7794880434962579e-02 1.8153054796130164e-01 -5.5644153454466050e-03 -9.2365874805345527e-02 -1.5653489487817751e+00 -8.9277527629896269e-03 -3.4609122449786867e-02 -2.6836728802027210e-01 1.2025737914179953e+00 -1.6990350155116296e-02 2.6827299772004265e-03 2.3844661070784928e-03 -1.6100538982621515e-01 2.9500840067612444e-02 1.4986753811449205e-02 1.7478989737128359e-02 6.7367040095268749e-01 2.2034569667241044e-02 -2.9900322263975454e-01 -2.7477504960486954e-03 -8.9304170798243376e-03 -2.2757798448083122e-03 8.3874124525209481e-03 3.4277109531685710e+00 1.9756529943831147e-02 3.7165926956301815e-01 4.9956125861081091e-01 -1.2876252671703696e+00 -8.8218465591580753e-03 5.6705908277463156e-03 3.4659436467154373e-03 7.5801649889217515e-01 1.0750005134119646e-01 -4.3580593894406189e-02 -7.6797751853519003e-04 -5.8944025002347189e-02 2.0457370588701451e-02 9.6223840583115816e-01 -5.6415920055021995e-02 3.1036663713166490e-03 4.2888138993676383e-03 -1.3907405495886763e-02 -2.6338561575434865e+00 -4.2447011590749989e-03 -1.7011272680060202e-01 6.6585592108966973e-02 1.2806738680854579e-01 7.6204946490990674e-02 4.7080191293236984e-03 2.3131275623569552e-03 -2.5102407307786401e-01 1.0016441263198672e-02 -4.7794810747823713e-02 4.0558129464660066e-02 -4.0538487388221256e-01 1.6376451237728133e-02 1.7524455447419314e+00 -2.6165722043228250e-02 2.0344008326260243e-01 -4.7651724869246515e-04 1.3081077413910149e-02 -9.2749860017612651e-02 3.0194833127628669e-02 3.2234887965303621e-01 -2.1480054478105814e-01 -5.5734299458864367e-01 1.9797206984259144e-02 -6.5838315550643071e-03 -4.4990235975266024e-03 -4.3170573051471806e-01 -3.7714551339120383e-02 -2.1934074061241704e-03 7.5835993451719291e-04 -7.6295529557227937e-01 2.9198663504575714e-02 1.0364885783426621e+00 -3.8844841593097534e-02 6.2412199029574733e-02 -4.1521322344143019e-02 -1.8586842292738152e-02 3.4067540273423691e-01 4.7928684411312830e-03 -6.0493126075064040e-03 4.0104137100080983e-02 -4.6403454692269808e-01 -1.4843625385438486e-02 2.0514052663537529e-03 1.3816376714802024e-03 2.5115888559589716e-01 -1.4781212416052802e-01 3.9576584987753849e-03 1.0294387138407329e-01 -2.3742293427652683e-01 3.8925583003785791e-02 -1.1651916510223979e+00 -2.1741205636018335e-03 3.4429336927314580e-01 -1.6523393011778281e-01 -4.7533652903374551e-02 2.6014344955608948e-01 -1.5361633972117452e-02 1.8963945511807873e-01 -3.4910184339019601e-01 2.6138976495490951e-01 5.0173097594401028e-02 5.1533846658595554e-03 2.4343761671048902e-02 4.7448393146183321e-02 3.0003001305805510e-01 -5.8484974764869913e-02 4.2239082457724297e-01 4.4190356948323384e-01 7.9642906796852486e-02 1.4335111873462836e-01 -7.7567183203726020e-02 1.2540714556689849e+00 -3.8902483238194702e-03 -5.9671586636654171e-03 -1.6491767603817116e+00 -4.5617541800712161e-03 -1.6901061341787295e-02 -1.3710264044531240e-02 1.0565901541496412e+00 -2.0825450457266994e-02 -2.8342145276752271e-03 -7.5449551456652220e-04 -1.9531908288399236e-02 -2.7110433619463858e-03 -1.5316680739656530e-02 4.9189097500203635e-03 3.8757301628564278e-02 1.7283824031039091e-02 5.6674796515189030e-01 -1.2045296752681664e-02 -1.1282773585644890e-02 -1.0190009632925006e+00 
      </Row>
      <Row Index="138">
        -8.5800503044380321e+00 2.5329765224091716e-01 6.9274975995719433e+02 5.6030185470217475e-01 1.1238955899841585e-01 -7.7429897469095886e+02 -7.3335916787385941e+01 -8.2241182008968281e+01 2.0034938460911089e-01 8.1071272107874393e-01 -1.4728225380613003e+02 2.6137749085202813e+01 9.5167506258003414e+00 1.8754373916453915e-01 3.9824901115234019e+02 3.8625481435796246e+01 -1.0039995679259300e+02 7.5565861353061337e-01 8.4674940200056881e+00 1.7874433729797602e+01 1.8989483901168569e-01 -1.2447323757018894e+03 9.3296551394814742e-02 -1.2542148725060542e-01 -1.8374046606197953e+02 1.3224719247932080e+02 -2.9631853367201984e+01 2.3262731555405480e-02 8.8667432953343450e-02 3.9031754827264558e+02 2.5537777437828481e+01 -1.9484591185813770e+01 1.2852630289307854e-01 1.8096920594386756e+02 5.0086392717435956e+01 -5.3352987038344145e+02 -5.4443481773341773e-01 1.1553466101678353e+01 1.9607477747951634e+01 -1.0078078709739202e-01 1.3549320629757522e+03 6.5476401481646462e-02 5.6406811105262022e-02 1.0896411628369242e+02 1.1581476088613272e+02 7.8633897409518614e+00 1.9852061362826134e-02 2.9650269762441894e-02 7.0512623963528313e+01 -1.0637594297062606e+01 -8.8162297075032257e+00 -1.3512611581681995e+00 -8.0284641057252884e+01 3.5573302730120098e+01 -1.5091385837737471e+03 -3.3964245163224405e-01 -4.2958676303271204e+01 1.5789719448075630e+00 -1.0386086512880865e-01 -3.8076013569440693e+02 -2.7705681252837167e-01 2.9677424916570772e-02 -1.8372813682258129e+02 -3.1410005337558687e+01 -1.2018721051292960e+02 -9.5585609739714528e-03 -3.5686576473608511e-02 2.0367858088871230e+02 -2.1576831739279442e+01 6.5153230680953129e+00 2.7916485129662760e-01 -1.6734355265005811e+02 5.9470355646626558e+00 -3.9092904662154615e+02 -1.6442300136986887e-02 -5.3747330098575681e+00 -1.0440640890432405e+01 -2.4548507700592381e-01 1.2988374977931380e+03 2.7382920125091914e-02 -9.0357113225763896e-02 8.0963054932976956e+02 5.7686779595911503e+01 1.8987044057736057e+01 6.3591380408979603e-02 2.2349727411381082e-01 3.0658345360105159e+02 6.3696300843730569e+00 1.3535130330594257e+01 7.4419993990159128e-01 5.1755325156741583e+02 3.4950785942375660e+01 -5.3862069791415706e+02 1.2695514491315407e-01 -2.4449216391891241e+01 1.6839112373942044e+01 5.3279287735676917e-02 -7.4366207354515791e+02 -1.5858534536891966e-01 -1.6283921891408681e-01 -8.3950976377166808e+02 8.5769739721494261e+01 5.4369833760938491e+00 -1.2792782614724274e-02 1.7931403507191135e-02 -1.6140921145863831e+02 2.2031739515252411e+01 -1.2372899186739232e+01 2.0193889910842699e-01 -7.0888645544648170e+01 -6.6299293297342956e+01 -4.1283867687731981e+02 -2.4504240016540280e-02 -3.1479478672146797e+01 -8.8699185392761137e-01 4.1657954063794023e-01 -2.2711071663859766e+03 -1.2447859391295424e-01 -1.0493976201541955e-01 -6.1205195158952847e+02 -1.9401260856097406e+03 2.2708119398005238e+01 -5.6402869896558627e-02 -2.7697447374370170e-02 -2.3512005766724178e+02 -3.9460593166295439e+00 -1.3930556357881869e+00 -1.2721300842895289e-01 -1.9724892822653055e+02 2.4987554043564160e+01 -1.9852517933583067e+02 -2.7415881412889576e-01 -3.3242115912726149e+01 -2.3049895016738446e+00 -5.4265981790376827e-01 4.9385110783576965e+03 3.3915775869945719e-01 4.9956125950666319e-01 1.2364737672829069e+03 -6.8069098019599915e+02 -5.8668809485796373e+01 3.2980224324965668e-02 1.5768566784746543e-02 8.2407563536381349e+02 1.9461800098070494e+01 8.7430119112696971e+00 -1.2366186481085606e-01 -2.9457095433166251e+02 -1.6255259796045721e+01 6.1515354275703430e+02 -3.3165355278058339e-01 4.3373212693259120e+00 2.5955410212320693e+00 -5.2047409434230052e-01 -2.3118462483478415e+03 7.3483458287306361e-02 1.6995946102945836e-01 9.9165526513421639e+02 7.4558057511999164e+02 1.0006751100193345e+02 3.0756075194841415e-02 5.1203126488735380e-02 -1.2993126641204375e+02 -3.6619422316325995e+01 -7.0196123642725077e+00 -1.2671404588312389e+00 9.7389275540597737e+01 6.9552164143808511e+01 3.3776744764670730e+02 2.0485604871104157e-01 -2.0439842738282294e+00 2.3626877326593828e+01 3.1922099994467663e-02 -8.8120367922742503e+02 3.3499923635354389e-01 2.0883023488497843e-01 8.0345902717329761e+02 -2.8317230068680328e+02 2.3148153652285686e-01 1.8256978073749458e-02 1.1202514618260072e-01 -2.5353126111334871e+02 -4.6695645376534074e+01 1.4540081643727767e+00 -3.4540317168736734e-01 -3.5016489287929551e+02 3.4379540604604841e+01 6.8852067556215070e+02 1.5377600551716342e-01 -9.6597008559465394e+00 1.3296753494539374e+01 -1.1587049237852162e-01 -1.3778566833993748e+03 -8.4745694726699808e-02 1.5104048309113161e-01 -6.8937069878707291e+01 2.2852072226784230e+01 -4.7597008552490514e+01 1.3075874481851418e-02 2.3686892075022014e-02 -3.4489718032665417e+02 -2.4910896420303033e+01 -7.5322291242268911e+00 3.0298557638943169e-01 -2.7322893244815828e+02 8.5930537206518409e+01 1.0711275059187777e+02 -1.2054095045683882e-01 -3.7979569334536791e+01 1.2302675017482575e+02 -4.5997597520409812e+00 4.7433057886453184e+02 2.7758422752689083e-01 2.8241136822853146e+00 9.8555640126818025e+02 -1.7057098803304916e+02 -2.0816629631781490e+02 5.9131732937212034e-01 4.1159790956746534e-01 -2.0886578364018369e+03 -2.5777094479575624e+02 -5.0656975574876029e-01 -1.3551837591931644e+01 3.3893157176671389e+02 2.4554398926965956e+02 -1.4659306064081585e+02 3.8770547682205390e+00 -1.9226709674775475e+02 1.1437884869815772e+01 3.2962227928923109e-02 -1.7195716247866121e+03 -9.5847656715585455e-02 -4.1135537010187585e-03 -8.0690915646876917e+01 -3.1338600641244352e+02 -5.3649508198388261e+01 4.0266405995754602e-02 6.3868484052353880e-01 1.2371052384385600e+01 1.3745585445110207e+00 -1.6731667618823085e+00 5.6580134840275641e-05 4.1925767198417861e+02 3.7496579328140712e+01 -7.5764341187523314e+01 -7.9643720622434189e-02 5.1362252611191650e-01 3.6647181155323699e+02 
      </Row>
      <Row Index="139">
        7.9799507542105857e+01 5.9164048967068084e+00 -8.2400163145065308e+03 1.0924697942100465e+00 3.3125517641019542e-01 8.9895358586311340e+02 2.9152811126708984e+04 1.6669878968270496e+01 4.9158830692456599e+00 -2.5931825319130439e+00 -1.0264655128866434e+03 3.4228905189037323e+02 4.5119956195354462e+01 -1.7044802494347095e+00 -3.4914701013430704e+03 3.8315286669135094e+02 7.3203992805480957e+03 3.0987241435796022e+00 -4.8108950796723366e+02 -3.5535321563482285e+01 1.0173727748915553e+00 -1.7881080973029137e+04 2.3816975147929043e-01 1.3490673336200416e+00 -1.0587730789184570e+02 3.0703779117599130e+04 6.8939358830451965e+01 2.2483485634438694e-01 -2.1977179299574345e-01 -1.6156900722582359e+03 1.6940933775901794e+02 9.9259722158312798e+00 -2.5083355004899204e+00 -2.2882996649742126e+03 4.0331084746122360e+02 1.0382023474693298e+04 -1.1413988214917481e+00 -1.6686467930884919e+02 1.8478914573788643e+00 1.0400287624215707e+00 -8.5191838908768259e+03 1.1638282435014844e+00 6.9272938673384488e-01 3.3498893404006958e+02 -2.1290603485107422e+03 1.0808424755096507e+02 -1.7675243542180397e-01 -3.6747913213912398e-01 -5.8215864756703377e+02 -3.4376823639869690e+02 -1.5267876873910427e+02 3.1044796174392104e+00 1.1706575267851353e+04 3.8651876071159870e+02 -1.0500883998870850e+04 -2.4320808348711580e+00 1.6783337851464748e+03 -3.4189856812357903e+01 -5.9836380195338279e-01 -1.4994957425117493e+04 1.3253416837542318e+00 -1.4883017139254662e+00 -1.3424818015098572e+03 -4.7122714540958405e+04 -2.3583261977136135e+02 -2.6521042844979092e-01 -1.8635239708237350e-01 -1.5088499888521792e+03 -4.4458867567777634e+02 9.7000350834801793e+01 -1.8058591254521161e+00 3.1774648368603894e+03 -7.3335748614091426e+02 -2.3990163894891739e+03 -2.8998735034838319e-01 -1.0405706305970125e+02 7.4393215943127871e+01 -9.1897993627935648e-01 8.5576710796356201e+02 -3.3083041408099234e-01 2.9250085587264039e+00 3.6226293362677097e+01 -7.8938032402992249e+03 6.3701628750190139e+01 1.0065319857094437e+00 -6.3677615213964600e-01 2.5204656040742993e+03 2.4302274894714355e+02 6.7326782837510109e+01 -4.2592839458957314e+00 -6.6254145849424303e+03 -2.6292408955097198e+02 -8.4308013266921043e+03 -1.7153268416877836e+00 5.1737320899963379e+01 -7.9785310685634613e+01 -1.5324851633049548e+00 -2.1777895183563232e+03 -1.9070646283216774e-01 2.9533524066209793e-03 -9.6300800147652626e+02 -7.5687467455118895e+03 1.2449358882382512e+02 1.4917448611231521e-01 -1.6690702177584171e-02 1.3726892073154449e+03 5.5859143751859665e+02 7.3141897402703762e+01 -2.9364436145406216e+00 -5.8636791172027588e+03 -5.5014390057325363e+02 -1.3201518321990967e+04 -1.3777046557515860e+00 -2.0760701990127563e+02 2.8402776758186519e+01 5.6591430290136486e+00 -3.8113509744286537e+04 -2.5940057929256000e-01 1.1689142901450396e+00 -9.7854484134912491e+02 1.0400270016587470e+05 -6.4929803193663247e+00 -2.1026219335544738e-01 -1.5356542355220881e-01 8.7720336969941854e+00 5.4607606336474419e+01 3.3095821915194392e+00 -9.0815183706581593e-02 2.9231482410430908e+03 1.8980935794347897e+02 2.2357049726855221e+03 -5.4138832888565958e-01 -1.8835873925127089e+01 -3.4844961683265865e+00 1.1764542013406754e+00 -2.5452672973632812e+04 -2.9907101491698995e-01 -1.2876253002323210e+00 -6.8069100904464722e+02 9.0249201544189453e+05 -2.5034268561005592e+02 2.4163032325039102e-01 1.3160761502842677e-02 2.6157992589473724e+02 4.3689211664855020e+02 -5.7643888564502497e+01 2.3599278330802917e+00 3.7082037950158119e+03 -5.7316399812698364e+02 -6.2094490318298340e+03 -3.1535519438829418e+00 1.9864460968971252e+02 -9.7251635513174506e+00 1.0283800118520414e+00 -6.0686229406528200e+03 5.5633946482190944e-01 1.5687206897600374e+00 1.4134524234031953e+03 -8.5736106988255342e+04 3.1145182188108845e+02 -7.5608885737822984e-01 -4.7327378356626329e-02 1.0351312427717528e+03 4.1857317675415402e+02 -2.5516405781948458e+02 -4.8763336913230813e+00 -4.8428344112634659e+03 4.7039352412665789e+02 9.5418227052688599e+02 1.1265513280061465e+00 4.1829102004661536e+01 -1.0503159245581392e+02 6.6305485743062209e-01 2.1559225719506943e+04 1.2048036181295743e+00 -2.0617698925419656e+00 1.7099424226714254e+03 -3.7973280830896983e+03 2.1234607661984185e+01 -1.2180058630879698e-01 -2.8209084957223429e-01 1.9448961709129771e+03 -5.8166957362619360e+02 3.7780811321830640e+01 -6.4573421864911822e+00 4.5517981734421028e+03 3.5382950114646854e+02 -6.3254769754239042e+03 2.1909965858176772e-01 -8.1755917934664410e+01 -1.3788099019520877e+02 1.2520590600533774e+00 1.1037111609037263e+04 2.2640457448747977e+00 1.3083699414600107e+00 -4.7937816626669553e+02 -2.2643692412707118e+04 -1.3544571543987723e+02 -3.1332718190979342e-01 -9.5301589879948495e-02 -9.9861721929694295e+02 -6.0152253049867818e+02 4.3112417649258305e+01 -1.1181953381508869e+01 2.2004133726955970e+03 1.0988215126403788e+03 -1.8894478581603885e+03 2.9761089891237473e+00 6.0540210843086243e+01 -4.9806049907200759e+02 1.1008561479690577e+01 -5.8474657723270029e+03 1.4451908653799567e+01 5.9103164341900722e+00 5.7200865043374051e+03 1.7651154920613582e+04 -1.2971902841001491e+02 -2.0588943034858942e+00 6.4963622446998404e-01 -1.7245007844060146e+03 5.5071517386266232e+03 1.1024115624111295e+02 -8.6152646052869699e+01 3.1321308245966829e+03 4.2446760294962460e+03 -4.8589980860930154e+01 2.9362219565020311e+01 3.4552727418613358e+03 -4.3556042088131925e+01 2.3957773248456998e-01 7.8733692629638226e+03 -2.6613328754268622e-02 1.9237876021321615e-01 -1.4237556054542421e+02 4.7220828960967476e+04 -1.9787623500836538e+01 8.1654712692144815e-01 -1.2460667240168926e+00 1.3160918065157063e+02 3.6845433209705043e+01 4.1422614250237473e+00 -2.9923125810872203e-01 -7.9716421586272745e+03 1.7481729530328414e+02 3.0153320367635388e+02 2.0065025123221797e-01 1.9498868005711060e+02 -4.7199962807499986e+04 
      </Row>
      <Row Index="140">
        9.3840088826107149e-01 -2.8070529755325424e-02 -6.8181194392964244e+01 -4.5836370333972809e-02 -2.9073373497737975e-02 8.2905110319377854e+01 -1.5473903185687959e+02 3.7378471615959825e+01 7.2338504470710330e-02 -1.9760345381769184e-02 4.1302480036276393e+01 1.3111775173805654e+01 -5.0069174286909401e-01 -5.2742422874871409e-02 -8.4354289795651184e+01 -3.9608249154407531e+00 3.0183053471148014e+01 -3.3763570488645200e-02 5.0265067165018991e+00 -2.4974584549781866e+00 -3.2763105845333484e-02 -1.1227045357669704e+02 -1.5165773847911623e-03 1.4034442901788680e-02 1.6272646358609200e+02 -1.6615183753421297e+02 2.8781444317661226e+01 -1.5386739707992092e-03 -2.0540563197073425e-03 4.0367408688317937e+01 2.9067385117523372e+00 4.4273746095714159e+00 -4.6305947146720428e-02 -2.6313173280097544e+01 -8.1015563546679914e-01 7.3336436487734318e+01 -2.9312049528016360e-03 3.1874116355114420e+01 -7.2443931429006625e-01 2.6567080382392305e-02 -8.6085516539163564e+01 -7.8006632729739067e-03 3.3982269483203709e-03 -7.3153870277572423e+01 -1.3062596846558154e+02 -1.9740153365497363e+01 -1.9998136039021119e-03 8.7627536709078413e-04 6.1093260947032832e+01 -1.8219159741303883e+01 -6.3380612924811430e-01 3.7007480122338166e-01 1.1594378315011272e+02 3.2394084579688300e+00 6.8767099950462580e+01 -4.0005706671308872e-03 -3.3391471465583891e+00 -7.2627342770283576e-01 -2.5673238277022392e-02 -9.9083897815085948e+01 3.1606060796093516e-02 1.6983617258439665e-02 4.2607496301177889e+01 5.4051321789156646e+01 5.3725603000639239e+01 1.2100566486736852e-03 -2.4874250833590850e-03 6.5921816891408355e+01 -5.4822004208108410e+00 1.8492923892627005e+00 -1.0630687644766112e-01 4.5922085619235595e+01 -3.8908116561951829e+00 3.4487823084928095e+01 2.2200887197868724e-02 2.6331471483566893e-01 8.0035040851362282e-01 1.5068291632019282e-02 -1.5804553311318159e+01 3.0933207613088598e-03 3.7375069401377914e-02 -9.0766044452939241e+01 8.5984828952234238e+01 -1.1838738103710057e+01 1.3711176013771365e-02 -6.7901539001979927e-03 5.1803215804538922e+00 1.2606006533605978e+01 3.5474475414957851e-01 -1.7075212781219307e-01 -1.0079903246050223e+02 -1.7520067357691005e+00 7.0222455131937750e+01 -2.2274748824202106e-02 5.9479789528995752e-01 -1.5705305812298320e+00 1.5211341012332014e-02 -7.4156926777213812e+00 -5.1989518542541191e-03 8.6054105058792629e-03 2.5098488749592798e+02 7.3834353786194697e+01 1.0001120942761190e+01 -1.6862990445929427e-03 1.4361130133693223e-03 7.8853391068987548e+00 1.5293061394477263e+01 -1.5356780230649747e-01 5.6660427081624221e-02 2.7427136749029160e+01 1.0192176965065300e+00 -1.7002628944814205e+01 -1.2847096275436343e-02 1.2925280850380659e+01 4.9106552072589693e-01 4.6194671544981247e-03 -1.8959633104552631e+02 2.3968174356298277e-02 -2.6994348930884371e-03 1.8831440058199223e+02 -2.9530019847059157e+02 -1.1341053391160472e+01 2.5011600719722082e-03 -2.6516693781886147e-03 1.0243159014080447e+01 -2.4827770080592018e+00 -5.7418851234933754e+00 8.0414532549184514e-02 -4.4430323379114270e+01 -1.2352258736423209e+00 -1.4264414953695763e+01 -1.1719340285480939e-03 -1.6893841339424398e+00 7.3015879233025771e-02 -3.5629644404252758e-02 -2.2511308562755585e+02 -3.9255672669469277e-03 -8.8218468299601227e-03 -5.8668809328519274e+01 -2.5034270030260086e+02 3.4716806824144442e+01 -7.7715955618080906e-03 -3.1298395619001650e-03 1.1406596170691773e+02 2.0944529631873714e+01 1.6906675043154851e+00 2.9631685676577035e-02 5.5779297412256710e+01 -8.9378708472941071e-01 -1.1101297508925200e+02 -2.5163466057435854e-02 -4.5212969579733908e-01 -1.7606156389582017e-01 1.3992221856464078e-02 8.4780010436940756e+01 -5.0152649475492292e-02 1.2205144314023728e-01 -1.9162680813219217e+02 -1.7444387327857797e+01 -6.8993422337319146e+01 2.6397761933064329e-02 1.5481790074926826e-02 1.5753556841105899e+01 -9.6430565433724951e+00 4.8260878962656650e-01 -4.4322111552915322e-02 -6.6740598284406587e+01 5.7286700904598475e-01 -7.0491664088331163e+00 1.6645833478665044e-02 4.7996660289125508e+00 -3.0100962951549119e+00 -2.9765465163346314e-03 1.0959981766763376e+02 -1.9609971905601001e-02 -2.8888312230875957e-02 -2.8135784622897950e+02 7.5442734001927192e+01 -7.9890909782673845e+00 -1.9847074577657624e-03 -9.5140442817987360e-04 -4.6412079198427918e+00 -3.1172971962636133e+01 2.1568467410662429e-01 1.1553548098741159e-01 1.1967823740509138e+02 -4.7848905493180975e+00 -8.2146595588979778e+00 -9.0073609667438034e-02 4.2528023130537154e+00 -8.2500819932682246e-01 2.6720060386190229e-02 4.3999706874751155e+01 9.0717248660848043e-03 -1.4393782798568757e-02 -8.4220144398947916e-01 1.5577742391379556e+02 2.5553228152982875e+01 -6.4371607875116452e-03 -3.5340062611308428e-03 -2.1039062244884803e+01 -6.3616473749350346e+00 1.4254373297689369e+00 -4.1720446382865664e-02 4.0367857801595264e+01 1.8795399607234291e+00 -6.2608253364254004e+01 3.4071637137621867e-02 3.5156649557175115e+00 -1.1051570717769433e+01 2.2254117274857305e-01 -3.3311593698727407e+01 -3.9293771957824841e-01 7.7209375958736925e-01 -6.1193931721715080e+02 -6.6438745998891790e+01 5.1335608513930950e+01 2.3266777165131325e-01 1.3794375227769340e-01 -1.2579192004132425e+02 2.3155514694710604e+01 3.1884406474898528e+00 7.2533689516762934e-01 -2.4014652911771776e+01 -3.1571230846250735e+00 6.1217183765677774e-01 -5.1368784846282267e-02 -1.3175878894197211e+01 -8.0421242410481308e-01 -8.1668305966562651e-04 -1.6674594671200794e+01 9.7714596605511794e-03 1.6692948708983547e-03 3.4331278736532411e+01 -8.6550298136242716e+01 3.1457133298788062e+01 1.7117368721233695e-02 1.0368867872036548e-03 -3.1932367416403651e-01 -4.6579851791907618e+00 1.2940832267380031e+00 -5.9371183394405988e-03 -9.6674550928357291e+01 -2.5345450952726138e+00 -5.5032644970704041e+00 8.2122369098070469e-03 -1.4156330088717874e+00 5.5089350273922307e+01 
      </Row>
      <Row Index="141">
        1.6316684112531621e-02 1.9875397028445152e-02 -3.3525196432492521e-02 4.0670463874749596e-03 -4.0458879495323397e-03 7.9617615980396295e-03 1.5239737853335100e-01 -1.9995166949887122e-03 4.1508145366635801e-02 -4.8649874331163356e-03 2.9670874029648076e-02 2.9147564673621673e-02 2.1185099168974375e-03 2.0354630009258301e-03 -1.0250548996816491e+00 -1.0955792379462537e-02 4.3495609605815844e-01 -8.0595802716398879e-03 1.0276084781992267e-02 -1.6403718604493633e-02 2.8806646754619969e-03 -8.5139042007426724e-02 1.2602051811181347e-03 3.8075997639190340e-03 -1.9153256756908377e-02 8.4677043376629513e-02 -3.8500176023035237e-03 3.3587284900488124e-03 -4.9685139328198291e-04 -7.0446606689753333e-02 -6.1805341388946999e-02 -1.2084608284588683e-02 -6.8912580226543341e-03 -3.6133697606646820e-01 -3.5380015359010031e-03 -2.1825171258751652e-01 2.2122166218679684e-02 -2.4536777844611946e-02 2.6231754560235743e-02 1.2424957306111928e-03 4.2446560591719917e-02 8.5288285065088232e-04 7.7124949444118407e-03 -4.4454091573015830e-02 5.5805480462367996e-02 -2.1723427034300302e-02 5.4048016933691545e-04 -1.9201105154384446e-04 -8.0656202313406311e-02 1.7308119476871298e-01 -1.5909811541249042e-02 3.4917358088800476e-02 -2.9237317807445606e-01 -1.1095501008954733e-02 3.9478053718539741e-02 1.4372442112582595e-02 -2.0279932714970528e-02 1.4771114965789423e-02 -8.6167505979573011e-04 -8.0812754174303336e-02 -1.1770476659533902e-04 1.2820053242184708e-03 2.5108967433948237e-01 -4.5628822899061561e-02 1.9311971179320153e-02 1.8203185761647700e-04 -1.5529962525952234e-04 3.1372603347750272e-02 7.8337105341887536e-02 2.6896673956162687e-03 -6.9700348781079891e-03 3.0965371177500689e-01 -1.1341055908654862e-02 7.9140816320204976e-02 -5.5484253235151826e-03 -9.9801674632400417e-03 5.9034944888409768e-03 -5.8517524735161031e-03 3.7668274729185214e-02 2.9542664636479365e-03 1.2625272752523342e-02 6.8710546187425336e-02 -6.4550459419933759e-02 -1.8677519816421295e-03 1.0788106255339047e-02 -1.4965943810197613e-03 1.2108964354305840e-01 -1.8300261135664186e-02 1.3481006570827958e-02 -1.6972093156769397e-02 -1.0917070724663680e-01 -1.0867915176334009e-02 -4.7965960015926612e-01 1.2269977356951012e-02 -3.3195285626788973e-02 -1.4854814321950016e-02 -4.3717138249780296e-03 -2.2200969409823301e-02 -5.2891277374844670e-04 3.0777631349017120e-03 3.1786843636950834e-02 -9.1738668251785782e-02 2.3864070761376865e-03 4.6090344255247939e-04 -1.8800824076459222e-05 -2.9101803149842453e-03 -1.4338661662202412e-01 4.6272079747211592e-03 5.6910098932432263e-03 -1.6028789832489565e-01 1.3176769079336736e-02 -4.6680136324175692e-01 -5.1871719927021331e-03 -3.1326853440077684e-02 1.6448315907884314e-02 1.9316791402360645e-02 -1.6121400485825177e-01 -1.9997919381303797e-04 1.3386633393226988e-03 1.6426008208384246e-01 3.3958070117841999e-01 4.8047419745503306e-03 1.4266543436399631e-04 -3.5941666950134801e-04 1.8194399030807773e-02 2.3550125487489026e-02 5.6180607450384557e-04 3.5211474162899492e-03 3.0404785969221848e-01 -6.4634550645084055e-03 6.4295828965196122e-01 2.0881064237610603e-03 3.1964233855461543e-03 8.2599213535350380e-03 4.4335765111043202e-03 2.2632347510079853e-01 -1.2307333881111382e-03 5.6705908272427497e-03 3.2980224434567162e-02 2.4163030216004699e-01 -7.7715955096167022e-03 9.5973647614195079e-03 2.5176787765095218e-03 7.5468761407591956e-02 -1.7896073053774914e-01 7.3202464772584540e-03 -2.0212333846629349e-02 4.7707299145088200e-01 5.6327902154862386e-03 9.1507471754812286e-01 1.5859004784465822e-02 7.9244931964694842e-03 -1.5661053195629590e-02 1.0451215455776521e-03 -5.2607933349138047e-01 -7.4394282564627632e-04 5.7903346081337355e-03 -7.2841612030100172e-02 2.1319966603043383e-01 -1.6406940177090375e-02 -3.0162077531814633e-03 -1.2453606377399624e-05 3.0400161589625042e-02 1.5404884928295481e-01 -2.2100297839132588e-02 -3.6943451888659879e-03 -2.4621844185662667e-01 -1.3364342652967744e-02 3.3088736149920805e-02 6.1824246983231447e-03 4.9346748523342338e-02 -2.7041723688611796e-02 2.5468659012466179e-03 6.9115328891042660e-02 4.4466034826688705e-04 -9.1965205599914956e-03 -3.6394641751756107e-02 -1.5722296992317952e-01 -1.2944785976835987e-03 -4.3993861189558039e-04 -3.1642629478355463e-04 5.3421076947022250e-02 2.9804755118952375e-01 1.3132508722480951e-03 -7.8449930623755385e-03 5.9102566634096088e-01 -1.7693940206075422e-02 -8.4996395047258755e-02 8.3416326284539207e-03 -1.6994072807471103e-02 2.9876680883779615e-02 2.3637549165743061e-03 1.7278388363847030e-01 2.0984138259361087e-04 3.8839049444407466e-03 6.2083015799850039e-02 -2.6539179971487536e-01 1.6556338388067138e-02 -2.8028698491967439e-04 -1.1979373857116287e-05 7.2904884370979695e-02 4.3041960911710697e-02 -1.3014667493603971e-02 -3.8437741327218611e-02 -2.2196668651993523e-01 -1.1270638402526401e-02 1.2117490566818473e-01 8.7539088529978463e-04 1.0227836648709854e-02 1.7330130320151071e-02 8.6040560354549260e-03 -1.2580118839653487e-02 -7.1246325158954606e-03 1.3225846109548481e-02 -1.9281379787187802e-02 9.1567426242916916e-02 4.9201326807830625e-02 1.7057045858051248e-02 4.0332806704649494e-03 4.0205373490365304e-01 1.2070793247990985e-01 -4.8427253590764725e-02 -8.5546484418826951e-02 3.2951631718747354e-01 -3.4789266501626351e-02 1.9212294683917452e-01 -6.6049273236840067e-03 6.6900998826972202e-02 -1.5891719376580581e-02 1.0710511672757466e-03 3.1508180483065074e-01 -2.9828674546413599e-04 7.3478289707176010e-04 4.7094163439563297e-03 4.4420867171728794e-02 5.2330338603048462e-04 7.7476227874756177e-03 -1.5741307350258800e-03 4.5963352905812049e-03 1.4090456405088898e-02 -1.5592201909626624e-03 -1.1218858001163829e-03 -4.0273898338933334e-01 -4.4163353665350735e-03 4.4362278929824583e-02 3.8128375109476903e-03 -3.5674895855293820e-03 -4.7300560381944981e-02 
      </Row>
      <Row Index="142">
        -2.6231813435040746e-03 1.7328497439088611e-02 2.0789669577879977e-01 4.0263228799563566e-03 -5.6069848622877505e-03 -2.7237613245461034e-03 4.7235364712742012e-01 2.2464933973044832e-03 -1.6158664425351254e-02 3.8350962297257915e-02 -1.2372501622650134e-02 -3.4770885303487375e-02 -3.5151483374136205e-03 2.0764718868850451e-02 1.4157317687003612e-01 -1.2089924234203409e-02 -7.8854194404084410e-01 -9.2897193574048575e-03 7.1667187479818040e-03 3.0225701284507522e-03 2.9029103644808707e-03 7.9437372866209444e-02 2.2824975924581326e-03 1.7647088239627906e-03 4.9760792016968480e-03 6.1634752831963624e-01 1.6426590163973742e-03 -8.2357560520818218e-04 4.5560865760131686e-03 -2.1067969840675715e-02 -4.3329455573314135e-02 -1.5380015670842795e-03 -1.0746351253479558e-02 1.0735400978774123e-01 4.6155942763448365e-03 -2.8628803612673437e-01 7.1859863498004994e-03 4.1658482615472031e-02 5.1466406620974681e-03 8.6019086423688718e-04 1.6589464598638259e-01 2.7403061006312512e-03 1.2521528449906949e-03 -3.6964360852380196e-02 2.2682041325515456e-01 -4.3428684435478093e-03 3.0661426459119290e-04 2.1700005697247171e-03 -2.5435569348672971e-02 2.5208553530774225e-02 -1.8905148183705478e-03 6.1960722294057913e-02 1.9672101632008321e-01 1.2833467932772846e-02 1.4836316414175599e-01 3.2462505192739632e-03 1.0460698135602797e-02 -3.8896608818355105e-03 1.3577483809479318e-06 2.0014537795714205e-01 -1.1361863613575773e-02 5.1273787908702115e-04 1.0190855750988703e-01 -4.7321679865603983e-02 7.2959891520696374e-03 -4.8117722425653625e-04 -9.2308938548350816e-04 -3.0631589398923520e-02 2.6181828318016187e-02 3.4550781308517742e-04 -1.5851118877248438e-02 3.4649900360223418e-02 9.9088751494547100e-03 -1.8248304022586126e-01 -1.6473216881669472e-03 2.4254164955950230e-03 -2.0738787833032291e-03 -1.0694496025017430e-02 -6.8892482177034253e-02 -2.3462464110066694e-03 3.8774775505803494e-03 9.3055892219631176e-03 -2.7001830696121942e-01 -7.9434297004432608e-04 -3.5724534625768967e-03 1.0037466567889647e-02 4.9423296343427126e-02 2.1147369348682332e-02 3.9895037625541363e-03 -3.3510601494268766e-02 -4.7425521950813171e-01 1.0893675469276332e-02 -1.5734365676109974e-01 2.6949513798064650e-03 2.0366897735584644e-02 2.7658805682548859e-03 -5.7929653774220213e-03 -4.0420468838419765e-02 -7.0726563432270684e-03 9.7346849653212608e-04 1.2050382113613978e-02 -3.6249268956948555e-01 -6.6518754712241446e-04 -1.4166666767648217e-04 3.4936537825824843e-04 6.5606544296542779e-02 -4.1648573137933909e-02 1.7120341943908102e-03 1.0034358197768212e-02 6.1051438904542010e-02 -1.7998385422117735e-02 1.8083978674349055e-01 -1.5060418914818463e-03 -9.5749690049160563e-03 -8.5651406362696747e-04 2.3350706869674442e-02 3.3700128597079981e-01 -4.3759395623786945e-03 1.9871814880395022e-03 5.4118346775851478e-02 1.0778630640584197e-01 8.5404349994855078e-03 -5.6994236713944421e-04 -3.8909268516978956e-04 4.4184455895823760e-04 2.2045651941198230e-03 -2.9801245972977952e-03 6.6687167502283984e-03 -1.2697195767668745e-01 7.6630007816409496e-03 7.6822865008971064e-01 -3.6542720620325042e-04 2.7736996409268855e-03 -1.6195417551108093e-03 2.4061581246677122e-03 4.3995887067285366e-01 4.5794551700371056e-03 3.4659436466668581e-03 1.5768566851136256e-02 1.3160758215235546e-02 -3.1298395839343129e-03 2.5176787764848996e-03 8.2778947915236930e-03 7.6048534968435888e-03 -3.4037348326151268e-02 2.0586580921323344e-03 9.6793255213611928e-04 -1.0601516263827193e-01 3.1411686949809337e-03 -7.8674233918718528e-02 2.9353323892506757e-03 -1.3119864414875337e-02 3.5515159446700014e-03 -2.4563618347928961e-03 -2.4286757147098270e-02 -1.8833889126828448e-03 1.3730138799511753e-03 -2.0315986938618080e-02 -2.8822790687336097e-01 -1.3645812828667085e-03 7.1233207825778619e-04 1.6541775133570690e-03 5.0936127851892533e-02 2.1550165970994517e-02 7.9110642070265302e-04 -2.2377748573545152e-04 -6.1990005406642013e-02 2.8658954238103683e-02 2.1053168827609170e-01 1.9813899281506927e-03 -1.9236063599850972e-02 2.6184551682004835e-03 5.1597072630682672e-03 -3.2853711675437003e-01 1.2226497447492407e-02 -4.9610793110012475e-03 -1.5213042752391104e-02 2.0752596715911809e-01 4.4743123042357766e-04 1.8341804065069711e-04 5.4932144348842603e-03 6.2825281168049418e-02 3.8724599735834239e-02 -2.2800741326331232e-03 -1.0869226656230940e-02 5.8473390729355534e-02 2.0815613147235720e-02 1.1155053385828451e-02 3.3955448751125453e-03 2.1487150861645266e-02 1.6816019424163824e-03 1.7508282484503988e-03 -1.6437053544127023e-01 6.8079527244755875e-04 -3.6273019826710013e-04 8.9629337452132030e-02 -7.6908403187586627e-04 9.0969051478348995e-03 -4.2341568671095206e-04 -4.6552576900374886e-04 2.1261464591312174e-02 1.0773279200625211e-02 -1.3723415326862831e-03 -6.1153578896392814e-02 6.9589721630398227e-02 2.7366532543969167e-02 -3.5213391070513828e-01 1.9493774585424592e-03 -3.3001772924308170e-02 1.5914301145302678e-02 -3.1023326373675175e-03 9.9881127329946473e-02 -1.0829092254393551e-03 -1.1998432839497685e-02 2.4524676467439444e-01 2.3669598868835351e-02 3.2897812244194469e-02 -1.3641937235608383e-02 -6.0351728141422728e-03 1.9790345731992343e-01 -3.8577250517599762e-02 -9.9726100658038691e-03 -3.9099782384967696e-02 2.7553136369986991e-01 1.0782175271836902e-01 -1.4363764435703219e-01 7.5209554317910016e-04 -4.7300884354733119e-02 -3.6350635145200073e-04 1.5870455172855914e-03 -2.0991219594286559e-01 -3.2652056297502699e-03 4.0076224847737651e-04 3.4969333702414285e-04 -3.8126845030555120e-02 -6.8372638856739631e-04 -1.8776880461935164e-03 2.0568541771041896e-02 1.1236615996433797e-02 3.5914315724482893e-03 2.1839271675242887e-04 -1.9482445525376402e-03 -6.3936638876654683e-02 2.8299332508236671e-03 1.3651102633309620e-01 7.6751709380360378e-04 1.7630581139529977e-03 1.9480823427407413e-02 
      </Row>
      <Row Index="143">
        2.6849053821029656e+01 -1.9913363644741366e-01 -2.0451250036060810e+02 1.7599423502610989e-01 5.3165265033214837e-02 1.0203519554203376e+02 -4.8462674900144339e+02 1.3052506144907352e+02 -4.2603035978271819e-01 7.3557836419286105e-01 3.8467053109605331e+01 2.7254023057408631e+01 1.0942096152808517e+01 -9.3109639916656306e-01 -1.0382628389640599e+03 1.8652291117818095e+01 1.4237466194033623e+03 1.0089584207416920e+00 5.3202201774111018e+00 -1.3411826570401900e+01 2.3298936761420919e-02 -3.5507160453521647e+03 -1.2784160895535024e-02 1.3626306340029259e-02 1.5820435198638588e+03 -2.7495576069940580e+02 1.3113016966870055e+02 -6.4962862788433995e-02 8.0533308787153146e-02 6.8098362022298988e+02 4.1082210314925760e+00 2.1562354941532249e+01 6.0380784421795397e-02 -6.8649442461319268e+01 4.4913321273168549e+01 8.5293322445452213e+02 -1.3032192499031225e+00 6.2643505913059158e+01 -3.2048373546043877e+01 2.4458845854314859e-01 1.1908974813870100e+02 -3.5605403901172394e-02 7.0529925771552371e-02 -8.5585588466841727e+02 -4.9970115122944117e+02 -1.6281917938546940e+02 2.7406132748069467e-02 1.2062935245467088e-03 2.6632636477355845e+01 -3.4211646851850674e+01 -8.1541002779267728e+00 -2.0857030252773257e-01 8.3175879465322942e+02 5.8617291178030428e+01 -1.5606413544546813e+03 -6.7749835885661014e-01 -1.9806568976026028e+01 1.4633794341090834e+01 -3.7129124665580093e-01 -2.5531784113673493e+03 8.3260885550544117e-02 1.1969396764999374e-01 1.1035270318342373e+03 -6.1320930043421686e+02 2.0071138314798009e+02 -5.0055798656785555e-02 -5.1381080390854095e-02 1.5439950216962702e+03 -2.3368014900072012e+01 1.8892287764574576e+01 1.5162608641503539e-01 1.0428289001394342e+02 -2.6354497780816018e+01 6.2293472971348092e+02 3.3665625831417856e-01 7.3402370561233852e+00 2.0527765596067184e+01 3.6646700986693759e-02 1.3982470087297261e+03 2.1078959812439280e-01 2.5179437165161289e-01 -3.1121103253743786e+02 -4.2109377803280950e+01 -1.8798495691931748e+01 -1.3327241535216672e-01 2.0527340133111238e-01 -4.3235822150862077e+01 6.5102332293987274e+01 -1.4067781980265863e+01 2.2268175156568759e-02 1.3511393633191112e+03 2.1942427322268486e+01 1.6702321155532263e+02 -5.3296779223273916e-02 2.9501411769539118e+01 -2.8386935783055378e+01 1.8850020653871979e-01 -1.1275915002413094e+03 -7.4798950831791444e-02 -4.0148677479737671e-01 1.4739996695511509e+03 -3.3428520931239473e+02 1.1871617528960633e+02 -1.2037191751733189e-01 9.8964695951053727e-03 -5.7326011414173990e+02 3.2738171224715188e+01 -2.6587138937436976e+01 6.7149891276858398e-01 -6.7819890209287405e+02 -6.0458597354765516e+01 7.3707039148360491e+02 -6.1991131224203855e-03 3.4516283575445414e+01 9.7006361463500070e+00 2.4906783043570613e-01 -7.1947328098479193e+03 -8.5280675784815685e-04 -1.7657506960904357e-01 3.0333609070256352e+02 -2.0311555317200255e+03 -5.2526501749102408e+01 -7.2996595623187943e-02 -3.2968750175115247e-02 -7.4958247073510574e+02 -6.8409384447149932e+00 -3.3315478071386678e+01 2.2622046309334110e-01 6.0251366261392832e+02 1.8624223214274025e+01 -2.0924311957673967e+02 -3.4152757458969063e-01 -6.9125544895356143e+01 9.9740256640034204e+00 -6.8310708053832059e-01 1.4367195055484772e+03 -5.7657285696677718e-02 7.5801649733421073e-01 8.2407563566917088e+02 2.6157986402511597e+02 1.1406596188526601e+02 7.5468761428510334e-02 7.6048536668451780e-03 3.7124005058929324e+03 6.5590622594648167e+01 1.6163058231240939e+01 -1.0079449429031229e+00 5.4494907252001576e+02 -2.7539226230233908e+01 -3.7208850285410881e+02 -9.7269687047594877e-01 1.1925924699753523e+00 -2.8148453745605956e+01 9.8135440623802458e-02 -1.6101178665315852e+03 6.2834765791599567e-01 4.9368593323520565e-01 -1.0334864746518103e+03 1.9215018211628826e+03 -3.0742609320182839e+02 3.2965526424700275e-01 3.4123469262276794e-02 -4.8252908972934836e+02 -6.1301743620302204e+01 -7.7700059727291162e+00 -1.4444650906697123e+00 -5.3928029148653150e+02 7.5485865288383025e+01 3.9909518601559103e+02 -7.5802390119184160e-01 -4.3056387519162413e+01 -2.8956618818847687e+01 1.7610880081592639e-01 1.4570645898625123e+03 5.8382151498701518e-03 -1.6643775697414434e-01 -1.8493101779059664e+03 1.3456189662463021e+03 -2.4854361227587564e+01 6.9098877756768526e-02 8.3047318938703693e-02 -8.9817548827566748e+02 -9.3114757666130487e+01 -6.5297735957791048e+00 2.1762501893922870e-01 4.5500747259081805e+02 1.7898156733109829e+00 5.8158993873815916e+02 -5.0431298099126864e-01 3.6858267493196067e+01 -4.0619176086468165e+01 4.4609497361900285e-02 -5.3848562617497169e+02 7.0804881373422141e-02 5.0990131667941224e-02 -1.0103580194475946e+03 3.3909993893314663e+02 7.2423577239130950e+01 3.1322341159790427e-02 -1.9276149973886304e-02 -3.3333387796508373e+02 -6.6825638945321487e+01 -5.2971911485221028e+00 6.0988672246136844e-01 -2.5505453751904270e+02 9.8010398722460195e+01 -1.2261640530014290e+03 -2.8458883543462860e-01 -7.7751218239776790e+01 -2.6853788789809329e+02 1.5937550019370159e+00 -2.0304794631981298e+02 4.9716887804021681e+00 3.2785226697031655e+00 -7.6140460675472577e+03 -4.5610241536787532e+02 3.6840580426759345e+01 2.5036269736912580e+00 1.4847021802880178e-01 -3.3532589761639110e+03 -2.2508007585903599e+02 -8.4990279417795676e+01 -1.0065045626767642e+01 2.7821858009387279e+02 2.5594113610270983e+02 -9.3444951425286831e+01 -3.9305373002391377e+00 -2.2853660078776511e+02 -2.3082440717851441e+01 1.4322387700616928e-02 -1.4297332009809713e+03 2.5331276516300367e-02 9.9836760282242358e-03 1.7226433149633939e+02 1.8124248491335294e+02 1.7638090523139209e+02 -1.1068595594440091e-01 6.5513297450887964e-01 2.9558193247399288e+01 -1.0143335851509139e+01 -1.5825606334113083e+00 -2.2834290309993094e-02 -3.0918130235519129e+02 2.4732743691952408e+01 3.5549873768771067e+02 -1.5791601052015869e-01 2.5169364573348986e+01 -3.5809627314514722e+02 
      </Row>
      <Row Index="144">
        -6.2967681285499566e-03 3.4867321854198963e-01 -1.1646043621003628e+01 -2.0003062469140787e-01 -7.5200975540383297e-02 1.8169190652668476e+01 -4.1734169057011604e+02 4.1097865552760595e+00 5.5486166386743474e-02 2.0351495275258458e-01 -7.7884711630991660e+01 1.4605718879401684e+02 1.8353660423308611e+00 -1.8706449329329189e-02 7.3708689512877754e+01 1.0204811207950115e+01 6.8385389268398285e+01 6.5393346703785937e-02 6.5885306936688721e+00 4.4053466829936951e+00 2.3422649268468376e-02 -4.0500554481521249e+01 -6.2206128564866958e-02 1.1494207445502980e-01 1.2559137620031834e+02 -4.8520102456654422e+02 8.6308876909315586e+00 2.4144146660546539e-02 1.6878906588772224e-02 7.8606065233758272e+01 2.0560468400828540e+01 6.3493824740871787e+00 -2.0040227463323390e-01 -1.0774914086423814e+02 8.1378410053439438e+00 -8.9178311608731747e+01 -1.8042184495789115e-01 5.3447828935830643e+01 -7.5696268893079832e-01 1.2583421545696183e-01 -3.8543531227824133e+00 -5.0101278158763307e-02 5.8581110504746903e-02 -4.1515178382396698e+01 -1.6876331044733524e+02 -1.1930500102162114e+01 4.8302328590807520e-02 2.2543400695440141e-02 1.1963055105414242e+02 -2.4952594214305282e+02 2.3706599819706753e+00 3.8876273894748010e+00 3.4096582222729921e+01 1.0027682893909514e+01 1.0233965945988894e+02 -1.9375521052825206e-01 -1.4473784673027694e+00 4.6282008334528655e+00 -1.0942475296815246e-01 6.8435804046690464e+01 4.8822093604030670e-03 6.2925195791990518e-02 -1.6246484792605042e+02 3.6253647085279226e+02 -9.9873207667842507e+00 8.0080791389036676e-03 -9.3937774437335975e-03 1.8081852442119271e+01 -1.3478426364460029e+02 2.3783500778517919e+00 -5.6436416120777722e-01 -2.1200764030613112e+01 5.2906364158334327e+00 -1.2332791982963681e+02 6.8572462008887669e-02 -1.2385313778023910e+00 -6.2558492182870395e-01 -1.9283495497256808e-01 3.5923559121787548e+01 -6.2256817360321293e-02 2.8492134380303469e-01 -2.7026897312549409e+01 1.8452681106328964e+02 2.8730540975229815e+00 -5.7088458852376789e-02 3.2502614967825139e-02 -6.1009399558883160e+01 1.7481623793207109e+02 -3.9278574248310179e+00 -1.4109277906536590e+00 -9.6881054556339237e+01 1.0252314462326467e+01 2.9321320187766105e+02 -1.5522463929846708e-01 -4.3071146942675114e+00 5.4679658904206008e-01 -1.1658420739513531e-01 -7.5462350785732269e+01 -3.1010626735223923e-03 8.2688034333841642e-02 7.9946304215816781e+01 2.0155322686641011e+02 2.0615112872284953e+01 -3.2263441376016999e-03 -5.6329441213165410e-04 2.0691007684916258e+01 2.0525485070003197e+02 -2.6842474277364090e+00 3.8133318062864419e-01 -1.7568408492207527e+02 -1.6313923764391802e+01 8.3780022889375687e+01 4.1831024227576563e-02 1.5000941615551710e+01 3.3666563882434275e-01 5.3298748911038274e-01 9.1272305872640572e+01 1.9301094124330120e-02 5.5599334155886027e-02 -1.3298714136844501e+02 -9.7662111450918019e+02 -2.4150072109552639e+01 -8.4521725732713548e-03 -3.4596468343096376e-02 -1.5283121359607321e+01 -3.9008043308975175e+01 2.7758748445885431e+00 1.2143632458319189e+00 -2.1538727685809135e+02 6.7462226719690079e+00 2.8689141124944626e+01 -5.1865105395336286e-02 -8.0810890103457496e+00 1.6370545409954502e+00 -5.6695602808031254e-01 -8.2500115394592285e+01 9.9063370356816449e-02 1.0750005162481102e-01 1.9461800449993461e+01 4.3689211463928223e+02 2.0944529484724626e+01 -1.7896073075326058e-01 -3.4037348354513768e-02 6.5590621953830123e+01 3.2909753653366602e+02 -3.6587241563423445e-01 -6.5373060753336176e-01 -5.4694483336526901e+01 9.2414537258446217e-01 -1.4816919648647308e+02 6.5435794676545991e-02 -4.3508086707442999e+00 -3.4366143358751637e+00 3.9292652038134361e-02 1.4212553069437067e+02 8.9992945974756725e-02 1.0368667199379336e-01 -8.6437670653068778e+01 4.5579168357303917e+02 -1.2543734457976035e+00 1.3830675742268032e-02 1.8301081693640718e-02 -1.1692689794867862e+01 -2.2439290259846592e+02 -1.3682806651226425e+00 -2.2365076857110686e-02 3.7504639602266252e+01 1.6890174511135186e+01 1.1138037879019976e+01 -1.2555927453757788e-02 -3.1595518027725404e+00 5.4309409106941260e+00 2.4986853263818252e-02 -1.2165159523599341e+02 2.2719163031976630e-02 -1.1586201287988440e-01 -4.9222913286127692e+01 2.2556387871651881e+02 -1.0020560736617856e+00 7.7468815424549892e-02 4.9990826779159198e-02 -1.5148631446794695e+01 -4.9692354242247671e+02 2.6432184620174670e-01 4.1442385477865584e-01 3.3782531936051839e+01 1.0975147275377825e+01 -2.8146489545634881e+02 1.2800196083892662e-01 3.9079880475631121e+00 1.4718078038281819e+00 2.7422766057271813e-01 -1.0091145743657371e+02 8.5119572222138104e-03 6.6862522920509981e-02 -1.0270643898379043e+02 3.9793580967485309e+02 9.3104197387602525e+00 2.4953549587844820e-02 4.4705548007278962e-03 -1.3543564862070622e+02 -2.3285837261193146e+02 9.5709730574457996e-01 -1.3206460776892781e+00 1.0586274309642658e+02 1.6605961575655556e+01 1.2870083897288794e+02 -6.8897456997734752e-02 -3.3241294259205461e+00 1.1985027056795893e+01 1.3484802630652073e+00 3.3163670855744634e+01 8.2456786767389989e-01 3.2920662916802257e-01 -3.3776003765355381e+02 -2.2185100308387265e+02 6.8400107267695546e+01 5.8553152413674059e-01 7.1022771031833631e-02 -6.3791801323856009e+02 -1.4481693236999794e+02 -6.7874877957156725e+00 7.0486681133515248e+00 -1.7188224697645012e+02 3.5394751174471779e+01 8.1315451950539199e+01 6.5374045928214852e-01 -7.0097998827223392e+01 3.8730737457050335e-01 3.0365295544358316e-02 -1.5911330609885977e+02 1.0037803508618539e-02 1.9343497119990574e-02 -1.9729638061208679e+00 -4.7644547350875308e+02 2.8485381983201403e+00 1.5524807526681991e-02 3.0610555513172762e-02 -2.5285870810905422e+00 -3.2150751145661637e+01 6.8369314453614971e-01 -2.9632045660919430e-02 -2.7820779707835982e+01 7.3494123812267915e+00 9.7462723406544001e+00 -4.4795966991730579e-02 -1.2862278960531768e+00 4.7362457993324682e+02 
      </Row>
      <Row Index="145">
        -7.6847500164335614e-02 -1.8614164817964962e-02 1.2709519879193977e+01 -2.4600712830860516e-02 1.9955433939955469e-03 -5.4787234336981783e+00 -2.1994998231530190e+01 3.3779077386284868e+00 -3.9234727964160339e-02 5.7646924503309549e-03 -8.8900492455868516e+00 1.2747306325763930e+00 -7.8717940600909060e+00 2.9978621428085717e-02 2.3881821555823933e+01 -9.3490856450807769e-01 -1.8576458260416985e+01 -1.0051706046621689e-01 3.3587328369321767e-02 -5.2531550231651636e-01 -4.1586044813470835e-03 -2.6846482647408266e+01 -5.7517994754476831e-03 -7.0977206341495958e-03 -1.7384433560655452e+00 -4.0598545152075530e+01 3.1791181173030054e+00 -1.0907751905165242e-02 -6.5213315151169127e-04 -4.4991656838275560e+00 8.9456173104554182e-01 1.1620073220521590e+01 2.2014332972759121e-02 1.3401718459441327e+01 6.0190893744584173e-01 -2.2210365073988214e+01 4.0706972535105024e-02 -4.1593853792806756e-01 9.4076548541670491e-01 5.1329770723071988e-03 1.7047071590226039e+01 -7.9242007767845735e-03 6.3554328250177150e-03 8.1895400227804203e+00 -7.4590217405930161e+00 1.3740309112625653e+00 -6.0031873432215832e-03 5.3527117607643504e-04 -7.0625560374683118e+00 7.4755117711902130e-01 7.5977846339192183e+00 6.8463974341625544e-02 1.8960159568756353e+01 -1.2966342604322563e+00 -8.4433557686861604e+00 3.1558334273967148e-02 2.2703390052411123e+00 -7.0929469851671456e-01 -3.0984323815772541e-03 -3.2213816266157664e+00 2.4251603118059961e-02 2.4984134903992761e-02 1.5735147100931499e+00 -8.3848726566939149e+00 2.7624984870981280e+00 2.6741416237419102e-03 1.5854202978520249e-03 1.1123237016734492e+01 5.4736339260307432e-01 -3.7452532080789069e+00 -1.1328118857434788e-02 7.0574661180770439e+00 -1.7666212905137115e+00 -4.6841718689684058e+00 -8.2260796611990372e-03 3.2925309887700704e-01 6.2682655696153233e-01 -3.1540780048970873e-03 1.4526782895380165e+01 -6.4853410925707067e-03 4.3799257449432361e-02 -1.5213007793141969e+01 2.2536913594056387e+01 -2.1600897589012220e+00 -1.0711415797274526e-02 1.1683668995612351e-03 -1.8181939282985695e+01 -6.5603279022616334e-01 -7.1022639877173788e+00 -4.7362192542493631e-02 -1.8470895463324513e+01 -1.0433854982475168e+00 1.0671600049114204e+01 6.9096672396852910e-02 7.8958552109543234e-01 -5.0066076933308068e-01 1.7960886552259581e-03 -8.1998576400801539e+00 2.6624411625846278e-03 2.3210007824587819e-02 9.3772345727375068e+00 2.9732888485563308e+01 -9.4743546610425255e-01 6.5878170047994900e-04 8.9338932446736408e-04 -7.6452663488453254e-02 2.2379521791299339e-01 3.2178073203285749e+00 1.2512610015193104e-02 1.2001113798469305e+01 2.0064905158742476e+00 2.7279972390970215e+00 -1.6354696456289730e-02 -2.3316341069294140e+00 5.6109566414443179e-01 -1.3282995781366935e-02 -3.6482098396263609e+01 8.4304054016470786e-03 1.4787844584681409e-02 -2.0674132347157865e+01 -1.9639932126221538e+01 1.0073854428139271e+00 2.5640333799243908e-03 8.8578815259454657e-04 -8.6466138265245718e+00 1.9055787581964978e-01 -4.0005223484229759e+00 -1.6320739127593242e-02 2.5795920453965664e+00 -1.4079817452978318e+00 3.4034082147446796e+00 2.0207821930725345e-02 5.3269077564027612e-01 -1.9387557399602429e-01 2.3230700939052440e-02 6.3863047197461128e+01 6.4567185238217917e-04 -4.3580593942806445e-02 8.7430119234231825e+00 -5.7643890641629696e+01 1.6906675088157499e+00 7.3202464775050657e-03 2.0586580940948470e-03 1.6163058224832639e+01 -3.6587239437085373e-01 1.1045606366611327e+01 -5.6498721059597301e-02 -2.0467524319574295e+00 2.4896814352541696e-01 1.4724573002662510e+01 3.7674257564834904e-02 -4.1416892287088558e-01 -5.0070589357934381e-01 1.7554258225082258e-02 -4.8321476252468457e+01 -9.2566871730972722e-03 -3.3087817123335410e-02 1.6794406318043656e+01 -5.9976493930416517e+00 -3.8763555137142363e+00 -1.3125970905273142e-02 -3.5082308261224896e-03 1.2250213343873515e+00 1.1309457237076121e+00 1.9092588953783391e+01 1.0902839052139508e-01 -8.3316669730411377e+00 -1.9415692085873020e+00 1.1661873902150546e+01 -2.5410915642492891e-02 -1.3007104057731151e+00 -4.9365836996426005e-01 -1.1157796607048973e-02 -6.9969313335270460e+00 -2.7004732242117031e-02 -2.6459932486108288e-02 2.5614044468988158e+01 -5.3595109008096017e+01 -9.9510682178232135e-01 2.3802431375725928e-03 -3.4630394729374454e-04 2.9191227827234361e+00 8.3381359542194877e-01 -4.8381209383105066e+00 -2.2608639443385724e-02 -5.8232679333347956e+00 -4.5482845226829243e+00 5.4630454122310113e-01 1.6619447420541247e-02 -8.0878754230773087e-01 -2.2315776122273636e+00 7.4227755130839039e-03 -5.3385392604726558e+00 -1.3572695662674040e-02 -2.4952103344431063e-02 4.7877157084309836e+00 -3.4588772405883788e+00 1.0906910774889735e+00 -2.8745327301619075e-03 -6.6500336649633193e-04 2.2456248123752314e+01 -4.1082327091025661e-02 3.7876698968734015e+00 -7.3863549355914502e-03 5.5392939196678537e+00 -1.2813503362090142e+00 3.8753956013962920e-01 1.2059090902428540e-02 -1.2341527559838141e+00 -6.3381442220145487e+00 1.2441589462146148e-01 4.9546261841983927e+00 -1.6917062619762388e-01 -4.8865137446012796e-01 1.2130319924615360e+02 3.8569893023737976e+00 2.6666704418230811e+00 -1.2597805905572262e-01 -4.4417212400618813e-02 1.0803669340045928e+02 7.3464207872368661e+00 2.0085641596520709e+00 8.8059298357063298e-01 -7.5614491558881483e+00 -1.1485983446430227e+01 1.4164943753162056e+01 -3.4664969485380148e-01 -2.0733632107862547e+00 -2.7378769885977683e-01 2.3925358076988914e-04 -1.1994906584982090e+01 1.2690248883062447e-02 1.3178269915906583e-03 -1.9482079474989167e-01 4.9951315194866721e+00 6.8812876493662267e-01 -1.7950466199865393e-02 -2.2979780022023676e-03 5.4189516024159268e-01 2.0170337647655523e-01 1.9294205321829423e+00 -1.2392356612080926e-03 -6.9834097237160968e+00 -1.2852552591813766e+00 4.3258738201268443e-01 1.7397059324770051e-02 5.4393587595290338e-02 -5.6976964754529362e+00 
      </Row>
      <Row Index="146">
        -1.6295927109413100e-01 1.5968454066095727e-01 2.4334579939022660e-02 3.3493444719399079e-02 -2.4639226644541878e-02 -4.3960102311393712e-01 4.0970091354683973e+00 -2.8102458277919240e-02 -9.8070538016784906e-02 8.1792950856170776e-02 6.5245205584233190e-01 -6.4124794796225615e-01 -3.4269587094968301e-02 7.0431743781955447e-01 1.0023898174357555e+00 -9.2438131474409602e-02 -6.6854047399247065e+00 5.3795982416687593e-02 1.6765241145549226e-02 4.6083945103418955e-02 3.9897049977440702e-02 1.0565108344599139e+00 -6.1215739839681760e-04 6.0060018248037750e-02 1.5314390620915219e-01 6.0409980368694960e+00 -2.9896773587097414e-02 -1.4219560806431275e-02 3.4912598250276261e-03 3.6135782185037613e-01 3.2570855624726391e-01 5.0013111704174662e-03 -1.1083804707442084e+00 -1.8754291176082916e+00 2.1987762615026440e-02 7.8968673045164905e+00 -1.0379876901789942e-01 2.8228060578022238e+00 -1.4190268446191112e-01 -5.3886510919344488e-02 -1.8414253438013617e-01 3.5497829084455645e-02 -3.2888258847663110e-02 8.9630356670386391e-01 5.7032991589512676e+00 6.1268741672094507e-02 2.3348391147663072e-02 3.6218839903430222e-02 1.2639181172708049e+00 -1.3153522593238449e+00 1.1635186706371314e-01 5.4513625511154657e+00 4.9541695016123413e+00 -4.4601365023027029e-02 1.2847280230562319e+01 6.2775189353537542e-02 4.2292898254891043e-01 -1.7632738961447103e-01 2.6160581905138258e-02 -1.1229368641870678e+00 -1.1649697519352742e-02 4.4627839454412843e-02 8.7562576304480899e-01 -2.9054579444855335e+00 2.5098829814851342e-02 -1.2310505544582018e-02 -9.7178822937351583e-03 5.2854927847874933e-02 8.2725422157227513e-01 -3.2101794253719618e-02 -1.8405921214711327e+00 3.5550495717530453e+00 -1.0515467824407665e-01 1.0536404131715244e+01 -1.7980885773312139e-03 -8.9879141886086700e-02 -4.3421064964832112e-02 1.8888597314514755e-04 -1.3898078541387804e-01 -1.2358268747988177e-02 1.3716024086715439e-01 -7.4135331401657822e-01 -2.8151185603783233e+00 -4.1852071579342009e-02 -3.1604672532605349e-02 5.1528109530076804e-03 -3.8793110678670928e-01 -1.3569073876351467e+00 -7.6055106028434238e-02 -3.7845284704170297e+00 5.3053469421724326e+00 9.6180573169476702e-02 -5.2137343338090432e+00 -7.9605611435290768e-02 -9.2210301372688264e-03 1.8910125895831698e-01 -4.6165535935188018e-02 3.8576204099808820e-01 -3.8021442495619340e-03 1.6564829362806677e-02 1.5016652719805279e-01 -4.1576217522610932e+00 -6.7541676136329443e-02 1.5456917594551811e-03 4.2036226979753621e-03 -1.7647242228849791e-01 -9.0780555287165043e-01 -5.6180787946914279e-02 7.8316123939814730e-01 -4.8749075434170663e-01 6.5219249513120303e-02 -5.4678315474302508e+00 1.4732282642427208e-02 5.9752398713317234e-01 -1.3136376731029031e-01 1.5466351223915709e-01 -2.7395542327221847e+00 9.5138863192385514e-03 -1.2548512567420289e-02 1.2326945668319240e+00 -2.5662408258467622e+00 8.5473689766617511e-02 -1.4171562632225854e-04 1.4199149293426805e-03 5.5327769779404434e-01 -5.8586890447577389e-01 4.9024173553391392e-03 6.5962749154533640e-01 1.1050613336847164e+00 -5.3014589655376199e-02 -2.3913751416000082e+00 1.3051161815006651e-02 -2.5942426779124617e-02 -8.8954006927082219e-02 -1.6460224112506694e-03 -4.8946475591510534e+00 1.7528279761725329e-02 -7.6797751904678080e-04 -1.2366186655890488e-01 2.3599278796464205e+00 2.9631686330958473e-02 -2.0212333845806896e-02 9.6793255245421206e-04 -1.0079449397308053e+00 -6.5373060781604408e-01 -5.6498720968249927e-02 3.5013445650757831e+00 -1.1343502092277049e+00 3.9865828839538153e-02 -6.6245183063438162e+00 -2.1889519898432977e-02 -2.7784232904377859e-01 2.0736330434832251e-01 1.6773280480329453e-03 -1.0116302896010687e+00 3.6769671800199188e-04 5.1495843320564706e-02 -2.4121641110748060e-01 4.1398843405471304e+00 -7.1632477000765665e-02 2.3677432082120351e-03 3.8296248686536111e-04 1.1966302945304852e-01 1.1882524393720750e+00 7.3658768100729355e-02 -5.7105640885989573e-02 -8.7458102511554898e+00 -1.6939169177239893e-01 -3.5880764955145423e+00 -1.0314604761447379e-02 6.3128339395687583e-01 1.6652609766365933e-01 1.0607132443586910e-02 3.4294966811068317e+00 1.8168781256655997e-02 -6.7485882110445344e-02 -4.3986800610572985e-01 -2.6496006640803493e+00 -1.4693338727507027e-02 -4.9208917516005424e-04 6.8299240044609483e-03 -7.0008762087880427e-02 6.7311023739289166e-01 -1.0634957504887854e-02 -1.2374169892938287e+00 3.6445183253270574e+00 1.4596046098666027e-01 2.8000510444450022e+00 -2.2768191734630870e-02 5.4341035736104715e-02 -7.5548618231101428e-02 1.1303239557638084e-01 1.6918734724212543e+00 -3.0744873617094794e-02 1.1597962149467640e-01 8.2169484637379586e-01 -3.4180039784511873e+00 -4.5291392601625624e-02 -4.4107552971823567e-02 -4.5078245598164618e-02 -2.9174771963024804e-01 2.2717807549884830e+00 -3.7004064611930398e-02 -5.0338787976069597e+00 -1.2663909204924252e+01 -1.6522720946820790e-01 -2.4399537508427049e+00 -9.0084293855068054e-02 1.6124253007037623e+00 3.1149164346780811e-01 2.7895549542440834e-01 -8.8632629729462664e-01 -1.0120977726681007e-01 4.1439865647368235e-01 -6.0602458972208950e-01 1.1988836756664796e+00 -4.5085662769858947e-01 -2.3660222098850028e-01 -2.2388855300560895e-01 -2.0207261025085188e-01 8.1829900035875927e+00 -1.3927346898790838e-01 -2.9363244722054027e+00 -1.5701306507058632e-01 1.6125769154920899e-01 -3.1266317626121527e+00 -2.5132191937403198e-01 7.0002218074253975e-01 1.4001302648415354e-01 8.7331052083282710e-03 4.5495049087455186e+00 -5.5670214627680523e-03 5.9544762557860731e-03 1.5061644682098496e-01 1.9102901438771489e+00 -1.9444987594264898e-03 -1.3176999605326645e-02 2.6523006346539934e-02 6.3145265847039944e-03 9.8521527224426031e-02 -2.5127485854856690e-03 -1.0844870989861553e-01 -1.0858846077177304e+00 -2.7993204820461526e-02 -2.1981493842849886e-01 -1.8911778648004959e-02 -1.0315739694363968e-01 -1.8199682908955406e+00 
      </Row>
      <Row Index="147">
        3.4370194591595646e+02 -5.1972760845092125e-01 3.8804168877601624e+03 -8.3056552037305664e-01 -1.7968039476545528e-01 1.3896249406337738e+03 -7.7969240903854370e+02 1.1205497064828523e+02 1.2421208061647485e+01 -2.1493269067505025e+00 5.9823174780979753e+02 -9.5926959812641144e+00 -3.6897585287690163e+01 -8.0346606016391888e+00 -2.1594271819860962e+04 -6.6736426845192909e+01 5.9033029289245605e+03 -2.0744974145782180e+00 -3.7732244908064604e+02 -3.4319666134566069e+02 -7.8065920004155487e-01 8.7373375833034515e+02 -4.7739693603944033e-02 -5.2181901002768427e-02 5.8422945153713226e+02 -2.8949069934971631e+03 1.1716416746377945e+01 7.3281404047156684e-01 -2.6779434952914016e-01 -1.1318860409432091e+01 6.4044083654880524e+00 -1.7634482560679317e+01 -3.3600474340491928e+00 -7.7293209652304649e+03 -1.2190564341843128e+02 -6.5251939190626144e+03 1.7790303180227056e+00 -3.3599920144948001e+03 2.3118400578293949e+02 -6.4430548954987898e-01 1.5285273921780754e+03 -3.6240888558677398e-01 -3.1604453944601119e-01 -1.6932156042456627e+03 2.2047985792160034e+02 -3.1335772271332098e+02 9.5092262359685265e-02 -1.3629674695403082e-01 -6.3871729940921068e+02 -2.7421803340315819e+01 3.0861589534208179e+01 6.2693723184056580e+00 1.7144133353717625e+04 -1.5756930468603969e+02 5.7878905580639839e+03 9.7604897757992148e-01 -2.2438077126443386e+02 2.3895502793323249e+02 -8.3953550699516200e-01 2.7668350137174129e+03 1.2662443645240273e-01 -2.4494192550719163e-02 3.3754860609769821e+02 1.7609416729211807e+03 3.8904200669378042e+01 5.9684696296244510e-02 -1.2667424573010067e-01 1.2911883147619665e+03 1.2923102708533406e+01 -8.6202591552864760e+00 -3.4460824496054556e+00 2.5678876964056151e+04 -3.7682131901150569e+01 8.9553363624811172e+03 -2.7514806168619543e-01 4.2671514041721821e+01 4.8067527050478384e+02 -5.3766483857179992e-01 -1.0258126127719879e+02 -7.4885686783818528e-01 2.2195750783430412e-01 -1.4390085433805361e+03 1.4925536990165710e+01 -8.2440477428026497e+00 3.0462028481269954e+00 -4.6873144459459581e-01 -1.1757552639618516e+03 -2.5382756620645523e+01 -1.8930140141397715e+01 -8.9393082796595991e+00 -1.4975614904025959e+04 -1.0243092347681522e+02 8.3157997117936611e+02 1.0375843826914206e+00 2.9196380579471588e+02 -4.6780938097648323e+02 1.1930471673258580e-01 -1.6990331401824951e+03 -4.1998671484179795e-02 5.9737688599852845e-02 1.0986328734271228e+03 1.8817084504608065e+03 5.6447127089835703e+01 2.4778434170730179e-01 -1.5488279532291926e-02 -7.2392119908332825e+02 -3.2362879365682602e+01 -3.0997063124552369e+01 9.8817549267550930e-01 -1.0024586766242981e+04 8.7035400621592999e+01 -6.5737471995353699e+03 -2.8783965553157032e-01 -4.4284650170803070e+02 3.2055174949532375e+02 -2.2840960515895858e-01 5.3322313667759299e+03 -7.0567652056342922e-01 -1.5138639029464684e-01 7.5271695533394814e+02 6.8838604717105627e+03 -1.4118557255953783e+02 2.9282638377617332e-01 -1.0377964981807963e-01 2.4097523089428432e+02 4.8051592521369457e+00 2.6889133564021904e+01 -1.7800224462989718e+00 3.0301727493524551e+04 -8.1591554533573799e+01 1.3703839462178388e+04 3.0532393665635027e-01 -3.2006341202626936e+02 1.5221061463141814e+02 -2.0014917161315680e+00 5.0211088256835938e+03 -1.2957397561694961e-01 -5.8944039046764374e-02 -2.9457094242423773e+02 3.7082028808593750e+03 5.5779296217486262e+01 4.7707298625027761e-01 -1.0601516171291470e-01 5.4494905686378479e+02 -5.4694474519696087e+01 -2.0467529273591936e+00 -1.1343502383679152e+00 3.0029076516166329e+04 -5.3716544687747955e+01 2.8689251556396484e+03 1.1612764725252545e+00 2.0400362610816956e+00 -4.1026116682458991e+02 1.2917269583557671e+00 -1.1255907855948337e+04 2.5582428895917295e+00 3.9365927531871625e-01 -1.4177780161419282e+03 -6.4064920727015788e+03 -1.3004880378187298e+02 -6.6310282056405234e-01 -3.4280041651157056e-02 -6.4000022959285695e+02 -1.2170445509555975e+01 3.1887053235888985e+01 -4.3400792735916767e+00 -2.8711055115491152e+04 -1.0551959770100407e+02 3.5024364899396896e+03 1.3907717425546138e+00 -3.6466729088000409e+02 -7.2688906565807554e+02 2.5311432561900382e-02 -8.1107186808186543e+02 5.3787729917194937e-02 1.5932303085294541e-01 -1.2424049690487841e+03 6.8700417085577283e+02 8.9464673446656775e+00 -2.4019519281021251e-01 -1.0802776938295984e-01 -6.8038666503426202e+02 1.3956074718542430e+02 1.8539609697288167e+01 -2.5424548557114672e+00 1.8511259184184273e+04 -5.9829502149654736e+01 1.9337364956648339e+03 6.7240254731614801e-01 8.3432307790671985e+01 2.0015675298382536e+02 1.7482740946206203e+00 1.7580670062272916e+03 7.0397711221199333e-01 2.4163185448873875e-01 4.9037460792956608e+02 1.3866498127818370e+03 1.8035282703558053e+02 -6.1954666259633906e-01 1.9814760814768376e-01 1.1024607291342372e+03 8.1950749512077209e+01 8.1823934266884208e+00 -2.3671917704188203e+00 -1.6412533352725150e+04 -7.4315549815195737e+01 -1.2934946348843592e+04 1.3170679444015712e+00 -3.2329252293705940e+02 -1.2150527953538292e+03 1.7387117619006389e+01 3.6866172559831557e+02 2.3609336184379309e+01 4.6300266654055369e+00 5.6010955185850889e+02 -3.3149601917324162e+02 8.7503451790400891e+02 2.8593924320879838e+00 2.7287385667889041e+00 2.5792492317090246e+03 -1.3462163542934826e+02 1.1366795655165629e+02 -3.3228569745632058e+01 -9.1678905187255696e+03 6.6892837836810159e+01 5.8097343015899478e+03 8.8389037517234286e+00 4.1055213564359328e+03 -2.0673313187337794e+02 5.0528397242390194e-03 1.2446093057391909e+04 3.6539548933561206e-02 -1.5752671011566230e-02 1.2799155397717432e+02 -9.0378665128311222e+03 6.5116487055226997e+01 2.9509026410767834e+00 -8.2374032808513786e-01 -1.7188628795195501e+02 -1.4490040167595875e+01 3.3009068387980776e+00 -2.6864556702046649e-01 -3.0312292274176536e+04 -6.2707117898574197e+01 6.4471380889197753e+03 3.4857940116469965e-01 2.0929685551197849e+02 8.9733771263212857e+03 
      </Row>
      <Row Index="148">
        -6.1534361890392120e-01 -5.7495113385584773e-02 -3.7527117185294628e+01 -1.4383667944684930e-02 -3.3630511900923921e-02 -2.7991261621005833e+01 5.6212647311389446e+01 -6.5853149751728779e-01 -5.8469955566102683e-02 -5.3551801412368150e-03 -8.6036432691616938e+00 2.6286011058837175e+00 -2.8312140046618879e+00 -1.0588371431367705e-02 -1.6350125353783369e+01 -2.9877839100081474e+00 1.3011335527896881e+02 4.4846061782664037e-02 4.6321110806893557e+00 1.4379160143435001e+00 -7.5429430471558589e-03 -1.3473090594634414e+01 -2.5422102553420700e-03 -1.5617890815519786e-02 8.2388439774513245e+00 9.8444048606324941e-01 -1.3836476858705282e-01 1.3159271093172720e-03 -5.6475320109257154e-03 5.1975852622872480e+00 1.1009695138782263e+00 -3.1020848610205576e-01 3.8159754431035253e-02 -7.3993700537830591e+01 4.6133200209587812e+00 1.2675030840560794e+01 4.3272333996355883e-02 5.7900007893349255e+01 -1.0310941926436499e+00 6.7020845008300967e-03 -3.2794032653466274e+01 -6.2056674341874896e-03 -2.0148196357695269e-02 9.5783730037510395e+00 -8.5243125289678574e+01 -1.2409379352775431e+00 1.1734359188722010e-03 -6.4113365979210357e-03 7.0294099202146754e+00 2.0807015676982701e+00 1.7430040049948730e+00 7.0811348838105914e-02 -2.6550742956576869e+01 -8.3425604894291610e+00 1.0403937120363116e+02 8.5867401019640965e-02 2.0987289509736001e+01 7.3191409182618372e-01 3.7419163362756080e-02 -1.3527295704931021e+01 4.6244873522482521e-02 -3.5657918747418194e-02 5.0379142403602600e+01 -3.3683956737536937e+02 1.7399653464090079e+00 -7.1580222680722727e-04 4.9968369161206283e-03 3.5698261812794954e+00 3.1204922207398340e+00 -2.8308776732083061e+00 -6.0980300489063666e-02 -6.0182447730395410e+01 1.1922616181256672e+01 -2.8416743295267224e+01 1.3363326121179853e-02 2.2131503780838102e+00 -1.8959638030646602e+00 2.7349026649517327e-02 -7.4584851637482643e+00 -9.7737455980677623e-03 9.7741029451299255e-03 -5.1929782604565844e-01 3.1514723310247064e+01 2.6430365303531289e-01 -7.8013907123022364e-03 -2.9018310049195861e-03 -4.5643763720407151e+01 -1.0902118645608425e+00 -1.9391826245700940e+00 1.3707147281820653e-02 5.8123626830159658e+00 1.4074865857604891e+01 1.2867041476117447e+02 1.0818225713592255e-02 1.9154616557061672e+00 1.7258527015801519e+00 1.2421896246905817e-02 3.3888698622584343e+01 4.5878845012339298e-03 4.5765555123580270e-03 2.2792911801254377e+01 5.1845163862628397e+01 -1.5932252432758105e+00 -3.8804442669970740e-03 -1.3727015793847386e-03 -3.1943256951868534e+01 7.5725456024520099e-01 -2.5588345268624835e-01 1.2632789305280312e-01 -3.5943376749753952e+01 1.0997184809646569e+01 9.8499682374298573e+01 -6.5945492369792191e-02 1.1451204929500818e+01 -1.3466798961817403e+00 -7.2413556281389901e-02 2.6693729219259694e+00 6.3035003049662919e-03 3.9368043943795783e-02 -6.4925553668290377e+00 9.3575461050821468e+02 7.6336595518387185e-01 6.0590415591974534e-03 8.8269917855541280e-03 -9.1004474533838220e-01 1.3161532194353640e+00 -2.5349806787198759e+00 7.6399773002776783e-02 -1.4526445558667183e+02 2.0635377312628407e+00 6.0412165355845985e+01 4.6455188321033347e-02 1.8625575434365601e+01 -1.7916411883197725e-01 5.8577113799401559e-02 -3.6692569971084595e+01 -4.4750642912731564e-02 2.0457370381336659e-02 -1.6255259992787614e+01 -5.7316399836540222e+02 -8.9378699025837705e-01 5.6327903507735755e-03 3.1411687111809776e-03 -2.7539225827436894e+01 9.2414538338198327e-01 2.4896815679312567e-01 3.9865828555775806e-02 -5.3716538850218058e+01 2.3849949581548572e+01 -9.0012906193733215e+01 6.6473956084867711e-02 -2.4273072648793459e-01 1.7459183520809634e+00 -7.3663009651718462e-03 -3.7769174128127695e+01 1.2788586881911340e-01 -2.9138723462341309e-02 -1.6500668692774678e+01 -5.7756100752032057e+02 1.5488710668823074e+00 9.1151845545702458e-04 -1.3259101020283904e-02 -1.6565885227879217e+01 6.7336893224435244e+00 3.1615862939229760e+00 2.0124717717690627e-01 4.8297303384169936e+01 -7.4024448138095575e+00 1.6940787603147328e+01 7.6042899333806729e-02 3.1729903121516352e+00 2.1544714635837843e+00 -5.5907956820368827e-03 6.7166089815300424e+01 -1.3608254394908523e-02 -2.3918614402240537e-02 -1.9554843438153955e+00 -5.1269114694482937e+01 2.3105905828676510e-01 2.9962567806689254e-03 -1.3798748634227908e-03 -2.5784655202256687e+01 7.8191016120946699e-01 -3.2586903325881029e+00 -1.8270339882814665e-02 4.7307353906343891e+01 5.8852808782706365e+00 5.8816252497671712e+01 5.5775671680631786e-02 2.8928262723262499e+00 2.8301448999145853e+00 -3.5206029138561985e-03 5.6415404464203590e+01 8.0922226341952994e-02 -2.0279476643724165e-02 2.7979002063588972e+01 -1.8005577197906894e+02 3.6185049947705652e+00 -1.4939630680331699e-03 -7.2719577764370109e-03 1.8175132802610552e+01 -6.0330512216899557e-01 -2.6785802639070813e+00 8.9309954688977317e-02 2.1840845949589124e+01 -1.9736587889051457e+01 1.4301109935732177e+02 7.2283264553768156e-02 6.9332806156016886e+00 1.4832857367937185e+01 -4.8126302090567508e-02 -2.0680735303257883e+01 1.3265471574634751e+00 -4.2054843052777791e-01 7.3606146765227010e+01 1.3736529396615734e+02 1.6977676911587565e+01 -5.2035820834379715e-02 -1.5237026577689081e-01 6.4494396953195576e+01 6.2876349955068854e+01 -1.8955573032917002e+01 1.9098365409551974e+00 -9.7846201641879816e+01 -4.1206057901914328e+01 -5.1097864864158623e+01 6.4092115745449219e-01 -4.3994813222763767e+01 1.3325961638364241e+00 -3.0388998001093649e-03 8.5127269387711777e+01 1.0994558500202292e-03 1.1006068675534215e-03 2.1586662180165916e-02 3.0172854814680124e+02 -2.2466792542772205e+00 -8.5164209630243758e-03 -1.5847785099099593e-02 -4.0940078414195114e-02 6.5402240289745406e-01 3.3794785478772871e-01 3.1837921827926820e-03 2.7025318000862569e+01 -1.8103112900086702e+00 -6.9296728478943805e+01 -1.3620792886638797e-03 -1.6317353029161903e+00 -2.9946575723849173e+02 
      </Row>
      <Row Index="149">
        -3.0862283958162152e+01 -1.3900161362889776e+00 -2.5042110942602158e+03 9.0387114922814362e+00 1.7331845521903233e+00 -4.7534230771660805e+02 3.9411824725866318e+03 -5.8994682012020348e+01 -1.3586946403952602e+00 -1.1674323650919177e+01 -6.5434994270000607e+02 7.1520658195018768e+01 -9.0724138710647821e+01 1.3651975217217114e+01 -8.0299302359223366e+03 1.7862949611432850e+02 1.0513005742549896e+04 -3.0462738451897167e+00 2.6739363207295537e+02 -1.1483144222386181e+02 6.2764672248158604e-01 -3.7130974471867085e+03 1.1614358595470549e+00 -6.2973261019942584e-01 -1.2798115909695625e+03 6.6701657462865114e+03 -4.9762437865138054e+01 -9.9050335702486336e-02 -1.0012729433183267e+00 2.5960298304836033e+02 1.6131212517619133e+01 2.7733816784806550e+01 3.2039284324273467e+00 1.4514241922363639e+04 3.6802578859776258e+02 -1.9010415603280067e+04 1.2822643166582566e+00 -2.1767914393218161e+03 4.4619273547409102e+02 7.8505041474272730e-01 4.5821360389913025e+02 4.3508359079714864e-01 -3.6454560045967810e-01 1.1240690624564886e+03 -9.0512376096248627e+03 -1.0628521126860869e+02 5.2351097154314630e-02 1.0714102019119309e-01 1.9472864685989916e+03 -1.4846800639852881e+02 1.4207355426717550e+02 -1.6718144307378680e+01 1.0518879256673157e+04 -5.2461403443850577e+02 6.3311847018599510e+03 -6.8753562447091099e-01 -2.7976352113112807e+02 -6.8717625539749861e+01 -1.5355454958989867e+00 -2.0939618937224150e+03 -2.4974233180691954e+00 3.0419093337650338e+00 -1.1263743336796761e+03 7.3280917489081621e+03 -2.1536714365333319e+02 -2.1983668817028956e-01 -2.1572305482277443e-01 -8.6601228137128055e+02 -3.6755108341574669e+01 -4.7302362671471201e+01 4.1805976303294301e+00 -1.2784178441798740e+03 2.6697940864722477e+02 1.3592732062786818e+05 -1.1724871711048763e+00 2.9899520516581833e+02 1.6394798486330546e+02 3.1227127897218452e+00 -1.3167144262790680e+03 2.4557287077186629e-02 2.1016685089689418e+00 9.8547840639296919e+02 -3.9465500259399414e+02 6.3609682844718918e+01 -5.6059215053392109e-01 -3.1335314710031525e+00 1.1528035428645089e+03 -2.0215012107789516e+02 -1.0847847944125533e+02 -1.5795137032691855e+00 -5.2444638490196507e+04 8.6209374554455280e+01 -5.5572145580969751e+04 4.5982438739156350e-01 7.6757090961933136e+02 -4.2832157253753394e+01 6.5368547638718155e-01 1.6865527743101120e+02 -2.3815262999705737e+00 3.8524450853583403e-01 -2.6145691056847572e+03 -3.0300201740534976e+03 9.1250068977242336e+01 1.7581212694494752e-02 -2.5407807452575071e-01 -4.9492825481295586e+02 -6.8243611853569746e+01 1.6077468092553318e+00 -8.9025278837652877e-01 6.1639749786138535e+04 -2.6165765934064984e+02 -6.6165296779870987e+03 -4.0148191910702735e-01 -4.0291554737091064e+02 1.6404464803612791e+02 -5.6759937388706021e+00 -3.1140067474860698e+03 -2.0539575877937750e+00 1.9219798670746968e-01 -4.6284976484999061e+02 -3.6833491953760386e+03 -4.1256049413281289e+01 6.5117740655750822e-02 2.3327547339954435e-01 6.2700871785532217e+02 -2.0433942973613739e+01 1.0774502270817175e+02 4.6207273448817432e-01 1.5300496312379837e+04 -1.8338758833357133e+01 1.4795885810147278e+05 -3.4049892435359652e-01 1.1648537045350531e+02 -2.3137576347682625e+01 4.2235473805340007e-01 -5.2021107540130615e+03 4.1498446190998948e+00 9.6223841229220852e-01 6.1515353762358427e+02 -6.2094486312866211e+03 -1.1101297463942319e+02 9.1507471945442376e-01 -7.8674233965591922e-02 -3.7208849604427814e+02 -1.4816920031001791e+02 1.4724573201849125e+01 -6.6245182943530381e+00 2.8689251475855708e+03 -9.0012903653085232e+01 3.9610088703584671e+05 -9.0874846565174527e-02 3.2618155662715435e+02 -1.7314079365391314e+02 -1.3928401531706996e-01 4.8941323808864390e+03 5.5183731994340466e+00 1.3262072882825624e+00 1.9941245277841799e+03 -5.8740561657402686e+03 2.3760373976123591e+02 4.9666986310148975e-01 -1.2728663908972517e+00 -3.1211472899213305e+02 -1.9543781635793493e+00 9.6580792010410320e+01 -2.0349492871892711e+00 -1.4504835070818663e+03 3.4725950657006706e+02 3.3490619326829910e+04 -1.3668845649056309e+00 5.3843306332934435e+02 -1.0277076009671202e+02 -4.6906203782005882e+00 1.8728431964515280e+03 2.8075425884791678e+00 4.0659055873912436e-01 3.0982110590754560e+03 5.6428383205537539e+03 4.8465443193339631e+01 4.0938316605719266e-01 -1.1334683495554745e+00 4.3486426619359668e+02 5.1445876908010291e+02 -3.1714017419324108e+01 -1.4761685590039381e+01 1.1180612605454530e+02 4.3304236162375297e+01 6.6088053257913543e+03 8.9044759047395361e-01 6.1673643628450350e+01 2.9617633236607986e+01 -2.5882083229037014e+00 -7.6262549357826720e+02 1.8570468545645760e+00 1.6894630803557171e+00 -1.3706111520439586e+03 4.7632807317208762e+03 2.8555058680331427e+01 8.7791012205816676e-01 -1.0120031432718739e+00 -1.6313450782838036e+03 8.0533256356315803e+01 -4.1649575590677671e+01 2.4147994657883970e+01 5.9110773023209185e+02 5.2836359770610932e+02 -2.1675116607702323e+04 3.7578898107238135e+00 5.2832215901464224e+02 -1.3334198074591248e+02 -2.5543793563489970e+01 -5.2955605528378135e+02 4.4595845579144495e+01 1.6840122735189023e+01 2.8340289504222947e+03 -2.1195624051932109e+02 6.2260658766422762e+02 8.8265158122776999e+00 -8.8117125834504861e+00 -8.2007733576659102e+03 7.3379786980650215e+02 -3.5062136090301237e+02 -3.6157907622948642e+01 9.6562556244564257e+03 1.6297003743941250e+03 -1.2830237154712690e+04 -3.4258247634793690e+00 7.2322925527795633e+03 -7.0172414316318992e+01 -3.1708546955192068e-01 -4.8376136498012274e+03 -1.0475569020793170e+00 1.4010379130736461e-01 -3.6805926661502463e+02 3.6078008245543624e+03 -1.7526438849737232e+02 -1.3084404264682234e+00 -7.9284777812103888e+00 2.1291332395219740e+02 6.8614772925005827e+00 2.3053301447973134e+00 1.9761394560733236e-01 -6.2420658603419179e+03 7.1966966054176822e+01 1.1989430671171867e+04 4.1472624902920385e-01 -1.7837648035675375e+02 -3.4252642753736304e+03 
      </Row>
      <Row Index="150">
        3.1672682207362968e-02 2.5936717461236825e-03 7.8673623315989971e-01 -1.5122456036852405e-01 -2.5499919431800855e-02 1.9233417180657852e-02 1.6886268615489826e+00 -4.1446039900854714e-02 6.5652341495413102e-02 1.1840154890824017e-02 -5.4555234293729882e-01 1.2786660189885879e-01 -1.0929345307886251e-01 2.9980831233245908e-02 -1.3582984206732363e+00 3.6809554329011007e-02 -6.1292798537760973e-01 -7.3496555366001814e-01 1.6948981419045595e-01 -6.1965709794094437e-02 -2.3082338627233412e-02 3.2530852370837238e-01 3.4237064060320677e-03 -1.5679946208802420e-02 -6.5813085413537920e-01 1.7670735067940768e+00 2.5801260198932141e-04 1.8311352018088201e-02 1.8401350182273291e-05 -2.9742145737145620e-01 -7.8090326751407702e-03 9.9841047955578688e-02 -3.1479261049739193e-02 -4.2637195579154650e+00 -1.5745603199138714e-01 4.3770741557673318e+00 7.5030352113196841e-01 2.6469689720072503e-01 6.6926520486731533e-02 -1.5658235577372892e-02 -1.7834017367273987e+00 -1.0385506782952802e-02 2.2368616050215451e-02 1.3474972503172467e-01 1.9040736168972217e+00 -7.9118071985220695e-02 7.7955061400558634e-03 1.1166554480137592e-03 -1.3656984445788112e-01 -1.4817583472904516e-02 1.5730538622847234e-01 1.6339089689680009e-02 -6.2943508512034896e-01 3.9495842946962512e-02 5.7800009993661661e-01 6.4880890298140059e-01 2.1614828604106151e-01 5.2767122402656241e-02 7.6105353537343490e-03 -2.1030495054219500e+00 1.0145729015575711e-01 1.5149246880895695e-02 3.0107353410858195e-01 -2.1116783733596094e+00 -2.0598947594407946e-02 -2.7336308463770109e-03 1.1306578642988896e-03 -2.9882340280983044e-01 -5.2610137559895520e-02 -1.1656115999869598e-02 2.3228071861993271e-02 5.3389160995223917e-01 1.4547541071088688e-01 -2.8105115657235729e+00 -2.1691517758208079e-01 -9.3447271837248991e-02 3.8690585336667027e-02 -1.2544664390112814e-03 -1.0846601033699699e-01 1.5994787003791089e-02 6.1186194146323203e-02 -6.2937767409448497e-01 -8.7163449678337201e-01 -3.5906249715026206e-02 2.1371746088348686e-02 2.0666092275654080e-03 -8.6458964516214110e-01 1.1786865071917418e-01 -1.3548903362152487e-01 3.2831411690182222e-02 4.2790889294646215e+00 -3.3935375427972758e-02 2.0573999288899358e-01 4.1249365308298280e-01 -2.6412679452914745e-01 -6.5334791609984677e-02 6.1289285660741655e-03 -7.9891426564427093e-01 5.6877646061124665e-02 3.6372843473991168e-02 -1.0971906287522870e-01 -8.8645358955091069e-01 9.7171996632141600e-03 -3.4225205620757038e-03 2.5458003526779294e-04 1.6412162825872656e-01 -2.1907035650656326e-02 -3.8130827082113683e-02 9.2259012930213657e-03 -3.2279210851993412e+00 2.5224139077181462e-02 -4.8676422321004793e+00 -1.7521463603941356e-01 4.7068199957720935e-02 5.9018296230874512e-02 -1.1970882242110292e-02 -9.1587926052034163e-01 4.0049408337523573e-02 -3.7508775912158399e-03 -5.5053692552610300e-01 5.3831012358787120e+00 6.4476992036972547e-03 3.0524160871415740e-03 1.6686287302966063e-03 -1.4288741230546975e-01 1.8610809534948203e-02 -3.3129433687690835e-02 2.7575927456950922e-03 -5.5129886779468507e-02 2.5172623262761817e-02 2.6338553784898977e+00 1.1348849268053485e-01 2.4738544166154952e-02 3.9032651965470677e-02 -8.6984371512244252e-04 -2.7596123814582825e+00 -7.4638933324418844e-02 -5.6415920059407654e-02 -3.3165355339951930e-01 -3.1535520665347576e+00 -2.5163465147670649e-02 1.5859004785397701e-02 2.9353323895019842e-03 -9.7269686799336341e-01 6.5435796022711656e-02 3.7674257653151244e-02 -2.1889519905471388e-02 1.1612765417849005e+00 6.6473955292167375e-02 -9.0874875197187066e-02 8.8059762118712803e-01 5.2797638520132750e-02 -7.8612604845105211e-02 -1.6176077157883260e-03 1.2721675249072271e+00 2.8798914587546964e-02 1.8056328409936828e-02 -4.5293734786606232e-01 -1.8001387766658858e+00 7.9287042032013796e-02 -1.1490854341942255e-03 2.1947045310346802e-03 1.8958145844787466e-01 -2.1000912476917932e-02 2.2551989227212110e-01 -6.9198639271145623e-03 -1.7043272704104311e+00 1.9633999065947594e-02 -2.0441259664949030e+00 2.8579631022491614e-01 -9.8577191231660422e-02 -1.1962559069273637e-01 -7.7152753124393875e-03 1.3386739680533388e+00 -1.1456947866718886e-01 -9.8638391597742764e-02 1.0075168668704739e+00 -2.4543169670458180e+00 7.1719013934624654e-03 3.8901318757934567e-03 -3.2687839462369720e-03 6.0182431219330823e-01 -3.7538312318716682e-02 -3.0584752467944010e-02 4.8942458889109780e-03 4.6801979154899236e+00 1.1321053005389381e-01 -1.8813940673879301e+00 2.9918887131126026e-01 8.9917674353598098e-02 4.2386944697815759e-02 -2.1216448892506616e-02 6.9212961958565422e-01 1.4169662969987784e-02 -2.4915355479636716e-02 -2.3301230096927905e-01 -3.4416855333619711e+00 1.1836568888185428e-01 9.3625903592192208e-03 1.2993144800437710e-04 4.4408435658713641e-01 1.1808592094775083e-01 -1.4446286366267547e-03 -1.0764567952959471e-02 -2.9817418411635330e+00 -2.6190183499814412e-01 3.4683656725563368e+00 -1.6093847671550265e-02 -2.1600163051334675e-01 -2.3805247962155951e-01 -8.9070838263780816e-02 -8.5888814570846961e-01 2.3729825736532234e-01 -3.2843033045077852e-01 2.6639759514862789e+00 1.6367658451730165e+00 6.2318768758189336e-01 1.0921002862377607e-01 -3.3323411428375430e-02 4.8231862984484266e+00 5.3033312086456696e-01 7.9417178250646980e-03 -8.7189623731240840e-02 1.0559204937456101e+00 -4.6767137392391156e-01 2.2395735199911293e+00 -6.0695774312169060e-01 6.3581958094616198e-02 -4.4227741287350929e-02 -7.9041095454795182e-05 5.2520214930518563e+00 2.9853552601624860e-02 5.4576999975900079e-03 -9.1366234036538430e-03 2.3329113301111541e+00 -5.3000528916360354e-02 1.2819156853872471e-02 -8.7178415524173970e-03 5.8935204057991797e-02 -6.7436205456876674e-03 3.2900493967917957e-02 -3.6163160070826466e-05 -1.2691358651146842e+00 -1.2176514832783258e-02 -4.1745237235346622e-03 8.2567140348925719e-02 -4.1251816772401639e-02 -2.3526894413582271e+00 
      </Row>
      <Row Index="151">
        -2.9367109800228377e+00 -2.4403662138541904e-01 9.9459199532866478e+00 -9.2343653582020124e-02 3.0329067577099522e-02 -1.3158805143088102e+01 -1.7423171579465270e+02 -1.8938654572559699e-01 -1.0229984744368681e-01 1.3448796227345383e-01 2.1799810259806691e+01 -1.8829992315731943e+00 -1.5874450318515301e+00 -7.6082869331185066e-01 6.3201931322924793e+01 1.4677474458003417e+00 -1.6645756340771914e+02 3.8179889806997380e-03 1.1629198672831990e+01 6.9029742869897746e+00 2.2680190222672536e-03 -2.5021278545260429e+01 1.9621892269469754e-02 -2.4905457377144558e-02 -5.2840372601523995e+01 -3.0713871247693896e+02 -8.1844921479932964e-01 1.4777496071474161e-03 2.1561449164778423e-02 -1.9979330576008579e+01 -7.7433013799600303e-01 -6.6956308210501447e-01 -1.0346177965493553e-01 -9.8604774266947061e+01 -5.6594193460186943e+00 -7.0758584596775472e+02 6.2672886315340293e-02 3.6143269254189903e+01 -1.9309615435922751e+00 -7.3050392418281263e-02 -4.9342383737746331e+01 -8.8903259497783438e-03 2.0989015333725547e-02 2.6888789378572255e+01 -8.3756427198648453e+01 1.2356855216426084e+00 7.1906649290554014e-03 -3.0383294592638777e-02 -7.7113928156963084e+01 6.4432054754579440e+00 1.1534596764831804e+00 -1.2096835294050834e-01 -4.0148036665050313e+01 8.8522144684393425e+00 1.4144909402914345e+02 -4.1591760459596117e-03 -1.5833323295891751e+02 -1.0633138940160279e+01 -2.1945821183635417e-03 -3.0090730955824256e+01 6.0540601764159874e-02 -1.0893329834644305e-01 -9.0134590854868293e+00 -9.1710958370473236e+01 -3.2403999046073295e-01 -8.7698756107954523e-03 -1.1019069813698934e-02 1.6224715585820377e+01 1.1763645783357788e+00 -2.6722832153609488e-03 -2.1974029642910864e-01 8.4666069797296117e+00 4.5534938489345222e-01 6.0854248354677111e+01 -7.2979545029738802e-02 -3.7588926609023474e+00 -1.1373636990123487e+01 4.6139793641486904e-02 4.6601277034729719e+01 -3.8873262023116695e-02 1.9113364595739313e-02 -2.8304291399399517e-01 1.0326189371291548e+02 -5.7937304933147971e-02 -2.6886808315566668e-02 3.5388387386717568e-02 -1.6807390991394641e+01 4.6903856098651886e-02 -3.4282104109297507e-01 -1.2071738264876331e-01 4.3856357889341950e+01 -5.2610313004115596e+00 -4.1269391836714931e+01 5.3449217155502993e-02 -5.5418213143013418e+01 1.2334028841345571e+01 2.3049995992096228e-02 -4.1797601558268070e+01 2.6266104043770611e-02 -1.7813745108014700e-02 -1.5796511863998603e+01 1.7566539277504489e+02 2.1429889378341613e+00 -7.9449001063949254e-03 -8.6101404693863515e-03 -1.5218245102092624e+01 -3.2023850609548390e+00 -1.5438861867005471e+00 -6.5834329045173945e-02 5.1833632782101631e+01 -4.0054510594927706e-01 -3.0649954594299197e+02 2.1494300850463333e-02 5.7393732635304332e+01 -9.2131199895193276e+00 -2.0028468736586547e-01 1.8724090307368897e+00 4.1666274030717432e-02 -5.4728149315224073e-02 -1.1169188587344252e+01 1.0107286725542508e+02 -1.4294139488763449e+00 1.5464996578145929e-02 5.5790214005710936e-03 -5.5095913552977436e+00 8.0091793637257069e-01 -1.2271054687107608e+00 -1.3155760272093175e-01 -7.1918854001909494e+01 1.4734573459099920e+00 -7.1479183683521114e+01 -2.8855803484361786e-02 3.6910023947752052e+01 -6.7021664059338946e+00 -9.4463802124664653e-03 5.8190491795539856e+00 5.4701657438727125e-04 3.1036663622217020e-03 4.3373213672311977e+00 1.9864460587501526e+02 -4.5212972647277638e-01 7.9244931441735389e-03 -1.3119864419189015e-02 1.1925922919763252e+00 -4.3508086391229881e+00 -4.1416892820598150e-01 -2.7784232906560646e-01 2.0400348495459184e+00 -2.4273075140081346e-01 3.2618155727535486e+02 5.2797638061733210e-02 1.0903763624979183e+02 1.4017684178599275e+01 8.3366307885196500e-02 1.0048254328916381e+02 -3.1272101019578474e-02 -1.1238811294802892e-01 2.3215485557625264e+01 -6.4091121899692283e+00 2.8279053264695140e+00 2.1504752681981903e-02 3.5037861724240241e-02 -2.9735894535954543e+01 -7.0094686956579721e-01 -1.3564363114202993e+00 3.5730516786595529e-01 -4.7443695459514856e-01 1.8132735556475836e+00 8.7105539929121733e+01 -7.9295700375862213e-02 2.1502543160536868e+02 1.5555686235393891e+01 -3.9553973513968319e-02 -3.9517227380177275e+01 -5.0654243716703878e-02 2.3646719060279028e-02 8.2063550804960741e+00 2.1300303903383349e+02 -7.7100037887714112e-01 6.2421349996832319e-03 1.7772875017026155e-02 -2.1209471552763773e+01 8.4153559583061419e+00 -1.1966853209804860e+00 -3.0998731823909786e-01 4.8476370295377265e+01 -1.3028863428635860e+00 -1.1035264060539987e+01 3.4771003013640528e-02 3.6541672294599742e+01 -5.4740620612940756e+00 1.3495048363533407e-02 -7.9321563523617556e+01 2.5540001830934550e-02 -4.8549065609184136e-02 -2.6318742654973658e+01 3.6347616136570650e+01 7.8577142883915485e-02 1.3699737760855712e-02 4.3136836805517845e-02 3.7059610253807037e+01 -4.6580942406565473e-01 -1.6319959024643786e+00 7.1169002063970060e-02 -8.0026802878763846e+01 -6.5156044812047682e+00 -7.1325909854899891e+01 -5.6807109768146992e-02 1.4654131990275346e+02 2.8232518357620858e+01 6.4357999374708919e-01 9.2856586614793741e+00 -1.7887519066040758e-01 -8.8092377971879721e-01 -8.0801565256009212e+01 -4.7030122443343885e+01 -1.8245128926427867e-01 1.0057592969278373e-01 4.1956946934252271e-01 8.3734837042648735e+01 -3.2007407037522846e+01 -1.4040152409878250e+01 6.6855660938127803e-01 5.7228142400039928e+01 -2.2169407524998860e+01 3.3107011973226093e+01 -6.9292422367631623e-01 4.3420530330038008e+02 3.9928695976263162e+00 -4.9575007979630117e-03 -2.5951011703420136e+01 4.5707208237995272e-03 7.9918660471007489e-04 -1.6096513258993781e+00 -1.1127655112013220e+02 6.2998234984073576e-01 -1.4179516152864835e-02 1.1108893669428671e-01 -7.0136285258755802e+00 1.4137115669933142e-02 4.9358514156060274e-01 -1.2975699566723960e-02 2.6517702236828654e+01 1.8117473636697934e-01 -5.0198351571270905e-01 3.0981386689099402e-02 -2.7536394193147217e+01 1.1052249458719677e+02 
      </Row>
      <Row Index="152">
        -4.2029573399421281e+01 1.9157942014743412e-02 -1.0654614482074976e+01 -6.7079348438994657e-02 -2.2774213523177878e-03 -8.2454138352302834e+01 2.2508053462952375e+00 4.9770906227648197e+00 -5.7384306421116948e-01 5.9787168890750308e-02 3.2936382470536046e+01 1.6616728596854955e+00 -1.2565173294278793e+00 -2.0994423601041490e-01 9.0875568663794547e+02 -1.2511848249705508e+00 -1.4162765877693892e+02 3.3885031059071480e-02 1.4053183940763120e+01 6.6109838157659397e+01 7.9816637849035033e-03 7.8007612754357979e+01 -5.0481888630997673e-02 -6.3569807424528335e-03 -6.6213155304081738e+01 1.6505467082868563e+01 1.4732972788624465e-01 -4.6508154962339177e-02 1.9041444429035437e-03 1.8523005273241779e+01 9.8427102656569332e-01 1.5320281456079101e+00 -9.0173494491864403e-02 -2.2989603951573372e+01 2.9344699686625972e+00 1.8823886758834124e+02 -3.6640198461100226e-02 1.3261354051669133e+02 -9.6541606819439039e+01 -4.9435391126735340e-02 2.6962970992477494e+01 1.7180835226554336e-02 2.7422477820891800e-02 6.6169391822535545e+01 1.9612659549713135e+02 7.3296483650094615e+00 1.2512782213207174e-02 -4.9184245688138617e-03 -5.3212836298334878e+00 -8.8022110052406788e-02 2.0555397299758624e+00 -2.2699538262531860e-01 5.3901300529640866e+02 9.6100721704860916e+00 -4.6603574945591390e+01 -3.0175148098578575e-02 -1.0089798027125653e+01 -6.5905847096502839e+01 4.6805077446379073e-02 1.0192761537618935e+01 3.9964851344620911e-02 -4.4819052832977491e-02 -1.3481691870838404e+00 1.6658810312859714e+01 2.1452077590802219e+00 3.1640114662820906e-03 3.2818597642858549e-03 2.2445345088199247e+00 -1.6791740471817320e+00 -3.1282021851257014e-01 2.2655234301305427e-01 1.7378487968411903e+02 1.6045650211694920e+00 -1.4161341270315461e+02 1.9905936751456466e-02 -3.5871016460150713e+00 -1.0133239465967563e+02 3.4061491071724959e-02 -6.5333151114173234e+01 4.2995846830763185e-02 9.1163841928704414e-02 1.2002395943069132e+01 -7.5693549094721675e+00 -5.3166421799542150e+00 -1.0758109248013170e-01 1.1169798462105973e-02 -3.8084439677812043e+01 -5.5384504692628980e+00 -7.2779238862858620e+00 4.8487814946929575e-01 -9.7189046253715298e+02 2.0152921141707338e+00 1.6493513843981782e+02 -7.0059818503523275e-02 -1.8699964381754398e+01 9.2213769851798133e+01 -4.6657612861622511e-02 9.1869071763008833e+01 -1.9934858646593057e-02 6.1111523895533537e-02 -3.7448107506323140e+01 -2.9828852533973986e+01 -8.5275336671784316e+00 -4.1058451136279928e-02 -2.3503370002799784e-03 -8.9370828578248620e+00 -1.6488080701674335e+00 -3.6965140734537272e-01 -5.1413299285763969e-01 6.1803869143128395e+01 -2.3053178660920821e+00 2.3239905261062086e+02 5.7810298791537207e-02 4.2987503550946712e+01 -9.5782189666892009e+01 -1.4842971034454422e-02 3.5149042777105933e+01 1.4194231284614034e-01 3.7317702603104408e-02 -4.0171595497173257e+01 -1.2257507946342230e+00 7.4651716874159888e+00 4.8610618784181270e-02 5.3814758377299654e-03 1.6245019272701029e+00 -8.1835707234859001e-01 4.5018886214575105e-01 2.6909126132341044e-01 -9.3122228772006929e+02 2.9223356138149938e+00 -8.6243269423313905e+01 -6.1539223172417223e-02 2.7441922590205650e+00 -4.3964327089641301e+01 -1.7977882682316704e-02 3.8942109107971191e+01 -3.4518843969124191e-02 4.2888138091257133e-03 2.5955409973394126e+00 -9.7251659035682678e+00 -1.7606154066743329e-01 -1.5661053169992556e-02 3.5515159573442645e-03 -2.8148453677422367e+01 -3.4366143094175641e+00 -5.0070589093229501e-01 2.0736330414729309e-01 -4.1026116517157061e+02 1.7459183370228857e+00 -1.7314079436659813e+02 -7.8612604768551364e-02 1.4017684189369902e+01 1.2993632542398279e+02 4.9923933007954467e-02 -2.3331424160499580e+02 -7.8172792851618017e-02 -6.9779009859396460e-02 9.8480278028785165e+01 1.6798255164239680e+02 -5.6235849401238847e+00 -9.4277432686422531e-03 -1.7757270711789570e-02 -1.1272344471166885e+01 1.3220720726432038e+00 1.9966737273002595e+00 -1.1717572607576114e+00 -3.0190156620042399e+02 2.4310471618258571e+00 1.8227612383500673e+02 -1.6357637748509075e-03 5.1977258838848456e+01 1.2725130919629552e+02 1.1931586162178029e-02 1.1509781565448927e+02 -1.9953419827876441e-02 -6.4177995918016220e-02 1.1207439153508531e+01 -3.2425126582932654e+02 3.2556009539846009e-01 -1.1627665293176737e-02 -2.3056788940367667e-04 -2.3703408784508241e+01 5.9660377986803468e+00 1.7434469209677461e+00 -4.1572985183972616e-01 -1.2087698704071917e+02 2.5885667781866131e+00 8.6629193031206555e+01 -3.8210220461931635e-02 -2.5196782002593210e+00 -2.8539643775564990e+01 1.8018465918637705e-02 1.6528740410140904e+02 2.0269676883473052e-02 -1.0857319313665457e-02 3.3420256325862397e+01 -1.1080082035560595e+02 -5.9505072497461162e+00 6.4032977217094271e-03 -8.5536710768741378e-04 5.6258417401666705e+00 -3.2250167037721917e+00 -4.1084570713532687e-01 1.0506129548741766e-01 -3.1369061118227222e+02 3.0747951190885114e+00 1.6841715527971638e+02 1.4513624891158775e-02 4.2868327831733041e+01 2.7663924908918887e+02 4.1745006114646482e-01 -3.6669423168123018e+01 -6.2404702304849469e-01 -8.8471741313981644e-01 8.4537696243264918e+01 6.1405558732524206e+01 -3.9640791944816357e+01 -7.0047966650729054e-01 -2.1051632984332014e-01 1.5013820587035696e+01 6.2261296019824943e+00 1.1027265572418749e+01 -1.1696463132131868e+01 -1.2350022743299169e+02 -1.6902334531426966e+01 -2.0669928647456604e+02 2.2596772810980070e-01 -5.6486306486677847e+01 5.8367624305778122e+01 -5.4055427411674340e-03 2.5259039450508010e+02 5.4239148206352943e-03 1.7029559990118280e-03 2.7717180948477491e+00 6.2191106859115713e+01 5.2277480394429903e+00 -1.2079696660913442e-01 1.2038406046070602e-02 -4.0299857674898965e+00 1.8747077813458128e+00 5.8225036749278436e-01 4.1666031236790597e-03 5.2412163338117011e+01 -2.5171206705476667e-01 -2.9742498130553281e+02 -9.9852999565408218e-03 -6.3347721155889349e+00 -6.7420811763124178e+01 
      </Row>
      <Row Index="153">
        -1.5400345116927561e-02 -1.1550437456323337e-01 2.2954271244816482e-01 8.0113412817741647e-03 1.4966507731156931e-02 1.1462867407790327e+00 -4.9923984613269567e-01 -2.6883554625291239e-02 5.1575641662338370e-02 -4.6581793516959458e-02 -1.0017717106620694e-01 6.2030346231040312e-02 -6.7702281339734327e-02 2.3011698612123155e-03 -3.7187979351001559e+00 6.9593771893778467e-02 3.8789433924248442e+00 1.5446581123867986e-03 -3.4257151892052207e-01 1.6300249336381967e-02 -2.9157206111563028e-04 1.7378981166184531e+00 2.6088065065152932e-03 2.0778427324822601e-02 5.6570420273055788e-01 -7.1521788093286887e-01 5.6490318565920461e-03 2.6257786748828948e-04 -5.0080019434259881e-03 -4.8405158860188635e-01 4.2332965234891162e-02 6.9487787020989344e-02 -9.1307432853824366e-03 -1.4361277302014059e+00 -4.7021024474815931e-02 -2.6729807806696044e+00 -2.9924640779341871e-03 -7.1577746212533100e-02 -7.2447686768327912e-02 -5.1673633194617707e-03 -8.6276742615609692e-02 1.3378929216969482e-03 4.1667420057201809e-02 -2.3038915562210605e-01 1.3910701897402760e+00 5.7983143708611351e-02 -1.2439527780587767e-03 -1.8215959648246738e-03 -1.8187130119804351e-01 -3.2106483429743093e-02 1.0109956385213081e-01 8.8653312958797414e-04 -2.4403517116606963e+00 -2.9652627476025373e-02 -1.9243401115963934e+00 -7.9222049025418073e-04 -1.6675340359233815e-01 -2.6272309673231575e-02 1.0624078132035919e-02 7.5249596279536490e-01 -1.5342079500388905e-03 7.7924482823292784e-03 -3.5712104530830402e-02 1.7987960690225009e+00 3.0598614850987360e-02 -2.6970760340816469e-04 -1.4910927636169191e-04 -8.5278811563057388e-02 -3.3461945260114589e-02 9.6588620139073100e-03 -5.7534202529829770e-03 -3.1060011672155952e-01 -8.0012675883153861e-02 1.9460046571693965e+00 -9.8100435738501801e-04 -7.3597686323410016e-03 9.3199211521550751e-03 4.4777905554910902e-02 4.4334459734091070e-01 2.3245098889503879e-03 9.8615247409011175e-02 -3.4649911645965403e-01 1.8090763439977309e-01 5.9135419529923183e-02 5.9784438220997771e-03 -1.4197926274083894e-02 3.3536238269152818e-01 3.0778823773289332e-02 -5.8690537378879526e-02 -1.9074909964061249e-02 1.7563147204762455e+00 -9.8950012294153566e-02 -1.6062252149622509e+00 -2.9136386131725089e-03 -1.0509687126614153e-02 3.7950410445773741e-02 2.1735457072310282e-02 -2.8606983841746114e-01 -2.2942617532066834e-03 2.3344525693055118e-02 4.0162512012739171e-01 -1.2989362153211914e-01 -2.7387280456991903e-02 -9.2036194152367301e-04 -1.2947010760058220e-03 7.2764250333420932e-02 3.4330910610151477e-02 -3.0589388692987995e-02 -3.1477246176052631e-03 -3.9149714441737160e-01 7.1270477089001361e-02 -2.5613533671712503e+00 -9.9339772215500943e-04 3.4938607568619773e-03 -5.2388127056900657e-02 -9.4094073651373122e-02 2.0823349568936464e+00 1.1936286795819484e-03 5.5207927568012849e-04 5.0279311243502889e-01 -2.8852536090998910e+00 -4.7544671026185981e-02 1.1758232170044902e-03 2.3180693854707446e-04 2.2312211063109544e-01 1.0537237615153572e-02 -3.9056040485093035e-02 9.1378061285354306e-03 -8.4672447032062337e-02 -1.8753039996788345e-02 -4.5999165084422202e+00 4.8234644434863583e-04 2.4008181286319541e-01 -1.7475735507318291e-02 2.4197182248855142e-02 -1.9507023198530078e+00 2.3647893181291124e-03 -1.3907405496901504e-02 -5.2047409295209945e-01 1.0283799236640334e+00 1.3992221592616261e-02 1.0451215448856743e-03 -2.4563618348373839e-03 9.8135438513054396e-02 3.9292652855351662e-02 1.7554258155684010e-02 1.6773280457300643e-03 1.2917269492718333e+00 -7.3663015209604055e-03 -1.3928401027806103e-01 -1.6176077237630704e-03 8.3366307986580068e-02 4.9923932831359347e-02 2.2062258061271994e-01 -3.5613293387537226e-01 -1.1171867561809636e-02 -4.4534437970820004e-02 -8.4492988665053037e-01 2.3087190975038006e+00 -1.6386327588617947e-03 4.5687003719359701e-03 5.3643290233006697e-03 2.4271966768466408e-01 6.2993392145607174e-03 8.6788662216423174e-02 1.6908617242677833e-02 1.3043954228342045e+00 -7.9176202369318022e-02 1.6307098778997897e+00 6.4477420967695527e-03 3.2190971851342276e-01 2.2451032920816072e-02 -2.6530911915704433e-02 7.1437032974611459e-02 3.3401822208156684e-04 -4.9374116134343921e-02 -3.4228549518839557e-01 -3.1060966118718936e+00 3.1618854984756695e-02 3.8376935395548761e-03 -3.6306624719879880e-03 5.2824677537489606e-01 -5.6406211475251156e-02 -4.2012357460156524e-02 -8.6941187817179324e-03 1.8143238593216413e+00 -7.7601194563470477e-02 3.3069180009982446e+00 1.6566818783983932e-03 5.7690654651597839e-02 -1.0551384544495473e-02 1.5336448815972750e-02 4.5630443992178193e-01 -1.6959260378776007e-03 1.8891338235086375e-03 -1.7821825453392837e-01 -4.7081567146285153e-01 -4.3710826005292414e-02 1.3102668144308015e-04 9.4389083878187660e-05 -1.9502483920566083e-01 -2.7843529024893954e-02 7.6652574810237434e-03 -3.4696988591276373e-03 1.6150014314079482e+00 -1.0993939157296495e-01 1.4388515568967302e+00 2.6369696225089882e-03 4.4782799079803226e-01 1.0532688842801896e-02 1.6988022991623610e+00 -1.4753980761665275e-01 -1.0284522672189417e-01 -5.7618168342820808e-01 -1.0038508174071694e+00 1.4219531037184652e-01 -4.4326994511269646e-02 1.0820351400312345e-01 9.0435596287852721e-02 3.8711495922225936e-01 1.4367535418568522e-01 -1.6267097924555429e-01 1.1559040012935018e-01 -1.3149041936314632e+00 -1.8909594184120238e-01 1.5708237808647141e+00 6.8431287054800616e-02 9.8394292004817885e-01 2.9411661027438363e-02 -2.4573337161370359e-03 3.3174760140944706e+00 -3.5630068657968540e-04 3.9392021277448556e-03 4.4272655496746083e-02 -1.3569272063165703e+00 6.4507032479921653e-03 3.7077726129499666e-03 -1.5516262543783700e-02 -3.8973166418206251e-02 -8.4282837759036468e-03 7.2860346743351401e-03 -5.1074011896071409e-04 -8.5422514329587784e-01 -3.0403060469855303e-02 -1.1352123198295772e+00 -3.2974187848266632e-04 -5.4094907325012542e-02 1.3645967768800282e+00 
      </Row>
      <Row Index="154">
        -4.9131301870162133e+01 -1.2412826442159712e+00 3.9908426950454712e+04 -5.6683550972957164e-01 3.5958194697741419e-02 -1.3552040100097656e+02 3.4719799770355225e+04 9.7300702967680991e+01 -5.7967248166905243e+00 4.8707242525415495e+00 2.2952780974209309e+03 3.6745570659637451e+01 5.5845678329467773e+01 7.6281534545123577e+00 -7.5760406494140625e+03 5.7541947960853577e+01 -3.5916148391723633e+04 4.4690291676670313e-01 -4.3445283234119415e+01 -4.2349841117858887e+01 -6.9169678818434477e-01 -3.8653624564647675e+04 1.4183277357369661e-01 8.6605468601919711e-01 -7.7759536933898926e+02 2.7570227995872498e+04 6.9392148733139038e+01 -2.1445488650351763e-01 7.9304035991663113e-01 1.1942508304528892e+03 -1.9078794479370117e+01 4.8000833928585052e+01 3.0680991280823946e+00 5.4638200001716614e+03 -2.3738177454471588e+02 2.1230675410270691e+04 1.4713002042844892e+00 -3.4152180949726608e+03 4.6870636108517647e+02 6.0685108182951808e-01 4.1881460176151711e+04 1.8944149138405919e-01 -7.6299522165209055e-01 1.1209650182723999e+03 5.4825626605987549e+04 2.3260216652648523e+02 5.3020065533928573e-03 3.6306263355072588e-01 -7.6660946041345596e+02 3.9931420087814331e+01 1.5224319159984589e+01 -5.1924513895064592e+00 -3.7485342116534710e+04 -7.8428644061088562e+01 -1.4845439069747925e+04 1.2265071505680680e-01 -1.2046891987919807e+03 5.7219255045056343e+01 4.5333524956367910e-01 1.5569392025470734e+04 3.1802734092343599e-01 1.0600693003361812e+00 -3.2298608264923096e+03 -7.6570272974967957e+03 6.8099225372076035e+01 7.9868983826600015e-02 -5.2066635398659855e-03 8.4157215934991837e+02 -7.4919113516807556e+00 2.2376556098461151e+00 2.9367789735551924e+00 -2.7070037375450134e+04 2.0467403079336509e+02 1.4410073971748352e+04 -5.6877926550805569e-01 2.1014248514175415e+02 3.7680409699678421e+01 1.0338386730290949e-01 -2.9954245687484741e+04 6.6547484137117863e-02 -5.7892482221359387e-01 6.5055905244499445e+02 -2.2269906802177429e+04 -1.5265589781105518e+01 -1.3665933976881206e+00 1.3512440171034541e+00 -8.7992304955422878e+02 6.7598322868347168e+01 -2.9692003756761551e+01 6.8291845386847854e+00 5.2402289132591999e+04 -8.1763938903808594e+01 1.8515190461039543e+04 1.8241891451179981e+00 5.9537829494476318e+02 1.7692585408687592e+01 -3.5831822198815644e-01 1.1593998506546021e+04 -3.3218416105955839e-01 4.9406909616664052e-01 -9.0534382551908493e+02 -1.2620811420455575e+04 -8.2646839182823896e+01 9.3649197369813919e-02 1.4492609095759690e-01 -1.1740241079330444e+03 1.0160654056072235e+02 -1.0792482842504978e+02 2.0980289205908775e-02 1.7834303634643555e+04 -4.9909879207611084e+01 5.6919956680297852e+04 1.2630093339830637e+00 -4.6885062885284424e+02 1.9073089483566582e+02 -2.4274574264418334e+00 -3.6305185562074184e+04 1.9209886650787666e-01 1.1510469192871824e+00 1.2866848009824753e+03 1.7824277515530586e+04 1.3560676768794656e+02 3.4074523646268062e-03 1.0298763589526061e-01 1.0777686329185963e+03 2.1007600188255310e+01 -7.7332834787666798e+00 -2.0062239542603493e+00 -5.9880641937255859e+01 1.7175299745053053e+01 -8.3664574015140533e+03 1.2196119346190244e+00 3.6080591567791998e+02 2.7670282398350537e+01 4.5986139066517353e+00 1.2104742187500000e+05 1.2657620980171487e+00 -2.6338560795411468e+00 -2.3118461927175522e+03 -6.0686224975585938e+03 8.4779978930950165e+01 -5.2607937809079885e-01 -2.4286764852149645e-02 -1.6101179949045181e+03 1.4212552226707339e+02 -4.8321480641141534e+01 -1.0116301849484444e+00 -1.1255909889698029e+04 -3.7769171476364136e+01 4.8941332778930664e+03 1.2721672797488282e+00 1.0048253440856934e+02 -2.3331424594249643e+02 -3.5613313190051210e-01 6.6645467079118115e+05 -1.6124105994060338e+00 1.6188079282484513e-01 1.6409762500601105e+03 -1.0627935027333550e+05 -2.3929544734043088e+02 1.0260405990399626e+00 1.3818606028323355e-02 -2.2984722893275316e+03 -1.2233185660241361e+01 8.5564276147913262e+01 5.2520628522023038e+00 3.7981932408094406e+04 1.2802539855520604e+02 -2.5436231493949890e+03 6.2846640490484962e-01 -3.1524318407982844e+02 8.5454075223339260e+01 -2.6489444083851482e-01 7.3456850631386478e+04 1.0712799390861516e-01 2.0776592005400257e-01 -1.1909637847939066e+03 -1.8626610816563654e+04 -4.6081781188536752e+01 6.7032850292154356e-01 2.9421013890390119e-01 -2.5690190966123664e+03 -1.7421789748936271e+02 -3.0026474188612998e+01 3.3816130280444696e+00 -2.8726834934642560e+04 -1.0174024144872598e+02 1.1285286726060531e+03 -7.7820507109324666e-01 -8.3410614217268687e+01 1.5978017835735395e+02 -1.2268802515384776e+00 1.1475893932739896e+05 -2.7227734972555234e-01 -5.6411394574241891e-01 -2.3114139101378842e+03 1.2743006023515576e+04 -2.2675563829950033e+02 2.7907973969897182e-01 -2.5124691275513800e-01 -4.9303596937263131e+02 -1.4546007158285931e+01 1.0469523347515656e+02 1.4660207788105749e+01 1.4856560554062367e+04 3.1554967042211024e+02 -2.4923375737945098e+04 -1.0701566722423002e+00 -1.4585627293586731e+02 6.2348957247484395e+02 -6.6855481495442062e+00 -1.1351561878279092e+04 -1.2466242980991918e+01 2.9440141658564833e-01 -1.0588089204036187e+04 6.8022246443913045e+03 -1.6731740807132437e+03 6.3654107495962187e+00 -3.0413168932824348e+00 -1.2607631768243120e+04 6.7078238607955018e+02 3.1230813738885382e+02 8.1880828087470945e+01 2.2995036662224105e+04 5.7538586747497516e+02 1.7627217209380502e+04 -2.0071347042216985e+00 9.6163290866415537e+02 -9.2931722860862848e+01 2.3953827236347078e-02 2.3379207050183590e+05 -2.8872163787081968e-02 -1.2024809578446219e-02 -1.5961192267202671e+02 -1.0105617965052137e+05 2.3502142213405517e+02 -1.4124891407263931e+00 3.6964180013680643e+00 -5.8167726163465943e+02 -7.4885482413116762e+00 1.5619432886331083e+01 2.9207653835607872e-01 3.7145343826353448e+04 9.9674116102626400e+01 2.3397912372352177e+04 6.3237546350057938e-01 -6.6073289954165887e+01 1.0081665101534643e+05 
      </Row>
      <Row Index="155">
        2.5283473346612517e-02 3.1600525594397411e-03 -1.0291360501141753e+00 -1.0056945214774871e-01 -2.5365307249440860e-03 5.5453704513638513e-02 1.2531345725292340e+00 -8.0303146709002959e-02 -1.2170404521954670e-02 2.4615487741736608e-02 -4.7730788564967952e-01 -3.0732530285604298e-04 -2.7930008222028846e-02 9.4439235286642997e-03 6.8812176755454857e-01 3.3010437990014907e-02 -3.4663371532224119e-01 -4.4816006203426184e-02 3.7548570175022178e-01 -8.1486020681040827e-02 7.9917433703258212e-04 -9.5248470097430982e-02 -1.8496424294653480e-02 3.0472723262029433e-03 1.2610096872958820e-01 1.1368034065476422e+00 -7.4773210453713546e-02 -3.1622783579265956e-04 8.4859717675644930e-04 6.3236116406585552e-02 -1.3830785290338099e-02 -1.0091893918092865e-01 -1.3027048316445189e-03 1.3690454831739771e+00 5.2805027389695169e-02 7.2403499171923613e+00 2.7300152178305837e-02 6.9201584137658401e-01 6.3079474130290691e-02 2.3665352339072854e-03 -3.2495476402979762e-01 -2.4645277917187514e-02 6.8345458972416395e-03 2.2759475333077717e-01 2.0050868575635832e+00 3.7030345053985059e-02 -3.6538062172919439e-04 -4.8761970119937104e-04 1.1700260308680299e+00 -9.0647071108833188e-02 -6.2410044859689151e-02 -1.2675858921426197e-02 4.3247837201197399e+00 -1.3296811489453830e-02 6.3391164871427463e+00 2.4684203684920192e-02 5.8882073034510540e-02 5.3427406279070055e-02 -9.4197954005181828e-04 -3.4117233691722504e-01 8.3377136769220428e-02 2.5286616947928220e-03 8.8883928953146096e-01 -6.2045618902629940e-02 -8.7160863887675077e-02 8.4905796988632432e-04 4.4784915353375254e-03 1.4507465235556083e-01 -2.4673509076819755e-02 -4.0613945743956492e-02 2.1052672906662906e-03 1.3623851940064924e+00 8.1045198311855415e-02 1.4761499302403536e-01 -1.5004409775087879e-05 3.0182427823547187e-02 7.2133641879077004e-02 -2.6635197523106058e-05 5.2869865251705050e-01 1.1122573004335834e-02 1.2892096838585054e-02 -5.4029982092936280e-01 -8.3152377819351386e-01 -3.1668764149230810e-03 -2.5074537040161715e-03 6.7382241327340608e-03 -6.3486860363354936e-01 4.1100477621512255e-02 6.4347914492827840e-02 5.1580162869413471e-03 1.5339907721724160e+00 9.2788466234196676e-02 -4.6669986623237492e-01 2.2145083334294213e-02 1.0757563277729787e-01 -6.9607201103281113e-02 -1.3022093301096049e-04 -5.1665494131157175e-02 5.4353853320847634e-02 1.8502668464037697e-03 3.5548169309367950e-01 -9.9229518363836178e-01 -1.2282040330120481e-02 -2.5735692056905179e-04 2.5212782833232694e-03 1.0784998712915694e-01 4.3022547003602085e-02 -4.3603987290225632e-02 7.7109556531453904e-03 -1.7746978551149368e+00 -2.6014519137333991e-02 -4.1616870917496271e+00 -3.6136211183617206e-03 1.0020900497329421e-01 6.3875777674752499e-02 7.8869897273818879e-03 -1.8335961289353691e+00 3.4538869220320123e-02 1.6447608014331649e-03 -8.1649237840792921e-01 4.3654006753240537e-01 -1.4407779376784724e-02 1.3467056496313523e-04 1.8314246107600241e-03 -9.9190766709369882e-02 -9.6241566870958195e-03 3.7399825508515505e-02 -4.3818482461261965e-03 6.3345159819582477e+00 4.3926907738679688e-02 1.8452421283482181e+00 7.0759047997857039e-03 3.1953188118421849e-02 2.5371435331948078e-02 -1.2709701386768302e-03 -2.3826437667012215e+00 -8.2574664727708580e-02 -4.2447011590382999e-03 7.3483457210386405e-02 5.5633950699120760e-01 -5.0152649174606267e-02 -7.4394282507661558e-04 -1.8833889124945102e-03 6.2834765969819273e-01 8.9992945580547712e-02 -9.2566871132930828e-03 3.6769671828551509e-04 2.5582429037913244e+00 1.2788586910028243e-01 5.5183731919387355e+00 2.8798914593080593e-02 -3.1272101026843302e-02 -7.8172792731652646e-02 -1.1171867560899848e-02 -1.6124107032337633e+00 2.1211769378107120e-01 -1.4296836237090747e-02 -6.0805883160122587e-01 1.3110781022424538e+00 1.4684195906616865e-01 -1.9532967897513097e-03 -1.1812267329074408e-02 -9.2174879304332547e-03 -2.3960630242555681e-02 -1.1832749783877639e-01 -2.1869208073885909e-02 -5.3858456831039803e+00 1.8636131482171886e-02 -5.4493287712321035e+00 -1.0574239242725630e-02 -3.4514013213825301e-02 -6.2496068208695910e-02 4.6735316549823217e-03 1.6949165976054030e+00 -1.0303840102959491e-01 -1.2232753046130529e-02 -8.2702386686142759e-01 -2.3014924580341010e+00 -6.9620431108916303e-03 -5.8477540856779694e-04 -4.1453382534010659e-03 -1.1378498305159468e-01 -1.6111592655434631e-01 -1.4196459612891420e-02 9.6442453754758961e-03 1.4526675651171246e+00 2.3711253289400236e-01 -6.1684655967851043e+00 -3.6845058094572862e-03 3.0001931966938500e-01 3.6343410181254476e-02 -7.4843804002344564e-04 1.5815197778541421e+00 5.1113110299402381e-03 -4.5636642989043980e-04 -8.3409408082658087e-01 -1.5241413689548011e+00 -3.5983131291783543e-02 -3.1440951283973257e-04 -3.3102356481225425e-03 -8.1240228946849813e-01 -1.6696058395614166e-02 -4.0672118780619604e-02 -1.0761224270682615e-02 -5.9123845113654738e+00 -9.5485891885441987e-02 1.6223517234493334e+00 2.0450513076868955e-03 -3.3193245007169025e-01 2.9201985226244176e-02 -8.0998117692161947e-02 -5.0576442707314939e-01 1.6688273998757805e+00 -1.6864336214924228e-01 -5.1694980642825215e+00 6.1553327165782434e-01 -1.8513877495985831e-01 -3.2252747911806878e-02 -1.4326117935260177e-01 -3.6399886113402715e+00 2.9298654945790759e-01 -3.7507694086059651e-01 -1.6235227699669519e-01 1.7719143899603296e+00 2.9372539589495261e-01 2.3409630134131660e+00 -2.3220308675644463e-01 -6.9474648066204736e-02 -4.3672768007012669e-02 3.0009571775954885e-04 2.0153943482293499e+00 1.8776541541969588e-02 9.4079758965132381e-04 4.1424429377620697e-02 1.2429119070199131e+00 -1.3571663837486753e-02 -1.0270834531116435e-03 1.4316691772677876e-02 5.8848668109504620e-02 -6.1900999578419769e-03 -1.4154695799126732e-02 3.7585629276556346e-04 -1.9903900560062340e+00 1.6967215877055103e-02 7.6869117515263952e-01 7.3013091934693011e-03 2.8013652603142702e-04 -1.2516643361318704e+00 
      </Row>
      <Row Index="156">
        3.9404764040542162e-02 1.5361708141925501e-01 3.3001088665332645e-01 -3.2446469735845085e-02 -2.2372794908027194e-01 6.4621049877314363e-01 1.0786574308294803e+00 1.8773345420424725e-01 3.9976570715243985e-02 -1.7888933998008838e-02 5.0962244541051405e-01 1.6132678077701712e-01 1.0223698218578647e-01 2.2588943928212757e-02 2.5367440910486039e-01 -4.9859139367072203e-02 2.3216564080212265e-01 -8.7009317854835899e-04 -3.9967298000192386e-02 5.4446442327389377e-03 3.0141993530705236e-02 -1.3073822326914524e+00 -9.2462548347214124e-03 2.2526288125798644e-01 1.1989004865463357e+00 1.9219887969911724e+00 9.9723944436846068e-02 -3.8298159024918732e-03 -7.1427831327390834e-03 5.1839747296413918e-01 -7.6031280223105568e-02 -5.8262844671844505e-02 -3.5067605143169089e-02 3.7268789698282490e-01 2.5812080433752271e-02 1.5208656176109798e+00 1.1507523257037633e-02 -4.3482799176786102e-03 5.8378106550662778e-03 3.6906760757020152e-02 1.2738868829682559e-01 -8.7259569240387691e-03 3.9809816194677694e-01 -1.3089535861945478e+00 -4.4415152154397219e-01 -1.0992134537005427e-01 -9.0656005167852882e-03 -7.3220634342359148e-03 1.9815251153886493e-01 -1.0390123075012525e-01 -1.6551091921155603e-01 3.1379213613547563e-02 1.7944927048392856e+00 -9.3740182278452266e-03 -3.7473034982976969e+00 8.6606839396452528e-03 -5.2898128917149734e-02 3.7159509623961640e-02 -8.6643921830038551e-03 -7.1413609229784925e-01 2.5847501730190459e-02 8.0179718928550581e-02 -2.5555748553597368e-01 9.1497924547002185e-01 2.1013247854261863e-01 -1.0480221013526858e-03 2.7063887312106516e-05 3.7073500589485775e-01 -1.7369440854054119e-02 3.9273845907132454e-02 -1.9045727066966833e-02 1.0273340801213635e+00 -1.0133512595700722e-02 -3.2328034369493253e+00 -4.3680804750749758e-03 4.4000420743941504e-03 3.9938660934581094e-02 2.0829915228240736e-02 -6.6894498807960190e-01 3.6310810531290372e-03 6.9518275602387192e-01 5.1131335682748613e-01 -6.1178097919037100e-01 -3.9553419270987433e-02 -7.6662750727152229e-04 -1.5151548373330215e-02 5.9112089816358093e-01 1.2398626720823813e-01 1.6985114999806683e-01 -7.9450800623504847e-02 -1.1039602424834336e+00 6.0556406824616715e-02 -1.7969997828840860e+00 -1.2205939891600792e-03 -1.0188586694130208e-01 -4.2791657549969386e-02 -2.0590753669821993e-02 8.7897257471922785e-03 1.8229916565275062e-02 1.7393762460591233e-01 1.0528725087206112e+00 -8.8703069690950542e-01 5.5253545525999925e-02 -2.6972377236056388e-03 -2.4301489921896291e-03 -1.6382359409180935e-01 -9.3827327782491921e-03 6.5498570010731783e-02 6.3568934988964543e-03 2.1658621856477112e-01 4.1632744291746349e-03 -2.1203552303486504e+00 -8.4077598354923566e-03 2.6178062471444719e-02 3.4160521888622952e-02 1.4838032755302777e-01 -1.1162680750558138e+00 9.2061077185725537e-03 4.6178532376284664e-02 1.9805156620277558e+00 -5.5632602321966260e+00 -4.4478111143853027e-03 -4.6340448490111985e-03 -3.3633609251102481e-03 1.0490185570665744e-01 -5.4302197971537680e-02 -2.7117737956714905e-02 -2.5810329776419394e-02 8.6932931514456868e-01 -1.1434388801916384e-02 2.2433096272716284e+00 -1.6084819604316181e-03 -1.3460269691123017e-01 2.3174342053835062e-02 -4.4299254596893434e-02 1.8697704989463091e+00 -2.6037361970944417e-02 -1.7011272680028355e-01 1.6995946250062843e-01 1.5687206462025642e+00 1.2205144270956225e-01 5.7903346072798456e-03 1.3730138799245006e-03 4.9368593102553859e-01 1.0368667238498119e-01 -3.3087817202527958e-02 5.1495843320026324e-02 3.9365925038691785e-01 -2.9138723744836170e-02 1.3262073002988473e+00 1.8056328403083688e-02 -1.1238811297516804e-01 -6.9779009981120799e-02 -4.4534437972963081e-02 1.6188089826755458e-01 -1.4296836236466146e-02 4.7448553843515784e-01 -1.4775859097179245e+00 -6.6024621544568163e-01 -3.4534093184295800e-01 6.4569701649341490e-03 5.9097800311487762e-03 -1.8798942890336900e-01 -3.4731978738651748e-02 -1.8505158796599203e-01 -8.0566993025225145e-03 -1.2185775798934628e+00 1.0091597422747178e-02 -9.9668860458768904e-01 3.0605512856148763e-03 -7.0796892690824453e-02 -2.0152865553152211e-02 -2.3458883772008846e-02 -4.1552308761693890e-01 -4.1889750991534816e-02 -4.7958393707992142e-01 -7.8271512668187881e-01 3.3867740151116434e+00 -4.3709206794629640e-02 8.3767163268616586e-03 2.7740308086378080e-03 -3.2276803722618297e-01 -2.1609182156213896e-01 7.7858748600914574e-02 -2.0614158847746838e-02 -6.4892187277838076e-02 -7.8735613197725929e-02 -5.0606935897971539e-01 1.9271114567203165e-02 -1.5351356950797346e-01 -2.5011267457779457e-02 2.8997851172889257e-02 -6.8343303731497684e-01 -1.2507586116721647e-02 5.7181571502767294e-02 6.4922031920557899e-03 2.5390700476122703e+00 4.9597515512910917e-02 -2.9241318874554468e-03 -2.2162782968907554e-03 -2.9546159500685709e-01 -1.1791686756099917e-01 -3.9364962971930845e-02 -9.5767968421410860e-02 -4.3578140349945826e-01 3.0626343146487045e-02 1.4063084322451136e+00 1.0267206898873914e-02 2.0845957234996604e-02 -2.3331785888199441e-01 -4.6998664112730931e-01 2.8102854697992541e-01 -1.5541242225032256e-01 1.5513143672646603e+00 -2.0006947859910156e+00 -1.1398451066362725e+00 2.0423367157533789e-03 1.2313984986762774e-01 6.6830719356824816e-02 -2.2848373052650146e+00 1.6148062236173644e-01 1.8704479821743314e-01 -1.3798425614449705e-01 1.0153842564711795e+00 -1.2324597702967566e-01 -1.3617063595974059e+00 4.4022211419694424e-02 -7.6668981165261130e-01 -5.2083802660154277e-02 8.5727914814786241e-03 -2.3130231860699197e+00 3.4058014092890701e-03 2.3993560791438738e-02 1.1628101191775642e-01 -1.8238741990948530e+00 1.0668587704115975e-01 5.3362882235861164e-03 -1.2577437797106083e-02 -4.8519777195262570e-02 -1.1449386945912243e-02 -1.7478869272792158e-02 -1.8511854383443354e-03 -6.8955119271125120e-01 -3.6789269041879180e-03 -3.1676260870762007e-01 2.2812351973542609e-03 3.1441097686901287e-02 1.7144740482133811e+00 
      </Row>
      <Row Index="157">
        -4.6478861047348801e+01 -1.1426667889340933e+00 2.0469321331381798e+03 1.1581737593032813e+00 4.4755779115303085e-01 -2.5160799288898706e+03 -1.1163542277216911e+03 -2.0876531842491022e+02 5.2148291875964858e-01 1.7616168890663175e-01 -5.1736232653516345e+02 -4.8638441182672977e+01 -2.6080743183381855e+01 -7.1788085126900114e-01 2.6717321821153164e+03 9.3009513001888990e+01 -2.5444258564710617e+02 3.5205560340546072e-01 -7.4995890760794282e+01 6.7998922309838235e+01 1.3534946274739923e-01 2.8333831683546305e+03 1.0084483492755680e-01 -2.4278401618175849e-01 -3.6826689424365759e+03 -1.8562775160963647e+03 -1.5897209069877863e+02 -1.3177509060187731e-01 6.3687435194879072e-03 -1.7998656253732770e+02 -4.1862023007124662e+00 2.2758465957129374e+01 6.4092745279049268e-01 2.1431190449483693e+03 7.5619463133625686e+01 -3.3070013607442379e+03 -1.7587803621499916e+00 -8.4589745542128003e+02 -2.4815636839601211e+01 -4.1059289855547831e-01 9.9118327909408254e+02 2.0055836971368990e-01 -3.7145598282222636e-02 3.3223792767859995e+03 9.4558387720584869e+02 2.5042533254590671e+02 -1.6308088229834539e-02 -3.8805864481673780e-02 -9.0125181720964611e+02 8.8200979618355632e+01 4.6579186877235770e+01 -3.2622371311445022e+00 -1.6944240525402129e+03 -1.5100754783488810e+01 -2.1563194749951363e+03 -6.3472644488138030e-01 -1.8017132675275207e+01 -6.9187491879332811e+01 3.1797550135161146e-01 2.0696864074617624e+03 -3.5771745583224401e-01 -2.0718941047039152e-01 -1.1547981972992420e+03 3.4430916284024715e+02 -3.1183705647336319e+02 4.8428187710669590e-05 1.2890500454432186e-03 -7.1611453583510593e+02 1.0710968243656680e+01 -2.1518562498473329e+01 1.3696969480861299e+00 -7.1638480220735073e+02 6.7350402126729023e+01 5.6829120367765427e+02 -6.0213268442748813e-01 -1.4950603446923196e+01 -8.3751635710126720e+01 2.4685389000478608e-01 9.6279722324013710e+02 1.2596495114121353e-01 -1.9068014192271221e-02 1.9694600875468459e+03 7.3626591359823942e+02 -2.0266750179638620e+01 7.2141238226322457e-02 3.2915305022470420e-02 5.3452894621272571e+02 -5.8223324418067932e+01 -2.2801787060219795e+01 2.6389159144455334e+00 1.1959825064855911e+03 -3.7691671070642769e+01 4.4627750600110739e+03 -1.4394148376595695e-01 -9.2083202749490738e+00 8.5768136533792131e+01 6.3766568011124036e-01 -2.1105576112866402e+02 -2.2584187937900424e-01 2.9253289954795036e-02 -4.4341811947175302e+03 1.5096264477386139e+03 -1.6979761702605174e+02 -9.8708448996148945e-02 1.5255812955729198e-02 4.4542329283058643e+02 -5.3414099860936403e+01 6.6140519990585744e-01 -3.1447872292119428e-01 3.6426819464564323e+03 -1.1153731169016100e+02 1.3494152435660362e+03 -6.5111418584274361e-01 -3.1686753497272730e+02 -6.4988881192606641e+01 -1.0012914904236823e+00 5.8569658352539409e+03 -6.9363355903988122e-02 -1.8039122315167333e-01 -3.6540060506984591e+03 1.4741927614007145e+03 1.2544013023541720e+02 -5.3269743251860291e-02 -7.1022544209995431e-03 -4.3565037115756422e+02 8.8968254064675421e+00 1.5725466192372551e+01 -6.2357780596357770e-01 5.6788126826286316e+00 3.5724468927714042e+01 5.7684338113106787e+02 -6.1461020629576524e-01 -5.1639330660327687e+01 -4.2339913165007601e+01 4.1060343122808263e-02 3.5410336546897888e+03 3.9095109466961731e-01 6.6585596097866073e-02 9.9165526469983160e+02 1.4134525718688965e+03 -1.9162680868385360e+02 -7.2841612295633240e-02 -2.0315987290331350e-02 -1.0334864751910791e+03 -8.6437672204367118e+01 1.6794406286222511e+01 -2.4121640372322872e-01 -1.4177780633345246e+03 -1.6500667745247483e+01 1.9941245476603508e+03 -4.5293734329470681e-01 2.3215485110878944e+01 9.8480278176220565e+01 -8.4492989262159179e-01 1.6409759454727173e+03 -6.0805882703243208e-01 -1.4775859157908344e+00 6.1771725859268254e+03 7.6110268088668420e+02 3.9373653824102053e+02 -1.0685243123189919e-01 4.8945521901454458e-02 2.4228118885142806e+02 8.6435822271276720e+01 1.0510280512767187e+02 -7.3924620668704213e+00 2.1039673921968788e+03 1.0662715990487253e+02 2.3608387610092759e+03 2.2830907107503768e+00 -9.0495358137239407e+01 1.2218905304208224e+02 -2.9749228187916688e-01 -3.4838349433202129e+03 4.8092692000479520e-01 -7.3537086894702952e-02 4.3393737020533463e+03 -2.9530665380757355e+03 -3.3289013666473295e+00 7.0138677069777097e-02 6.5372925906579823e-02 1.9766056976650452e+02 1.4145937171688254e+02 -3.6050263615596620e+01 -2.6449555195904955e+00 -4.3275681336418038e+03 4.1903678754030096e+01 4.4785350391738702e+03 7.3319139724287818e-01 -1.2492625490402389e+02 -4.5572108886596915e+01 -2.2218126700937718e-01 -1.9075965049350514e+03 8.8625065146516135e-02 -3.3539909630012854e-01 2.8572215092292407e+02 -9.8267108050338447e+02 -1.6289720704114282e+02 -5.9605803554425178e-02 2.6865058945638669e-02 1.1639290921297873e+03 -4.0477353678030113e+01 2.7832077495932296e+01 4.1526707258892448e-01 9.8008308822339495e+02 1.2027139100669842e+02 2.2948146128706421e+03 -5.8533474540057195e-01 -1.3677529334649444e+02 2.9855265267772131e+02 -8.0022701254017914e+00 8.6566570143084641e+02 -5.0745516137994562e+00 -1.2740540786576588e+01 1.0883129438704589e+04 4.0702977953284608e+02 -7.8848280521699712e+02 -2.6622947578962020e-01 7.8767722643230087e-01 4.8663728811827286e+03 2.7827224386965190e+02 8.9207752483087660e+01 -7.3876748955894072e+01 1.7661538839339291e+03 3.1126317518493033e+02 1.8916404324507130e+02 2.2879508845547093e+01 3.6196474906261346e+02 6.6903263029805572e+01 -1.4785790142023129e-02 2.5215530876642606e+02 -1.2552301188025519e-01 -5.5984680609987361e-04 -3.9766164984992770e+02 -9.5662466266605873e+02 -2.0205872391880007e+02 5.9616691723931581e-03 2.2979239573851321e-01 1.2077778882070351e+02 3.0520580195664234e+01 1.3419954123771246e+01 9.2412333667538052e-02 2.9894704770016433e+03 8.9402986305998979e+01 -2.6813526171719195e+02 -8.5205432669117176e-02 2.5222839339889589e+01 1.1584547662137982e+03 
      </Row>
      <Row Index="158">
        -7.9056718570645899e+00 3.2894981534918770e+00 1.6566194499969482e+04 2.5397244272753596e+00 1.3138737706176471e+00 -2.0600708770751953e+02 3.9669876167297363e+04 -3.0285555305657908e+01 1.5991861307886541e+00 -5.7781449925969355e+00 -4.5314509402215481e+03 1.5905267095565796e+02 5.8924603581428528e+01 2.5989684313535690e+00 -6.7608046913146973e+03 2.8824457973241806e+02 -7.5500240325927734e+03 3.9904927369207144e+00 -1.9559263819456100e+02 -4.2183256924152374e+01 2.1085699182003736e+00 1.5126281641960144e+04 1.2659177463501692e-01 1.2753805195679888e+00 7.5167197608947754e+02 2.8554737225800753e+04 1.3497498345375061e+02 -1.7101578833535314e-01 -5.9596643701661378e-01 -1.3845487078004517e+03 2.1262733936309814e+01 -1.1809393772482872e+02 -2.1730264611542225e+00 -1.0740799664020538e+04 3.3961608803272247e+02 6.2721606740951538e+03 -3.7658124323934317e-01 3.2611793107730336e+03 -3.3939454764127731e+02 7.9434034996666014e-01 1.2450917507290374e+04 1.8490187888965011e+00 2.2498366190120578e+00 9.2617412281036377e+02 -6.1730367271423340e+04 5.0129172808490694e+01 -3.2132198364706710e-01 -5.3250693436712027e-01 5.2544030902981758e+03 -4.4070336627960205e+02 -2.4639509096741676e+02 9.0797717953100801e+00 -1.5708140347838402e+04 3.2479750844836235e+02 -1.9336587528228760e+04 -3.7118698703125119e-01 1.1146784328222275e+03 -3.2854969523847103e+02 -4.3520066863857210e-01 2.8026490291118622e+04 5.7844486040994525e-01 -1.2995905104617123e+00 4.8208729410171509e+02 -5.7393999676227570e+04 -4.1771186202764511e+01 -3.6508493314613588e-01 1.1286114261019975e-01 -3.4672644849419594e+03 -6.0596071144938469e+02 8.0965012364089489e+01 -2.4345803959295154e+00 -1.4459050861358643e+04 -1.0603638088568114e+03 1.3728232810497284e+03 3.1726744677871466e-01 -4.7641183730959892e+02 -7.0612082540988922e+01 7.4934492865577340e-01 -6.0474208736419678e+03 1.3010600958950818e+00 5.1988500558654778e+00 3.4868449074774981e+02 -1.1938016550064087e+04 -5.8495791099965572e+01 4.9763799179345369e-02 -1.8527401778555941e+00 5.3209355656504631e+03 4.8060467481613159e+02 2.1277061042189598e+02 -5.4919374706223607e+00 1.7010870401240569e+04 -3.4673336565494537e+02 -7.1661532194614410e+03 -2.9282135954126716e+00 -7.5344285488128662e+02 4.4590958386659622e+01 -1.4615195750957355e+00 6.5055181961059570e+03 -6.4804336149245501e-01 -5.6301263161003590e-02 -4.9905039578676224e+02 8.0745534298270941e+03 1.7716863389313221e+02 -2.5480529968626797e-01 -2.6108489779289812e-01 5.1865376119613647e+03 5.1866584753990173e+02 1.4146694537997246e+02 -5.2403334355913103e+00 -2.5849235141754150e+04 -2.4838899940252304e+02 -1.4670412349700928e+04 -5.2160442871972919e+00 3.1568230915069580e+02 -1.4452404742315412e+02 4.0174798658117652e+00 4.4832675856947899e+04 7.4859179154736921e-01 -9.1817555332090706e-01 -2.6986084204912186e+03 1.1162948562836647e+05 2.1347663489053957e+01 -4.1276750345423352e-01 -2.2787281704950146e-01 -1.0613693143017590e+03 2.8357375741004944e+01 -7.1869121486321092e+01 6.3959255665540695e+00 -1.9282555290222168e+04 7.2512685613706708e+01 -7.7038835614323616e+03 -9.4827689940575510e-01 -7.5290134560875595e+02 -1.2537894112896174e+02 -8.6955983191728592e-01 4.5874940185546875e+04 2.2248616209253669e-02 1.2806745432317257e-01 7.4558063071966171e+02 -8.5736106994628906e+04 -1.7444418072700500e+01 2.1319962199777365e-01 -2.8822791345373844e-01 1.9215016864538193e+03 4.5579167967289686e+02 -5.9976537451148033e+00 4.1398844271898270e+00 -6.4064939684867859e+03 -5.7756100797653198e+02 -5.8740553436279297e+03 -1.8001390362769598e+00 -6.4091205596923828e+00 1.6798254672464691e+02 2.3087189164405206e+00 -1.0627934934902191e+05 1.3110781933652660e+00 -6.6024630537057050e-01 7.6110299140214920e+02 6.7554665666912927e+05 -4.8312008620135884e+00 -1.3504313966784203e+00 -7.3050688823451293e-01 5.2925746762160561e+03 3.4955778163427567e+01 -2.6645124880612974e+02 6.5095796454580501e+00 1.5128985021114349e+04 8.8121878798460784e-01 5.3745325918197632e+03 3.8209129135713660e-01 1.0717056748067339e+03 8.8357180738498926e+01 -2.7573146073270594e-01 1.1781860525691656e+04 8.3852108849803830e-01 -3.8217297045630403e+00 2.6660133602394803e+03 1.7146224869494920e+05 4.8241121953479563e+01 -2.6965158993355159e-01 -1.0300960160992765e+00 6.4582465337740541e+03 -6.3143980219510286e+02 1.0166641244485814e+02 -2.6467885898337897e+00 1.0040139123055347e+04 5.3003798591236023e+02 -2.0062670547954585e+03 9.8684000829196949e-01 -6.3096246449313526e+02 -7.5838429486236248e+02 2.3777966790842506e+00 3.7252551391819972e+04 7.7132746455026790e-01 5.3600058914700965e-01 -6.6708893631537740e+02 1.1433991823334320e+05 -6.6544402648257915e+01 -2.2319055966842907e-01 -6.1862781880544748e-01 -3.2124832079530788e+03 -6.6394738766800788e+02 3.8343741694214032e+01 -1.7132463754001442e+01 8.0900572619386367e+03 6.0427191081494038e+02 -8.1108947270648423e+03 2.2109406181878906e+00 1.0459678783416748e+03 -2.3268972119645200e+03 2.1586315147812343e+01 -2.1378593119054731e+03 1.2550529954288411e+01 -2.0704834495853596e+01 4.7029837381871266e+03 -1.9834957695619065e+04 6.8918139333865213e+01 -1.0332716246929259e+01 -7.6965394080630354e+00 3.3121419833614009e+03 2.2639422688547747e+03 4.6969001321965396e+02 1.8436592473959763e+01 2.0392554533912346e+04 3.7523864293008005e+03 3.2570920938055856e+03 1.9044204822465105e+01 1.4526456594613937e+03 -9.2200687127503670e+01 9.8532961427797161e-02 9.5592671236345952e+04 1.7297411565877097e-01 3.0535266101377018e-01 1.6701206634962227e+02 -9.8277779526739119e+04 -6.6191652911449907e+01 2.1021610955358483e-01 -4.3874191007749213e+00 1.2752989803216401e+03 -2.2485474847204319e+01 -2.8107581706663950e+01 -3.5539849687843905e-01 8.2177298178971323e+03 -1.1387407951656226e+02 2.8660097272389685e+03 4.8488436152614112e-02 -1.4812470224147421e+02 9.8348385520208321e+04 
      </Row>
      <Row Index="159">
        -9.8262391145084393e-01 2.6937492347087755e-03 2.0277036833204329e+02 4.5718439103779929e-02 1.1280088902566376e-01 -1.5457779537932947e+02 3.8821519036963582e+02 -9.1419767256630621e+01 -5.5033359968331652e-01 8.3138845104144821e-02 -1.1143648142801248e+02 -6.0859863413497806e+00 5.1020986550720409e+00 4.6164837580363383e-02 2.7380589342117310e+02 8.3022642653668299e+00 -7.8506100885570049e+01 1.6758265606767964e-02 -9.7092118641594425e+00 3.0227187058771960e+00 3.2401598050455505e-02 2.7752758245216683e+02 -8.9992188577525667e-04 -3.3859603221571888e-02 -3.0935237320140004e+02 4.1650614726892672e+02 -6.6118638089392334e+01 -1.7186586264870130e-02 9.5138798619700538e-03 -1.0563824991203364e+02 -4.4297655464615673e+00 -6.6384112551168073e+00 4.4088712262237095e-02 1.4381327545270324e+00 5.0349561462644488e-01 -1.6113143162056804e+02 5.0718734197289450e-02 -4.6917728635969297e+01 1.0277826923003886e+01 -3.0261463537726740e-02 2.1130095104600059e+02 1.2352734181149572e-02 -4.2736627604426758e-02 1.6638480889191851e+02 4.3570602708309889e+02 5.0852766473605243e+01 1.6196651265147466e-02 4.1241586009164166e-03 -1.5817665974498959e+02 3.2481219343608245e+00 -3.0849484460777603e+00 -3.6741029356289800e-01 -2.5258104171080049e+02 -4.0776049708074424e+00 -2.6081597012933344e+02 5.1436549529171316e-03 1.0148621019208804e+01 3.5748221727117198e+00 1.9282468343362780e-02 2.3854354596370831e+02 -6.4935943052660150e-02 -2.8852583575300628e-02 -8.5014630590565503e+01 -6.1593072033952922e+01 -1.2055388804667746e+02 -1.2164374923628429e-02 2.2689666108419715e-03 -1.6650724859064212e+02 -4.1187821488711052e+00 -3.4059871644385566e+00 1.5219171061994530e-01 -7.0431350000202656e+01 6.1539671882301263e+00 -1.3210295652784407e+02 -2.2099611765042937e-02 -2.0210164064774290e+00 2.1176168138263165e+00 -1.5803595031457007e-02 3.1359726225957274e+01 -1.5640734988664917e-02 -1.4996751577405121e-01 1.3205766616616893e+02 -1.8538906880281866e+02 2.6646553536957072e+01 -1.4330831952588596e-01 2.2901649889263354e-02 -5.1796833376443828e+01 6.9072794215753675e-01 4.5565298481960781e-01 1.3347951576088235e-01 8.2174929246607732e+01 5.3475990121951327e+00 -1.2706840554752853e+02 3.9314919428761641e-02 -1.2920668981969357e+00 4.8247954448743258e-01 -1.0484210013487427e-02 4.5985172837972641e+00 2.4920842202845961e-02 -2.9583985963199666e-02 -5.3164666824787855e+02 -2.0011106450509396e+02 -1.3680269758162467e+01 2.8115567578197442e-03 -3.6275836238246484e-03 -4.6365367155522108e+00 -1.6168910650303587e+00 1.3943377561663510e+00 -8.5669182847595948e-02 -2.0470735816657543e+02 -2.0064031532674562e+00 -7.9121902011334896e+01 1.7429157584047061e-02 -9.0842417199164629e+00 3.9512718032310659e+00 -3.0453229087697764e-02 4.9282576138945296e+02 -4.8374255566784541e-02 1.0899635108557959e-02 -4.8080897350609303e+02 2.2931304973876104e+02 1.2007363672001361e+01 -5.9479832266688959e-03 4.1445538686986083e-03 -1.9088727383335936e+01 -5.4441557967220433e-01 1.4761626301591605e+01 -1.7586786350875627e-02 2.4718899428844452e+01 3.0417909467232676e+00 -3.8112270390323829e+01 2.1142657029940892e-02 5.5481185185417417e+00 1.2811641447042348e+00 -1.0732697350249509e-02 5.6885020369291306e+02 1.7895440195957235e-02 7.6204947093174269e-02 1.0006751072220504e+02 3.1145185172557831e+02 -6.8993422358762473e+01 -1.6406940100864631e-02 -1.3645813394376205e-03 -3.0742609293386340e+02 -1.2543737492233049e+00 -3.8763555077912315e+00 -7.1632475577644072e-02 -1.3004880749736913e+02 1.5488712596707046e+00 2.3760374129563570e+02 7.9287043691991244e-02 2.8279052586294711e+00 -5.6235848964534680e+00 -1.6386334144726789e-03 -2.3929551081312820e+02 1.4684195973734571e-01 -3.4534093277157785e-01 3.9373653733465471e+02 -4.8312635483061968e+00 1.7589589215211601e+02 -3.5877389446967604e-02 -3.4007964465885360e-02 -2.7919515698069812e+01 -2.1584636612446957e+00 -9.9375591463496136e+00 7.1379758040242380e-02 1.4620050321565941e+02 -8.2681755726325745e-01 4.5818142311181873e+01 -7.5874497012819786e-02 8.2317041321594075e-01 2.6025503641377767e+00 -9.8843890476602997e-03 -2.8734478748710757e+02 3.2256023631516362e-02 8.7880984452397115e-02 5.9205967364673211e+02 -3.4621557167865535e+02 1.3749270510097503e+01 1.5672741529765683e-02 2.5013723167848648e-03 1.9699883209063131e+01 -5.3353291610946374e-01 -7.7123649022450991e-01 1.3138561273669358e-02 -1.9429557568081637e+02 9.2302943300892721e+00 7.2795895131629436e+01 2.0201397831376577e-01 -5.2795613886886272e+00 3.3843854721641589e+00 -2.1965036931532917e-02 -1.0330177065395070e+02 -5.3460282433150041e-02 1.8047318494295146e-02 1.0040041673798294e+02 -2.8786295143045936e+02 -4.1401881433974197e+01 4.3454344852489862e-02 1.2522348480977500e-02 7.6031136076796983e+01 -1.4137781992471350e+00 -6.4956725125940586e+00 -6.2888965958260046e-02 -6.3281875261868379e+00 -4.0090351583272081e+00 2.1999156180699691e+02 -4.8002436298374834e-02 7.4497893177904189e+00 2.0456606885453901e+01 -1.1320892071801847e-01 8.7245099810634144e+01 1.0705656348275803e+00 -2.2367104608499986e+00 1.6830753768705449e+03 1.3799255068935196e+02 -3.4078689353499641e+01 -5.4112060312184429e-01 -3.3928537956003346e-01 3.9921851176737687e+02 -2.5108368745375117e+01 -3.2485967871534733e+01 -1.8485517069757407e-01 1.3949930911438287e+01 6.6582817206786231e+00 3.1067529612312399e+01 -2.6532306093030655e-01 9.2791724832296723e+01 -4.3708035030577719e-01 -1.3484818390388140e-03 9.3932109368401242e+01 -1.5426014003711346e-02 -5.6630651796830316e-03 -8.2040235035749220e+01 1.1143732090973916e+02 -7.6471043935368087e+01 -1.3296805253258981e-01 9.9092113067022146e-04 -2.3402415478094394e+00 9.8696095032787290e-01 -2.4839086017843277e+00 1.0340593216004147e-02 1.4379948640900727e+02 5.3815899975254453e+00 -3.2240999367641507e+01 -2.1039629191936360e-02 -1.0066073729090608e+00 -3.4949928547815233e+01 
      </Row>
      <Row Index="160">
        -7.8968275880784145e-03 -1.9676298235639378e-02 -1.1251681280555204e-04 -1.0464315219047560e-03 9.5497869891078557e-03 5.9743861186234426e-02 1.6034073799892212e+00 3.2425293524744658e-02 -1.1844250863037950e-01 1.6540787397482992e-02 2.0917541809677687e-01 2.7576519300055224e-02 1.5874755081085823e-02 -2.1062213129694030e-02 1.8617707269095263e+00 -9.9434360148507039e-03 -8.1023234122403665e-01 6.6265035259416294e-04 2.3741937708678051e-02 9.5550141970761615e-03 -8.9075229292490121e-04 5.4256129581517598e-02 6.1153850159811896e-05 -5.2048668295585632e-03 1.6570302630680089e-01 2.2591985811557720e+00 2.1536931653372449e-02 -7.2415178977167649e-03 1.8308092004420962e-03 9.2204580772547118e-02 3.4024196020936870e-02 -2.3033988579584275e-02 -4.2679233091469371e-04 5.6735033222685161e-01 4.0327353103748464e-03 -2.6589897345911595e-01 5.0386235826316295e-04 1.3687836146262011e-02 2.7228213109822264e-03 -3.2035768388436470e-03 -2.0201946029947448e-01 6.8574659506115410e-04 -1.0912816639634393e-02 -8.7832911702662386e-02 5.9296556539993617e-01 4.2038901456225020e-03 1.1721788057279525e-03 5.5878728132374711e-04 -2.3473921122536012e-01 -1.1195081756795844e-02 -2.9280892154162075e-02 8.4582608032199857e-03 5.0148296476345422e-01 -1.9971942016354660e-03 -8.6168134747822478e-02 -3.1244462562840525e-04 -4.0485483235670472e-02 -1.0896286503054853e-02 2.8402274151653195e-03 -3.2267945652438357e-01 -9.4606487506587733e-04 -1.7577944421384578e-03 -1.2353864755277755e-01 -3.5335199660312355e-01 4.1984492453082112e-02 -2.1163927280539174e-03 -1.0653283392575430e-04 1.0173114392210891e-01 -9.1391494103163495e-03 1.7811145381156024e-02 -3.3605532025711149e-03 -4.7564545267232461e-01 1.5228909710629068e-02 1.6578418313883958e-01 1.1263950072208928e-03 -4.7989116587814351e-03 1.2213437116493253e-02 1.2257146027156329e-02 1.5587803864036687e-04 -1.2184169267337452e-03 -1.7686140068091327e-02 -9.8550673419921964e-02 -8.5080551767623547e-01 -1.9251040714699741e-02 -2.9479830044645938e-02 4.4168044277418383e-03 -8.1992913169642634e-02 8.4746745887969155e-03 3.2592817829254273e-02 -1.6029618191145900e-02 -3.4009770652158267e-02 2.1838193939856865e-02 5.6498217961757291e-01 1.7064941614437501e-03 -2.1609824576444225e-02 5.3361644177414291e-03 6.2013860930791864e-03 -1.5013970557993161e-01 -8.1450625311330072e-04 -3.3633443416154485e-03 2.0076926254671434e-01 -1.2659005375958543e+00 1.5093042488462771e-02 -1.7212990486912272e-03 2.9826339860794526e-04 -2.0831080034986371e-01 1.7706063560694929e-02 4.5328318860526906e-03 -6.1665611627503836e-04 -1.1311594880680786e-01 -9.1571728715962308e-03 -1.0337338795579853e-01 4.5632291817376824e-04 1.0807790383660176e-01 3.7884159463423828e-03 -2.6206113884542859e-02 -1.4256350895055903e-01 -3.1895954989424879e-05 -3.2406705803931235e-03 -3.2294121564291345e-02 -8.1614614966247245e-01 -2.4889070681865744e-02 -9.3165693853436427e-04 3.6806571565366208e-04 -1.4454699492944201e-01 8.3389620867251324e-03 3.8746653462951031e-03 5.3913663314837379e-03 -5.2481615396754933e-01 4.9332951736538178e-03 2.5215467843554507e-01 9.4024561554562069e-04 -3.3974543926266421e-02 2.3872723941202878e-03 8.1329901456328457e-03 -4.1970498010050505e-01 1.0395158223930334e-03 4.7080191295201246e-03 3.0756075022736695e-02 -7.5608884461689740e-01 2.6397761952154042e-02 -3.0162077531099563e-03 7.1233207824374783e-04 3.2965526447196680e-01 1.3830675627470868e-02 -1.3125970896712857e-02 2.3677432083104577e-03 -6.6310282066797299e-01 9.1151853735027544e-04 4.9666986262309365e-01 -1.1490854332000949e-03 2.1504752666260174e-02 -9.4277432473202083e-03 4.5687003718579700e-03 1.0260405708813778e+00 -1.9532967896635388e-03 6.4569701645347932e-03 -1.0685243188476079e-01 -1.3504314229942871e+00 -3.5877389502947526e-02 1.7891436762595025e-02 2.5817190812784923e-03 -2.8298189427109693e-01 -1.0541414383418157e-02 -6.5750522464539607e-02 -3.7705447030559662e-02 7.3937906243736506e-01 1.3189605104113100e-02 3.2947025263001706e-01 -1.3514959775520818e-02 1.0053380898390474e-01 1.9456076392962984e-03 -4.0064604242896137e-03 -1.5506751835270194e-01 2.1163840710696352e-03 8.0628989857897126e-03 -2.9421497628115034e-01 1.1794403938148861e+00 -1.2858509544770413e-02 1.9757070406002933e-03 1.3907163822868386e-03 -3.0872497622461914e-01 -2.3881200788044232e-02 -3.0587721015296054e-04 -8.5083186914544640e-04 -7.7140550041254130e-01 1.0520121538183880e-02 3.8748711222763177e-01 -4.8239628374480885e-04 1.0972760894007116e-02 -5.8930998732228845e-02 -7.9420796196617138e-03 -2.5444641067766050e-01 8.8408217926028154e-04 -4.1473274379592636e-03 -7.2340175465932965e-02 3.2944274864973266e-01 -5.6337350192818131e-03 4.5046234009513140e-03 -3.4321440164920879e-04 1.8695029882450420e-02 -4.7010191115468558e-02 -1.2123524820534026e-02 -5.5077147625401720e-03 1.3724099932332479e+00 1.2326169831249345e-02 4.9588648177127342e-01 -7.4420444422461374e-04 1.4499703277101617e-01 -1.8266219076987733e-01 1.3070252774909946e-02 -1.5302240320441030e-02 -9.9890751147179782e-03 8.1449890950738124e-02 -8.6522784041095235e-01 -5.5708265758894981e-02 -5.7587404048062840e-02 3.7676621016794733e-02 4.8338568797178256e-03 -6.0978732876842656e-01 -9.8076885334353214e-02 -9.7000631337062049e-02 -2.8397295987699311e-01 -4.9777714183181221e-03 6.6639283553501016e-02 -4.5175316201148874e-01 -1.0389689976669403e-01 5.7052810632891138e-01 -9.5287074962157048e-03 -1.4679685252520487e-03 -4.2563849907631202e-01 -5.5516500706883753e-06 -6.9341332529589508e-04 1.7269773156705082e-02 1.5175396423367785e-01 1.7858966458157603e-02 -2.1080618985462651e-02 6.3028987436473376e-03 -2.3292499168059866e-02 4.1243833290132981e-03 -9.2967535684378433e-03 -3.2791894432191739e-04 4.3308746129651610e-01 1.3504081059107165e-02 -1.7988484857619369e-01 -1.6003588427943635e-05 -1.2049607366973358e-02 -1.7324093467254303e-01 
      </Row>
      <Row Index="161">
        1.1228638644720013e-02 9.1604246864075423e-03 6.0779470150009729e-02 -1.7914780916068462e-03 3.4594675888288684e-05 -1.5347200984251685e-02 1.4788410764595028e-02 2.0904445000945238e-02 -6.4161082756814189e-03 2.8734301693871367e-02 2.6444840679914705e-02 8.0319169519498246e-03 2.3115485140124292e-02 7.1923537615425914e-03 -1.2179292366272421e-01 -3.6238338218481658e-03 1.1471866899664747e+00 -2.5596847689879354e-03 -6.4833485195777030e-02 -1.6983847037863598e-03 3.6009382911572629e-04 6.2895911378291203e-03 -1.3261864638938192e-03 -3.6844330130771930e-03 8.5420604864339111e-02 -1.1327384818059727e-02 1.5283157678823045e-02 -1.4371880961316919e-04 3.2540504611298093e-03 3.0562080403136349e-02 2.9611140926135704e-03 1.1102602684331941e-05 -1.4696142696379866e-04 -6.2066631708148634e-03 -2.2224579941166667e-02 -3.6375557867904718e-01 2.8960924270364785e-03 1.6702839921885815e-02 1.8310864253777481e-02 5.3158350232473950e-04 1.0210847156626990e-01 -1.6317748176106761e-03 -7.4966954973803013e-03 -8.0055614895172766e-02 -2.6481659280398162e-01 -3.4786514718820882e-03 1.0702978075149971e-04 9.6080026808109675e-04 -1.0045377012841072e-01 -7.6695230936820735e-03 -8.2674509050661982e-03 3.2456434184275906e-03 -4.0503619332184826e-02 -5.2108165011759411e-03 4.8874686337148887e-01 1.6547829086261956e-03 -1.1256270932540247e-01 6.7382347568809564e-03 -1.9136749430677114e-03 1.4205732209393318e-01 5.3660465075693331e-03 -1.5252624108309937e-03 -5.6818103792465990e-02 -2.6643313583917916e-02 2.2348334083517329e-02 -5.3511258677974016e-05 3.8904006270634728e-04 -2.6902515202323229e-02 -1.2547737451484409e-02 1.1168949695388619e-02 -5.9825792003564970e-04 -3.6596699766960228e-02 -2.3288957698969881e-02 3.6020488221674896e-01 -4.0620674120006584e-04 -1.3717098677147987e-02 1.5304765846778423e-02 -9.8032772859011352e-03 -1.3781067525633262e-01 1.6568088614459242e-03 -1.4205621458032169e-02 1.4362097544133690e-01 5.9372289544626256e-02 -2.7908056045191643e-03 -9.7777925774122920e-04 8.2529594813997020e-03 1.8835494917186679e-01 2.0791076120076468e-02 1.9280078009046520e-02 3.1881308369676731e-03 -5.4229039451748939e-01 -1.2834957897212007e-02 3.1609447378423283e-01 1.5029893607518829e-03 -5.9402657705504680e-02 -6.3750519807683759e-03 -3.7162288440337754e-03 1.2939022902719444e-01 3.5878644594031783e-03 -3.8029105641586014e-03 -6.4594438627295858e-02 6.9157358442225814e-02 6.9984905173754441e-03 3.1880367816761179e-05 7.2354353703185659e-04 -7.4828904744208558e-03 1.5954079881566940e-02 6.0636952706261127e-03 2.5422069134570791e-03 4.7261108779639471e-01 2.5645824837056352e-02 1.0374212379247183e+00 -4.3254820518257020e-04 4.8795355753100011e-02 1.1634835232648300e-02 1.3589311625136880e-02 2.9565696617351023e-01 1.4962089809349433e-03 5.2311508972602283e-04 9.1006584756996745e-02 -4.4340043351394343e-01 -2.1984795580671790e-03 -3.2197550532254982e-04 7.6019630992810172e-05 -1.3706893871443526e-02 -1.2162937721313938e-03 -1.0897540682279327e-02 -1.9538506851795034e-03 -2.8247212365386076e-01 -1.3637872779495908e-02 6.5371452593808499e-02 -4.8352932220518952e-04 1.1742220467638731e-02 4.2236623653089111e-03 -3.5841456903042967e-03 4.9475143849849701e-01 -4.8160109631529835e-03 2.3131275622567671e-03 5.1203126768996299e-02 -4.7327391803264618e-02 1.5481790001331319e-02 -1.2453606516249494e-05 1.6541775133392250e-03 3.4123468788493483e-02 1.8301081815010889e-02 -3.5082308398521889e-03 3.8296248632718743e-04 -3.4280044985962377e-02 -1.3259101102448767e-02 -1.2728663895104546e+00 2.1947045296362155e-03 3.5037861734053877e-02 -1.7757270748869604e-02 5.3643290232044949e-03 1.3818637520671473e-02 -1.1812267329269984e-02 5.9097800313479788e-03 4.8945523146585401e-02 -7.3050686049697378e-01 -3.4007964292652793e-02 2.5817190813144553e-03 6.8258727421744731e-03 -3.4031843757215685e-03 -1.6532486697700577e-02 -1.6874631413590579e-02 -2.9504986614482462e-02 3.0570797202881295e-01 -2.9705061917080722e-02 3.5128525090385665e-01 -3.1078228702831486e-04 1.1400135850225013e-01 -1.0708728111493482e-02 5.8181080166645792e-03 -1.9002491370076147e-01 -6.6633808531883498e-03 7.6935065347503162e-03 5.2045410935622982e-02 6.1945198639157439e-01 -8.7848611735999449e-03 -2.2349927851780305e-04 2.7020638971425696e-03 -2.6957143985647747e-02 -3.6297211338905247e-02 -5.6011755681499575e-04 2.4180150109527621e-04 6.3411235011383127e-02 -3.9256630812961824e-02 4.2732908555850457e-01 1.8683848387095903e-03 2.9808050796858332e-02 -8.8060635174747048e-05 -4.6098063199593729e-04 -7.5973668598240174e-02 -6.9520239205389522e-04 -4.0645849887238064e-04 1.2025170494503357e-01 5.7501895656759672e-01 5.8531122638345243e-03 9.3406746352007412e-05 3.2774833883535484e-04 1.3365872704596882e-02 -2.7163234233687383e-02 -7.3704332107269455e-03 -6.0236792520855023e-03 7.2555338604127684e-01 -2.0840460341315481e-02 -4.0072513137431365e-01 1.2780720583741630e-03 1.2002082564549710e-01 -2.0210288098549078e-02 5.8858355649402373e-02 6.9650745958425020e-02 -9.9156813306206792e-02 8.1397692199491084e-02 3.9156178545606934e-01 -1.5923874912838443e-01 -4.8043850200101268e-03 1.2215168258851382e-02 3.5311819824261285e-02 -1.6418843388799909e-01 -1.1240609075644059e-01 -1.1349503093379454e-02 -2.3503519588615696e-01 -3.3341433148750355e-01 -8.1858268567081893e-02 -3.5595641495711661e-01 -4.4462269039104996e-03 1.5993559516051903e-01 -3.4649032361998844e-03 9.6251635912125927e-04 -3.9519273658844867e-01 1.4209158801187899e-03 -5.9991200588988664e-04 -1.5292621051266053e-03 -2.7821677185559479e-01 1.3569518658074535e-05 -6.4370236394373226e-04 1.6085041092788601e-02 -5.2123523001814109e-03 -2.8053833084341964e-03 1.8960119437139156e-04 -1.0375399406171732e-04 -1.5699598742326515e-01 -7.7034407938176841e-03 -1.9880186248229847e-01 2.0156297445943309e-04 -4.2931499981326837e-03 2.6241228199276856e-01 
      </Row>
      <Row Index="162">
        3.7757753118739856e-01 -4.4028113389458667e-01 6.3023082894086838e+02 4.1039754594794431e-01 3.4469650899268345e-01 1.2837318934872746e+02 -5.6958917380124331e+03 1.2231070317153353e+01 -3.6660074037686474e-01 1.0204744619386474e-03 -1.6673637294885702e+03 -5.6318102590739727e-01 6.9135166308842599e+00 6.2969705073192017e-01 -4.0708923163264990e+02 -6.8646889254450798e+00 8.3711531510949135e+02 -3.4523750996595481e-01 6.5436178932432085e+01 -1.7361086951568723e+01 5.4267927000182681e-02 1.1061602591741830e+03 7.6857808891872992e-02 2.3818819499865640e-05 -2.5901540750265121e+02 -8.1013662959334906e+03 2.1642732622101903e+01 -4.2609600932337344e-03 2.0004237994726282e-03 -3.6666669068876945e+02 2.0339570846408606e-01 -1.2293486793525517e+01 -2.6941170042846352e-01 5.8180039079859853e+02 -2.4573818589560688e+00 1.9934736935794353e+02 7.2437767509109108e-01 2.1169225654220372e+02 2.7007066993101034e+01 8.3194308011115936e-02 3.8444484178174207e+02 3.4631670612725429e-02 1.0397592546360102e-01 3.9816422007977962e+01 -9.8452047474682331e+02 3.5460925821036653e+01 -6.0802813542068179e-02 4.1332886050213347e-02 1.8925239480449818e+03 6.8286551469936967e+00 -1.4107944207033142e+01 -3.0188346219802042e-02 -1.6800165014504455e+03 1.5181785514345393e+01 2.8516767128296196e+03 2.1079462132001936e-01 1.8244675735477358e+01 -5.0731536493985914e+00 -1.6260139703808818e-01 1.4780958996694535e+03 -3.4830217848048051e-01 2.3989905312035376e-01 1.8926606829464436e+02 1.5098535981625319e+03 3.6465976147446781e+01 6.4625666572624141e-02 6.9005835732696141e-03 -1.3619011409739032e+03 1.2763053383794613e+01 2.6546022140246350e-01 -7.9237033484423591e-01 -1.6569106694944203e+03 -7.3370220795623027e+00 -3.2015317860990763e+01 1.0933375715103466e-01 -4.4201789302751422e+00 8.7683091131912079e+00 2.0811068865077686e-01 -2.0364297465234995e+02 -1.3622011330880923e-02 2.1433109800318562e-01 -1.6112474373192526e+01 3.1584848934449255e+03 -9.4940522499382496e-01 -1.4965418186875468e-01 -2.0126951467318577e-03 1.6664955247190082e+03 -1.2083325639367104e+01 3.9278840332524851e+01 5.4922824570530793e-01 3.9288862344163854e+03 -1.1411662186495960e+01 1.2131639455026016e+03 -3.3151606751562213e-01 -5.3332822158932686e+01 -6.5904572221916169e-01 3.6995273746288149e-01 5.7246363903582096e+02 -5.3441637101059314e-03 -3.0153870447793452e-01 -2.5713867009268142e+02 4.8545771402700339e+03 1.1911332475268864e+01 -1.5403038421072779e-01 -1.6542399937861774e-02 2.3395493965111673e+03 -6.2075796681456268e+00 3.6625206117809284e+01 1.8196370216319337e+00 4.0000478029251099e+02 -1.6650341304484755e+01 1.5124717355817556e+03 -1.8959160619269824e+00 -9.3430828094482422e+01 1.3337452649022453e+01 -4.5066415021210560e-02 3.2615210613822564e+03 5.2013081567110930e-02 -1.9820388544576417e-01 -2.7831364031415433e+02 5.3547805931260809e+03 4.4683840488740771e+01 -7.6168163840435454e-02 -3.5796197025689480e-02 1.8460029673241661e+02 1.6478510785382241e+00 1.9151314207163523e+01 4.6560487848182674e-01 9.8395187677443027e+02 -5.8616355681988352e+00 9.4924613865185529e+02 -2.8071455532790424e-01 7.9986671227379702e+00 -2.0536819010594627e+00 2.9401837699697353e-01 2.0765671296119690e+03 3.2823355926757358e-01 -2.5102407211306854e-01 -1.2993126722332090e+02 1.0351313052177429e+03 1.5753556904732250e+01 3.0400161924262648e-02 5.0936127795637276e-02 -4.8252908875700086e+02 -1.1692690406998736e+01 1.2250213663428440e+00 1.1966303171357140e-01 -6.4000023037195206e+02 -1.6565884824842215e+01 -3.1211472904682159e+02 1.8958146313036650e-01 -2.9735894640907645e+01 -1.1272344360469301e+01 2.4271966694959701e-01 -2.2984724290370941e+03 -9.2174868540395687e-03 -1.8798943060506557e-01 2.4228118576272391e+02 5.2925745453520303e+03 -2.7919515914265958e+01 -2.8298189425028009e-01 -3.4031846165486620e-03 2.3134347872477956e+03 2.5430483537326126e+01 -3.8998704909462006e+01 2.3060614925499907e+00 9.3401946631725878e+02 1.8001591118636643e+01 -9.2387616848014295e+02 -2.6311294989762080e+00 -6.7521151567119389e+01 -1.1488130078871652e+01 -2.0325624803317913e-01 -5.2446236626679888e+02 2.0900179267522234e-01 -1.4598436644382673e-01 1.6470369110402260e+02 -7.5890701078187012e+03 1.1431337922887543e+00 -1.5044301116371536e-01 6.2249029694974901e-03 2.4558955566971322e+03 1.8877796756060590e+01 1.7069555533281807e+01 1.2148181822595179e+00 -8.3240951932032601e+02 -2.2461426651726391e+01 -4.3651419777909405e+02 -1.5642255868678658e+00 -1.5379590968517332e+01 -9.9471926384246743e+00 6.2575408902587559e-02 6.0332784419425388e+02 -1.0012200609207866e-01 -1.3069150178220629e-01 7.6739815483632174e+02 -3.1398934699635424e+03 1.9792212763191287e+01 -5.9450749325917051e-03 -3.0367709022514372e-02 -3.9433080562243106e+02 2.7563159106440409e+01 -1.8838059914734913e+01 4.6175730034681617e-01 -1.2100495246788528e+03 3.2323991841493353e+01 5.8686737871203286e+02 5.6868606356508966e-01 -1.4078450105804950e+02 -3.5597887589013396e+01 1.4402026033161737e+00 1.4454022395816810e+02 -6.6180092089376485e-01 -2.5789604488160696e+00 2.8001915055195236e+03 1.0579675604336221e+03 8.1979505792001675e+01 -3.2104678639072146e+00 -5.9832314584747692e-02 2.1613947881204249e+03 1.8689190977975784e+02 -1.8914244024502267e+01 2.3622142857785207e+01 -5.8898466908620185e+02 9.1771173379996682e+00 -3.0305299213365606e+02 -2.6766057954810321e+01 -8.1332628613024031e+02 -3.7090487156324041e+00 1.0566971155870943e-03 2.4984995263198489e+03 -5.3275694539356350e-02 1.0808923067782503e-02 -4.3335706888972595e+01 5.8534156837935063e+02 -1.6466139616820026e+01 -5.4595226169112721e-02 2.1999940159278572e-02 3.5019108400825797e+02 2.3557698738093320e+00 -2.0076878570253029e+00 -1.8399479222644670e-02 1.7011785165133940e+03 -2.3400526985645342e-01 -1.4722531521739165e+02 1.3216247557081684e-01 1.8343722504457247e+00 -5.6901262295034280e+02 
      </Row>
      <Row Index="163">
        4.1743783822448677e-01 -2.2581598041847428e-01 6.7598006710410118e+01 1.5881627856936120e-01 3.9454404444114743e-02 -4.8968588682124391e+01 1.6468750147894025e+02 -5.7236371390876002e+00 8.6814275461291501e-02 -1.7687764852865939e-01 7.2812362738244701e+01 -9.7445535671897233e+01 -2.4833094367058948e+00 3.4473379898372514e-02 -8.1202430045232177e+00 -5.2192420479841530e+00 -8.7141627762466669e+01 -2.2528338063693809e-02 -3.2144335795892403e+00 -2.8012819615541957e+00 -9.8956420670219813e-03 1.1939193710638210e+02 6.0631867463825984e-02 -7.1838679835764196e-02 -1.1524803586956114e+02 1.7675149830471491e+02 -1.0348744918359444e+01 -7.2000218112862058e-03 -1.7937565508077569e-02 -7.3097983846529587e+01 -5.0522435519378632e+00 -5.9541817513236310e+00 1.1562213369006713e-01 3.3789781106170267e+01 -8.4814283042214811e-01 9.3823486009612679e+01 1.0785645250507514e-01 -1.4708277162158538e+01 8.0403895693598315e-01 -8.6427555183831828e-02 -1.0463685958089627e+01 4.9844515108816267e-02 -3.2509846850643953e-02 4.1746533054159954e+01 -4.9343466162681580e+00 4.3552669510877422e+00 -3.3576701141839749e-02 -1.3513583626604486e-02 -1.2857856121074292e+02 1.6892718929366674e+02 -1.9893800569261657e+00 -2.7696995591468294e+00 -2.7299569398688618e+01 -8.3147190833406057e+00 -3.4408538121078163e+02 2.0729737192664288e-01 6.3585626949789003e+00 -2.4054838761949213e+00 7.5302909314359567e-02 -7.9419411718379706e+01 1.9854091091815462e-02 -3.2770586840555893e-02 2.0223777659004554e+02 -1.2839556009368971e+02 1.2575288687163265e+01 -1.0503562620982621e-03 5.7248431764946872e-03 1.6615521129511762e+01 9.6408139190665679e+01 -3.9450353112897574e+00 2.4263554353296968e-01 -3.9193317546509206e+01 -4.9786726499405631e-02 -1.1085233961953782e+02 -5.6725216170889325e-02 2.4454895755043253e+00 -2.9052923744893633e-01 1.4517718255069667e-01 -4.5267905133776367e+01 4.0934415184437967e-02 -1.4298679182104479e-01 2.1040580631917692e+01 -1.0477169487625360e+02 -3.2162103659757122e+00 7.7767035761212355e-02 -3.1532857648784329e-02 4.0250022083389922e+01 -1.2667145675444044e+02 4.7404983991582412e+00 8.5001499783356849e-01 6.0443719685647750e+01 -3.9541490648407489e+00 -1.2666195162374061e+02 1.1150201193277098e-01 5.9371967548504472e+00 4.2483346405788325e-01 9.1121730193890471e-02 8.7260906349867582e+01 1.6137462412189052e-03 -2.9103314686381054e-02 -6.2569671991572250e+01 -5.5304469452836202e+01 -1.3318040047895920e+01 5.9131683747182251e-04 4.6554751490930357e-03 1.5283368611708283e+00 -1.2395013598195510e+02 3.1503009100997588e+00 -2.0551082624479022e-02 3.1281707223504782e+01 9.1564556914090645e+00 -1.3133961663022637e+02 3.5054751506322646e-03 -7.1794766290113330e+00 -1.2199590742966393e-01 -3.5679555582714784e-01 3.4714629437075928e+01 -2.1614854716119680e-02 -8.4781149912487308e-03 1.3073389817564748e+02 4.5702985730045475e+02 1.5797361169647502e+01 1.4128834903733178e-02 3.0257454408719298e-02 6.8425581928058818e+00 3.5955413915449753e+01 -3.2066182756252601e+00 -9.3126555063372507e-01 1.0770679303817451e+02 -1.3344808045076206e+00 -1.8800902408204274e+02 6.4752047647061772e-02 1.1941041773961842e+01 -1.1945653660350217e+00 4.8102701064271969e-01 2.1201780176162720e+02 -8.2221106662359489e-02 1.0016441124207631e-02 -3.6619422352872789e+01 4.1857317298650742e+02 -9.6430565088376170e+00 1.5404884931467677e-01 2.1550165974108637e-02 -6.1301743513089605e+01 -2.2439290255737069e+02 1.1309457267143443e+00 1.1882524391767220e+00 -1.2170443262264598e+01 6.7336892982712016e+00 -1.9543791189789772e+00 -2.1000912465410693e-02 -7.0094685466028750e-01 1.3220720719867449e+00 6.2993394674037972e-03 -1.2233178188093007e+01 -2.3960630421673214e-02 -3.4731978487286402e-02 8.6435822081955848e+01 3.4955785989694419e+01 -2.1584637278750876e+00 -1.0541414408840457e-02 -1.6532486656385431e-02 2.5430483382813691e+01 2.2235947805631884e+02 2.1100456885130661e+00 1.1819068271253825e+00 -1.3872202626196668e+01 -6.5814272815171639e+00 -6.7083394916262478e+00 -5.6047190425767453e-02 1.4213982951552495e-01 -2.0843100771952336e+00 -2.2160796224623129e-02 1.9645107452070768e+01 -2.1658361498189338e-02 3.3240866608366559e-02 4.3301118914622052e+01 9.7567175159393116e+01 6.4168235583760769e-01 -6.2939494495311610e-02 -4.5624395499391728e-02 2.0924535517363324e+01 3.4787434923470676e+02 -6.8399707538530485e-01 -2.2191359025470725e-01 -1.5121713250112364e+01 -1.0213586913461887e+01 2.7911024442961229e+02 -5.0383367634250345e-02 -2.9060829817458149e+00 -6.5641141033353967e-01 -2.0857578822062009e-01 4.2347464601358482e+01 8.3844724304071860e-03 -3.6058924630830359e-02 2.0101141827075716e+02 -1.1805707507320980e+02 -1.3014334438847186e-01 -3.1171231708824895e-02 -1.1219245862757602e-02 1.9698412244354515e+02 2.0076906720636586e+02 -4.3826439165422926e+00 8.5622367648091657e-01 -1.2173168959630311e+02 -8.4659740825903640e+00 1.4304206405186937e+02 -3.8498398613846935e-03 9.1048305380390957e+00 -8.7207619447209996e+00 -7.9633856227862276e-01 -1.8302744332814612e+01 -2.0725868720881602e-01 -1.2809470191255362e-01 6.8945591486858802e+02 4.6893698648693174e+01 -2.4227438591616277e+01 -3.9854460709547979e-01 -1.0872622369507901e-01 9.0671755743395545e+02 6.8058865460523623e+02 -8.3437667353360130e+00 4.5334003689127655e+00 1.5619825949283131e+02 -2.7366041175675647e+01 -1.4472914174759583e+02 -1.0462168552326343e+00 2.6968967961854673e+01 -7.2600514451048248e-01 -1.9873476161158712e-02 1.1453197913986840e+02 -2.6143645383172988e-03 -1.1004183069869205e-02 -2.6422534974771779e+00 7.9328253844438336e+01 -5.4768147559905627e+00 2.2509877455945571e-02 -2.9825899554905923e-02 2.6672183582473830e+00 2.1259894773836557e+01 -1.4230180136692070e+00 1.6014408612307657e-02 6.4101738334026663e+01 -1.0632848417343865e-01 -7.1501311453624112e+01 3.7280176258412567e-02 -1.1983001169098983e+00 -7.3866478950433887e+01 
      </Row>
      <Row Index="164">
        3.4402294036647518e-01 -6.2725861505150249e-02 2.7500322215026245e+01 -2.4511457851346563e-02 1.5576911073946320e-02 -4.3564971296204021e+01 -8.7688223436474800e+01 8.1511828818238996e+00 -1.4820524752437061e-01 1.2411848369302447e-01 4.8523411779497110e+00 1.7825292641937267e+00 -3.9716366763386759e+01 5.7190194596955735e-02 -5.1709445687010884e+01 -3.8011222244749661e+00 -4.5125563020352274e+01 -3.2845266819219887e-01 -1.2405269335722551e+00 -1.2646282445348334e-01 -1.6619664000927514e-03 4.9167713422793895e+00 3.7671461211061796e-03 -7.2730909100599206e-02 -9.6377182170981541e+01 -9.9123895579585223e+01 2.4511507624119986e+00 -3.6011867620828752e-02 1.8161616445269146e-03 -9.7594367123772940e+00 2.4096700052323285e+00 4.1599476321478505e+01 1.9843714620981245e-01 1.9641140149440616e+01 -1.0813127244327916e+00 -1.3987194068054669e+02 1.3688621532946854e-01 -3.1895776470470508e+01 -1.8248351518650452e+00 -2.2767586105004511e-02 -1.0505419611283742e+00 -2.2510413435384180e-02 -1.4707405488536551e-02 3.8476043284521438e+01 -1.9552183883311227e+02 1.2285109385987880e+00 -2.5081822216485250e-02 1.8574859370446006e-03 -6.0759798489474633e+01 2.2676913856848842e+00 5.6035748103458900e+01 9.9692415069739582e-02 -6.1861955714819487e+01 -9.1149083859418170e+00 -4.2943880133563653e+01 2.0938276789649990e-01 -7.2255086268123705e+00 -3.4019304321172967e+00 -1.0170749948770208e-03 2.9280411607469432e+00 6.6792080267589427e-02 3.1143661567178960e-02 -4.0124894032545853e+01 -7.5306507978384616e+01 -2.5884353782494145e+00 1.1612646896740131e-02 7.9611933418348713e-03 2.9731292579399451e+01 -1.0614477403141791e+00 -1.1719716012587241e+01 -5.4330651410992914e-02 8.8543479326181114e+00 6.6634214274927217e-02 1.3606645832158392e+01 -8.6797954169583136e-02 2.3857107828625885e+00 7.4373938419557817e-01 -1.4100314323002294e-03 2.2987922459724359e+01 -1.4278107608220125e-02 6.3431316261741699e-02 -1.6326849225080878e+01 6.5245827300124802e+01 -3.1141600769933575e+00 -2.9213981924485211e-02 3.6968561521835142e-02 -5.6791471552443909e+01 -1.0849297102831770e+00 -4.4362530091068038e+01 -5.9114777667673479e-02 7.9013950870816444e+01 -8.2127631815965287e+00 8.5612723247366375e+01 1.8998134141378387e-01 3.3661802038550377e+00 -1.5468174731722684e-02 1.1058524899880240e-02 8.8366691945120692e+00 1.9431674056704651e-02 3.6780036550652540e-02 -8.5475669621264387e+01 1.1936521907245515e+02 -8.5668304323246502e+00 3.4221881430696044e-03 4.8706927455555160e-04 -4.6012456882512197e+01 6.2453828901197994e-01 -1.3881260278431000e+01 -4.8715780540476317e-02 3.4334699894767255e+01 7.2674074818351073e+00 8.4033294424647465e+01 8.0537174214896368e-03 -8.1639228650601581e+00 -1.2489000969173958e+00 6.0111549207135795e-03 4.7504775774083100e+01 8.5792591372779725e-03 3.2603653997213655e-02 -3.4422322703991085e+01 2.4066517846078204e+02 3.4364878605371416e+00 1.2732130416646559e-02 7.2262932764592946e-03 -1.3592955743172979e+01 4.8457615152801736e-01 -1.3779612834802492e+01 -9.5239206532596654e-02 6.2179895121138543e+01 -4.7422303089131788e+00 -6.1581126787888934e+01 5.5339000771354563e-02 6.1923722115859618e+00 -1.5654739007997023e+00 1.1356944357885368e-03 1.3450960446149111e+02 1.6095157664167914e-02 -4.7794810844834501e-02 -7.0196123268542578e+00 -2.5516406244039536e+02 4.8260879497502174e-01 -2.2100297847316597e-02 7.9110642279189847e-04 -7.7700060037022922e+00 -1.3682806188903669e+00 1.9092588952881215e+01 7.3658767913912016e-02 3.1887053922589985e+01 3.1615862644539448e+00 9.6580791738815606e+01 2.2551989202339406e-01 -1.3564363013138063e+00 1.9966737206703247e+00 8.6788662332608624e-02 8.5564286086038919e+01 -1.1832749795477443e-01 -1.8505158779809458e-01 1.0510280525262351e+02 -2.6645123919064781e+02 -9.9375591508222243e+00 -6.5750522478716045e-02 -1.6874631389560378e-02 -3.8998704952691469e+01 2.1100456799041609e+00 9.7278798401050807e+01 6.1962409830554377e-01 4.3143829468113836e+01 -8.5414276776348625e+00 1.9165599369298434e+01 9.1829305517874465e-02 -3.1502218161846152e+00 4.1894891410808022e-01 -1.5256904034614006e-02 -7.3031866040517514e+01 -2.2860864625981359e-02 -2.6199324887357989e-02 1.3909126025890475e+02 1.4369251933641533e+02 4.8930849995669483e+00 1.9780065797282441e-02 1.5317112971074126e-02 -4.0572679979982041e+01 2.9399911494047046e+00 -2.4774600187260532e+01 -1.6759960776784172e-01 -3.9608505222275809e+01 -7.8283804416662726e+00 7.4757674922927436e+01 1.2679623771939108e-01 1.0039326538721660e-01 -6.7293797829459683e+00 7.4622760688114499e-03 -5.8342763259040218e+01 3.5917262101399672e-02 -5.8741703984013093e-02 -2.3157701311177831e+01 7.3896731591244148e+01 -9.6095606290705131e+00 -2.2237407318907616e-02 -2.2041445016882655e-03 8.7037047778413623e+01 -2.9462122242150475e+00 3.2611027359776926e+01 1.7247085657253797e-01 4.6844007616886955e+01 -8.6024008412048154e+00 3.6611787850898118e+01 9.5341665604364259e-02 5.3678242081805365e+00 -1.4873854253116040e+01 6.4063672202635114e-01 1.9446157893449993e+01 -8.7514369846282547e-01 -1.8202838972983397e+00 3.6560231880657670e+02 -1.8143378389349664e+01 -2.0238981707736905e+01 -6.5319916650485632e-01 -2.1183300508700159e-01 2.7920185660165907e+02 1.0521752008771770e+01 6.8690873128814729e+01 4.9839547650400462e+00 6.7517145117332930e+01 -3.0025055191050114e+01 2.8142094576961782e+01 6.0735358669736650e-01 2.4928779031544337e+01 1.6826674647965945e-02 1.6207452876128830e-03 -1.2222810270835350e+02 2.1444013691532565e-02 2.4668035578415013e-03 -5.7207410222669282e+00 -1.0132376594419542e+01 1.0283368255967849e+00 -4.1391590477090290e-02 6.0226601348133818e-02 -4.7368638735379633e+00 1.0321278471511799e+00 7.8774038352530624e+00 5.0937607910385083e-03 1.7059194319830681e+01 -2.5361031960528910e+00 1.8844947133238634e+01 7.1412566619349804e-02 -1.1562145827450969e+00 8.9683687731418278e+00 
      </Row>
      <Row Index="165">
        1.6938144553665779e-01 -4.9430442517993001e-02 -5.1673170992871746e+00 -1.4283070026088751e-02 -3.5909475375621724e-03 2.7714586951187812e+00 1.3015494402498007e-01 -2.4600907582268405e-03 -3.3483037830866202e-02 2.4575325660832092e-02 -2.3239177847444807e+00 -1.5820921763952356e-01 -4.3341222620802000e-01 -1.5933112354900913e-01 8.8216115615796298e-01 1.6761382628828869e-01 -1.9399491945281625e+01 1.4532646020143147e-02 8.0153726812568493e-01 -5.7515641249119653e-01 -1.5068986566575404e-02 -5.5652435012016213e+00 2.5484355829235028e-03 -2.8955863768842960e-02 2.0664260874036700e+00 2.9563151310994726e+00 4.0231720777228475e-04 -7.4856209951263963e-03 -2.6119872162055913e-04 -5.6813619462045040e-01 1.9729306521185208e-02 1.9611539597008232e-01 1.4394937397139529e-01 -5.2995115952508058e+00 1.1459637076768558e-01 -1.1416735408507520e+01 -3.1170659000139267e-02 8.9868432900333843e+00 7.1377264820512210e-01 1.6082479159322816e-02 -4.9320801748299345e+00 -2.9390959410036999e-02 -7.6872966369194273e-02 -3.2828013712423854e-01 9.0983070491347462e-01 -4.4892948314975456e-01 3.3429624791985191e-03 3.0281650025969498e-03 5.4556402307171084e+00 -4.3422699651273433e-02 4.2364062324941187e-01 -3.0251303941045649e-01 8.6784403080418997e+00 2.7723131169841508e-01 -3.6642048903129762e+01 2.0564247154098325e-02 -3.1738677201065002e+00 6.9554114940274303e-01 6.6812937108267079e-03 -7.1985786731529515e+00 1.1159006570352403e-02 -2.3827165499197056e-02 1.2207166066800710e+00 4.4282397588249296e+00 -3.6423669605937903e-02 1.8260481257748040e-05 -3.8604969268440925e-04 -1.0934059223545773e+00 -3.4609795748110628e-03 -1.0977525641806096e-01 1.1377755729705541e-01 -1.8165077951562125e+01 1.8198579957024208e-01 -6.3221778201215784e+01 -6.2414406683615198e-03 -4.6587539245592779e-01 9.3918065925049632e-01 -9.2805543386731415e-03 -2.5193557608872652e-02 1.4415335740380897e-02 -2.6505314894635035e-02 -2.1390415096775541e+00 3.7282596967997961e-01 1.3511304999224194e-01 -1.0572204546519970e-02 4.0822231743877779e-03 -1.5140268510094756e-01 -7.5267390377121046e-02 -2.3946955679275561e-01 2.1819133275045033e-01 -1.1958154631916365e+01 6.4098432846367359e-01 -2.9129284467606340e+01 -3.6204100525409899e-02 -2.8481929511181079e+00 -8.3447527207226813e-01 9.9690832036714028e-03 -6.6414505452848971e-01 4.9733059321965811e-04 -8.7038584453438261e-03 3.9266068159049610e+00 -2.2702211059749970e+00 -1.1906644403825339e-01 6.7474813894108365e-04 1.0460870925363963e-03 1.6011550319090020e+00 1.5629325311601860e-01 -8.8840223601891921e-02 1.0771675694286387e-02 1.7158457981422544e+01 1.6870434703378123e-02 -2.8780861824052408e+00 2.9264635656147675e-03 1.5260661721695215e+00 8.0576807220404589e-01 -3.7030818162293144e-02 -1.5765170242275417e+01 -7.1634086428709054e-03 2.1282606105259561e-03 5.5364382417465094e+00 -1.0152760836266680e+01 -6.2535324660807134e-02 3.8907564229151426e-04 3.4480441555559960e-03 1.4718941874049278e+00 8.0089030823728535e-02 -7.7827138048604638e-02 -5.9077209610336467e-03 1.0965900100069121e+01 2.0172117956769853e-01 -4.4565691060950485e+01 1.3758997639179427e-02 2.5589896563770935e+00 4.1538214015520225e-01 1.6345816095167720e-02 -1.7553666830062866e+01 -9.7161900123552414e-03 4.0558129469928872e-02 -1.2671404643187998e+00 -4.8763332813978195e+00 -4.4322110959001293e-02 -3.6943451863180599e-03 -2.2377748535551412e-04 -1.4444650835066568e+00 -2.2365080869121812e-02 1.0902839075919246e-01 -5.7105640872123331e-02 -4.3400792683059990e+00 2.0124717981525464e-01 -2.0349492942914367e+00 -6.9198638918863686e-03 3.5730516725743655e-01 -1.1717572600118746e+00 1.6908617238788892e-02 5.2520619320712285e+00 -2.1869208066771520e-02 -8.0566993136996778e-03 -7.3924620889974904e+00 6.5095787887611252e+00 7.1379756282490270e-02 -3.7705447030395203e-02 -2.9504986615388664e-02 2.3060614918093734e+00 1.1819068282297849e+00 6.1962409864827350e-01 4.0641686352928845e+00 -1.5535341432521818e+01 -1.7122615173892818e-02 -3.0319532432229607e+01 -3.7934213647311948e-03 7.6973853279522029e+00 -1.1458088967309763e+00 -3.4009831770958274e-03 9.8208408924524839e+00 2.2279413842063722e-03 1.6669972550506174e-02 -3.3208735045816695e+00 -1.1722091158967638e+00 8.6955505998679961e-02 -2.4904489385259819e-03 1.9867075511636177e-03 1.6675229685097293e+00 1.4376317576170550e-01 -1.4817024458795469e-01 3.0552846977994985e-02 1.0716348379208519e+01 1.5339145421227940e-02 -5.0223408741365887e+01 -8.0444548237084603e-03 4.0014701262670016e-01 5.7023076703068742e-01 -3.1573127306247978e-02 2.8420358008583726e+00 4.4932692363385485e-02 3.3828708365517407e-02 -2.9338847149827956e+00 -7.8396322924845663e-02 3.5815684349329396e-01 -8.2655006098254873e-03 -6.1429347827766136e-03 -2.8211867002656223e+00 4.5419559396100873e-01 1.2605283806510670e-01 6.1417617975521366e-01 -4.9431030010452361e+01 8.2481511107470595e-02 -1.1324633289670114e+00 -4.8751043482035530e-02 9.5101098848390393e+00 -2.1132366652586825e+00 4.6668647333539807e-02 -2.7960853715536107e+00 -1.8002209851558426e-02 1.7604103739610899e-01 -2.3316634609092333e+01 -5.8495222039213957e-01 2.0936268869686252e+00 -3.5222546331518939e-01 -2.7501371995198742e-01 -1.0122541080388121e+01 9.9072338868511842e+00 -1.3434158616990199e-01 3.2402873656827254e+01 -5.6661387595534052e+00 -1.4792378022334844e+00 2.7572887626600959e+00 -1.2586986170762593e-01 8.8888345328361993e+00 -5.3764148249910426e-01 -1.9264767120736014e-03 1.6819237786160102e-01 1.8199978035613978e-03 -1.8630526968978112e-03 2.7209243058898380e-01 4.4855911326140490e+00 -5.2705763464500052e-02 -1.3115569207446498e-02 2.3533086205851841e-03 1.7426720062479806e-01 7.1306553415431129e-03 6.9486484605704391e-02 -1.6686751603237106e-03 7.6025765231240143e+00 5.5437522468366751e-02 -1.3430957276650588e+00 -4.0749941772224895e-03 -1.2333250406017306e+00 -4.4260477812962469e+00 
      </Row>
      <Row Index="166">
        -4.6158076177773182e+01 -1.0022742225919501e+00 -9.6826320176124573e+03 4.3870692202763166e+00 2.1444301767041907e-01 -1.1218903812170029e+03 -4.0740423583984375e+03 -5.6534864078537794e+01 -7.6192324072509336e+00 7.5429341595736332e-03 -1.6170441024824977e+03 -4.3598086535930634e+01 -1.4517508924007416e+01 3.2007486361544579e+00 -4.2445923507213593e+04 6.9234013721346855e+01 3.2850971498489380e+03 2.4581004049396142e+00 2.7412225939333439e+02 -3.4256717993319035e+02 4.2508117388933897e-02 -7.6806821094155312e+03 9.9605389882344753e-01 7.0220233482541516e-01 -1.5093519341945648e+03 -2.0897068211138248e+03 -3.9463931918144226e+01 -5.3154891304438934e-01 9.2028769548051059e-02 -2.5860456593707204e+02 -1.8947299540042877e+01 -3.9522378075867891e+01 7.1742514191428199e+00 -2.5766308483839035e+04 1.5425208768248558e+02 6.4886542439460754e+03 -8.9477068115957081e-01 3.9557671938967833e+03 4.3445126365870237e+02 -2.1950240209116600e-01 -6.3554815758873010e+03 1.4496085040736943e+00 1.1333547068061307e+00 1.4302804368138313e+03 -1.1790690481662750e+04 -8.9308501977007836e+01 -1.0024525209155399e-01 -1.0804971662582830e-01 5.5930027619004250e+02 6.9893975764513016e+01 1.1786823533102870e+02 -1.4166875513037667e+01 -1.5804451825925708e+05 1.5050669254362583e+02 -3.2748610272407532e+03 -3.0738333408953622e+00 4.8938909877836704e+02 1.6711030302569270e+02 -9.9250339245190844e-01 -8.3912970893383026e+03 -1.0478756928350776e+00 8.7300777837663190e-01 -1.7981600880622864e+02 -1.7961489946246147e+03 -1.3333648899942636e+02 1.8799604677042225e-02 2.4593614639161387e-01 -1.5650517502501607e+03 4.6782724775373936e+01 -1.1457137784920633e+01 6.8193281520507298e+00 -7.2842452785015106e+04 2.5934664024855010e+01 -7.6800334389209747e+03 -7.4488440342247486e-01 -1.3646940670907497e+01 3.7998964897170663e+02 1.1910273118992336e+00 2.3821944148540497e+03 2.1742113040527329e+00 -2.8645914018852636e-02 2.2703227658569813e+02 2.5892401790618896e+03 1.8098585754632950e+01 -2.0442437173915096e+00 -5.2077722459216602e-02 1.2203857704177499e+03 6.7146913528442383e+01 -3.2868267580866814e+01 1.0420063755940646e+01 5.5501115674448280e+04 1.2564295524358749e+02 -5.2992086847424507e+03 -1.7043227301328443e+00 -8.9810836315155029e+01 -2.3583525414019823e+02 4.8990137648070231e-01 -8.8458786869049072e+02 -8.0072410905268043e-01 -1.5716499753762037e-01 -1.7252284790873528e+03 3.8143337640911341e+02 5.3652876801788807e-01 -1.8942965842143167e-01 6.9962641427991912e-02 1.2571272014379501e+03 -6.8610797822475433e-01 2.0456257954239845e+01 1.9511359499301761e-01 2.0283123980522156e+04 -1.1226432658731937e+02 -1.3548469905853271e+03 -1.0933321614284068e+00 4.1657380676269531e+02 3.0365366584109142e+02 -1.4909093113383278e+00 -1.7243927453033626e+04 3.7002720178861637e-01 -7.0157414101413451e-01 -1.6751996218562126e+03 -6.3164276022613049e+03 -4.5371830263989978e+01 -2.9897635593260929e-01 4.1408983393921517e-02 -2.8294376500789076e+02 1.9834484651684761e+01 5.8579470090335235e+01 1.0916389960329980e+00 -1.1454093598794937e+05 8.2236029119114392e+01 -1.7773810819536448e+04 -1.1716453426051885e+00 4.6287302945228294e+02 1.0264104711101390e+02 1.0358554590493441e-01 -1.7225375640869141e+04 1.3425519608426839e+00 -4.0538484859280288e-01 9.7389252364635468e+01 -4.8428327178955078e+03 -6.6740595933049917e+01 -2.4621843072236516e-01 -6.1990009639885102e-02 -5.3928026330471039e+02 3.7504623350687325e+01 -8.3316659464035183e+00 -8.7458101958036423e+00 -2.8711055058896542e+04 4.8297314196825027e+01 -1.4504835395812988e+03 -1.7043271389866277e+00 -4.7443938255310059e-01 -3.0190156313356823e+02 1.3043954137174296e+00 3.7981928622066975e+04 -5.3858456626543738e+00 -1.2185776224039220e+00 2.1039673005491495e+03 1.5128981524272087e+04 1.4620049633876988e+02 7.3937905985316965e-01 3.0570796481011492e-01 9.3401946128299460e+02 -1.3872198102817947e+01 4.3143830981862266e+01 -1.5535341455353773e+01 1.7804804486113787e+05 1.2563462417847379e+02 -6.1829258698821068e+03 -1.1680793744560911e+00 -2.6546156789161216e+01 -1.5015050472320240e+02 -1.9817194249095360e-01 -2.1573235475989623e+03 4.8693797404455985e-01 -6.1338828885345720e-01 1.5719199811106932e+03 8.3023331303052164e+03 1.1976036758071601e+01 3.0460060251182475e-01 2.2769583207241151e-02 1.0627704767122286e+03 -1.1710529273375869e+02 -1.6018334125249055e+01 4.6797044090558106e+00 -4.0346626033770051e+04 9.6963428314964062e+01 -4.3205231342811257e+03 -1.4327023056649363e-01 -6.2497715639331886e+02 5.3910401124970087e+02 -2.3423247085206483e-01 -1.1452193357499254e+04 -2.0172659944801126e+00 -1.0529804729369658e+00 -7.1862350452294493e+02 -4.1684006541119197e+02 4.3127088731396952e+01 4.7576215665828836e-01 -1.7474117642920067e-01 -7.5472099298095793e+02 -4.6981995500601556e+01 2.9353678952902555e+00 -6.7184155031153203e-01 1.9068275544402516e+05 1.2274959527645746e+02 1.5350586617255845e+04 2.2094807092777873e+00 -1.8580794242024422e+02 1.6540447398219162e+03 9.2102557071257074e+00 3.5102208824857462e+02 -5.3388153093175688e+01 -1.5046085142784626e+01 1.9614788297117793e+03 -1.8956401670694363e+03 3.7629162807476928e+02 2.4717225326347076e+00 1.6257837977661325e+00 -2.2231766487766176e+03 -3.9114282893120935e+02 -5.2126125305090113e+01 -1.3112341464629708e+02 8.1660390009714713e+04 9.7159702915091202e+01 -5.2955098898433826e+03 5.5960504893197047e+00 -9.0783961312489373e+03 -2.6513396726513736e+02 -4.8673941166718970e-02 -4.1108452824921478e+04 -2.8001853120549608e-01 3.7306321579299813e-02 -2.8727034553912608e+02 1.9701185169805718e+04 -1.0017863239257883e+02 -2.1517424138437491e+00 5.1030111105405632e-02 2.9335506081640182e+02 -3.8836345717165743e+00 3.6755146090872586e+00 5.6985794755445651e-01 8.0763383398365564e+04 4.3355575754019142e+01 -8.4740364393369236e+03 -3.9364100712548122e-01 -1.9951672695538298e+02 -1.9601165225989891e+04 
      </Row>
      <Row Index="167">
        -6.6847222023739050e-01 2.2256352712531680e-01 2.4208424287661910e+02 1.1493197801155475e-01 -4.6873164315570648e-03 -1.4430886201560497e+01 6.0880670844018459e+02 4.5926346900293993e+00 -1.2451201164206793e-01 1.7858011774308125e-01 2.5792441422003321e+01 1.0809186840429902e+01 4.7158971813041717e+00 -4.1419621662498685e-01 3.8832321338355541e+01 2.4372611965052783e+01 -5.3328246171772480e+02 -1.4561859310379077e-01 -2.0368441820610315e+00 1.4872751293005422e+00 3.3888528914758353e-02 5.1280716099683195e+02 3.2624072455291753e-02 1.0240732592137647e-02 -4.1113255284726620e+00 8.2163958988792729e+02 -4.2162999883294106e-01 -7.8753899233561242e-03 2.0487809104679400e-02 6.4423035513509603e+01 1.6830925894901156e+00 -3.4756196226808242e+00 -2.5768688675634621e-01 -3.6257771140895784e+01 3.2721277947071940e+01 -7.8328650162555277e+02 -9.1775182198034599e-02 1.7194874189527127e+01 -1.0601787647174206e+00 -2.8732821779158257e-03 2.0083467271639893e+02 5.4412920274444332e-02 -2.6048695919598686e-02 3.1543160816654563e+00 6.6768239267170429e+02 5.5984595081072257e+00 7.9306940917831525e-03 -1.6753566901684280e-02 1.9137303890311159e+01 -1.4039041256764904e+01 -6.4729059142409824e+00 -8.2638707410478673e-01 -1.1217788753553759e+02 4.6047789394622669e+01 1.2683054961077869e+02 -1.5531150551396422e-01 2.5216801904607564e+00 -1.7273184612568002e+00 -8.6150761522276298e-02 3.2235866686422378e+02 5.1765308110589103e-02 -5.8580810230751013e-02 -1.2364574603550136e+02 1.0167313402518630e+02 -5.8076893800753169e+00 -2.1013272074242195e-02 -5.0410802090198104e-02 -5.8334345383918844e+00 -3.8148606186150573e+00 3.5416621591793955e+00 1.1491203614787082e-01 -1.4614774269983172e+02 3.8466042633241159e+01 -1.7599159789923579e+02 -1.0790532699320465e-01 -6.6274276882177219e+00 -1.7698167202179320e+00 -5.2511984446482529e-02 -2.6432384297251701e+01 -2.0913962093800365e-02 3.6349248605006323e-02 4.5268846549253794e+01 -3.3853907272592187e+02 1.4889150322705973e+00 -3.4557871636025084e-02 6.1715098601666796e-02 3.9707449997833464e+01 1.7096854876726866e+00 5.9834501250879839e+00 8.1172027954380610e-02 9.1544032762308348e+01 1.9009312478359789e+01 -1.7674087681318633e+02 1.0814419857433677e-01 -1.5955177070572972e+01 2.4715444896719418e+00 6.4927015771445440e-03 1.8949051201343536e+01 -7.9667242443974828e-03 -1.4515974009555066e-02 -4.8772898126509972e+01 -4.4526176030072384e+02 -1.8880028129206039e+00 8.5079097825655481e-03 2.3354426420382879e-02 4.3101302698254585e+01 1.0244743345072493e+01 1.8953360864252318e+00 2.2352874395073741e-01 -4.0987724155187607e+01 -7.2281175998272374e+01 -1.2989589196443558e+02 9.8430993366491748e-02 -1.2867957539856434e-01 -1.6761053224836360e+00 2.1688531706149661e-01 9.5375373047217727e+02 1.9554957061927780e-02 -1.6252290023658134e-02 -1.8355766315711662e+01 -6.4845107402978465e+02 4.8873034936507338e+00 -2.8826879681318474e-02 -2.1986154969070526e-02 -3.2226431982257054e+01 -1.4676885668304749e+00 2.5803777429609909e-01 -2.4160659086192027e-01 -1.8807585970312357e+02 3.2505013256179154e+01 -2.6766993151942734e+02 -7.2519788357567450e-02 1.8256620092506637e+00 -9.4547335152310552e-01 -1.2684899842861341e-01 6.0217735612392426e+02 3.3593818051713242e-02 1.6376451494579669e-02 6.9552164256107062e+01 4.7039352917671204e+02 5.7286693196510896e-01 -1.3364342742306690e-02 2.8658954221896238e-02 7.5485865030437708e+01 1.6890174451662460e+01 -1.9415692174152355e+00 -1.6939169142278843e-01 -1.0551960278674960e+02 -7.4024447812698781e+00 3.4725950872898102e+02 1.9633998777152328e-02 1.8132735276594758e+00 2.4310471577264252e+00 -7.9176202910161919e-02 1.2802538954839110e+02 1.8636131815060280e-02 1.0091597027683153e-02 1.0662716048106086e+02 8.8120813564040645e-01 -8.2681740643096191e-01 1.3189605174638141e-02 -2.9705062005169570e-02 1.8001591467902472e+01 -6.5814272901823117e+00 -8.5414276996502849e+00 -1.7122612831258266e-02 1.2563463402539492e+02 9.5606785821730043e+01 -5.3507583012804389e+01 -2.9703919772867210e-01 5.8975204652675330e+00 2.4906027187294839e+00 1.2969574660737700e-02 -4.9693146730178580e+02 3.3004968695024756e-02 4.1853933745414906e-03 3.7252573111968218e+01 -5.5648365037594886e+01 4.2120405005440054e+00 7.7183372752834658e-03 1.7091804474917267e-02 2.3624157444285942e+01 -2.4589250597637147e+01 7.0894979123698825e+00 -2.9627851990490867e-02 1.6518436361843456e+01 5.1359838241996449e+01 -1.7129005034330746e+02 -3.1536591247444040e-02 -5.3455286471758683e+00 -4.8062728645181374e-01 -2.0827737042498001e-02 -2.7877581257740837e+02 3.1154304961091839e-02 1.3439720745189905e-03 -5.1161964240016168e+01 -7.6541644123690531e+01 -6.2852275730993616e+00 -3.1063890304749465e-03 -1.6660974540276225e-02 -2.9504814431839101e+01 3.9698904629884240e+00 -8.5368505181395449e-01 -2.4343073822831532e-01 1.0539574911430748e+01 8.8182779524394618e+01 -8.1103559392312576e+01 -1.7217707783914621e-01 3.4237882122397423e-02 5.0587790136742115e+00 -7.6510903653801632e-01 1.3216376213190472e+02 2.4274726956525661e-01 6.3276287372075857e-02 -1.1355523450447151e+00 2.3518361858123313e+01 -2.0088169858547538e+01 3.9721871776894624e-02 -3.2322607447423901e-01 -5.3247552170277473e+01 5.9146942473743174e+01 2.1212253983932619e+01 -2.2937574262024185e+00 1.4985844048062421e+02 2.4534364114636807e+02 2.7056104873256274e+01 -2.7036208394809336e+00 -4.1090711711259758e+01 9.5387538998264454e-01 1.0477089650251799e-02 -1.8364775677481461e+01 -1.7507562675173040e-02 3.4204278133672548e-03 -5.9704993273826723e+00 -2.1384080827970607e+02 4.1544271391598233e+00 -3.5053615630943114e-02 1.4845581220293969e-01 9.8598769631076042e+00 -1.8531982082148468e+00 -2.1570665156177711e+00 -8.0911382903403190e-03 1.3131161562993270e+02 2.4360192814657555e+01 3.2112799961973906e+00 -1.0183859081536455e-02 -1.2881237325115222e+00 2.0955251653278251e+02 
      </Row>
      <Row Index="168">
        -5.3606414789972405e+01 -2.3442641172587173e+00 -2.9679682077169418e+03 3.2077003522390442e+00 4.2932187645601516e-01 -1.2730368239730597e+03 -3.5954135965108871e+03 -2.8622454333584756e+01 -1.3450352227493707e+00 1.7947869084637205e+00 2.0963400811515749e+02 3.5078307718038559e+01 -9.8740471564233303e+00 -1.4239982740255073e+00 1.1480755635976791e+04 -8.5371236823499203e+01 -3.4214442133903503e+02 1.6825831388996448e+00 2.2377167769148946e+02 1.1839615636691451e+02 -5.1250260404776782e-01 1.2122883227616549e+03 -4.9147855991031975e-01 -9.0176067258289549e-01 -1.2563576008677483e+03 -4.1455350613649935e+03 8.4260127097368240e+00 -1.4232266921317205e-01 1.8729253620040254e-01 8.6356381069694180e+01 6.0683110952377319e+00 5.2200083133764565e+01 7.0220668762049172e+00 -4.1271789682805538e+03 -7.2638761281967163e+01 -2.4115837837457657e+04 -9.9526985976262949e-01 1.4205302468491282e+03 -1.9048390168836340e+02 -1.1372053295708611e+00 -1.6702682160984841e+02 6.1725556896999478e-01 -5.1612469862448052e-01 2.4531296607106924e+03 2.8500133049488068e+02 2.4025603350193705e+01 2.8626077477019862e-01 -7.6377889052309911e-02 -2.0025061961989850e+03 -1.0871111519634724e+02 1.6140925865620375e+01 -9.2036575651727617e+00 1.7422589187543839e+04 3.7927193155512214e+01 -1.1979850427863002e+05 -1.7577109437552281e+00 -3.1399442362412810e+02 -2.7018498911522329e+01 1.0862875850580167e+00 1.0547700837254524e+03 -4.6169940130494069e-01 -2.0238919133082618e+00 -5.9655182120203972e+02 -3.2508978260010481e+03 -6.9843422673642635e+01 -4.5391638666205836e-01 -1.9546657610771945e-01 -4.5167238675057888e+00 2.2574552940204740e+00 1.1586437089368701e+01 5.1052631403726991e+00 2.1072784433215857e+04 -5.1557295131089631e+01 8.7862366182044148e+04 1.8119795003440231e-01 -1.4409623333066702e+02 -1.1027292824792676e+02 1.2544040039938409e-01 -3.0518362638950348e+03 -1.7550383409543429e+00 -2.8414365064199956e+00 3.4736207892047241e+02 1.3584839797616005e+03 -3.3147997735068202e+01 -3.8024661490635481e-01 4.8218145954342617e-01 -1.5941662536747754e+02 -2.9980541929602623e+01 -2.8666889285668731e+01 -5.2995548286708072e-01 -3.8996706459004927e+04 1.0339892300963402e+02 9.2367688583165407e+04 -1.3520820117410040e+00 -7.3575407940149307e+02 7.0290126060135663e+01 6.7695287721289787e-01 5.1045449484586716e+03 -4.8545258582453243e-01 -3.2229034835472703e-01 -1.5162726971022785e+03 1.5385473683038726e+03 1.8361618840252049e+01 -1.0930918941448908e-01 6.8621647969848709e-02 -7.6819541999697685e+02 1.0188267350196838e+01 7.1131436121650040e+00 -5.9613051753840409e+00 6.7911020529270172e+03 5.7961935874074697e+01 3.7306942811489105e+04 1.7133027545060031e-01 8.4879113733768463e+00 -1.2665983761078678e+02 -1.7165909631439717e+00 -5.5678905247710645e+02 -2.2268090080979164e-01 -1.0241143207967980e+00 -1.4357905254326761e+03 -7.8993027671426535e+02 -1.3770392442769662e+01 -1.8842934264216638e-01 -1.8353070922239567e-01 -4.1868224117462523e+02 -1.2040316075086594e+01 -3.2780787248659180e+01 5.9234820830170065e-02 -1.8231272815942764e+04 -3.1155581170343794e+01 6.3827479734271765e+02 6.3268125122704078e-02 -6.4763976058573462e+01 -2.3750837298983242e+01 5.0317344663199037e-01 -1.0029128227233887e+03 4.2247672483063070e-01 1.7524455338425469e+00 3.3776744713261724e+02 9.5418188858032227e+02 -7.0491641610860825e+00 3.3088737567595672e-02 2.1053168879848272e-01 3.9909519142657518e+02 1.1138041980913840e+01 1.1661874063371215e+01 -3.5880765141919255e+00 3.5024366513676941e+03 1.6940785124897957e+01 3.3490619258403778e+04 -2.0441259769504541e+00 8.7105541214346886e+01 1.8227612357411999e+02 1.6307098975430563e+00 -2.5436223622560501e+03 -5.4493287853122405e+00 -9.9668858719152453e-01 2.3608387537747622e+03 5.3745334011216191e+03 4.5818138211013320e+01 3.2947025042514488e-01 3.5128525430079188e-01 -9.2387617937719915e+02 -6.7083398024640815e+00 1.9165599897925858e+01 -3.0319532507839540e+01 -6.1829261923879385e+03 -5.3507581721470594e+01 1.0452227332799137e+05 1.2589866897220863e+00 3.6977897674044556e+02 1.5438624579410111e+02 1.5372208164391172e+00 5.5364997172625390e+03 -1.7429603125820314e+00 -2.0054435377060145e+00 1.5884558273040852e+03 1.8995192267745733e+02 9.9916757624552446e+00 -1.0451777114308884e+00 -8.4030281977625701e-02 3.3902281062457405e+01 1.1552583042532206e+01 -3.3419409372444406e+01 -2.9755629054595538e+01 -6.4138368685512842e+03 -1.4457926245974598e+01 1.4043549104240639e+05 -6.8185006193151265e-01 -1.1941146635651972e+02 7.2074322179944502e+01 8.2473044140761576e-01 6.1945080697925068e+03 -2.3131793488209951e+00 -1.2480569169905420e+00 -1.7776204145708718e+03 -8.9497364192654140e+02 -1.1449901584371929e+01 7.7152005466107704e-02 2.9317876425094014e-01 6.6767188623804643e+01 1.0147714640363631e+02 -8.0004355944693089e+00 1.5239911594272133e+01 2.0651444290320833e+04 -9.9681087147517701e+01 -4.4028266075473977e+04 2.6214574607888781e+00 -2.1721494673937559e+02 9.1195131834662152e+02 2.2959184646281209e+01 -1.8395946739289921e+03 -5.5600601636094581e+01 -1.6728818846845709e+01 -2.0313423218501412e+03 -1.2232814425644665e+02 -6.1356129431341913e+00 -1.5198509481532021e+00 1.8723528221266046e+00 2.2022378693062992e+03 3.7389101528397418e+02 -1.5362133037897991e+02 -3.1979276243483321e+02 -1.9006809240970470e+04 -9.2686062680193118e+01 5.0709993764425017e+04 2.0811223520125608e+01 -3.7166913753920139e+03 1.5090249216756169e+02 -6.8550277749731159e-02 -1.5157319988865524e+03 -4.3020924830982804e-01 -1.2451529592662811e-01 -1.4682253966303017e+02 4.5100146130431167e+03 -9.8739617191919784e+00 -7.2283833888468507e-01 8.5736063036071808e-01 2.7574278160708786e+01 -1.0628804390893226e+01 1.1851911784964614e+01 7.7135564984793559e-01 -1.3043902347792926e+04 -3.9327284699619327e+01 1.7504939141640541e+04 -3.2310662610906604e-01 2.7712452884991421e+01 -4.5013072541897700e+03 
      </Row>
      <Row Index="169">
        2.9969579676812685e-02 -1.9253153727068373e-02 -1.6015722583688330e+00 -8.8105696038583758e-02 -7.8502535046518496e-03 -1.2279488882813894e+00 -1.4168384835938923e+00 -5.1450419496593014e-02 3.3663888397952063e-02 1.4852746033169772e-02 2.5104107467795984e+00 2.0508306373812957e-02 -1.7773728939573630e-02 2.0125879914999700e-02 -7.5793332586181350e-01 -1.0263797765855998e-01 3.9049421764211729e+00 -2.6792782962878192e-01 -8.8472242076022667e-02 1.9789366938312014e-02 -1.4311061652620083e-02 -3.9486403555201832e+00 -3.6592391786172129e-04 -1.1132243288868082e-02 -2.0991911813325714e-01 -1.9472573951957202e+00 1.4898271491256310e-01 4.6930699408314069e-03 -6.7712346208548269e-04 3.7018166630234361e-01 -2.3441905992513057e-02 3.3578515196495573e-02 -1.3598824407893062e-02 -5.7288269199489150e-02 -1.0110036998230498e-01 2.4993072848155862e+00 2.6715773735473647e-01 -5.1352808902374036e-01 -1.1410694581240932e-01 -8.4978939795270492e-03 -1.9375527493847144e+00 -8.7303986888116469e-03 5.8092612519189402e-03 1.1490122360555688e+00 -2.0490501393214799e+00 -1.7247557742255282e-01 1.4957167646780789e-03 1.2119091937989879e-05 -2.7427602167790610e+00 3.5720669273359817e-02 5.3230161588544433e-02 1.5778656794111612e-02 1.8893986898865478e+00 -1.3443477087184874e-01 -3.0596854860341409e+00 2.3733396399437368e-01 9.6765141355717788e-02 -1.4139395970232727e-02 4.8745779710301917e-03 -4.1625602403510129e+00 5.4341420670841245e-02 8.6448533624604584e-03 7.4552953607053496e-02 -8.8474612643767614e-01 6.3282336790962290e-02 -5.2345440446832647e-04 1.4698523131251306e-03 1.5691881522457152e+00 -1.5876191705046949e-02 6.3500008066398550e-02 -1.3994748805359336e-03 1.7371361019613687e+00 -1.3468255350205283e-01 -7.4662669460667530e-01 -7.3856008784090932e-02 4.9244127189012943e-02 -3.8947633152019989e-03 2.7335425138730329e-03 6.3332563736184966e-01 8.3977558539629626e-03 3.5251993822061678e-02 1.6770506163361460e+00 4.1164040059811668e-01 2.9675418196802639e-02 8.2846705831514100e-03 2.0568092007473560e-03 -1.2832651347926003e+00 8.2727164008247200e-02 -8.2918088057795103e-02 2.7475757376009824e-03 -2.3974826165240302e+00 -1.8907056655007182e-01 1.9009102631935093e+00 1.4682755881904797e-01 1.9966020497668069e-01 -6.2502648991994647e-02 5.8921189974512345e-03 -8.4414401274989359e-01 2.8431573189202197e-02 2.1318181663779967e-02 -1.8275173831716529e-01 -2.6733787178727653e-03 -2.7454351046003467e-03 -6.0705423274676207e-04 7.1218524193383814e-04 -2.8285662026391947e+00 -2.7656959424348315e-02 5.8347005855239331e-02 2.4046236309871460e-03 -6.0960700642317533e-01 3.1364424323373896e-01 -4.1972200215677731e+00 -6.2951746603829406e-02 -2.0456446247408167e-02 -2.4057359301593806e-02 -2.2571374322854609e-02 -8.8083953381492393e+00 2.1579314287655471e-02 -4.9457334075082571e-03 2.9887673732628173e-01 -5.0190534305202164e+00 5.0073087045880982e-02 8.5586919180125065e-04 6.6965631541771042e-04 -7.2407661706279214e-02 -1.6708130033293855e-04 -9.3258396845470770e-02 4.7524092803143958e-03 3.7917989824200049e-01 -7.8316401282798154e-02 3.9493520266842097e-01 3.7609425381432970e-02 3.1221189311878561e-01 2.6900532942690347e-02 1.7796932215787820e-03 -5.6193601973354816e+00 -3.5544980306639218e-02 -2.6165722044517281e-02 2.0485605014528119e-01 1.1265512267127633e+00 1.6645833275788391e-02 6.1824246975987762e-03 1.9813899281868608e-03 -7.5802390319222468e-01 -1.2555926491017999e-02 -2.5410915712541282e-02 -1.0314604764744217e-02 1.3907717351085012e+00 7.6042898683226667e-02 -1.3668845612555742e+00 2.8579631021616636e-01 -7.9295700248621870e-02 -1.6357639763100451e-03 6.4477420972410826e-03 6.2846663440723205e-01 -1.0574239244401918e-02 3.0605512881773655e-03 2.2830907168859085e+00 3.8209150181455698e-01 -7.5874496470871966e-02 -1.3514959775382576e-02 -3.1078228674925559e-04 -2.6311294983973141e+00 -5.6047190705214689e-02 9.1829305404317552e-02 -3.7934213634267522e-03 -1.1680793636624003e+00 -2.9703919712411297e-01 1.2589866696216632e+00 2.9057163644859785e-01 -2.9741531224906925e-01 -2.5373627632830131e-02 -4.4952451686175142e-03 4.2239585867517633e+00 -6.0716213676956621e-02 -4.8551938282923146e-02 2.0786372944453682e+00 4.1440845098268255e+00 -4.3950362468437199e-02 1.3966858142959409e-03 -1.1028117281686402e-03 -2.3137417743254964e+00 3.9631549375371833e-02 7.9065727278213149e-02 -5.8274596861284875e-03 8.9612803459989876e-01 -1.6307283843226564e-01 5.0952718207623953e+00 9.8138764409692783e-02 2.3157065017507686e-01 -5.7433964628635648e-03 -6.3705406714924528e-03 8.8397554855989835e-01 3.1022748779889753e-03 -1.7089714147453933e-02 1.0412322630188242e+00 3.2874065027292332e+00 2.2548680249474173e-01 1.3368639085910381e-04 -1.2653495740162176e-03 1.3121000562382790e-01 -8.1474592072594554e-02 4.5369736023303631e-02 -3.1476887107128933e-02 1.5068342010769840e+00 -3.2779866043296657e-01 6.6713308073929909e+00 5.6422155554627429e-02 -4.5244291605376930e-01 -2.5881005732463613e-01 3.1700155675919078e-02 -1.0948163008496152e+00 -8.4890969449865711e-02 -2.3272536761720380e-01 8.9133521262920432e+00 -1.3999495599511818e+00 5.0832052007363338e-01 -6.4050078049935608e-02 -3.3135545586848281e-02 1.5741377188058960e+00 -6.3014440386060855e-01 9.0710979199289155e-01 -9.9800579343189977e-02 9.2510747735051879e-01 -6.7078074073556948e-01 -2.1189207959307268e+00 1.3474368910937551e+00 -3.5135038436245125e-01 2.9452778286282455e-03 -4.8533002645331801e-04 8.3522276304245224e-01 1.5274594684963030e-02 2.5465148432914720e-03 7.8881390425748155e-02 -1.3801995392642705e+00 8.2328626596706450e-03 5.9107602037982154e-03 1.7162365239757706e-03 -4.0173018135507110e-01 -9.7565393949192863e-04 3.7325180131801972e-02 -7.3671485288690809e-04 -2.0667120803538062e+00 -1.5771050193109470e-01 -1.9395353440287977e+00 3.1407585376242136e-02 3.7844010957190477e-02 1.3399276789916279e+00 
      </Row>
      <Row Index="170">
        -2.4389279910934988e+01 -3.6270493486085797e-01 -3.0373706748336554e+02 -5.5530065420498431e-02 7.3940735037126615e-02 -5.6498345845378935e+01 -1.4490542895346880e+02 -1.8242778635840295e-01 -8.6814282010389343e-01 -1.6100712061233935e-01 2.0339061621227302e+01 8.1652032118290663e-01 -1.2548379961866885e+01 -1.6728460118392832e+00 5.7372988621890545e+02 -2.8449549854267389e+00 -1.9312968403697014e+03 1.5560502211883431e-02 1.6856230234424584e+02 2.7473409052006900e+01 6.0809977043390973e-02 -1.1750330142425373e+03 -3.9654618791246321e-02 1.9511084645364463e-01 -1.1422142891958356e+02 -3.8009792280243710e+02 3.8923647580668330e+00 -1.6243079228843271e-02 4.1113018389296485e-02 -4.5557410377581618e+01 -6.6480270540341735e-01 -6.7265729402424768e+00 7.0811446803600120e-01 -4.2525852000899613e+02 -7.9250884978100657e+00 -3.8488840212486684e+03 1.7599047527983203e-01 7.6023954704169364e+02 2.7509668561047874e+01 -2.3129910005218335e-01 -4.1622728514106348e+02 -4.4569023868461954e-02 -4.4845203141449019e-02 4.5618031383492053e+01 5.9657091052830219e+02 -1.4048644056849298e+01 -1.9478120567328006e-02 -1.3954806464539615e-01 -3.3701811209321022e+01 4.2065992518328130e+00 1.8417131536582019e+01 -2.0660134315403411e-01 -1.2822863058373332e+02 2.2425177808501758e+01 1.0809260144941509e+03 -5.1736439278465696e-01 -7.7360964913549833e+02 -3.9733979346172418e+01 1.3198533018203307e-01 -9.5368105990905315e+02 1.6339929001560449e-01 -2.7522334474932109e-01 -4.2771381929516792e+01 -1.0161329031977803e+03 3.1397487090434879e+00 -3.3371545157137916e-02 -1.7003234418439206e-02 -3.5648770348634571e+01 7.0168336291098967e+00 -3.4078652924654307e-01 -8.6100777995488897e-01 -2.1851113422214985e+02 8.9303617446785211e-01 -2.0385866826772690e+02 -7.8156717445381219e-02 -9.1480903807096183e+01 -4.2660129633062752e+01 2.0533655310464383e-01 2.1645033615082502e+02 -3.8456538915852434e-02 2.5382860603394874e-01 2.1000753796339268e+01 9.1027319934219122e+00 -7.7433235697390046e-01 -2.2889526440303598e-01 -4.1744726806200561e-02 -1.7439374332490843e+01 5.5817222222685814e-02 -1.5606080556754023e+00 -1.5178647494103643e+00 -2.9200055452063680e+01 -4.5767386537045240e-01 2.3104028652887791e+01 -4.4171063613612205e-01 -4.8609336923807859e+02 5.7061047839582898e+01 1.8315838380112837e-01 -4.5475211484730244e+02 8.9717953000217676e-02 -2.6801474681633408e-02 4.0479057342046872e+01 -7.1642009305593092e+01 1.3903233220895345e+01 -3.8591684402945248e-02 -7.4100653632740432e-03 -2.4221917590126395e+01 -3.8900461988523602e+00 -4.5884847412235104e+00 3.0514779627264943e-01 -4.1462295836210251e+02 -3.2574059030739591e+00 -1.6058359628245234e+03 2.2036194707470713e-01 3.6247781870886683e+02 -3.0152612527585006e+01 -4.7965603118154831e-01 -2.3516734157437459e+03 1.3704639127217888e-01 3.9788651661638141e-02 4.2586392909288406e+01 -5.3380531750293449e+02 -1.2313346519442121e+01 5.7739714475204096e-02 4.4313978969910295e-02 1.0133782207245531e+01 2.4554141048574820e+00 -7.8135383477965661e+00 4.7295420244699926e-01 -7.2439893485605717e+02 -8.3385835344779480e-01 -5.6054038697388023e+02 -1.1198369183011891e-01 2.0762963789307105e+02 -2.8801178493533371e+01 2.2252048409427516e-02 -1.3916613142490387e+03 -1.8232990417800465e-01 2.0344008282154391e-01 -2.0439844322390854e+00 4.1829092741012573e+01 4.7996661364450119e+00 4.9346748664902407e-02 -1.9236063564207484e-02 -4.3056387194432318e+01 -3.1595516986708390e+00 -1.3007103923082468e+00 6.3128339327522554e-01 -3.6466728275688365e+02 3.1729902559891343e+00 5.3843305990099907e+02 -9.8577190750290811e-02 2.1502543165255338e+02 5.1977258841499861e+01 3.2190971937814084e-01 -3.1524316785205156e+02 -3.4514013726761390e-02 -7.0796892071720435e-02 -9.0495358917629346e+01 1.0717056937988668e+03 8.2317021076181618e-01 1.0053380885879802e-01 1.1400135865152281e-01 -6.7521152112487471e+01 1.4213984233123256e-01 -3.1502217823563115e+00 7.6973853241836423e+00 -2.6546172262169421e+01 5.8975204695431387e+00 3.6977897855825722e+02 -2.9741531127126564e-01 1.2826438193631220e+03 6.6331300639073916e+01 -1.8757516941080715e-01 9.5348559298541704e+02 -1.9013829059335652e-01 -1.5271380963417869e-01 -4.0072156757933271e+01 2.0303235841705464e+02 -3.6712116386514273e+00 3.3519413211828220e-02 -4.2452191091488192e-02 -1.7797693693115775e+01 7.5452807685651351e+00 -3.3693526667104114e+00 -1.7091478357941923e+00 5.6804455813364802e+02 -9.2630119145821901e+00 -6.7586564842048801e+01 -4.6796294397612667e-03 7.7732082453105136e+01 1.4570689725564332e+00 1.1119840170038198e-02 2.8786789105837909e+02 1.5206679895072739e-02 1.5410209036204903e-01 -1.5089662012410707e+02 -7.6352750363526832e+02 1.2941459918792141e+01 1.1268981253473888e-01 1.3023406215316016e-01 -8.7897582766294491e+01 2.2477639051426070e+01 -1.5813398312486243e+01 1.9017186913193147e+00 -4.5598199052865630e+02 -2.2805021314140397e+01 -3.7704774459501118e+02 9.4398814103282713e-02 1.2249523019832559e+03 2.0880721079274684e+02 2.1207068132742806e+00 -2.4387974395675974e+02 -3.8657038643522990e-01 -6.7942579999080777e-01 -8.5762430836087560e+02 4.0517494033595767e+01 5.3945619913652649e+01 3.3728819889936390e-01 1.3302187644511414e+00 -4.4226828276863529e+02 -6.8695589842427012e+00 -8.4404014372856992e+01 5.5649384400366699e+01 3.5734568716085050e+01 -6.8781158911112982e+01 -1.5614708559918085e+02 -1.2647957800153993e+00 2.4670189264382434e+03 1.7455114494541402e+01 -2.1036315360402826e-02 4.5707824660090807e+02 3.7832484779431505e-02 1.3286783771239954e-02 8.1512260617376171e+00 3.3063764491835883e+02 4.0003214417470181e+00 -1.6105457088031017e-01 -5.8558187244161113e-02 -7.3857300683401483e+00 -3.0097736115748264e+00 3.1313511213957099e+00 -6.7023118694836792e-02 7.5912994252667204e+01 4.9865230892361456e+00 -4.1434967217656776e+01 -1.6505307145056526e-02 -1.7772053186247305e+02 -3.3448437196954455e+02 
      </Row>
      <Row Index="171">
        -5.2887060079911578e+01 4.4427685572941300e-02 -6.8461556140333414e+01 -8.6507803725453414e-02 -1.2967100816695165e-02 -1.1662459931056947e+02 1.3140350496768951e+02 -1.1205238534591899e+00 -6.7061415955162818e-01 1.2331049057513610e-01 -4.1147197620011866e+00 2.3736564931459725e+00 -3.3092339430004358e-01 -7.1727483224094613e-02 1.4033246405478567e+03 3.2455743928439915e+00 -3.9116839559376240e+02 1.0827114093171986e-01 2.0477463244809769e+01 7.7970685640815645e+01 3.2779341556306463e-02 1.3159729188308120e+01 -5.5992170962326782e-02 1.2703520528020817e-02 -8.5699153089895844e+01 2.0759378907585051e+02 -4.9235817044973373e-01 -4.9324637141580752e-02 9.2335444719537918e-03 9.6802101163120824e-02 8.6830382002517581e-01 2.0757413758256007e+00 5.7168756138707977e-03 1.7835158766340464e+02 6.3546217321418226e+00 -1.1580850975960493e+02 -1.0149918542083469e-01 1.3316106257984620e+02 -9.1898176297312602e+01 -3.6173982183527187e-02 -1.7005758083820183e+01 2.4032054434428574e-03 8.4046810143263428e-02 4.5261556631419808e+01 1.5205783982202411e+02 2.4012678639828664e+00 1.0492234661114708e-02 -7.4816078722506063e-04 -3.0009891442838125e+01 -5.1904441998340189e-01 2.0330292566795833e+00 -4.0050888850601041e-01 5.4394476854044478e+02 6.8915854913648218e+00 9.8706271089613438e+00 -6.8031526891900285e-02 -1.1409919020836242e+01 -6.8645897748938296e+01 4.5227768487166031e-02 -6.7024228543974459e+01 4.0753722727458808e-02 -4.5106745379214885e-02 -3.1471519813872874e+01 -8.8059562603943050e+01 -4.2652669802191667e+00 5.0270401504803885e-03 8.4366166291829359e-03 -2.5513225440168753e+01 -9.0258119272766635e-01 -5.7596837553865043e-01 3.1414712961895930e-01 5.3105124905705452e+01 1.5247729506600081e+00 -2.7280302716605365e+02 1.9556137844119803e-02 4.1801301558734849e-01 -1.0981281803257298e+02 1.7273122721690015e-02 -3.0618479477241635e+01 3.8895341373063275e-02 1.3601191019586167e-01 9.5324970604182454e+01 -7.0294441502541304e+01 -2.1567231369772344e+00 -1.3507971276521857e-01 2.3990499563694812e-02 7.0031258637027349e+00 2.5683651948347688e+00 -6.4931017797207460e+00 7.9000292007731332e-01 -7.9280844855459873e+02 2.2093366947956383e+00 3.3839896591822617e+02 -1.0781750726982864e-01 -1.6328517224639654e+01 1.0589315205914318e+02 -5.1293921352908001e-02 7.0462237685918808e+01 1.1814817034974112e-03 5.3672642980927776e-02 -9.1316893480601721e+01 -1.2857516383129405e+02 -1.1974310085352045e+00 -3.7818338526676598e-02 -2.2330371086809464e-03 3.0917617352679372e+00 2.9629525619093329e+00 -1.5762320891371928e-01 -5.6627235092491901e-01 2.2629588208347559e+02 -3.7722764415666461e+00 3.7167697924748063e+02 6.2927429598857998e-02 4.9060302503407001e+01 -9.8034891495353804e+01 -4.9963674091486610e-03 -1.3591263622086262e+02 1.1231937737966291e-01 5.6564194850807326e-02 -9.0028637410374358e+01 -1.3022033433802426e+02 1.7816566007954862e+00 3.8773000282418479e-02 8.0220976907980912e-03 -1.9634181067602185e+01 -4.2064081551507115e-01 2.3415065956614853e+00 3.1147457292900071e-01 -1.0510852316282690e+03 3.4905163047988026e+00 -2.1876677989086602e+02 -7.5067495473149393e-02 1.7337305612218188e+01 -4.8615726497106152e+01 -5.2450797786150360e-02 -1.1304413664340973e+02 -4.2335269386057917e-02 -4.7651697605033405e-04 2.3626877102768049e+01 -1.0503157496452332e+02 -3.0100962714059278e+00 -2.7041723592674316e-02 2.6184551609844675e-03 -2.8956618513213471e+01 5.4309407441251096e+00 -4.9365836066863267e-01 1.6652609819720965e-01 -7.2688906570244581e+02 2.1544715727213770e+00 -1.0277076019346714e+02 -1.1962558937474910e-01 1.5555686207022518e+01 1.2725130922768949e+02 2.2451032737933474e-02 8.5454036943148822e+01 -6.2496067942709177e-02 -2.0152866051180170e-02 1.2218905214732513e+02 8.8357144962386585e+01 2.6025502908018154e+00 1.9456076436348176e-03 -1.0708728165713076e-02 -1.1488130091271159e+01 -2.0843100351314234e+00 4.1894892703066944e-01 -1.1458088965792967e+00 -1.5015050359815359e+02 2.4906026230551106e+00 1.5438624882884324e+02 -2.5373627764935236e-02 6.6331300791658947e+01 1.5574836216444200e+02 7.3644469620597411e-04 1.0250975579823751e+02 -3.1256591633966040e-02 -8.4046824723827740e-02 9.4934644072301126e+01 -6.2331066832644865e+01 -2.1428929043320650e+00 -4.3938791333759638e-03 3.6088911782944924e-03 -2.5399086928722056e+01 -1.4889747908571735e+01 6.9946229139964977e-01 -2.9803629216914762e-01 -8.3502649376054740e+02 1.3835202868674099e+00 1.1856812484245246e+02 -6.5295232605096398e-02 -5.5363824804101220e+00 -4.8170199203766302e+01 1.8169474500452549e-02 7.0615016918782359e+01 1.6359584660904147e-02 -1.7069021360045643e-02 2.1358734827720035e+01 -6.4164613563102563e+01 -4.7571872388315128e+00 1.1287557813231619e-02 -2.8032526819542890e-03 -2.7419729341463679e+00 -2.7639021253424909e+00 -1.6368223584213411e+00 4.0098623449702442e-01 -3.7846830121205784e+02 3.6001519075303152e+00 3.8410652003082043e+02 -3.3659423818227882e-02 8.7878615392139181e+01 2.7303583108937050e+02 1.6683541825334389e-01 -3.4884483327686638e+01 -4.7826202978972787e-01 -6.4627591530206752e-01 2.2999131346381827e+02 2.3569170125572686e+01 -2.8184181406272813e+01 -6.4512716585095409e-01 -2.2919947608410030e-01 -6.4855526253533554e+01 -1.1179158050511578e+01 -2.5275428238799584e+00 -1.0811046203121734e+01 -3.4647988753791776e+02 -1.6793400366036707e+01 -3.6197512238544596e+02 8.4435177389912575e-02 4.4375919854507266e+01 5.9193161382387089e+01 -1.4815120297544757e-03 -6.7564410974747375e+01 1.0280062280216317e-02 4.0480759834522605e-03 -1.0655902816211192e+01 1.6855195491175152e+02 -2.0793493351519357e+00 -1.4021907114613441e-01 3.1596615373911230e-02 -2.3139587179439260e+00 5.5917515375632743e-01 3.9204827753565041e-01 1.2894944155439840e-02 5.0911445216858300e+02 3.2512132358193870e+00 -3.3815370736340742e+02 -1.8244960830035455e-02 -1.6359261387693603e+01 -1.6649545339408340e+02 
      </Row>
      <Row Index="172">
        -1.3901909830878800e-02 5.7772768132331409e-01 4.7084812555112876e-02 -9.7920367825791832e-02 -1.7145125336560096e-02 8.8854138033639174e-02 5.2590453464654274e-01 -7.8065879395339266e-03 6.2548822346016220e-02 5.3444077898614717e-02 2.0742995803027497e-01 -7.9422039707424119e-03 1.6481115001170110e-02 -9.7147228953815556e-03 4.5496323840779951e-02 -4.7703953885275041e-02 1.8517603310174309e+00 1.7237234189707351e-02 -4.8444596321360223e-02 2.9606208570385206e-03 3.7974648746491368e-02 1.1301143054697604e-01 -1.8916026395991103e-02 -2.0728255263969153e-02 3.2072037652687868e-01 5.6985978384000191e-01 4.4125823205831693e-04 5.1200409580296480e-03 7.8297654375081294e-03 5.7895351810321571e-02 -7.5790913797391113e-04 5.8071733167253115e-04 1.6516870340975487e-02 -2.9310568874461751e-01 4.9916765592570300e-03 -9.6818337271542987e-01 -4.2792427950111289e-03 5.9374985321831275e-02 -8.1943793313143942e-03 4.8457273923538047e-02 3.0004498696405513e-01 -1.7928639857593964e-02 -4.5896555034463660e-02 -3.8276989105725079e-01 3.4042953771131579e-01 -2.2430561047928066e-02 4.5112052492313204e-04 2.4557380188050537e-03 -2.4205062862301929e-01 -3.5671122189341986e-02 -1.8508731132556022e-02 -8.7216507701057822e-03 3.4866283108749485e-01 3.7153545146111355e-03 -7.4764136662270175e-01 -1.8499575757857656e-03 1.2982743039674460e-01 1.0575934546750432e-03 -5.4152378313045979e-02 5.1709412049967796e-01 4.8687482216470457e-02 -1.2125867558643644e-02 1.1145642174597015e-01 -4.1044716006581439e-02 4.2662812046501131e-03 3.2211121771904550e-03 8.9767076410685043e-04 7.1825782027872265e-03 1.7695381117164288e-03 7.1558063714576292e-03 1.6075585472172804e-02 5.4090892927706591e-01 -2.8856421950713695e-03 4.5202714514744002e-02 9.3234745366501670e-03 -7.3120453959063525e-03 -3.4513745204662882e-03 -1.8143274190829928e-01 5.1134349501808174e-02 3.6552211024236669e-03 -1.3693988941812241e-01 9.9960877230472533e-02 -3.0345594356913352e-01 -2.2391219717547983e-02 2.7211587654175418e-02 2.2996804822527306e-02 7.8006673799791315e-02 5.8836454403717653e-02 2.6670067280633702e-02 1.8772034427385620e-03 -4.5745719620254022e-01 3.0491411797811452e-02 1.4402796270128420e+00 -9.8390998708186572e-03 5.7766742291278206e-02 1.2412597604338771e-03 -1.1278125156363439e-01 -1.2775168921507429e-01 3.2546122909206332e-02 -3.8717610703910665e-02 9.9433676364469648e-02 -5.3273034882164438e-01 2.1760731521140997e-03 4.5581489406893994e-03 3.6843962156432042e-03 -2.3483139771269634e-01 2.8348245544748352e-02 -8.3225110015519022e-03 8.1374891757626244e-03 3.5830076827551238e-01 -1.4765687608360167e-03 3.0997986606380437e+00 3.4334148162713518e-03 7.5615515204844996e-02 -9.8584362594706931e-03 4.7766257709964588e-01 3.6592950343208486e-01 1.1649755267477468e-02 1.4064894000680894e-02 2.0114923312121391e-01 -2.5592113242419146e-01 1.6691602973097908e-02 -5.2341152435453620e-03 -4.4302748203795539e-03 -7.6818768712769270e-02 -2.0566850406339654e-02 -2.6929992186452978e-04 -4.5194795366199969e-02 -4.2547469827695750e-01 -7.3184076508105989e-03 -1.8366602904463889e+00 -3.3467652845948770e-03 -3.7695720204844463e-02 2.5187833457493980e-03 -1.3111544748392134e-01 -4.1732442332431674e-01 -4.8529736204071749e-02 1.3081077413811926e-02 3.1922100396059250e-02 6.6305484017357230e-01 -2.9765466254048079e-03 2.5468659010416950e-03 5.1597072630528290e-03 1.7610880014308350e-01 2.4986853413764720e-02 -1.1157796626683592e-02 1.0607132443027467e-02 2.5311426977168594e-02 -5.5907957848830847e-03 -4.6906203761172947e+00 -7.7152753143838737e-03 -3.9553973505462636e-02 1.1931586113149706e-02 -2.6530911915913169e-02 -2.6489440115710750e-01 4.6735316546931034e-03 -2.3458883771823570e-02 -2.9749228012224194e-01 -2.7573142628047531e-01 -9.8843887953256049e-03 -4.0064604242028030e-03 5.8181080166649860e-03 -2.0325624764959116e-01 -2.2160796281241346e-02 -1.5256904069180344e-02 -3.4009831760131171e-03 -1.9817192872505984e-01 1.2969574775308246e-02 1.5372208120643336e+00 -4.4952451690775663e-03 -1.8757516960891429e-01 7.3644478661194501e-04 3.0123929285991902e-01 -2.0226924790456913e-01 -5.0952270061385890e-02 8.2886357532796495e-04 -1.6211413552512255e-01 5.8252141500452126e-01 -7.2790035796587160e-03 1.3523636478520802e-03 6.8593941129467730e-03 -1.1384101739727726e-01 -3.3189957033584960e-02 7.0850631322627589e-04 5.6627739657563285e-02 4.2972360159275169e-01 2.8371000849133576e-02 2.5622270910732539e+00 -8.4045647476507467e-03 2.4109992251284851e-02 4.1150586144837575e-02 2.9097038347179915e-02 -1.2223779529254131e-02 -3.7363330490507440e-03 1.4218743038938856e-02 1.3755398473332292e-01 2.5711311978184170e-01 1.0051659385594491e-02 -4.4214927203926778e-03 1.8891462235392114e-03 -8.9861915567707729e-02 6.1623381244471753e-02 9.6718501213217678e-03 -2.4659862448765210e-02 4.4639384231276935e-01 1.0347409188255163e-02 -7.2983253434543016e-01 -9.5252625015978254e-03 -1.3398796956425940e-01 9.2917079835078020e-02 7.2272935902373270e-01 1.0456886555417100e-01 8.4333538526654372e-02 -8.4722201615916037e-02 5.4156732034016386e-04 -8.2825523486832253e-02 1.5576340852833326e-02 4.0394039749510960e-02 6.7933074272075039e-03 -2.2855378726652020e-01 1.0898185116261594e-01 3.1456287113043491e-02 1.2409520476659885e-01 8.6099185878551054e-01 1.6596635348889066e-01 3.2874464024247629e-01 -3.6025392947170443e-02 -3.1386265541262937e-01 -1.3860739623479057e-02 1.5202599051789011e-02 -2.2593789113297902e-02 6.1447358272619856e-03 -3.6286589767411540e-03 1.0766237834816436e-02 -4.1075763812439020e-01 1.3261676981808994e-03 1.1582731523560819e-02 3.1040463240498511e-02 -7.6544461618253123e-03 -8.0177142558677805e-03 4.7512082095124697e-04 6.5985943606448969e-04 -3.4109551992730758e-01 -1.9833717473294321e-03 -3.0871684447430425e-01 1.4686010232069712e-03 1.8400863977499515e-02 3.7072450679467012e-01 
      </Row>
      <Row Index="173">
        -1.3726999283563055e+02 -1.8979950248758541e+00 3.1670436129570007e+04 -8.6357576833688654e-01 -2.3316046516993083e-01 1.2111543942689896e+03 -7.9118732166290283e+02 1.6680406934034545e+02 -6.8749087466292735e-01 1.1016437395301182e-01 9.0654864341020584e+02 -9.4782067000865936e+01 -1.8206461966037750e+00 1.6756703776773065e+00 1.6713898749351501e+03 -2.9571451430022717e+02 1.1611915531158447e+04 -5.6051906454376876e-01 5.2343104104697704e+02 1.8608945295214653e+01 -3.3676744718104601e-01 1.6266670095562935e+04 6.6676940827164799e-02 -1.2975887075299397e-02 2.4812410590648651e+03 2.2371639892980456e+03 1.2323980271816254e+02 -1.5030889771878719e-02 -5.7493821615935303e-02 1.6734109193040058e+02 -2.4361097425222397e+01 -3.2231198374181986e+01 1.0951462876982987e-01 -6.6721801707744598e+03 -4.1739567524194717e+02 -1.7621488055706024e+04 1.6630577258765697e+00 2.4705676009268500e+03 -1.3696441346779466e+02 -2.5000428548082709e-01 3.5123338666607859e+04 -3.2353275676723570e-01 5.9994807443581522e-01 -1.0442778916358948e+03 -9.5141159515380859e+03 -1.5168618043721654e+02 9.7189148655161262e-03 -5.6527131644543260e-02 -2.8371723152697086e+02 1.1093731582164764e+01 -4.3505830094218254e+00 -6.8785011768341064e-01 3.7701288327425718e+03 3.7772483661770821e+01 5.4103371417522430e+03 3.0090253297239542e+00 -6.1278064773976803e+02 -1.6810086765140295e+02 7.1331937907962129e-01 5.1101050349414349e+04 9.8057512936065905e-01 4.7953983285333379e-01 1.8413955402374268e+03 7.8313451992273331e+03 2.5750722071528435e+02 -1.9803342157320003e-01 2.2512186197855044e-01 1.6295105181559920e+03 -8.7183060958981514e+01 -1.1009573289193213e+00 6.1468493833672255e-01 1.0675054438114166e+03 -1.9214920991205145e+02 4.3918116778731346e+03 1.6615467162337154e+00 -1.5235950283706188e+02 -7.4586162127554417e+01 5.0520695821614936e-01 1.9210261147022247e+03 6.9987949461210519e-01 7.7367578387202229e-01 -1.2197527676094323e+03 3.6872541415691376e+03 -4.7773831104859710e+00 -1.3287073877290823e-01 -4.7324833183665760e-02 -1.4286424441188574e+03 -2.3750415444374084e+00 3.3784530013799667e+00 -1.4740864778868854e+00 1.7719232490062714e+03 -1.4428263288736343e+02 -5.2909610768556595e+03 1.2234061886556447e-01 -5.2648042011260986e+02 8.0854174364358187e+01 -1.2380807631416246e-02 -7.6971376113891602e+03 4.3915009242482483e-02 -2.0890308049274608e-01 3.3835321071445942e+03 1.6951064251512289e+03 8.5385970843024552e+01 -2.1047733869636431e-01 -9.1718830284662545e-02 -9.7549429380893707e+02 -5.9744147717952728e+01 3.7436239272356033e+00 -2.5163876609876752e+00 -1.4144750572204590e+04 4.1429566267877817e+02 -3.3905470583915710e+04 -1.7541610638145357e+00 1.1356355443000793e+03 -1.0401075077615678e+02 -2.4603727248613723e+00 1.0065805157976598e+05 9.1061869684199337e-01 -2.7495783643098548e-01 1.6504768941998482e+03 1.0326601093888283e+04 -5.6450347486155806e+01 6.9847342901994125e-02 1.2838372826081468e-02 -2.9884872772218660e+02 -2.6793291792273521e+00 -3.4846736033912748e+01 1.8848479022271931e+00 -7.9953241863250732e+03 -1.7817073052376509e+02 8.3089255454540253e+03 4.6703604215872474e-01 4.5163919932115823e+02 -6.5624402015702799e+01 5.9698082925751805e-01 1.3148221569824219e+05 -5.7552245908300392e-01 -9.2749873409047723e-02 -8.8120369137823582e+02 2.1559225799560547e+04 1.0959982431307435e+02 6.9115338817937300e-02 -3.2853711523875972e-01 1.4570646194219589e+03 -1.2165159513521940e+02 -6.9969303500838578e+00 3.4294966645538807e+00 -8.1107146015763283e+02 6.7166090399026871e+01 1.8728430194854736e+03 1.3386740296864446e+00 -3.9517225742340088e+01 1.1509781684260815e+02 7.1437071048421785e-02 7.3456850258171558e+04 1.6949165797760757e+00 -4.1552307096289409e-01 -3.4838350137695670e+03 1.1781860365810149e+04 -2.8734480111373341e+02 -1.5506752394104645e-01 -1.9002490797701885e-01 -5.2446239449270070e+02 1.9645109326890918e+01 -7.3031863913056441e+01 9.8208407082856866e+00 -2.1573242939710617e+03 -4.9693147000874160e+02 5.5364999051094055e+03 4.2239586310988670e+00 9.5348559780802157e+02 1.0250974808262737e+02 -2.0226924089365639e-01 8.7860360743001162e+05 -1.4389401939286759e+00 -1.4791188287199475e+00 -2.7851630395777379e+03 7.1475674948692322e+03 -8.2433176522494477e+01 -1.3167055839919026e-01 -1.7907619193458693e-01 -7.8117106249364315e+02 1.7265421102009714e+02 5.0641017239812868e+01 -3.3396255261049026e+00 3.8526765455563641e+03 -7.7168597156077610e+01 4.4496756890126403e+02 1.1501252822044381e+00 7.1630748939864475e+01 -2.4906912386976182e+02 1.3889907683027061e-01 -8.3997002278853586e+04 7.8897185245295987e-02 -4.6960332216507161e-01 -2.8893641958050983e+02 -1.0776174101111246e+02 1.3851846697135704e+02 -1.0870122165972360e-02 -1.0009010298976227e-01 7.8289367867125725e+02 9.9517724472235471e+00 -8.2022896979935467e+01 2.9081792463604730e+00 -6.0724091841746940e+02 -5.3283095524935948e+02 -3.0593685353752207e+03 3.1851455922608092e+00 1.1067605715990067e+03 -6.9021187449469573e+02 1.8339381297485327e+00 3.6894604244017741e+04 1.1481230003766623e+01 -1.0613707577801378e+01 -9.4488975686282956e+03 -2.6794477846647783e+02 1.9274436855401956e+02 -2.6771843511148070e+00 -2.6328500526149021e+00 5.0256377582291643e+03 -4.4931081876726057e+02 -1.9360279773226713e+02 6.9495049075496354e+01 -3.5755951797559683e+03 -1.1608552781775957e+03 1.9699046462331935e+03 3.6261135224823292e+01 1.1871780639843564e+01 2.5879234727939547e+01 -7.6306204665780031e-02 -1.6659038559561750e+05 4.6408501260992230e-01 3.0489882593818702e-02 5.0668494768737423e+02 2.1927342008667256e+04 1.3518522918053210e+02 -5.1755093605606817e-02 -2.5830099445987326e-02 -4.8933661019615506e+01 1.0485716221238039e+01 -9.0781317930668592e+00 -4.0026060339374281e-03 -1.8617982462210211e+03 -2.8551721907260981e+02 -1.2757920775232888e+03 3.1613490180574422e-01 -4.1754736047506788e+02 -2.2062769544811799e+04 
      </Row>
      <Row Index="174">
        -1.7127180688303323e-03 -4.2842202778508698e-02 1.3019288158757263e+00 6.5593391857650474e-01 5.8621648834401241e-02 -1.9491119167832949e-01 1.8887820595409721e-02 -1.9622384384533564e-02 -1.7196575765712860e-02 -8.3784468385245114e-02 -4.5404514580968680e-01 -2.4626318971058936e-02 1.4751681795132754e-02 -4.4414507956687999e-02 -2.1630198729035328e+00 -1.4547988553658797e-02 -4.5335233122750651e-01 1.3156244395915628e-01 4.6491350148244237e-02 -2.0207486322078694e-02 -3.5554599276572674e-03 1.6325082409930474e+00 1.6015885592454904e-01 -3.4047207858310724e-02 -5.6023824337898986e-01 -4.6295478764011477e-01 -2.9483428279490909e-02 -2.5736891575700582e-04 1.0469946370710304e-03 -6.6492361383579279e-02 3.5968436072835175e-02 -5.6120050159563561e-02 4.9126789966589257e-03 7.4079333118970681e-01 1.4743706683475466e-03 4.8706610201952572e+00 -1.2308648456195215e-01 -8.4432753617421419e-02 -3.8691510250146166e-03 -1.4763609324215388e-02 3.5207814143979022e-01 1.6800112963755076e-01 -6.8789760261642741e-02 1.9004894274985418e-01 1.7232922865005094e+00 -3.2649660506166356e-02 2.0959304699958992e-03 5.5756703525493556e-03 1.4499442934379658e-01 -2.5526622401685017e-02 2.2762861536648415e-02 4.6749819691697780e-02 -8.8052549392546098e-01 4.5951828999022837e-02 6.0641665544244461e-01 -1.0730016108025531e-01 -1.9297783478805286e-02 3.8682874274911683e-02 1.9616301729727503e-02 1.0644415825863689e+00 -5.6065960008667437e-01 -1.0298633443388813e-02 -2.0203029049116594e-01 1.5089460660055920e-01 -6.7977602353494149e-02 -3.5312973293148420e-03 -2.0802316470584281e-02 -4.8636032570811949e-02 1.1923528404622630e-05 1.1334481656959383e-03 -2.6921639571571454e-02 -3.2623024636632181e-01 -4.8079909093630135e-02 -1.2481269113695816e+00 2.5782407825936104e-03 2.8908709841743985e-02 5.4635128195585025e-02 4.0320677561349605e-03 3.9425346014468232e-02 -4.2883998437662996e-02 -1.1694568071042788e-01 -2.4882391187790631e-01 1.6113059784220241e-01 1.7643767555441059e-02 -3.3006330271665441e-03 -2.2872820472713884e-02 -2.9426638445460185e-01 1.9369552737771301e-02 1.9671019402153433e-02 -6.7717456178222335e-03 -2.2137047037281263e+00 -9.3866663492008229e-03 -1.2003277357330262e+00 -8.7370991677140353e-02 9.8080518811912043e-02 -3.5421008583000457e-02 1.2147286428169313e-02 -2.5364138246368384e-01 -3.5236558725402389e-01 -2.3564035378893067e-02 -4.6162866456211304e-01 6.2930227617198398e-01 1.1654882052468452e-02 7.5633942764530282e-04 -1.2052000303823807e-02 3.2292088828035048e-01 1.2714516566120437e-02 -2.0941891056679651e-02 -1.7331713928459891e-02 -2.6383444873499684e-01 -7.5725233571802164e-02 -1.6107870592677500e+00 1.8183805990165780e-02 -1.3121284044245840e-01 2.8250664834374106e-02 -2.7752692758346242e-02 3.0800912131530822e+00 -2.0182305993583216e-01 -1.4163731942309354e-03 -3.6019002725697646e-01 8.4556641868857696e-02 -1.3294814420725665e-02 -3.8076535193670713e-04 -6.8144889693658173e-03 1.4040091866863236e-01 1.5803993313738829e-03 7.5890947398978170e-02 7.8860225801946626e-03 1.2790885500726290e-01 -2.9440068526321639e-02 4.7602964484699442e+00 -3.0103242652780526e-02 -1.6852364972991296e-01 3.1666562681920141e-03 2.8655466260190110e-03 9.9505677609704435e-01 5.3549379241309625e-01 3.0194833128041054e-02 3.3499923654994745e-01 1.2048036274500191e+00 -1.9609972030366407e-02 4.4466034811829758e-04 1.2226497447483456e-02 5.8382147076372348e-03 2.2719162936880366e-02 -2.7004732257680075e-02 1.8168781258054878e-02 5.3787724263429482e-02 -1.3608254346308968e-02 2.8075425923452713e+00 -1.1456947866760020e-01 -5.0654243757890072e-02 -1.9953419823572460e-02 3.3401822113698909e-04 1.0712797787255113e-01 -1.0303840102856464e-01 -4.1889750992117059e-02 4.8092692072589216e-01 8.3852107058102376e-01 3.2256023871984285e-02 2.1163840711349744e-03 -6.6633808533504181e-03 2.0900179310596201e-01 -2.1658361518937852e-02 -2.2860864660626312e-02 2.2279413894141786e-03 4.8693797714986431e-01 3.3004968693828296e-02 -1.7429603149430477e+00 -6.0716213677789732e-02 -1.9013829057817944e-01 -3.1256591504420950e-02 -5.0952270061572658e-02 -1.4389401894062530e+00 7.8306071172894087e-01 7.7787698980767983e-02 3.2709784343509796e-02 -3.1637969373562100e+00 9.1905112415273937e-03 -1.8891357361109215e-03 8.4169728322246243e-03 9.0974488084668792e-02 -1.1608873259066854e-01 8.5131484200325902e-03 -1.1864405878044521e-02 2.2293817302185204e+00 6.5008780284800505e-02 -4.5158911340529926e+00 -2.2755770089209530e-02 -9.7521103729160785e-02 2.0099144841225325e-02 -2.2410024955795322e-02 -3.8055779895394437e-01 2.9904380733663638e-02 -1.4478657810616767e-02 -2.3905489006157410e-02 -1.0104516180491032e+00 -1.8952545539249854e-02 2.6677222905474801e-03 1.0672397381163773e-02 9.5754552969280704e-02 2.1984066014403947e-01 2.8954284293348564e-02 8.4163808172340857e-02 7.9564406267819265e-01 5.7397164963012060e-02 -1.6616409156793566e+00 -2.2126649089268383e-02 -3.1163896363796084e-01 7.6945929742386454e-02 -2.2140762314063184e-01 2.5548016857802480e-01 -3.8579284034574657e-01 4.3181735680545022e-02 -3.0832796887069236e-01 5.1810696296405823e-01 -6.1641683960118598e-02 -3.8423180459475209e-03 1.3523843293282184e-01 -1.9791846761491527e-01 -1.4772784294924257e-01 7.7394351147100582e-02 1.3308838165406200e-01 1.9442315041069236e+00 3.6057065322757786e-01 2.6380261091363622e+00 -2.9800801409192612e-02 -1.0873890342056072e+00 -7.5460876350698092e-03 -1.4284201038945480e-03 1.6449130127053417e+00 -9.8009559629534809e-02 -6.3457085769537168e-03 -1.3353990293211382e-02 -3.1285349202928042e-01 -1.2226878171753398e-02 -4.0233864854849477e-03 -3.3160222445692861e-02 7.2065731041145664e-02 -5.2657819011705520e-03 -1.2035750848212956e-02 -1.5421135630683163e-03 -1.2014342773015585e+00 9.0044661332140397e-03 1.4693306938619912e+00 -3.2663475581838186e-02 5.5245995423595318e-02 3.9745334223749945e-01 
      </Row>
      <Row Index="175">
        3.4841236489100313e-02 -1.3952449733534539e-01 9.0319397110761201e-02 1.0244237297858955e-01 4.2286003885681001e-01 -2.1194985604381600e-01 2.8354652884172538e-01 -4.2041704642431649e-02 3.9027440875582312e-02 -4.6234939528450855e-02 4.1610273574268319e-01 -2.5429336751358278e-01 -4.5980260403268858e-03 -3.8326750528644649e-02 -1.4289864248166850e+00 -2.3019587496520444e-02 1.3977139444086788e+00 5.7112582762854469e-02 3.0457953515536929e-02 -5.9975572329534543e-02 -4.6743900605680455e-02 -1.8644385465233881e-01 2.4445660907509770e-02 -4.1524697578905817e-01 1.0197049934095048e-01 4.9559324847537312e-01 -1.6034187339300843e-02 1.1511631178962811e-02 8.9745083204464393e-03 2.7007164967547070e-01 1.1159003857943617e-01 -3.5864646390926680e-02 5.2752392982820639e-02 -3.3280649884090963e-03 1.7611735359963632e-02 1.9964710583524266e+00 -8.5163781358054802e-02 -2.3598339944402347e-01 -9.6798786609610943e-03 -5.3638836171012505e-02 6.0894633834118717e-01 2.4126747434884521e-02 -7.4691855648061711e-01 -1.7263578051085915e-01 -1.1737356809589983e+00 3.3291034026692756e-02 1.5837438313028279e-02 1.2649676667735102e-02 9.3836365964634183e-02 1.8208142456512633e-01 1.1321366591353410e-02 1.9495842692552667e-02 -5.5951688384379850e-01 -1.4830977047921579e-03 4.5098127234948606e+00 -7.2702709989960757e-02 -1.1067644503259544e-01 6.5303766183408385e-02 3.7917624414571804e-03 8.4592020870661599e-01 -7.0585034384182566e-02 -1.5207986755964240e-01 1.3735126218080040e-02 -1.2790686266539524e+00 -4.2659780136219183e-02 3.2104091207832627e-03 -7.9920142310113684e-04 6.6140922190555784e-02 3.6163478611058508e-02 1.5868913064736034e-02 2.6133686906345432e-02 -8.5845457962022920e-01 2.4755932671891356e-02 -6.4443284899778064e-01 2.4070567244469654e-02 4.8194017159630675e-04 3.9713189670861127e-02 -6.7417298042834417e-02 -1.4646904721075771e-01 -6.7394602023762573e-04 -1.3258993403538071e+00 -2.2731047225782675e-02 1.3574316478934634e-01 1.9352123138167698e-02 3.1011568679072177e-02 1.3681519837598868e-02 1.1711326155197810e-01 -1.8902831376271934e-01 1.6867446993472868e-02 8.4768169878023603e-02 1.0292162621760355e+00 2.9404737035520156e-02 4.2879943928351736e+00 -4.4383068946527215e-02 1.0842855829787368e-01 -6.5606000053108460e-02 1.6266061093813067e-02 2.2733941020942439e-01 -4.8032568056188163e-02 -3.4122947926199143e-01 1.2381848452022837e-02 3.4822089212753582e-01 -2.4220649924651561e-02 8.5345844200899745e-03 3.4943305235102529e-03 -1.7647833337059637e-01 5.1032606132082492e-02 -1.6377025254485034e-02 -7.4401655408578016e-03 1.3216183654913038e-01 -2.2207996398677210e-02 1.8635377008849900e+00 3.4259831530072393e-02 -2.6665954095278721e-02 5.0481539194727532e-02 -1.6144048318711202e-01 8.7391939743403668e-01 -2.6590708415473618e-02 -8.1815009850087939e-02 3.1042714693529661e-01 9.7945081686310687e-01 3.0756211514753273e-02 6.7425434227862723e-03 4.0742292166851685e-03 1.2774865973253036e-01 7.6194155231192440e-02 4.1666817905210429e-02 5.3674696752533890e-02 1.3774615999564048e+00 -4.4504747099649578e-03 6.2179074125007219e+00 -1.0551421853451093e-02 -1.0198374881751437e-01 3.0005357609891536e-02 5.1941573834064947e-02 2.3088244366226718e+00 6.6409960022031256e-02 3.2234887965445136e-01 2.0883023437588122e-01 -2.0617698247369844e+00 -2.8888312333350541e-02 -9.1965205598991684e-03 -4.9610793110044134e-03 -1.6643775656518756e-01 -1.1586201356974790e-01 -2.6459932480992432e-02 -6.7485882107241935e-02 1.5932301849301211e-01 -2.3918613975808967e-02 4.0659056404911098e-01 -9.8638391594031843e-02 2.3646718911436437e-02 -6.4177995837446211e-02 -4.9374116136247669e-02 2.0776577653737149e-01 -1.2232753044062048e-02 -4.7958393708250080e-01 -7.3537088516900440e-02 -3.8217298456025759e+00 8.7880984550212815e-02 8.0628989859685522e-03 7.6935065343606904e-03 -1.4598436557330441e-01 3.3240866718649897e-02 -2.6199324898292575e-02 1.6669972558470927e-02 -6.1338826384246659e-01 4.1853930712668630e-03 -2.0054435324099131e+00 -4.8551938284864045e-02 -1.5271380910802979e-01 -8.4046824517589602e-02 8.2886357481266881e-04 -1.4791187969299244e+00 7.7787698980234174e-02 1.1829262474864457e+00 -9.8832024878603875e-02 2.4597957454355139e+00 4.3531439766406166e-02 -5.1710665610256515e-03 1.0204832203062342e-03 -2.5710661541234003e-01 2.8537647978138736e-01 2.8332536154052068e-02 -3.4543773517900778e-03 9.8413403300343560e-01 3.5653930051696037e-02 -9.9208483891914057e-01 -2.8554530321851290e-02 2.9178508242068801e-02 2.6677801510055055e-02 -4.3505529714243096e-02 -7.6453115043870312e-01 2.8115509233958058e-02 -8.8176918432389575e-02 3.2743531378421409e-01 1.5438352040142149e+00 -1.2129813883351659e-02 2.5500811230007889e-03 5.0064808857713354e-03 -1.2190395209402904e-01 1.4552615803969182e-01 2.0267317090974402e-02 1.5948179529553702e-01 -2.4115876773733511e+00 5.5301268788705116e-02 1.3507131457656745e+00 -4.9389699389843535e-02 -1.9722450805619474e-01 -1.1123377927030464e-01 -3.4568875901826102e-01 5.5845612856503379e-01 -1.0105538040639754e-01 1.3617984535070877e+00 9.5214150661048791e-01 -3.2721354010170955e-01 1.0314393403691824e-01 9.1251956478456381e-02 1.3771490942271059e-01 -1.0162214130142218e+00 -2.3132192070414703e-01 1.5537004640714969e-01 2.3746643717341609e-01 4.5355616098353835e-01 1.0258949922532423e-01 -1.4398327547420990e+00 -1.1581042131293662e-01 -6.3875110029864857e-01 -1.5214180991344972e-02 -1.1978948564092274e-02 -3.2164596617941719e+00 -1.3635907124938909e-02 -4.6530832569997932e-02 -2.1049718385526717e-02 3.5258095235434161e-02 -1.7558449661564602e-02 5.3862720591320579e-03 1.0508829802945499e-04 -3.5276534745456001e-02 1.4952044169544987e-02 -6.2085608798154723e-03 3.3015818550758908e-03 1.3815849421266080e-01 1.2666975471888442e-02 4.5437033590786768e-01 -1.2222909217315709e-02 6.2445181300653019e-02 1.3529159191144582e-02 
      </Row>
      <Row Index="176">
        -4.0243078685749197e+01 -1.7056069867476253e-01 1.8380094691216946e+03 5.1248472198722084e-01 2.7758064007571193e-01 -1.8217270608963445e+03 -1.4398622369319201e+03 -2.9686752964968537e+02 8.5264750734188866e-01 4.9904008027306190e-01 -7.1440363169775810e+02 -4.0297124988399446e+01 -6.6090930364094675e+01 7.2321775577438530e-01 2.1461863055564463e+03 6.5048433997435495e+01 -1.1740809008479118e+02 -6.5244092836292111e-01 -2.3450824288651347e+01 5.4434357083868235e+01 2.1767045474553015e-01 2.9756207446595654e+03 9.5902996024051390e-02 -1.2541611929327701e-01 -3.1660149415656924e+03 -2.2663104714883957e+03 -2.2420922269485891e+02 -5.9144637561985292e-03 1.9171666797547005e-02 -7.2199231773207794e+02 -2.6586634861305356e+00 4.7434665959503036e+01 5.2258727337175515e-01 1.7376326542180032e+03 5.2253096536733210e+01 -5.1500205218568444e+03 1.2591384429833852e-01 -7.9314443919320001e+02 1.6463990100077353e+01 -3.2878763029384572e-01 1.5094979789740974e+03 6.1105598344511236e-02 3.5020511675065791e-01 1.8236539638191462e+03 1.4983710350990295e+03 1.9835526803488756e+02 -2.3469154996519137e-02 2.4674614664945693e-03 -1.1814704755516723e+03 7.2412735564168543e+01 9.1801739173708484e+01 -2.8644542519868992e+00 -1.8132703574898187e+03 -7.4462698959512636e+01 -2.0403481967449188e+03 2.8066586097156687e-01 -1.1913709750073031e+02 -1.6800297879264690e+01 8.7622284095232317e-02 2.4463677899874747e+03 -1.6418905421824093e-01 2.8888076228355430e-02 -1.3816329795029014e+03 6.6687743346765637e+02 -4.6865983372495975e+02 -6.6462819502248749e-03 4.2866558178957348e-02 -1.4059601261622738e+03 -2.5331419535912573e+01 -3.8590941712885979e+01 1.2067531757156758e+00 -9.9240727514028549e+02 5.3349143168346927e+01 -6.6326885106973350e+02 -7.6344069345941534e-01 -1.2711018638219684e+01 -3.3884305366460467e+01 -9.5193458400899544e-02 3.5481302669644356e+02 2.3120649015254457e-02 3.2772878242053594e-01 2.0887078107334382e+03 9.7236572107672691e+02 2.9328010227414779e+01 1.9902098950842628e-01 1.0854662375595581e-01 7.1165075782884378e+02 -2.2285922363400459e+01 -5.6425430279341526e+01 2.3224805928257410e+00 1.6528079881314188e+03 -5.5606614905409515e+00 1.1431444066041149e+03 6.1830285278847441e-01 -6.0894802417606115e+01 4.7693968587031122e+01 1.4571576501020900e-01 4.4204638273268938e+02 2.4828501238334866e-01 8.6428293159769964e-02 -4.4301891123531386e+03 1.9593011713665328e+03 -1.5247258352667268e+02 -1.3474778891122696e-02 -7.5554079339781310e-03 1.5630671581998467e+02 -2.5966346608940512e+01 1.8814472494763322e+01 -2.3906077547871973e-01 2.1603398187905550e+03 -6.1701060742023401e+01 -6.0294970518350601e+02 -2.7920967841782840e-01 -3.5456440218910575e+02 -1.7389951579971239e+01 -2.3098124331227154e-02 5.7530673481571721e+03 -1.4106227193019549e-01 -7.2962211617777939e-02 -2.7978169046263210e+03 1.2306873048734851e+03 1.3824160675711801e+02 -5.7832868734408294e-02 3.1491942840489173e-04 -2.0211518106717267e+02 3.5668983197538182e+00 3.0055285268674197e+01 -6.6047286466346122e-01 1.2762915267497301e+03 7.8005540283629671e-01 -1.8634115260466933e+02 -1.1266216234025705e-01 -1.3094878359370341e+01 -1.6853174215437321e+01 -1.0720977393066278e-01 4.9630290131568909e+03 1.5841394739254611e-01 -2.1480054041239782e-01 8.0345902617159300e+02 1.7099426057338715e+03 -2.8135784666321706e+02 -3.6394641736933409e-02 -1.5213043143816662e-02 -1.8493101775068790e+03 -4.9222915176709648e+01 2.5614044462410675e+01 -4.3986799725098535e-01 -1.2424050120967440e+03 -1.9554831665009260e+00 3.0982110769450665e+03 1.0075168745150620e+00 8.2063545938581228e+00 1.1207439374462410e+01 -3.4228550112675293e-01 -1.1909641667138785e+03 -8.2702386190306088e-01 -7.8271513336070997e-01 4.3393736995941726e+03 2.6660129763681725e+03 5.9205967425722929e+02 -2.9421497566155641e-01 5.2045409609789164e-02 1.6470369384740479e+02 4.3301119220667715e+01 1.3909126018284223e+02 -3.3208734843540242e+00 1.5719200639640912e+03 3.7252572311126642e+01 1.5884558431506157e+03 2.0786372887087055e+00 -4.0072155671187261e+01 9.4934644895505699e+01 -1.6211413742655623e-01 -2.7851629539882997e+03 3.2709783188765940e-02 -9.8832024005787389e-02 6.0780949828827452e+03 -5.1780384520669468e+03 1.2280542200219674e+02 8.1607162244473841e-02 6.2920093658728291e-02 1.0407588720931396e+03 6.1465406204952160e+01 -4.4032838923812591e+01 -1.8322277540651430e+00 -3.5659616346003254e+03 4.1130677770199249e+01 2.8643925978501175e+03 1.6572577085848736e+00 -1.3015788970232083e+02 -3.6725536862068111e+01 -6.5572826843686149e-02 -8.3988737803587151e+02 -7.7805959538409297e-02 -1.4845677513550651e-01 -1.8372496886271364e+02 -2.0983241007302959e+03 -1.8247901442520140e+02 -4.6843376888058674e-02 2.2299113572424228e-02 4.6998374798738433e+02 -7.3601582145320094e+01 7.5950189198774751e+00 2.3871606952874114e-01 -2.4988620650035227e+02 3.5289125627858766e+01 3.4651850542679827e+03 -5.0401854428451398e-01 -9.2852167676202953e+01 1.4714630701448834e+02 -3.6482902617977206e+00 7.5170623832867500e+02 -7.1446922541783913e+00 -7.0654530296941394e+00 1.4785967380551079e+04 7.4549623240353230e+02 -5.7279637325752368e+01 -1.4390783339650071e+00 2.4543229319627358e-01 5.4073636691718402e+03 2.3607734132590679e+01 -6.9826521980423735e+00 -3.7886061829583923e+01 1.0547506007638049e+03 2.2506789133977571e+02 -7.7906398929696059e+02 1.8150836009173815e+01 2.7734200096181178e+02 3.1175677216061793e+01 3.0425850055740791e-02 1.0923758836003144e+03 -1.4469653432854557e-02 2.5755239680734121e-02 -4.7828013539196149e+02 -3.8384051524006964e+02 -3.3904784733007403e+02 2.4419976666149523e-01 2.3328405630776788e-01 1.2504775277008162e+02 2.8068174891637838e+01 1.7192469726083800e+01 7.7913595998982427e-02 2.5450098524098416e+03 6.2688734438380720e+01 -7.7360927691329744e+02 5.7211518738613520e-02 -3.4575132613816493e+00 7.2250141682961078e+02 
      </Row>
      <Row Index="177">
        -1.0128372822381789e+02 2.4182641287334263e+00 7.0803579883575439e+03 -4.8019859730266035e+00 -1.3394118791038636e+00 3.0851687159538269e+03 2.6352545383453369e+04 3.2128309084102511e+02 1.2866714221162745e+00 4.1927922492031939e+00 8.2501168204843998e+03 2.4502018833160400e+02 -1.5918019056320190e+01 7.4930933937430382e+00 -1.3077368116378784e+03 -1.3564992415904999e+02 -5.1301878356933594e+03 3.6219190433621407e-01 4.7098570024967194e+02 -5.0394958972930908e+01 2.6093623600900173e-02 1.0977184185981750e+03 4.2621197714470327e-01 -5.0239152065478265e-01 1.9295882663726807e+03 3.5052796863853931e+04 3.3875074386596680e+01 2.1397055452689528e-01 5.3876882733311504e-01 9.8385206440929323e+02 1.5612364959716797e+02 -2.3146813243627548e+01 5.1071633212268353e+00 8.4426588435173035e+03 -2.2105127513408661e+02 -2.4460716629028320e+02 -1.6053306553512812e+00 -3.3839325843614060e+03 6.4804163563251495e+02 4.9979816959239542e-01 4.7377429997399449e+03 -1.7647803681902587e+00 -1.3323916401714087e+00 -2.6631916065216064e+03 1.1569160258102417e+05 -6.8391138580627739e+01 5.9946518100332469e-02 5.0985319976462051e-01 -6.8100584732294083e+03 -8.0261329770088196e+01 8.2710087597370148e+01 -1.1537955007515848e+01 4.0375953000783920e+03 -1.7929905840754509e+02 2.5022265748977661e+03 -9.7250166721642017e-01 -3.9184939709901810e+03 1.6932142710685730e+02 -6.2566095264628530e-01 -6.8619039030075073e+03 1.8530950848944485e+00 1.7402421022488852e+00 -1.5656348772048950e+03 1.1263869905471802e+03 9.5321709692478180e+01 2.9664155165664852e-01 2.5615632405970246e-01 7.6564547127485275e+03 -8.1008201777935028e+01 -1.9093971326947212e+00 1.4915749605279416e+00 -3.2976105394363403e+03 9.5080209253355861e+01 1.4136252881050110e+04 1.7266785455867648e+00 3.1550229555368423e+02 1.4834355966746807e+02 -1.7128792775329202e+00 -3.4049421348571777e+03 -1.1327615752816200e+00 -2.4853260116069578e+00 -1.1784187270104885e+03 -1.3937267213821411e+04 4.3732384465634823e+01 5.6959431013092399e-01 1.4362379114609212e+00 -5.4948643601089716e+03 1.4818500041961670e+01 -1.1570191943645477e+02 5.3703399877995253e+00 1.9480884042739868e+04 -6.7370771169662476e+00 9.5744612209796906e+03 9.5302060665562749e-01 4.7031937217712402e+02 -7.4078779861330986e+01 -1.0376234846189618e+00 -2.2871201457977295e+03 7.2761096525937319e-01 1.6467379219830036e-01 2.7844115694165230e+03 -2.5596898299336433e+04 -1.2632373385876417e+02 5.8747390739154071e-01 2.7146136027295142e-01 -6.8415428829193115e+03 2.3811481118202209e+02 -1.7758613474667072e+02 -5.6194830401800573e+00 2.5048256469726562e+04 7.7876470685005188e+01 1.4328472278594971e+04 6.8073591077700257e+00 4.5620641708374023e+00 2.7493035614117980e+02 1.1823538844473660e+00 -1.2367868060082197e+04 1.6042702243430540e-01 1.8433501049876213e+00 6.7238133547306061e+03 5.7370864699363708e+04 3.6955385098815896e+01 2.4434224810102023e-01 2.3959229290630901e-01 2.0895897324420512e+03 2.1725323230028152e+01 -1.5243604160752147e+02 -6.7609969936311245e+00 1.6694862789154053e+04 -7.5173581975512207e+01 1.0565413270771503e+04 1.9578575391788036e+00 3.2421145761385560e+01 9.2499550435692072e+01 2.0908351242542267e-01 -5.9841032104492188e+03 -1.2104538460262120e+00 -5.5734304338693619e-01 -2.8317238926887512e+02 -3.7973266601562500e+03 7.5442768096923828e+01 -1.5722291613928974e-01 2.0752597365935799e-01 1.3456191297769547e+03 2.2556386914476752e+02 -5.3595103705301881e+01 -2.6496006920933723e+00 6.8700614440441132e+02 -5.1269105911254883e+01 5.6428374481201172e+03 -2.4543165895156562e+00 2.1300304460525513e+02 -3.2425125809013844e+02 -3.1060964380158111e+00 -1.8626614944934845e+04 -2.3014925292646149e+00 3.3867740689259680e+00 -2.9530669363737106e+03 1.7146224575504457e+05 -3.4621564333769493e+02 1.1794403669836080e+00 6.1945201085350798e-01 -7.5890702452063560e+03 9.7567186695257988e+01 1.4369253040105104e+02 -1.1722099973121658e+00 8.3023295910358429e+03 -5.5648383955936879e+01 1.8995300769805908e+02 4.1440847170451889e+00 2.0303239083931999e+02 -6.2331104163423674e+01 5.8252144383732229e-01 7.1475679667294025e+03 -3.1637969674667508e+00 2.4597955783247016e+00 -5.1780389216681933e+03 7.7293994718337059e+05 -3.7643198099889105e+01 4.4360908194753351e-01 5.9703445419124901e-01 -8.5480436586990618e+03 -3.4390103816986084e+02 -7.0901342892022541e+01 -3.0238412390230334e+00 -2.7266659261582150e+04 -2.2644106527518750e+02 -1.9746724745241645e+03 6.5168783046212164e-01 5.1176389107632394e+02 4.8105191097036004e+02 -1.8851036163386541e+00 8.2319067066238513e+03 -7.9139178781770170e-01 3.3794517592789375e-01 4.1154745733737946e+02 -1.5770462868655499e+05 -8.0323810659062957e+01 1.8982100299307428e-01 -1.3042361544324738e-01 3.4236383299833974e+03 -1.1223165174208532e+02 1.4167261222004890e+02 1.2441008979745710e+01 6.4070365406523979e+03 7.4536304320389718e+01 -2.0445659557956169e+04 3.4188340670674910e-01 -2.7526979017257690e+02 1.4453643479611903e+03 -2.8754027493242731e+01 -2.2813993629288443e+03 -2.2249860517083253e+01 3.6924416659693385e+01 -9.6065056086711029e+03 5.7350227190686826e+04 -9.8412439402611335e+02 1.3057052790911342e+01 3.1914817057667477e+00 -9.7687478595508946e+03 1.7986133439629075e+03 3.8918346981898083e+02 -1.3750060784397647e+01 -2.3118110919529836e+03 -1.0982865990034202e+02 1.4756911200040307e+04 4.6063537621523778e+01 -6.8231660653242761e+02 -1.3108104874535570e+01 1.1605057543817784e-01 3.0411546979259416e+04 6.3214141177013516e-01 -1.4118805430189241e-01 2.3702308091586156e+02 1.1628228675469029e+05 3.8858749606545541e+02 2.0645518280798569e-01 3.2313999094405128e+00 -2.1366992706354267e+03 5.2305599554942859e+00 2.1835254598408937e+01 1.6349379881274961e-01 1.1807852067437590e+04 5.5842306896710568e+01 1.6434756386358567e+04 4.2115643169988193e-01 -2.7590191183622619e+02 -1.1667462835682553e+05 
      </Row>
      <Row Index="178">
        1.5275146466535716e-02 4.3353139111559358e-03 4.8057488810271025e+01 1.9953746842702458e-02 4.2304172102291204e-02 7.7588464915752411e+00 -8.8065702578052878e+01 -7.2621896578025371e+00 -9.6804690875582564e-02 5.1843931654673270e-02 6.3054336257919203e+00 1.0124482202809304e+00 -2.3012973291915841e+00 -4.8242916473100195e-03 -4.2959693753160536e+01 3.6876243351143785e+00 8.4950864743441343e+01 9.6872476115095196e-03 -3.8739626313326880e-01 -1.1293174345628358e+00 1.2385341193294153e-02 6.6864800480660051e+01 -2.1768512806374929e-04 3.1127334819984753e-03 -1.8201897314749658e+01 -9.5826379117788747e+01 -8.2913876534439623e+00 6.0056707548028498e-04 6.4760347439118959e-03 -1.2697297974152207e+01 1.2375255470396951e+00 -1.9969133295526262e+00 -1.8866740721023234e-02 2.9116080069215968e+01 6.2563916695653461e+00 -2.3329964949283749e+02 1.9499512815855269e-02 -1.8289867482469162e+01 -1.3110392853122903e+00 -1.6462350953361238e-03 4.9521756914249863e+01 8.5455750374876516e-03 3.9484956591877562e-03 -3.7551171748200431e+01 -3.1518921572715044e+01 1.3581164929091756e+00 8.0739819736663776e-04 2.4754812992000552e-03 -2.2123444303637370e+01 1.3978345888899639e+00 4.6834912786580389e+00 -9.0073324516197317e-02 -4.4802097735984717e+01 -1.1922803393390495e+00 2.3463417039718479e+01 -1.3120072155743401e-03 -5.1216153424466029e+00 7.2157385551690822e-01 -3.5106600330436777e-04 6.9657763175200671e+01 -1.8877087265082082e-02 9.4520117752487920e-03 -3.4889090704265982e+01 3.6002475788583979e+01 -1.2003652712184703e+01 -9.1615143361423179e-05 6.7874191796590821e-04 -3.2992404026736040e+00 -6.5137224274803884e-01 -1.3596419601453817e+00 1.7315928261723457e-02 -2.2771529581397772e+01 2.6263955697731944e+00 -3.9087405149592087e+01 4.4835494836661383e-03 2.3736392540740781e-01 9.8868524807767244e-01 -7.7004149446793235e-03 -1.8282710630446672e+00 4.9174386276717996e-05 -5.2063119745753283e-03 3.4285526321255020e+00 4.5192882789298892e+01 1.4607088808370463e+00 -2.2346336032228464e-02 1.3951376860063647e-02 8.8735477255831938e+00 -1.1146608416456729e+00 -6.5228855822351761e-01 4.6828846423522918e-02 6.9809516905894270e+01 2.4615344313206151e+00 1.0659440065058880e+02 2.0195243943135210e-02 1.4790788013488054e+00 -1.3016180174963665e+00 -1.5262698435208222e-02 2.6632554562762380e+01 -2.9490309761968092e-03 -1.0101041471443750e-02 -3.0618400782899698e+01 7.5255732320707466e+01 -1.0636229223429837e+01 -2.4671801970725937e-03 -2.1917624655998225e-04 -1.3931954917963594e+01 -2.2445209167199209e-01 -3.5725665715290233e-02 -9.3138282409199746e-05 9.0278259590268135e+01 -4.2430117229523603e+00 -1.9396268792450428e+01 5.1263702869619010e-02 -2.6767047489993274e+00 -9.7101706658577314e-02 2.0874550600638031e-02 1.4589851274169632e+02 -1.0210416847371562e-02 -5.5414370835933369e-03 7.1177103188936599e+01 -2.5818128121900372e+01 8.2030783147912416e+00 -4.3465521316896627e-03 8.3114596201028235e-06 1.8229110738768213e+01 2.4328364495886490e-02 -8.0117343595338752e-01 -1.9762297682973440e-02 7.3743792921304703e+01 1.2055679635150227e+00 -6.8809770673746243e+01 2.5341574208709972e-02 -8.6002837239539076e-01 5.4018355335301749e-01 -1.8623857184138615e-02 1.8337003153562546e+02 2.2593053052787582e-02 1.9797207020019414e-02 2.3148158157709986e-01 2.1234607338905334e+01 -7.9890909987589112e+00 -1.2944786285515875e-03 4.4743122792922918e-04 -2.4854361318517476e+01 -1.0020560734756145e+00 -9.9510682488016755e-01 -1.4693338656798005e-02 8.9464660504017957e+00 2.3105905612464994e-01 4.8465443760156631e+01 7.1719012070161625e-03 -7.7100038412027061e-01 3.2556009163999988e-01 3.1618854862699663e-02 -4.6081779911415651e+01 -6.9620430566970943e-03 -4.3709206836045664e-02 -3.3289011446177028e+00 4.8241122533392627e+01 1.3749270552067429e+01 -1.2858509526093756e-02 -8.7848611897350000e-03 1.1431338817292271e+00 6.4168234966497906e-01 4.8930849928517546e+00 8.6955506584729392e-02 1.1976039128960110e+01 4.2120405095708975e+00 9.9916751617565751e+00 -4.3950362603986548e-02 -3.6712116541466457e+00 -2.1428928799158831e+00 -7.2790035998195890e-03 -8.2433176540085697e+01 9.1905112480218654e-03 4.3531439853154552e-02 1.2280542226942757e+02 -3.7643196684599388e+01 2.6622980367587960e+01 4.3821884400157942e-03 5.1263299654068324e-03 4.7871875744106148e+01 2.3138137822752469e+00 -3.6461265271351708e+00 -1.1266942264968726e-02 -1.8103272750532582e+01 -8.0102730913139408e-01 1.1213409030073751e+02 3.1756627516672825e-02 -4.7721699591389855e-01 3.0391291446012474e+00 6.9802939112036094e-03 -1.8072108189833816e+01 -7.8412876660536313e-03 1.4761955951399262e-02 -5.0349714747309918e+01 1.4691913324206055e+01 -5.7236786887111393e+00 7.8808458368849303e-04 1.4570744512855593e-03 6.6869467256705351e+00 -2.7369349542966184e+00 -1.9055692152178381e+00 7.2197937638787513e-02 -5.5247447726765330e+01 6.9344169349354754e+00 1.7133404304122553e+02 2.1092779711294751e-02 -3.9377206793287769e+00 6.0899791066718079e+00 2.1344616849593462e-01 2.3688636089026417e+01 -9.4819818118604127e-02 -1.1644939707273561e-01 3.2241803435571353e+02 -1.3120206217099394e+01 7.0433216327918757e+01 -1.7378084940989119e-01 -7.8729977618071156e-02 1.9615750335311458e+02 2.9542861655155548e+00 -1.1637625189476033e+01 6.4444021772194837e-01 7.3154115454135905e+01 4.8030600769128924e+00 -7.2105987950606391e+01 -1.8331419241377103e-01 3.5972315386352420e+00 1.0391916991675116e+00 1.0219430876854032e-03 -1.5590693148571042e+01 -3.9732610901808130e-03 -4.1508679403889914e-04 -2.0928297312684716e+00 -7.0006775886343263e+01 -1.7663892413309937e-01 -1.6258122371311856e-02 3.4487522034790906e-02 5.4612905272210988e-01 8.8708105930726333e-01 -8.5184398790806881e-01 7.9719472050520865e-05 3.9104717655041185e+01 3.0231000243813133e+00 -5.7619694719629905e+01 3.4698536709174953e-04 2.1139943845414422e-01 7.0148479652855471e+01 
      </Row>
      <Row Index="179">
        3.5922817822409692e-03 -1.7835047844595997e-02 4.2655925510189263e-02 3.9890213366211569e-04 -2.0290370515929634e-05 -4.2328163869115087e-02 3.8300850169980549e-01 -1.4297053625681455e-03 -2.6844165723163810e-02 -1.6820130491629337e-04 7.8156691666833922e-02 2.8280293561692815e-02 -5.0567721627885476e-03 -5.3282103746123965e-03 3.2381514648659504e-01 8.4308887802535537e-03 -8.4130767158058006e-01 -2.6983645221561048e-03 -1.3177012060509696e-02 -1.0636535599815033e-03 -1.2100319050016850e-03 -3.6784526708288467e-02 7.1286954486948773e-04 9.4601858643112990e-03 -6.1139587363868486e-02 5.5204890998186329e-01 -1.7552442682244873e-03 -1.9016507539841854e-03 -2.2542245210377398e-04 5.2330265442126489e-03 -1.8560207756763702e-03 6.0188360125152940e-03 -5.1587191656210507e-05 1.1905610816211265e-01 1.1377985765648191e-03 3.3831560646831349e-02 4.2217603116077029e-03 -1.0870298120899013e-02 1.2138386768441478e-02 -4.3121168986903768e-04 -1.7151806165359051e-01 9.0832619206615561e-05 1.6607777316754557e-02 1.2584924495968153e-02 3.7999644166120561e-02 -5.2441747034404074e-04 -2.1972945794934695e-04 -3.7576007119649590e-04 -1.4543188915422434e-01 -4.9405466066332338e-02 1.2455343947209485e-02 -3.9727629292816147e-03 -1.8302648913322628e-01 2.6896347096112549e-03 9.6580633025951101e-02 3.2172828081673543e-03 -3.2944871006748144e-03 2.3295239101202014e-03 2.5912601256798951e-03 -2.6788747366754251e-01 3.2608395909949905e-04 3.0330671461733308e-03 -7.8279912138896179e-02 4.2869425216395030e-02 -1.1661456892227307e-02 -7.8620324999892355e-04 -2.0769254663410841e-04 7.4370450014498601e-02 -3.0128854830849150e-02 -2.5641647216581021e-03 -2.1846219374843656e-05 -4.4676078969769151e-01 4.9906994388821957e-03 -1.3100205894193095e+00 -1.1247677846135673e-03 2.0552981705463935e-03 6.4055066177033382e-03 1.1072996883868536e-02 1.2578020359615039e-01 2.8450145309095731e-03 2.9138026267049422e-02 -1.7344171704621658e-02 -1.8215625533230195e-01 2.3829670825392668e-04 -9.2521944937609124e-03 -8.0603278880064799e-04 -1.8652312931240544e-01 5.3264545600541169e-02 -1.0176865395521872e-02 -7.7081734185640016e-03 6.3023323687599486e-01 3.4339017282718487e-03 -8.6888411880181593e-02 2.3416045185662426e-03 8.9019420265685767e-03 -4.7184824114339108e-03 4.5978408852107577e-03 -2.0888007789471885e-01 -5.9683808078681011e-04 8.2383739982092585e-03 -3.6133080134959528e-02 -3.1586819458638615e-01 -1.3412766698444045e-03 -1.0623011138668481e-03 -2.0485391101032757e-04 -1.2730904004729382e-01 3.5442973990711835e-02 -3.7692009486960387e-03 -1.7833184818929482e-03 -1.6720411428832449e-01 -3.1445895488104725e-03 -8.2331523007087526e-01 -1.2347032711588213e-03 1.6764209779466910e-02 7.3962131175626666e-03 -1.6599221163529965e-02 -2.0242822974728369e-01 -4.0174510158841326e-04 7.5186860407949752e-04 -1.2197578826157951e-01 -6.3468652003530224e-01 -7.9554883083793326e-03 -2.8899318237619182e-04 -8.3304651551437126e-05 -8.1313543117783382e-02 -8.3786564329102475e-03 -5.2820686860943766e-03 2.0424289426568265e-03 7.7909195522806840e-02 6.9180023385095879e-03 1.8756902049790369e-01 7.7686547442690213e-04 2.0349181009713391e-02 2.9293016580087539e-03 4.6030083051640247e-03 -3.1026782526168972e-01 7.4343712080637836e-04 -6.5838315547646076e-03 1.8256978100453125e-02 -1.2180057668592781e-01 -1.9847075174084239e-03 -4.3993861194224770e-04 1.8341804062583372e-04 6.9098877625037858e-02 7.7468815322575324e-02 2.3802431327002438e-03 -4.9208917465648483e-04 -2.4019519728119576e-01 2.9962568430619285e-03 4.0938316783285700e-01 3.8901318759512610e-03 6.2421349666692549e-03 -1.1627665285622868e-02 3.8376935390392886e-03 6.7032848347253093e-01 -5.8477540822140920e-04 8.3767163263930144e-03 7.0138677298587027e-02 -2.6965161017994888e-01 1.5672741637799414e-02 1.9757070406582317e-03 -2.2349927861484565e-04 -1.5044301087664991e-01 -6.2939494490916736e-02 1.9780065782769807e-02 -2.4904489365113469e-03 3.0460061139569916e-01 7.7183372455480459e-03 -1.0451777115345067e+00 1.3966858137522131e-03 3.3519413255930885e-02 -4.3938790480057555e-03 1.3523636477192902e-03 -1.3167055367563307e-01 -1.8891357361521966e-03 -5.1710665608433182e-03 8.1607162686999857e-02 4.4360910987484203e-01 4.3821884247012832e-03 1.2034039701509059e-02 2.2771346238632285e-03 -1.3156300208199667e-01 -1.0256599400436528e-01 -6.7551221579242871e-04 -4.3819976096310380e-02 -1.2932784720429069e-01 2.1816854381000450e-03 -1.4361413561456757e+00 -8.8930552001584805e-03 2.0322869448130554e-02 -1.0915957651434383e-02 -6.9563008835424713e-04 -2.8194975427979063e-01 1.1635695151770431e-03 -2.0476302928864837e-03 -6.3504930912301916e-02 2.5650612474594681e-01 -1.6215584838746855e-03 1.2248996004618979e-03 6.3232960682319916e-05 7.3903511692711588e-02 -7.5632638646116579e-02 3.7100475219560280e-03 2.3634267883726775e-03 -1.4912491078789003e-03 5.1877042543146956e-03 1.0643962993555118e+00 7.8652160923630213e-04 4.4418422831768112e-02 -5.2888556884199578e-02 4.3898018093697908e-02 5.2846359118565722e-03 -1.0563948457308937e-02 2.2272440643182692e-02 1.0570236063097127e-01 -1.0328187539294653e-01 2.2405628220089291e-02 3.3864270055949441e-02 7.2893929774654163e-03 2.4576701598817152e-01 -6.6299177779183260e-02 2.3676723872069150e-02 -1.7210493952277667e-01 1.7659552259874189e-01 3.3881377521485234e-03 -2.5481187404035666e-01 -3.8655363184375902e-02 2.7888438960116135e-01 -6.3948521005236514e-03 -4.3902933950729453e-04 -1.8694000937785304e-01 -4.8759192345981806e-04 1.5632522533888318e-03 -4.6488615511182108e-03 -1.3049984425122887e-01 -3.6336951862363637e-03 -4.7044807902356656e-03 -3.7667709506611206e-04 -1.9660977271054536e-02 -4.5211612541153495e-03 2.4521363169540678e-03 1.5661402920387585e-04 3.5242168719784583e-01 2.1063661995723848e-03 -8.3996750280391552e-02 4.5856491554916346e-04 -9.0538550730698830e-03 1.3390442312808137e-01 
      </Row>
      <Row Index="180">
        4.6377908199217166e-03 8.1168589870506958e-03 -1.0554629598118481e-02 3.7537618575539389e-03 -1.5719341090090821e-02 -2.7222926679996817e-02 4.1489065145833592e-01 4.9933627308109685e-03 -3.0571295906131175e-02 6.5653338673582542e-02 -5.3902921285313710e-02 2.7611882169821911e-02 -1.4228922195570703e-02 6.1299281836353359e-03 3.4672190224682709e-02 -9.1612461716010785e-03 1.6622054712970566e+00 1.0407668120790969e-02 2.3547797546427773e-02 8.1773697710616489e-03 3.3794416742116695e-04 4.2428768723800658e-01 7.6406572373510784e-04 3.3927881123809178e-03 -3.8173746499523986e-02 5.1595453979783201e-01 2.5543476976963575e-04 -1.7868495288895225e-03 7.2223697133659004e-03 5.0108978091002232e-02 7.3091444824058271e-04 -5.9491062059180422e-04 -4.4698605511701572e-03 2.1676273983143801e-01 -4.5271276501352986e-03 -6.1931332869744438e-01 -1.9856780787459449e-03 -1.0000653598185916e-02 -5.5306777177008826e-03 1.8271713668517320e-03 6.8131820256430720e-02 2.0349952732490184e-03 4.9650863831343095e-03 -1.3263977993119624e-02 2.2167757757415529e-02 -6.7069083500992388e-03 -1.0142998583537177e-04 2.0741257343633857e-03 -5.2796753175726963e-02 -6.5261141557073188e-02 1.2420982824593807e-02 1.5246828227136078e-02 1.8503930198949092e-01 1.0475395410765032e-02 7.0492631022761998e-01 -3.4757581873450238e-03 4.5605329438558329e-03 1.6176982740034873e-05 -1.4644945595989611e-03 3.0785954472480626e-01 -1.4309078093320604e-02 1.9957279591801096e-03 1.3280813006076642e-02 -2.0327097990139009e-01 -7.7886557757835817e-03 -4.3429520113612285e-04 -1.0861430412908851e-03 3.3499368967952137e-02 -1.9330260547675948e-02 7.8859865533864593e-04 -4.6952389240220160e-03 -2.4887462131573557e-01 6.6885890046441965e-03 -7.8479062512838027e-01 1.2377307461850506e-03 9.9537751668918872e-03 3.3927364030148510e-03 -1.4044938450169520e-02 -9.9849028501921566e-02 -5.6814034333474428e-03 1.0867786714441552e-02 5.1062837919559456e-02 -1.6746216986257423e-01 1.9351387101416151e-03 -7.0558779573764441e-03 1.7402304007827024e-02 5.9523147749018790e-03 2.4726638160927905e-02 -3.8456576397152276e-03 -8.4006003603236401e-03 -4.4262099107004360e-01 3.5804493334694598e-03 9.4742291480275753e-01 1.0345423943711740e-03 4.8534116000155336e-02 -1.8706793243978836e-03 -5.8488834987472371e-03 1.6447114874881663e-01 -1.0688088614175362e-02 2.6917666347503477e-03 -1.0421752325638067e-01 -2.0263539456303192e-01 -1.3424211118842067e-03 -4.5478235745932682e-04 3.9593313485830617e-04 3.8071389286415069e-02 2.9628009705220393e-02 -9.1397547708709226e-03 6.5919997459484847e-03 6.8840943647228414e-01 -1.0772940447594692e-02 9.2501098853063013e-01 1.5502871736821078e-03 2.5456680800289178e-02 -2.0652131883762692e-03 2.2717832903075164e-02 7.2307405019566318e-01 -6.3396931940785939e-03 2.9469647138744004e-03 -3.1204889217121945e-02 3.2901787647034553e-01 5.2489999549105160e-03 -7.3266870050364696e-04 -3.1683899497304824e-04 -3.9809411746611900e-02 -1.1270427294917340e-02 1.9323783907321257e-03 -3.9798457066630988e-03 1.6219664256823307e-01 1.3201828903173229e-03 1.1634744575714819e+00 -1.9136359399177794e-03 -1.6437165355938532e-02 2.5894436956619415e-04 -7.0850103198232262e-03 7.8689921443583444e-02 1.0809292806823190e-02 -4.4990235976305470e-03 1.1202514629272287e-01 -2.8209085547132418e-01 -9.5140445816355168e-04 -3.1642629481609674e-04 5.4932144348836393e-03 8.3047318694241312e-02 4.9990826829205304e-02 -3.4630395009394022e-04 6.8299240039024767e-03 -1.0802777066146518e-01 -1.3798748921090009e-03 -1.1334683496424987e+00 -3.2687839465951954e-03 1.7772875026594193e-02 -2.3056790984377074e-04 -3.6306624718779601e-03 2.9421015228024316e-01 -4.1453382537505936e-03 2.7740308087225137e-03 6.5372926437234469e-02 -1.0300960046560022e+00 2.5013723963823037e-03 1.3907163823024546e-03 2.7020638971782911e-03 6.2249030448509046e-03 -4.5624395504319182e-02 1.5317112968854518e-02 1.9867075505164145e-03 2.2769589644099142e-02 1.7091804501834673e-02 -8.4030282809408163e-02 -1.1028117281849936e-03 -4.2452191146907126e-02 3.6088911847711111e-03 6.8593941129731772e-03 -1.7907619455880308e-01 8.4169728322319344e-03 1.0204832202903857e-03 6.2920094233923862e-02 5.9703444233116443e-01 5.1263299702686005e-03 2.2771346239019580e-03 1.4315888751811258e-02 1.1994673514301724e-03 -8.5410785192827632e-02 -4.8958216135902566e-03 -4.0438967933462418e-02 7.3692087754036351e-02 5.3324042968602159e-03 1.5644684339065762e-01 2.4340712725000901e-03 1.6967166702905878e-02 -7.9884540364503209e-03 -2.8584135775002605e-03 -5.6586761572196664e-02 3.9415128055038939e-03 -2.8064639388554486e-03 4.1202400548172591e-03 2.7452051342278949e-01 2.3550343515905681e-03 -4.1573242143361021e-04 6.1611112623853321e-04 2.3497565912869132e-02 -3.1988330862885217e-02 6.0048917609059060e-03 -2.1090416540879856e-02 -1.3788556721220147e-01 1.1738363761976789e-02 3.6202827964045858e-01 -2.1646536140388188e-03 -7.2987389702234395e-02 -1.0343253200300939e-02 -2.0482336024542542e-02 3.0202940646002208e-02 -4.0782647219743451e-02 9.5858063161623312e-03 1.5924324997413830e-01 -1.5699270601323256e-02 2.9083477346455999e-02 -1.7554147922073722e-02 1.2241673986924065e-02 1.0122172500343396e-01 -6.2831630408667571e-02 6.8882950955220928e-03 -1.3539300396963494e-01 2.3987640810729260e-01 4.0198483110068850e-02 -8.5219262650586902e-01 1.0826493939703752e-02 -1.1518114379792072e-01 1.5395691645665455e-03 1.8153670969844437e-03 -1.0971235122329759e-01 -4.1513761034044014e-03 6.0004129083909667e-04 -5.6031792400919045e-03 -4.9833664838905750e-02 -2.6624367167921927e-03 -3.6879340296444990e-03 3.5017746398004576e-02 7.3729380836290992e-03 -3.2928842106030864e-03 1.4711746580751139e-03 -6.7915951912866966e-04 3.7389846368284907e-02 9.6815902650615460e-04 -3.4268028743520063e-01 -1.4676516127229155e-03 1.2207922727427545e-02 2.0246137347909303e-02 
      </Row>
      <Row Index="181">
        -4.8812784422901245e+00 -3.0856867533111654e-01 8.7454645261727273e+02 4.5984842986956664e-01 5.1383990032277893e-01 1.9682439307426102e+02 -6.3492116027586162e+03 -3.3515268067330908e+00 -7.3763684847834821e-01 6.8159143505340580e-02 -1.6141763672597590e+03 -2.7757027775514871e+00 -5.8522928407182917e+00 3.0929623061092570e-01 -5.8500731531623751e+02 -3.1609016519447323e+01 3.1343028417080641e+03 -8.7882785877263814e-01 1.1223614781635115e+02 -3.3592082813323941e+01 8.7179070620550192e-02 1.6211219029068016e+03 8.3438194472137184e-02 1.3114052694800193e-01 -5.1144607993774116e+02 -8.9299263850967109e+03 -3.2492997555527836e+00 4.1834159490008460e-03 1.6737915966245964e-02 -6.3908248486821549e+02 -2.0175560617353767e+00 -5.8398548288241727e+00 -5.3810040993994335e-01 1.2178585038520396e+03 -1.2276940177427605e+01 -1.3682817533770576e+03 1.1331755584960774e+00 2.7863461728871471e+01 2.7432834207007545e+01 7.6030180184034180e-02 5.6038273777475752e+02 -2.1906960994328983e-02 2.2406857244368439e-01 3.1201220483984798e+01 -6.1524655896052718e+02 5.9813691617661789e+01 -5.3165214589796506e-02 4.4285515052763458e-02 1.8259687495845719e+03 1.2455849324935116e+01 -1.0644014305202290e+01 -2.4069895351749437e-01 -1.9491223300551646e+03 1.3381176865659654e+00 1.1482925702016801e+03 3.6057440142167252e-01 -1.4298000658414094e+02 -3.1522082145384047e+00 -2.8259528024932479e-01 1.9778104239245877e+03 -3.3699776746493626e-01 4.2233908504137219e-01 -6.5434207492507994e+01 1.8778586583212018e+03 -2.5816795194114093e+00 5.4591731149969291e-02 1.0762472036844883e-02 -1.8593809908399417e+03 8.4178715028683655e+00 -1.8686580976500409e+00 -7.8728057628313763e-01 -2.1506931032938883e+03 -1.4799712879460458e+01 -2.9584472062671557e+02 -4.1310402533781598e-02 -1.3575707026437158e+01 1.7601275548979174e+01 2.5452573833649694e-01 -2.8625088277086616e+02 2.0150996745996963e-02 2.9918936585897882e-01 5.4860059028054820e+01 3.4274900543722324e+03 1.6964825584713253e+01 -2.6003842239492769e-01 1.8051370283330925e-02 1.8976515624105086e+03 -1.3305851576384157e+01 4.0486603162484244e+01 4.5896916231777141e-01 4.9776629016699153e+03 5.4235295121325180e+00 1.5921749049084028e+03 -2.1595809242899122e-01 -1.2162498401943594e+02 -8.2248890317132464e+00 4.0188960060777390e-01 7.4964618436060846e+02 1.3606624730664407e-01 -3.3657802015977722e-01 -5.2182622139324667e+02 5.2716809059720545e+03 -9.5561584641109221e+00 -2.0472324683692023e-01 -1.8551363421352107e-02 2.3607293379991315e+03 -8.2306363651296124e+00 6.0207492186396848e+01 1.9891009380849027e+00 1.2053864947073162e+03 -2.4961591010360280e+01 -5.5798354387283325e+01 -1.4647767769210986e+00 -2.0348268538806587e+02 2.1438008611223268e+01 2.3582998457663962e-01 4.3730792138832912e+03 1.3885719221207182e-01 -2.3806664733524485e-01 -1.7646024287980981e+02 4.7837653784910217e+03 8.0193929175593837e+01 -9.1667983302329503e-02 -4.6155407308383190e-02 5.2465920390218889e+02 -2.4336967500858009e-01 1.6420148051886827e+01 2.4181312926884857e-01 2.2751583754159510e+03 -2.3026257137974426e+01 1.0379184333852609e+03 -1.3925030436337238e-01 -3.5267985630636758e+01 1.1218378641378877e+00 3.2085475408348429e-01 2.4555456204414368e+03 2.7591532236237981e-01 -4.3170572881035696e-01 -2.5353126173780765e+02 1.9448962536454201e+03 -4.6412080332083860e+00 5.3421077084294666e-02 6.2825281059133431e-02 -8.9817548777582124e+02 -1.5148632278716832e+01 2.9191227947831067e+00 -7.0008758768381085e-02 -6.8038667919067666e+02 -2.5784654673887417e+01 4.3486427181959152e+02 6.0182431659769975e-01 -2.1209471742622554e+01 -2.3703408670327917e+01 5.2824677315069835e-01 -2.5690192738207988e+03 -1.1378498104353661e-01 -3.2276804000698150e-01 1.9766056775744073e+02 6.4582463613850414e+03 1.9699883320463201e+01 -3.0872497599645787e-01 -2.6957144481139526e-02 2.4558955575967648e+03 2.0924535664239841e+01 -4.0572679989001699e+01 1.6675229754407610e+00 1.0627705074455589e+03 2.3624157060180551e+01 3.3902289815712720e+01 -2.3137417765049264e+00 -1.7797693106869701e+01 -2.5399086664314332e+01 -1.1384101813450798e-01 -7.8117102417378919e+02 9.0974487599116749e-02 -2.5710661562959558e-01 1.0407588709802349e+03 -8.5480434570935904e+03 4.7871875622413654e+01 -1.3156300231983664e-01 1.1994671914616339e-03 3.6397305675020402e+03 3.2532842655506101e+01 2.1301072650601615e+01 2.7447271948294716e-01 -1.3178388111775048e+03 -1.6390184844018602e+01 1.6624841951124799e+03 -4.3217570842912323e-01 -6.1338536949370493e+01 -1.3717905647405132e+01 9.1522616910323096e-02 7.2083625263488352e+02 -1.4745352568058934e-01 -1.1476478788082144e-01 3.5573237951600458e+02 -3.3267507835878559e+03 4.1478412407595897e+00 3.2184350509153158e-02 -3.1790188253396037e-02 -9.0187714883041861e+02 -1.0045110485768699e+01 -3.0103275950819807e+01 2.7562714330250671e-01 -1.8498030868314545e+03 3.1077200461282814e+01 3.4454362227811253e+03 4.5229263499486672e-01 -1.6265041466942057e+02 -1.1988990573353539e+02 3.9205176506531023e+00 2.0675300284012667e+02 -1.8809987894809810e+00 -4.0497646840091521e+00 4.4852823606454840e+03 1.0528699372817982e+03 2.0097753195606589e+02 -3.6577156671859266e+00 -3.3941411341511918e-01 3.7432272753451034e+03 1.1336302084865920e+02 -2.5292143834715418e+01 1.4668230013809080e+01 8.2901233485700232e+01 1.5396014566406470e+02 -1.0362587235071721e+03 -2.2217704572448774e+01 -9.0253158673081793e+02 -1.5844151917065432e+01 1.3497760605514490e-02 3.1007946185095589e+03 -3.5494735427704427e-02 2.5687872422057723e-02 -7.9106539025684640e+01 8.8104091868037401e+01 -2.8820412371636237e+01 -8.6737889995390560e-02 5.3489376808755915e-02 4.2074505888773331e+02 3.9059268210995008e+00 -1.3312749144206464e+00 -1.7211131199653097e-02 2.2301792788856028e+03 7.3053708509619639e+00 -9.5708201324908896e+02 1.5479237982246746e-01 -3.7677321448192629e+00 -5.9483721060923301e+01 
      </Row>
      <Row Index="182">
        8.6026244785398376e-01 -7.4143828527394362e-01 3.0733774602413177e+01 2.3859349388294504e-01 1.8109617773211539e-01 -3.1616628849878907e+01 5.9360191896557808e+02 -4.9124353965389673e+00 5.5352958005125269e-02 -4.5699058504715140e-01 1.1740060788928531e+02 -2.2288357836194336e+02 -3.7557801809161901e+00 -4.1374154152435949e-01 -2.3079301676899195e+02 -1.6917987097986042e+01 -9.3122311502695084e+01 -1.5468431407498429e-01 -1.2291644693817943e+01 -1.0348096970934421e+01 -4.8930943652521819e-02 1.3155334191955626e+02 8.7895456792466575e-02 -2.3084985199056973e-01 -2.0229460742324591e+02 7.0681053624395281e+02 -1.3729187130928040e+01 -2.3266253432666417e-02 -3.9801207648451964e-02 -1.1968666785525056e+02 -3.2295360380783677e+01 -9.8602554781828076e+00 3.8310488948263810e-01 1.4002964128926396e+02 -1.3320294811390340e+01 3.2758236058056355e+01 3.3030408017293666e-01 -8.9353055251607657e+01 2.2323967766715214e+00 -1.9561974969565199e-01 -1.3767827023963036e+01 1.0308935153079801e-01 -1.4033786211439292e-01 7.4412553440779448e+01 2.3149583955109119e+02 1.8251889687788207e+01 -7.3464393298309005e-02 -5.6034119906598789e-02 -1.8667137691052631e+02 4.1370328731555492e+02 -3.3295440227957442e+00 -6.2967828574910527e+00 -3.2252505340147763e+01 -1.6002044720575213e+01 -5.7401377432048321e+01 3.6220668537316669e-01 2.7003781981766224e+00 -7.5272151348181069e+00 1.7013990338273288e-01 -1.1770580453239381e+02 4.7208396298628941e-02 -1.2607759913009886e-01 2.8550685150176287e+02 -5.0434001330845058e+02 1.8703355355188251e+01 -9.0190382729815610e-03 1.7009572511369697e-02 -2.0032420418458059e+01 1.9342374432878569e+02 -4.1977045827516122e+00 1.0540067029887723e+00 2.3576304316520691e+00 -6.5845972337701824e+00 1.8010660151951015e+02 -1.1888122998789186e-01 2.3065536932554096e+00 2.4575238160323352e+00 3.4640947182288073e-01 -8.0931725017726421e+01 6.6067203399143182e-02 -5.3938766913006475e-01 2.2008399384038057e+01 -2.6830239869281650e+02 -5.4716465515957680e+00 1.2573175044781237e-01 -8.4971766258377102e-02 8.2016552243498154e+01 -2.4765028078854084e+02 5.5165206033270806e+00 2.7851050602912437e+00 8.5394828990567476e+01 -1.7675923171453178e+01 -1.2801659752242267e+02 2.7864352754113497e-01 8.7536327317357063e+00 -2.2602938849013299e+00 2.1783602479172259e-01 1.4712734192609787e+02 1.8028556689387187e-02 -1.3991036295738013e-01 -1.1454098815936595e+02 -2.8549018982681446e+02 -3.3230519186778110e+01 4.9931804119296430e-03 -3.1489989205510938e-03 -3.3649163518100977e+01 -2.9776182048767805e+02 4.9259333872469142e+00 -6.1392194715881487e-01 2.7388699460029602e+02 2.6423251015832648e+01 1.9924504697322845e+02 -6.3013116523507051e-02 -2.6773640550673008e+01 2.6997440487321001e-01 -1.0416733786878467e+00 -4.7724331857170910e+01 1.6537834335395019e-03 -1.0213691178523732e-01 2.0252057543210685e+02 1.3539539984343573e+03 3.8273957637502463e+01 1.6351479783651257e-02 5.0983883804747165e-02 2.4285231991147157e+01 7.0986624826677144e+01 -5.0551885149179725e+00 -1.8022874573580339e+00 4.2065794403851032e+02 -9.9868057110761583e+00 1.6051845788117498e+02 1.0525716897336679e-01 1.5147752309901989e+01 -1.8412465809087735e+00 9.5002987244515680e-01 1.8186608171463013e+02 -1.9667090427628864e-01 -3.7714551825047238e-02 -4.6695645741187036e+01 -5.8166957521438599e+02 -3.1172971751773730e+01 2.9804755147961259e-01 3.8724599779584423e-02 -9.3114756715483963e+01 -4.9692354238053667e+02 8.3381362418003846e-01 6.7311023693764582e-01 1.3956076011946425e+02 7.8191015031188726e-01 5.1445876342058182e+02 -3.7538310674221975e-02 8.4153560139238834e+00 5.9660378297558054e+00 -5.6406210232353260e-02 -1.7421790020167828e+02 -1.6111592720015505e-01 -2.1609182085654077e-01 1.4145936965942383e+02 -6.3143979892320931e+02 -5.3353334548353359e-01 -2.3881200955566749e-02 -3.6297211146900987e-02 1.8877795862485073e+01 3.4787434928396146e+02 2.9399912136541388e+00 1.4376316984544246e-01 -1.1710531680099666e+02 -2.4589250660816106e+01 1.1552588287740946e+01 3.9631550818910455e-02 7.5452808835543692e+00 -1.4889748152529648e+01 -3.3189956789556163e-02 1.7265420924266800e+02 -1.1608873269903797e-01 2.8537647881694284e-01 6.1465403626943186e+01 -3.4390106152882800e+02 2.3138137886460886e+00 -1.0256599413241929e-01 -8.5410785117245008e-02 3.2532841502548933e+01 8.0095471487630857e+02 -6.2685952009191759e-01 2.1121730617248646e-02 1.5452965415755301e+02 -2.4268745748489042e+01 -7.2762951521366091e+01 -1.6500933429258474e-01 -7.1077249731179837e+00 2.2032964639365673e+00 -4.3865854496664608e-01 1.5909694557268097e+02 1.3963380532914016e-02 -1.9481474191512427e-01 1.8436429531686008e+02 -5.5068200221500967e+02 -1.2432513426872902e+01 -3.9084121191943516e-02 3.9472119393853689e-03 2.2298651325372339e+02 2.9049773892213909e+02 -1.9881526995450258e+00 2.9360247650832378e+00 -2.4008636439534166e+02 -2.5346503699035281e+01 1.7215712971699986e+01 9.3298571270180097e-02 3.4314236594364047e+00 -2.0253230796919027e+01 -1.9806484534575268e+00 -5.7523768593012747e+01 -1.5018646465929990e+00 -8.1133861497820570e-01 5.9722502275978422e+02 3.1406596799898273e+02 -9.8408968346582981e+01 -7.1966441832805872e-01 -3.9280601513578040e-02 1.0733910411260176e+03 3.0017306158043857e+02 9.3077544492080744e+00 -6.6117781718747892e+00 3.4348034845226687e+02 -7.4975879870003624e+01 -2.3236492594723350e+02 -1.0482282554734250e+00 1.1438165574347465e+02 -1.2777884974437566e+00 -5.6192677699611754e-02 2.9417545506505547e+02 -2.5204967294030212e-03 -3.6186645996707512e-02 4.7311102685618280e+00 6.5497527111926854e+02 -3.1156815814632330e+00 -2.8465567272633052e-03 -1.4111181839108800e-01 6.6045301764651185e+00 5.0138302758215353e+01 -1.0762723224179354e+00 7.6403201714211694e-02 -5.6444140763208736e+01 -1.1350426745159403e+01 4.7522074844121562e+01 8.6431623214745623e-02 2.9563355433195753e+00 -6.5185285878247237e+02 
      </Row>
      <Row Index="183">
        5.2030066590091906e-03 4.9744883290401276e-02 -7.0638240835396573e+00 1.7242794860401034e-02 -1.7410935913337866e-02 1.8740128843477578e+01 3.7579064164776355e+01 2.0678060797022724e+00 6.5937838669250570e-02 -7.0160979664972700e-02 -3.3168543386273086e+00 4.4235184638819192e-01 7.3416762755805394e+00 7.2363350776640800e-03 -3.3523606797098182e+01 3.2168833529358380e+00 -5.7813563008792698e+01 1.2027385472947572e-02 4.2897637824353296e-01 -4.9410922326933360e-01 -1.5399764203039013e-03 -5.3638199480919866e+00 -9.8469249510486634e-03 4.8569575372638951e-03 3.3550119070278015e+01 5.2172655069505709e+01 -1.4541692817438161e+00 5.2697238467516172e-03 -5.1269933242430454e-03 -4.8333048665860758e+00 6.3097746991843451e-02 -1.7406712643324681e+01 -1.3783143392117836e-02 -3.5606035609263927e+01 1.9039340203453321e+00 6.4853409615112469e+01 -3.0654364489464569e-02 1.4797043311156294e+01 -5.2320978769084832e+00 7.4816598753955077e-03 -1.5068534870379636e+01 -6.3436412833368649e-03 3.4489449276122741e-03 -1.9390949834865751e+01 5.9130501167383045e+01 -1.1570951637697533e+00 2.0035823845461209e-03 -4.0769895758785424e-04 8.7469467473601981e+00 -1.1651293181857909e+00 -1.6114799855842648e+01 -9.7952378200034218e-02 1.4457116314555606e+01 5.2829010839068360e+00 4.3980073948099744e+01 -3.7873514796359586e-02 -2.4297614447277738e-01 -1.1429305011843098e+00 -1.9892076064849107e-03 -6.4775122845603619e+00 -3.0517578536830570e-03 2.2695391180256319e-02 -4.4094892633729614e+00 5.2487014541315148e+01 2.2723000284895534e-01 1.0869227069818521e-03 -5.9048877582696946e-03 7.3640194333602267e+00 2.8827597968484042e-01 2.9533844485733880e+00 4.3828098260007664e-02 4.3646245980053209e+00 1.3233386802387486e+00 3.9953705016523600e-01 3.8200194434239165e-03 9.4251655937114265e-01 -8.1223650235415334e-01 -9.1389821683662831e-03 -1.4666314472793601e+01 -5.9316883186966152e-04 -8.1163092500844414e-03 -9.6562760338720182e+00 -2.6868111822666833e+01 3.9615382693873471e+00 1.5280017970454196e-02 -1.8261816223535732e-02 -4.6206610010631266e+00 -7.9432334841112606e-01 1.3517735949839334e+01 6.7147050464711810e-02 -5.9542565984669636e+01 2.7361594290705398e+00 -5.9325086339980771e+01 -7.9794308423913662e-02 3.1109221119550057e+00 4.6023642853015190e-01 -9.1932366572322621e-03 1.6864407050888985e-01 5.0657784868235467e-04 8.6909592940287439e-04 6.2429067376342573e+01 -4.2801828688654496e+01 3.3558473999075886e+00 7.2363796270025205e-04 -3.8836712469958456e-04 1.9433016098540975e+01 7.2452940730727278e-02 6.4491260065024107e+00 -1.1001024087818223e-02 -5.9867261335719377e+01 -6.7940401414762164e+00 -7.8129253862425685e-01 -1.8605591464506688e-02 8.2586790348286740e+00 -2.1413070701028118e+00 7.1564196065452279e-03 -3.8342288774540066e+01 4.6844691733056720e-03 -1.8705399984447979e-02 1.3755117280124978e+01 -7.0773996629686735e+01 -3.4199395548915348e+00 -5.1712263501613176e-03 -3.9836900527885355e-03 9.4223461710294032e+00 -1.2863362651842181e-01 5.5239824458714111e+00 1.3881781861186937e-02 -3.1068335003452376e+01 2.7396895163204533e+00 -2.0040537123415561e+01 -1.8849539360502376e-02 -3.1728357416394601e+00 -5.4384015640812322e-01 -1.6128568692920453e-02 -8.3523866120725870e+01 -7.1260814921174642e-03 -2.1934074366072309e-03 1.4540081734739942e+00 3.7780810039490461e+01 2.1568467581073492e-01 1.3132508729540859e-03 -2.2800741304349614e-03 -6.5297736067004735e+00 2.6432185923545148e-01 -4.8381209382400812e+00 -1.0634957558977476e-02 1.8539610050218471e+01 -3.2586903406336205e+00 -3.1714017552323639e+01 -3.0584752517172298e-02 -1.1966853174963035e+00 1.7434469191986182e+00 -4.2012357413650392e-02 -3.0026471515317098e+01 -1.4196459646370285e-02 7.7858748646429554e-02 -3.6050263592380361e+01 1.0166641512120623e+02 -7.7123649099629787e-01 -3.0587721610890136e-04 -5.6011754732288488e-04 1.7069555510906980e+01 -6.8399707672925925e-01 -2.4774600186519251e+01 -1.4817024475613394e-01 -1.6018334861844778e+01 7.0894979172901884e+00 -3.3419409449677914e+01 7.9065727325000168e-02 -3.3693526747956639e+00 6.9946228489381435e-01 7.0850632635988120e-04 5.0641016623931137e+01 8.5131484269097280e-03 2.8332536145871501e-02 -4.4032838909882038e+01 -7.0901346268237830e+01 -3.6461265251780044e+00 -6.7551221298423059e-04 -4.8958216101201105e-03 2.1301072640204296e+01 -6.2685953767368119e-01 2.9835885252217267e+01 5.6619806502342662e-03 9.0607760679731939e+01 2.9849391302717740e+00 -8.9022787561998115e+01 -1.6816956434343413e-02 3.9385176797230059e+00 -9.9080873552861704e-01 -8.9585030146207695e-03 4.4453198656404766e+01 3.5063749955099865e-05 2.5573399260184551e-03 2.6531678689061664e+00 -3.5638077799828110e+01 -4.7604822052653617e-01 -2.6421754330793151e-03 -7.5345556073515198e-04 1.0086324060019251e+01 2.9023981567103885e+00 -8.2981385294085612e+00 3.5744207575395898e-02 2.3048656842341373e+01 8.3904917647991901e+00 -8.7653272180303702e+01 -5.1016549668621153e-02 -1.5393590118765133e-01 -9.1659287073197149e+00 -3.5966327557463518e-01 -1.6426757205555354e+01 -1.0522530174285280e-01 7.3714004456876592e-01 -5.1874311299331950e+01 7.9379925372274869e+00 -1.4841218614046351e+01 4.1210739223129664e-02 3.0961954817100901e-02 8.7605100357208883e+01 4.5153054519309155e-01 7.6680951816322121e+01 -1.3404848077303981e+00 -6.1196943446510375e+00 1.4984440649044544e+01 3.8585965654496405e+01 5.2741107459548875e-01 -1.8093973389798691e+01 -2.4824772237659140e-01 -2.7005498849693495e-04 7.8144491173969953e+01 -7.5235637300252733e-03 -2.2449869924612287e-04 3.5992371849638722e+00 5.6548340471744272e+00 4.3419933908960051e-01 2.0103535559123031e-02 -4.5541497287060001e-02 1.9873142914949522e+00 -1.9996856498443094e-01 -3.9881175687016821e+00 -1.3704397983333224e-03 -5.6721914645167601e+01 2.7497183878973939e+00 1.5290505560361566e+01 -2.1630749566212408e-02 6.9633579517556932e-01 -6.0215679176949219e+00 
      </Row>
      <Row Index="184">
        -2.3030728960060642e-03 2.7698461868812085e-02 2.6274768335861154e+00 9.6510906413000086e-02 5.0899451525383554e-03 1.5581327321742720e+00 -3.1807942033628933e-01 6.5129377299404823e-02 -6.2748827645324468e-03 -2.8348544341495696e-02 -1.4381845947664260e+00 -6.3075901023330516e-01 3.3057204746000934e-02 2.0653675357800694e-01 -2.1351836956164334e+00 7.2829138246561342e-02 -1.3648119422141463e+01 2.6590069368381819e-04 -2.0380742022916820e-01 -1.9578911969756518e-01 4.4297227867673428e-03 -2.3597550588965532e-01 3.0315889170751120e-03 -2.0251703569845958e-02 1.7001257591473404e+00 -1.1898025657992548e+00 2.6742965590528911e-02 9.1658621647425775e-03 1.0202532701342193e-04 -5.3892933928948850e-01 -9.5877094905517879e-02 -8.7175056020669217e-02 7.2791408546571290e-01 1.6275174428083119e+00 8.2837549131909327e-02 8.6678791790473042e+00 -3.3613034792239205e-03 -1.1039572941444202e+00 3.6468621144570079e-01 3.9351890462558714e-02 -5.0149646163339767e-01 7.6964093139608281e-02 2.7968781265943221e-01 -3.1549370574903151e+00 -5.0690535025787540e+00 -2.6027621453826200e-01 -1.2184482469331570e-02 -1.0099213812096774e-02 1.7598746419866984e+00 6.1060816613280622e-01 8.1159451383427950e-05 -3.2255578650259906e+00 -2.9453977742768984e+00 -1.1178196237278826e-01 -2.9922219735031831e+01 -2.4534470376913475e-03 8.9042670996786910e-01 2.0068109501073650e-01 -2.7954140015292950e-02 1.3474209180276375e-01 -7.9957047391406633e-02 8.5062140746380854e-03 5.4456785559887066e-01 5.0812411081933533e+00 3.9292512915380939e-03 7.7792426784113466e-03 7.7721124983343159e-03 6.6420762742836814e-02 5.4931854965525417e-01 -1.4103701701628779e-04 1.0386041915480568e+00 -9.1563177989519318e+00 -1.1057851750603476e-01 -6.9856372827809537e+01 4.8754444351146731e-03 1.4582443102744946e-01 2.8987449749689631e-01 -1.0037167565066341e-02 1.1118150977708865e+00 -5.4350664408204352e-02 -9.9353516597866509e-02 -8.0166601271571380e-01 1.9047488679498201e+00 7.0766938589088113e-02 7.6399561533886384e-03 8.1237902440007836e-03 2.4413777646509516e-01 9.0834846924917656e-01 1.1659812016068827e-01 2.4073309132360379e+00 1.3941155254137811e+00 -1.3182029670133488e-01 -2.0278802367934077e+01 -6.7918073980486326e-03 1.2041724261944182e+00 -1.9172790970912956e-01 1.9575858900424237e-02 -2.8322357531578746e+00 6.6885732953778643e-03 3.3527970341395985e-03 1.9731849047507239e+00 9.8106158028269874e-01 2.3839279913141809e-01 -1.1415100025846669e-04 8.3520953189797353e-04 1.5387510958098574e+00 1.3804619535403617e-01 5.5392992414681430e-02 -6.7404699256155354e-01 1.0417896823491901e+00 2.6085516598868708e-02 -6.0664605746569578e+00 -1.5313306649858305e-02 -3.9240168821561383e-01 2.9526569308589501e-01 4.9467181942510763e-03 2.4760316136821530e+00 -2.5932901173586487e-03 3.9818425687697001e-02 1.1547607499414880e-01 2.3271742582983279e-01 -2.5973191349321478e-01 -1.6239566237944425e-03 -1.2703810798678217e-03 3.4986046585495956e-01 2.2977431180333951e-01 7.5667864558290887e-02 -4.7184139037894113e-01 3.5251923626929056e+00 5.0651831902115418e-04 -1.3760475550453975e+01 -2.1238532533214283e-03 -9.8425549172219462e-02 1.5804286626996600e-01 1.1079857075912969e-02 -1.7831167969852686e+00 6.8291196583677660e-02 7.5835993308714933e-04 -3.4540317015580513e-01 -6.4573422791436315e+00 1.1553548067149677e-01 -7.8449930628767817e-03 -1.0869226656246067e-02 2.1762501631383202e-01 4.1442385561333595e-01 -2.2608639502266215e-02 -1.2374169892964346e+00 -2.5424548599467016e+00 -1.8270340438903077e-02 -1.4761685588746332e+01 4.8942458823364454e-03 -3.0998731810177560e-01 -4.1572985206960311e-01 -8.6941187808626808e-03 3.3816132324427599e+00 9.6442453741547862e-03 -2.0614158845433744e-02 -2.6449555136273375e+00 -2.6467883991508643e+00 1.3138562113346630e-02 -8.5083186926232166e-04 2.4180150130808861e-04 1.2148181826990196e+00 -2.2191359042849967e-01 -1.6759960785946504e-01 3.0552846978545212e-02 4.6797044171580637e+00 -2.9627851497956215e-02 -2.9755629072402371e+01 -5.8274596858747252e-03 -1.7091478366410229e+00 -2.9803629213751393e-01 5.6627739658092313e-02 -3.3396255663335523e+00 -1.1864405877390932e-02 -3.4543773506365838e-03 -1.8322277476521691e+00 -3.0238414337673021e+00 -1.1266942138890457e-02 -4.3819976095784585e-02 -4.0438967933536185e-02 2.7447272134136824e-01 2.1121729372453046e-02 5.6619806088056279e-03 4.8391258363066694e+00 9.8827562951979999e+00 -2.4426988281354545e-01 -5.1003594339181006e+01 3.5643487263466292e-02 -7.4825466189062695e-01 8.7287452626384265e-02 -7.3821556804580385e-02 -2.6309643300112810e+00 -1.8777199182365134e-01 -2.0541563900643875e-01 1.9641438241660580e+00 1.0185226693159848e+00 2.0890452092658052e-01 2.6866734892407824e-02 1.8632160277330372e-02 2.6430136506672852e-01 8.7769148116805695e-01 -1.2057105591247819e-01 3.8685943763378279e+00 1.6089503107120180e+00 9.6187455220587026e-02 -1.9439181777735346e+00 2.5121478595554858e-02 -1.5629280646971893e+00 -6.4660952917173553e-01 -4.2247836679043804e-02 6.6754823242027683e-01 -5.8955218091558337e-01 -8.6670078172319776e-01 4.7889092749952482e+00 4.9826106155794037e-01 1.2592262650243171e+00 -8.2738978441789318e-02 -5.0785763322347799e-02 -3.5869839346671029e+00 1.5868185998865094e+00 -6.0850328188848479e-01 1.8077946134018156e+01 2.9607266496014972e+00 -2.8798652370902111e-01 1.1334519892404586e+01 1.3630969133187598e-01 -4.4404833663403451e+00 -1.4184626330576733e-01 -2.2757608811574490e-03 1.1645846061274199e+00 -1.4726768728623441e-03 -2.8779042119626563e-03 -3.8314731787544076e-02 -1.0323056424529744e+00 -1.8181554576246570e-02 3.4529123664395200e-04 -3.9097519869298368e-03 -6.1351760133687705e-03 -1.5321798091920869e-01 -2.6588683717136519e-02 7.2672466603340188e-02 -1.1588499529760838e+00 4.9068994150825773e-02 2.3767587352647297e+00 4.1779686564042534e-04 8.5430540919915643e-02 9.8974419689101045e-01 
      </Row>
      <Row Index="185">
        4.6095573311479063e+02 2.8159642704729038e-01 4.3682900550775230e+03 -2.6563907729925802e+00 -9.2432818265231731e-01 1.2847324647709029e+03 -2.5415250194193795e+03 8.9116356576694102e+01 1.3836153642018974e+01 -1.8977352416665241e+00 -1.5235019138861389e+02 2.5939385061385110e+01 -2.0260262583207805e+01 -9.6625142161396980e+00 -5.5152937611241359e+04 -1.1596968204830773e+01 7.4054675243105739e+03 -2.1833984155844064e+00 2.8669494928311906e+02 -1.3709449262754060e+02 -1.3358112740256729e+00 2.2456285030341242e+03 2.5187297103241235e-01 -3.1264995430768749e-01 1.5340860112644732e+03 -3.7821656409981078e+03 3.1762450136477128e+01 1.0990941325226231e+00 -2.0965214518605535e-01 -3.1702384139943047e+02 -3.2498079528624658e+01 -1.0238374674420629e+02 -6.1623280080143559e+00 -4.9976031121174805e+04 -3.5583727842196822e+01 1.8016927642382914e+04 3.9845302248245389e+00 3.6188122457084469e+03 -1.9417282357935619e+00 3.6921653682583155e-01 4.3888989244544955e+03 2.7754132924906116e-01 2.1927197209379301e-01 -3.0995381576911313e+03 1.8172795865373686e+04 -6.3003747002085470e+02 1.0131201993533523e-01 -2.1183223935685191e-01 -5.3605436410698167e+02 -1.8610899738350417e+02 -4.8818072851798206e+01 9.6238427791374761e+00 -1.3981505171628902e+04 2.1750024966808269e+02 -2.4957972352702636e+03 4.8940946867028288e+00 -3.4865539892500965e+02 2.9510476441209175e+02 -3.1900432294639813e-01 4.5386569312793436e+03 -8.0986962810789009e-01 1.2363894711952206e-01 3.7528391318651848e+02 -1.2506031105604488e+03 6.1823172599542886e+01 9.8890259581672524e-02 -3.1080080108505115e-01 1.6592572239027795e+03 2.2700948148703901e+00 1.0443402745862841e+01 -7.0186573940455901e+00 -1.7168966786987148e+03 -2.9841162877675060e+01 1.5034461432878394e+04 -1.4708177825195889e-01 -3.0553512742319435e+02 3.3518286480571260e+02 -1.1030758898596673e+00 -2.1736413221084513e+03 -2.9741318586291072e+00 1.2043150689433446e-01 -2.0085943155413515e+03 5.0270078688184731e+02 -2.7777606159779680e+00 3.5975097892390409e+00 -2.5496429196306281e-01 -2.7317819061756090e+03 1.0107363636489026e+01 6.3411164799603284e+01 -1.1995587353855171e+01 -8.0617716074552009e+03 1.6958880755933933e+01 -5.0457542987078195e+03 3.1610979981207947e+00 -9.2355052134394646e+02 -3.2665977761868271e+02 1.6648908433097631e-01 5.0349662866163999e+02 -9.8229424102828489e-01 -5.9246721246154266e-02 3.8449636229267635e+03 -1.7935586795658091e+03 1.5811131428124554e+02 4.7815544556951295e-01 3.1962441946916442e-02 -1.0986587249462027e+03 6.0604355229588691e+00 2.2821200112499355e+01 -9.4266813122908388e-01 -7.6339457362620160e+04 2.2898025822752970e+01 -3.7783598943427205e+02 -1.6723307644781471e+00 -6.2661987232510000e+01 1.1404785500253001e+02 7.2372323183105891e-01 5.4187428054273041e+03 -6.9661327820332986e-01 1.7414835621922293e+00 1.3239860968843568e+03 -2.0085339416410425e+03 -3.9384331249883462e+02 4.5644177044044376e-01 -1.1605021663222637e-01 1.1600549612479608e+02 -3.0152939955427428e+01 -5.0867915654332364e+01 2.2030471841480903e-01 6.9355128144267946e+03 6.2299564819153829e+01 2.7580286439959309e+02 2.3060490666765645e+00 1.8680002039124702e+01 1.3518970420446522e+02 -8.6354335723444819e-01 6.8221792306303978e+03 4.4104884684435319e-01 -7.6295534843825408e-01 -3.5016487676312681e+02 4.5517958717048168e+03 1.1967824114862742e+02 5.9102566372308729e-01 5.8473394090865938e-02 4.5500746111228364e+02 3.3782555121393671e+01 -5.8232681827744273e+00 3.6445182351380936e+00 1.8511259624551079e+04 4.7307339230901562e+01 1.1180595193058252e+02 4.6801978045186452e+00 4.8476375727099366e+01 -1.2087699013857764e+02 1.8143239238862634e+00 -2.8726830013800063e+04 1.4526675097748460e+00 -6.4892100277094134e-02 -4.3275680840703717e+03 1.0040143915459746e+04 -1.9429557994655428e+02 -7.7140550682454800e-01 6.3411249271385584e-02 -8.3240954763269201e+02 -1.5121717032502602e+01 -3.9608504732505139e+01 1.0716348164565886e+01 -4.0346626992727688e+04 1.6518446733012183e+01 -6.4138370883525349e+03 8.9612810317775882e-01 5.6804454198759049e+02 -8.3502650195277647e+02 4.2972362283757093e-01 3.8526754744078498e+03 2.2293817395943276e+00 9.8413402611669198e-01 -3.5659616108746222e+03 -2.7266664938011410e+04 -1.8103269333174140e+01 -1.2932784062015656e-01 7.3692092608119708e-02 -1.3178388151039508e+03 1.5452962226770615e+02 9.0607760400484139e+01 9.8827563471949134e+00 1.4383126566024960e+05 3.5227958887444508e+01 -7.9847103290679279e+03 1.2546112224900086e+00 7.0066387064308378e+02 3.7346916238696667e+02 3.8921213840783542e-01 1.0431615124350843e+04 4.7579657514947371e-01 -5.6990272567911504e-01 4.1029559275619977e+02 -8.9574285751883544e+03 3.7388621234716265e+02 -3.8074196137291022e-01 4.6201843487446481e-01 6.3658605031509251e+02 -1.1511348230300192e+02 4.9688395709217730e+00 3.0949099831644382e+00 -8.3470608318548053e+04 -7.6847121057085900e+01 -2.0120330394064553e+04 -2.0788338601202692e+00 -1.3059005182505352e+03 -7.5475964124955635e+02 1.8369564017740487e+01 -7.8082684504660665e+02 1.9317562980208045e+01 -7.2607043350819822e-01 -8.2562113717780448e+03 6.4283385300156006e+03 1.8021157049390426e+03 3.6547706140019312e+00 5.4278269365392173e+00 9.8648545938811276e+02 6.3524699431494639e+02 4.7316390561288040e+02 1.3471300574104862e+02 1.4663300886970104e+05 -4.3695651863058129e+02 1.2823004738214260e+04 -1.7350967996988039e+01 -5.2367198053798311e+03 -3.1550846804442813e+01 -2.8725914534322453e-02 2.6980305066373541e+04 -3.5772924073221191e-01 -6.3013745855707626e-02 4.4852117020158823e+02 3.6477427590344021e+01 7.7193094360511026e+01 3.6954172639055685e+00 -2.0694834524170452e-01 -3.3255044562097135e+02 -4.2832477418599410e+01 -6.6763106808639350e+00 -4.5773774427600922e-01 -4.2385178650125818e+04 -6.2864960235293040e+01 1.4529249986067036e+04 5.0153366007967670e-01 8.3791158491011970e+01 -1.1355993465212306e+02 
      </Row>
      <Row Index="186">
        2.3375614355018115e-01 1.0984762975226658e-01 2.5207338646054268e+01 1.0409095027694093e-01 -4.5701261816759597e-02 -5.4094974717125297e+01 -3.5155502855777740e+00 -6.2728176045220607e+00 -7.4937787292456148e-02 5.1161784601504223e-02 -1.7808609228231944e+00 -4.4452312542125583e+00 6.3427764908410609e+00 -1.6389403518769541e-01 -3.1008303962647915e+01 3.3137689625145867e+00 -1.0159317925572395e+02 -1.6768229443368909e-01 -1.9330414570868015e-01 1.6005969680845737e+00 -8.9210156074841507e-03 1.0639278202783316e+02 5.1580753041889693e-02 -7.3259276950466301e-02 -1.4046097919344902e+00 4.5802338942652568e+01 -7.6258237706497312e-01 -8.4526991904567694e-03 1.0077444471789931e-04 2.0078398671209470e+01 -4.1578485313802958e+00 -4.6475681702722795e+00 -2.6987584349626559e-01 -4.8823136279359460e+01 1.1126386491348967e+01 -1.0188978175073862e+02 7.5729108721134253e-04 6.8827173602479888e+01 -2.5452832378214225e+00 -5.5095293540944112e-02 9.1142607280160519e+01 6.6829359089751961e-02 -1.2832931682896742e-01 2.7475738819688559e+01 2.3164969541132450e+02 4.1504735183252706e+00 4.8713963042246178e-04 -2.0615903014117976e-02 -5.1970637191552669e+00 -1.9127139099407941e+01 -1.3076149972621351e+00 -9.5429365741438232e-02 -5.6480356688727625e+01 2.6386989382037427e+01 3.7092220470309258e+01 1.4408187644221471e-03 -1.4966192041523755e+01 -1.2460632979637012e+00 -5.5954100116650807e-02 1.5212721390835941e+02 8.6234442186196247e-02 -8.5564890884072042e-02 -5.9946505142375827e+01 3.3425300222355872e+02 -9.1797238031285815e+00 -2.7231128210587485e-02 -4.3214173423791635e-02 -4.5571084469673224e+01 -2.0422314170224126e+01 2.3711545814512647e+00 -8.1821237126860069e-02 -8.6518907278776169e+01 3.1764726381006767e+01 -2.1569661638699472e+01 -7.1840604417957366e-02 -3.4900855036685243e+00 -1.0054967045289231e+00 -2.1076001849451131e-02 -1.9196643859148026e+01 -3.1600387921571382e-02 -6.0830945833117767e-02 3.0462709836196154e+01 -2.8504261914640665e+01 3.5670846064604120e+00 -1.2564058570660563e-02 2.8639595743129576e-02 -3.0090402840462048e+01 7.0160963162779808e+00 3.9312172716599889e+00 -2.1230932572325401e-01 -4.0280918031348847e+01 4.6323633085936308e+01 -6.6806338951690122e+01 1.1334843988424836e-01 -5.5966583769768476e+00 4.5547522883862257e-01 -1.2214385235438385e-03 1.6705734074115753e+01 -2.1153765991584805e-02 -3.2579734044702491e-02 -5.0364067042246461e+00 -7.9080839375266805e+01 3.4954207072878489e+00 3.2416558062777767e-03 2.0319432449696251e-02 -1.3432400487363338e+00 7.9972304541151971e+00 -4.7947772670013364e+00 -1.1414895180678286e-02 2.2563797846436501e+01 -4.3904700982675422e+01 -8.3945667907595634e+01 2.1550666595430812e-02 3.4262265928089619e+01 -1.6793457850908453e+00 1.5526492354365473e-01 2.2766914546501357e+02 3.9759690982918983e-03 3.2453483524932381e-03 -7.1016593951266259e+01 -8.3059869170747697e+02 -4.3956592923314020e-01 4.9737543150882857e-03 -3.1783230117099492e-03 -3.0033488794309960e+01 -3.8645601600292139e+00 6.7176173967018258e+00 2.2970809201069642e-02 -2.0970330237597227e+02 2.3894925064128984e+01 -9.7416970171267167e+01 -6.7858221350661552e-02 -1.6919048849678802e+01 -4.3494924160040682e-01 -3.4658992219192442e-02 8.6084835767745972e+01 -2.7098833869786176e-02 2.9198663805800606e-02 3.4379540696856566e+01 3.5382950806617737e+02 -4.7848906273138709e+00 -1.7693940292247134e-02 2.0815613127695087e-02 1.7898154195863754e+00 1.0975147195022146e+01 -4.5482845311744313e+00 1.4596046146471053e-01 -5.9829507519723848e+01 5.8852809243835509e+00 4.3304238483309746e+01 1.1321052986087921e-01 -1.3028863752260804e+00 2.5885667771581211e+00 -7.7601195150805324e-02 -1.0174025471368805e+02 2.3711253327105491e-01 -7.8735613663356199e-02 4.1903679267852567e+01 5.3003797105234116e+02 9.2302944794121231e+00 1.0520121615318217e-02 -3.9256630913298549e-02 -2.2461426286434289e+01 -1.0213586917897999e+01 -7.8283804634916123e+00 1.5339147902068362e-02 9.6963438663631678e+01 5.1359838231926005e+01 -1.4457927264273167e+01 -1.6307283907943315e-01 -9.2630119060631841e+00 1.3835203882201554e+00 2.8371000716447270e-02 -7.7168593510403298e+01 6.5008780272037492e-02 3.5653930358307662e-02 4.1130678525462677e+01 -2.2644104144233279e+02 -8.0102732095210794e-01 2.1816854609539860e-03 5.3324042652889148e-03 -1.6390184465276221e+01 -2.4268745656139799e+01 2.9849391252964836e+00 -2.4426988337472721e-01 3.5227948714280501e+01 1.0019151969897950e+02 -2.6264451358245481e+01 4.3267596020443930e-02 1.3096033152637407e+01 -1.0880785330809886e+00 -3.6195395497503363e-02 3.0885197247215501e-02 1.3823720968434827e-01 -1.6946976861809522e-02 -5.8023693502531387e+01 8.6076528948794930e+00 -6.0016286930185743e+00 -3.1492988517294075e-03 -3.3181666942507008e-02 -8.0276859686389798e+01 -1.4732709591091005e+01 -1.0344659944821615e+00 -6.6699890568506881e-01 9.9747658714101902e+01 3.8103472684031779e+01 3.5357176118958591e+01 -1.2681589915017744e-01 -8.5827705059200525e+00 4.6312961835097948e+00 -6.9806726227205518e-01 2.7350540486330942e+01 2.4812936239401480e+00 -5.2846756060724087e-01 -1.1301202218241005e+02 -5.6553341835630349e+01 -2.7396683330448674e+01 2.1025686045328729e-02 -4.7167360954875848e-01 -2.7789979266380868e+02 -4.0492397021858821e+01 -6.3148658189903273e-01 -2.4067577702845213e+00 -1.1692050409605292e+02 2.9530815557196331e+02 -4.2365105599237211e+01 -1.7964757702761072e+00 -1.2947846871530902e+02 9.5039896631894694e-01 2.6112680801196769e-03 4.1653735578551959e+01 -1.6119623823016127e-02 -2.6014114808603495e-03 -4.5563226075841357e-01 -2.0807397083334138e+02 -1.6994593382802408e+00 -2.5865633798900944e-02 2.6844032888984754e-02 -5.0551419160902000e-02 -6.0332626773742959e-01 -1.2987330884498078e+00 -1.5977322523969627e-02 3.4490210980871616e+01 1.0409345124421966e+01 -3.9914395120070594e+01 -1.4690851276172250e-02 2.5539585027501310e-01 2.0977925850574906e+02 
      </Row>
      <Row Index="187">
        5.9161903059868564e+01 -6.2448963505448774e-01 4.4325321292877197e+02 3.3347745218816272e+00 6.0209981708339910e-01 -2.2968040440157056e+03 -3.0297904363274574e+03 -5.8617776998162299e+01 -4.7726661864726108e+00 4.6541002844078321e+00 1.1576194930551574e+03 8.5736552886664867e+01 1.9381133783608675e+01 1.4009264117339626e-01 7.5655194081962109e+03 -3.0994526047259569e+02 4.7298778093814850e+04 1.0996908685629023e+00 3.0240365265868604e+02 1.3764190446026623e+02 -1.4141342559305485e+00 -4.3073773777037859e+03 -1.0968024945104844e+00 -1.4995987432157563e+00 -1.5904414138197899e+03 -5.6114540109308437e+03 2.4881707616150379e+01 -4.8674824279441964e-01 2.8082296993670752e-01 4.9255353269439365e+02 1.6335072219371796e+02 9.3182874845806509e+01 1.1371076616007485e+01 -3.8037118188738823e+03 -1.2021055893227458e+02 -3.2614097822695971e+04 -1.2795063153025694e+00 2.3719029016001514e+03 -2.0986208367720246e+02 -2.1827693070517853e+00 -1.6326952702236304e+03 -1.4311555651220260e+00 -6.8851490103406832e-01 4.9103848920390010e+03 2.3033333647847176e+03 2.9369007218992920e+02 3.9616047122035525e-01 4.8552777641816647e-02 -5.7861523553095758e+03 -1.7749491338804364e+02 9.3767206232994795e+01 -1.0130057002679678e+01 6.3007011327724904e+03 -6.8389150829985738e+01 -1.5921214489659667e+05 2.0191468609118601e-01 5.1110346594639122e+02 8.4202890587970614e+01 1.8541081445946475e+00 -1.1268693246170878e+03 2.8453258285153424e+00 -2.8885312016086573e-01 -1.6402427012920380e+03 -7.2956776255667210e+03 -9.9168178645893931e+01 -6.6461168284604355e-01 -1.3979832218865340e-02 1.3315026298724115e+02 3.0659592189546674e+02 2.6703170976892579e+01 5.2799314573130687e+00 1.6391154640614986e+04 -2.1799084563172073e+01 1.1104398586598039e+05 9.1258092012139969e-01 -2.8443044209666550e+02 -1.0218992535863072e+02 -1.5517230437035323e-01 1.4377046064138412e+03 -1.0514900616544764e-01 -3.1688090364077652e+00 1.3623667668902781e+03 1.4129596929103136e+03 -6.0796196580631658e+01 -1.3318023796819034e+00 1.2879117788688745e+00 1.5262229398684576e+03 -4.2716150914132595e+02 -7.9486703299917281e+01 -4.5276176736806519e+00 -6.1505155465248972e+03 1.9422074542567134e+02 2.0151014522638917e+05 2.1188155305571854e-01 -1.0291135653853416e+03 1.2152637588325888e+01 1.2298695532408601e+00 -3.9729398727416992e+03 1.3674483949871501e+00 -6.5703582111018477e-01 -2.5860393379069865e+03 2.0007805674658157e+03 -1.2499438880069647e+02 -4.8067688768242078e-01 1.7475579396341345e-01 -1.3751899559348822e+03 -1.4653071612864733e+02 -7.7661786559037864e+00 -6.7162602903699735e+00 -7.4970036233663559e+03 1.7219340432528406e+02 2.6665828527569771e+04 1.0125073387462180e+00 6.1878095471858978e+02 -8.5406238803756423e+01 1.4332381586136762e+00 -4.3118607305977494e+03 6.2693085599676124e-02 -8.3669385223402060e-01 -3.8132912726327777e+02 9.8381517929583788e+03 1.6102521791901745e+02 -3.0886314647239033e-01 -2.1031879678275800e-02 -9.4311267547472380e+02 5.5561120781116188e+01 -4.9651909068896202e+01 -1.4949103182298131e+00 -1.0955542403340340e+04 -1.0129631873669859e+02 -9.3239380801655352e+02 1.4499105387949385e-01 -9.7571080892696045e+01 2.7844641166506335e+01 -1.5239404264721088e+00 -8.2861549282073975e+03 -1.9892435695619497e+00 1.0364885620365385e+00 6.8852067750319839e+02 -6.3254776439666748e+03 -8.2146571241319180e+00 -8.4996394685731502e-02 1.1155053859965847e-02 5.8158994172886014e+02 -2.8146488855732605e+02 5.4630459664622322e-01 2.8000510174315423e+00 1.9337366756759584e+03 5.8816248185932636e+01 6.6088052504062653e+03 -1.8813940967500002e+00 -1.1035262271761894e+01 8.6629192344262265e+01 3.3069180255115498e+00 1.1285300854593515e+03 -6.1684656175131334e+00 -5.0606933107310992e-01 4.4785350419525057e+03 -2.0062656584456563e+03 7.2795890946792042e+01 3.8748710976157219e-01 4.2732909000848757e-01 -4.3651420981803676e+02 2.7911024344671227e+02 7.4757675336797547e+01 -5.0223408828323954e+01 -4.3205235080868006e+03 -1.7129004754766356e+02 1.4043549099986255e+05 5.0952718451260353e+00 -6.7586568968370557e+01 1.1856812145832396e+02 2.5622270967342047e+00 4.4496725506708026e+02 -4.5158911288388630e+00 -9.9208484220616810e-01 2.8643925888643989e+03 -1.9746742019392550e+03 1.1213409130856881e+02 -1.4361413549181634e+00 1.5644684401559061e-01 1.6624841888615592e+03 -7.2762960774591193e+01 -8.9022787561700653e+01 -5.1003594318637624e+01 -7.9847101990263909e+03 -2.6264448827132583e+01 2.6494032835025538e+05 6.9981883542126933e-01 -4.2543439614270909e+01 1.2913342134573031e+02 8.8242266284324655e-01 -2.4019896874140545e+02 -1.8929887987360416e-01 -2.8998599581083423e-01 -2.5457390751885250e+03 -4.0440297960157104e+03 -1.4824102683085948e+02 3.7479374477408450e-01 1.7104588356383282e-01 1.7779527357128682e+03 2.1758269148431400e+03 2.7175066356081516e+01 1.5497985971944463e+01 6.9188696620063492e+03 -2.1927389555633135e+02 4.7262834335520274e+03 2.5079953062510567e+00 -1.0080988134443760e+02 8.2485616917266248e+02 3.8651250273649438e+01 -3.3562707939064057e+02 -5.7591575745425459e+01 -5.5844925908730474e+00 -1.6251855786614051e+03 1.3554760483278806e+03 -4.2396484957058419e+02 -3.6528484939969936e+00 6.5012306010225629e-01 1.9419377032720407e+04 2.1693275865353826e+03 -1.9650649502914814e+02 -5.5564638340684201e+02 -2.7257673823413279e+02 -2.4136309981658405e+02 4.3123193563968947e+04 5.1280269671587860e+01 -3.8772979395649218e+03 1.1652709649168466e+02 4.1087372510089509e-02 1.8216473261512979e+03 6.3415956196877232e-02 -1.1323074976110092e-01 -1.9996607314978343e+02 2.6488858409603517e+03 3.6987540233167969e+01 -2.0547661538248576e+00 2.9051403189216756e+00 1.3804463268585255e+02 -2.3287720592110418e+01 2.5933846262050793e+01 6.6112776732378664e-01 -2.7093746107021580e+03 -9.0312562568727685e+01 5.9774937402300420e+03 -4.4900212571499221e-01 -3.4856573796901671e+01 -2.6888601128451983e+03 
      </Row>
      <Row Index="188">
        3.3728975826662344e-02 -7.5157749637517757e-03 -5.1208425390359480e-01 3.1346212251246897e-02 -3.6137941527280448e-02 -7.1489428770473751e-01 1.2576201160263736e+00 -9.2128276048350610e-02 2.5407766131671089e-02 1.0178597975405435e-02 1.0911333494365181e+00 6.3837920039986784e-02 -6.0435208615217562e-02 2.3413853123415151e-02 -1.1287698222731706e+00 -3.2930011596590703e-02 -3.2070797935011797e-01 -2.3854373794765849e-01 1.9542894725873339e-02 -1.5898590099823195e-02 -3.5823515662727345e-03 -8.9770262150705094e-01 4.7555953232532033e-03 1.1243460450773402e-02 -5.5998374089540448e-01 2.3262549162813002e+00 -1.0378441445573117e-01 8.9861027058617537e-03 2.9171844131337110e-03 1.7777555764215869e-01 -1.9183340864401544e-03 3.5793410242035861e-02 -1.0259441891022902e-02 -1.5544393143682100e+00 6.7231617026664026e-03 6.1524466214541462e-01 2.5461592605050143e-01 -2.6675256958672300e-01 -2.0874287793787971e-02 -6.7666197814650886e-03 4.5777340058102567e-01 1.7227634101946165e-03 3.8378636595107096e-02 5.6813838713605946e-01 1.0302098534157267e+00 2.8717423838097389e-02 4.0934436481765424e-03 1.8653055038628796e-03 -1.2079978303586358e+00 -7.7323201736362535e-02 6.5761002415797520e-02 -7.6759200391741444e-02 -5.6614427337012785e-01 -7.1467646390829032e-02 -5.7941107446458773e-01 2.3533462893006529e-01 1.3746208654106340e-01 1.5042493603004914e-02 4.7418869556663523e-03 9.3266846391998115e-02 -9.1677365049513959e-03 1.7421059208955397e-02 -3.5561306378440349e-01 6.9408961633234867e-01 -1.9549794897773154e-01 -1.7119483798923030e-03 9.2717471820269459e-05 7.5370879775061894e-01 -6.1897401186797651e-02 -9.2024464724715926e-03 2.2857494288136770e-02 4.5536520198220387e-01 1.4029266180925148e-02 -1.8983161991518500e+00 -7.7063184445020028e-02 -4.4871566338429147e-02 2.2817442998331217e-02 5.6184868910458263e-03 3.8560748026065994e-01 1.3363131490642388e-03 4.8232694476730842e-02 2.8357347246210907e-01 -9.6193378046154976e-01 -8.8103146397884302e-03 9.7565274706186145e-03 4.0605746724692304e-03 -1.4587697094552823e+00 1.6808684816169261e-01 -7.4733488141760063e-02 2.2729869912847533e-02 1.4750209942437777e+00 -6.2390672424044169e-03 -3.1111071105838164e+00 1.3748986461244073e-01 -8.6348878849094035e-02 -5.4144896478589999e-02 3.3582126272424517e-03 -2.6063459627766861e-01 1.3887785084243376e-04 1.8492900633011899e-02 -1.1041858026026148e+00 -1.5567349833953585e+00 -6.9692767355675755e-02 -1.8886168694747241e-03 -5.8256092972541751e-04 -1.4798885748095927e+00 5.8445480803129612e-02 -5.9394870381424880e-02 -1.0595854302449581e-02 5.5984254833310843e-01 4.3011299545923976e-02 -6.3026132907252759e+00 -7.0953593507976365e-02 -1.7738641203322913e-01 2.0769838200735080e-02 -1.9095772426551250e-02 -2.0048808341583708e+00 -3.2280477631960736e-03 2.0283949190527117e-03 -7.3875240624238359e-01 -3.0945237573855593e+00 2.0718132106544385e-02 1.3265680135114699e-03 4.3108878789116511e-04 -4.7969006818121329e-02 -1.1860353158908765e-02 -2.6157021692394977e-02 -1.1753349185234185e-02 3.8771217696194071e-01 -2.6006928808776308e-02 1.0310599209349220e+00 4.6574037228350740e-02 -1.3831038948465135e-01 2.6924065370632633e-02 6.9650985880542748e-04 -2.5387052583973855e+00 1.5231710397981324e-02 -3.8844841592862167e-02 1.5377600569354399e-01 2.1909965830855072e-01 -9.0073609777164165e-02 8.3416326282903519e-03 3.3955448750799672e-03 -5.0431298145349501e-01 1.2800196081488480e-01 1.6619447402050014e-02 -2.2768191734144239e-02 6.7240253975933229e-01 5.5775671686205897e-02 8.9044759393436834e-01 2.9918887131025024e-01 3.4771002974594012e-02 -3.8210220491137648e-02 1.6566818777221659e-03 -7.7820506647276488e-01 -3.6845058092009730e-03 1.9271114566972749e-02 7.3319139841214565e-01 9.8684000691901019e-01 2.0201397853412911e-01 -4.8239628362492406e-04 1.8683848386104869e-03 -1.5642255863572245e+00 -5.0383367656351652e-02 1.2679623768114023e-01 -8.0444548215314882e-03 -1.4327021566714393e-01 -3.1536591215250098e-02 -6.8185006380008417e-01 9.8138764409003709e-02 -4.6796295537205879e-03 -6.5295232472674103e-02 -8.4045647477544172e-03 1.1501252830513522e+00 -2.2755770089238674e-02 -2.8554530321390992e-02 1.6572577099985502e+00 6.5168784440970740e-01 3.1756627509493374e-02 -8.8930552000968111e-03 2.4340712724350566e-03 -4.3217570776583614e-01 -1.6500933428838493e-01 -1.6816956448913789e-02 3.5643487262375650e-02 1.2546112019763314e+00 4.3267596072951164e-02 6.9981883178297721e-01 3.4280662862699807e-01 -5.3748412321861772e-01 -7.2490647278868892e-03 -1.0117082721012076e-02 -3.1335017196180814e-01 -2.3791993817913415e-02 -1.2328142531133741e-02 -6.2934029876919340e-01 1.4862986204579443e-01 -5.7271111310342349e-02 4.4954665529438938e-03 1.3243124276711166e-03 4.2323059371692295e-01 -1.9406833245158106e-01 1.4990700125991907e-02 6.1529461113501160e-02 -8.7467662665741841e-01 -7.5142544373098197e-02 1.8574406962174344e+00 3.7328214634348926e-02 -1.6005847428459674e-03 -2.8405905034124634e-01 -2.3344144501096981e-02 1.1936346224123606e-01 -1.9264434426909460e-01 2.6900660245195163e-03 2.7223577339186544e+00 -2.2019508806820554e-01 -7.1061933035160285e-02 6.7476234432832238e-03 1.3843060375424729e-02 4.6331525244746459e+00 8.2136516351929423e-02 6.6050529845019579e-02 2.0656758136865072e-02 1.3456850177977486e+00 1.6107315314186810e-01 1.5369514975466494e+00 6.8285334836246836e-01 -1.0825444123034593e+00 -3.2079674996662477e-02 -2.9856948060050627e-04 -5.4620036379327530e-01 1.3141631673644349e-03 3.2716701968876910e-03 -7.0052198952863964e-02 -3.8481407969074127e-01 -8.0878381256944770e-02 5.3213097823017197e-03 7.1356702831601943e-03 -8.3789807638312119e-02 -5.0980386768344488e-03 1.3771572951895905e-02 1.9683994306913762e-04 -2.6226135147868490e-01 -3.0709403237407784e-03 -1.7917081113603217e-01 2.6415614196525775e-02 2.0179719171245059e-02 4.3303144563963580e-01 
      </Row>
      <Row Index="189">
        9.7531204590101765e+00 -1.8258695938050096e-01 -7.0891664694994688e+01 -3.9222558200981439e-01 1.0642864927450546e-01 6.9108933439478278e+01 -4.9025773126631975e+01 8.3060391018835844e+00 -2.8780286796226584e-01 4.6296650205488277e-01 3.7867317177820951e+01 -3.7023163079284132e+00 -4.0414088021498173e-01 -7.6082396221499948e-01 -2.1761717351153493e+01 -4.4222731597255915e+00 2.3326564947515726e+02 -2.2783155651723064e-01 -5.0606274880701676e+01 4.7343555246479809e+00 -1.3363045370169857e-02 -3.3332861944567412e+01 2.3497856018366292e-02 -1.3245113075322479e-01 1.2202694935724139e+02 -1.4313226329052122e+02 3.3946232048328966e+00 -2.1917484452842473e-02 4.8046479666254527e-02 5.2805180384075356e-01 -3.6735885017551482e+00 -1.7591487838653848e+00 -5.3192290799415787e-02 1.8590478162514046e+02 -6.1558331418782473e+00 9.9255649468023330e+02 1.2177093667651206e-01 1.9732206289982832e+02 -9.9469318297778955e+00 -9.3662525451918555e-02 -3.8943512624700816e+00 -1.1216039081909912e-01 -1.6861623158274597e-01 -2.1899271734058857e+01 -3.9773836948350072e+02 5.8482284513411287e-01 5.6572295791283977e-03 -2.5651058527955684e-03 -2.8678536249033641e+01 -1.6751837714109570e+00 7.7985219817783218e+00 2.8998073827369808e-01 6.5878000082192011e+02 1.1536771991639398e+01 -2.0510853293072432e+02 1.7464103238717144e-01 -9.6626228588051163e+01 6.4732521300174994e+00 -1.0736535895102861e-01 3.0845583181828260e+01 2.8196778442952564e-01 -2.6759881507842920e-03 1.2360823327675462e+01 -6.4293808796908706e+01 3.7592228302382864e+00 -3.4332363377984620e-03 -8.2778183130471916e-03 5.4254818401823286e+01 -3.6507989917299710e+00 1.1882927045626275e+00 -4.6394600664552854e-01 3.0052484551444650e+01 -2.4752957746268294e+00 9.0409584821667522e+01 8.4131044411151379e-02 2.3247119799285429e+01 4.6627268722295412e+00 -2.1757964195330715e-02 -7.4975357223302126e+00 -8.2662357169283496e-02 -2.3399541634637444e-01 -9.4803338194062235e+01 7.9807152367196977e+01 -1.1152068773662904e-01 -8.1325226465196465e-02 1.3739332263236292e-01 -1.1571846785146045e+02 6.8149707363918424e+00 -1.3963028252765071e+00 -6.6503993945298134e-01 -3.3727444100280991e+02 1.2741157874232158e+01 -1.3186028790660203e+01 1.3180634605760133e-01 5.1551004647277296e+01 -5.9891958926309599e+00 2.3495814150010119e-02 6.6014427224174142e+01 1.2594698332122789e-01 -5.9651268244579114e-02 1.3180940159887541e+02 1.6115319959235785e+02 -2.8991007646945945e+00 2.7499752386574983e-03 5.7676607142411740e-03 -2.4204005689360201e+01 1.6581699355738238e+00 -2.0963184718857519e+00 1.3138055162926321e-02 5.2050823286175728e+01 2.8210786089184694e+00 1.1543701768666506e+02 -5.6681147964809497e-02 1.9982008131500334e+02 4.9014502505087876e-01 -8.3855105913244188e-02 9.2109428779222071e+00 6.5294323632883788e-02 -3.9514038204742974e-02 8.4195503309369087e+01 2.9659144046180882e+02 -2.1935497875975898e+00 1.7357458636411138e-03 -5.6368538977125127e-03 -2.2506080910519813e+01 -4.8748173311469145e-01 8.7568792342699453e-01 2.4437815933197271e-01 5.1859252499416471e+02 2.8625801853386292e+00 -5.1798078912950587e+01 -3.1498304967158219e-02 5.4171096528631097e+01 5.5376544014725368e+00 7.3569360778492410e-02 7.2655885159969330e+01 -1.8268863207833874e-01 6.2412198532911134e-02 -9.6597006011288613e+00 -8.1755943655967712e+01 4.2528023144113831e+00 -1.6994072887541734e-02 2.1487150891704943e-02 3.6858267183764838e+01 3.9079883002195857e+00 -8.0878755022968107e-01 5.4341034767276142e-02 8.3432310397154652e+01 2.8928261096589267e+00 6.1673642702400684e+01 8.9917672838282670e-02 3.6541672346182168e+01 -2.5196782411912864e+00 5.7690655160968163e-02 -8.3410558620467782e+01 3.0001931914184099e-01 -1.5351356868614541e-01 -1.2492625396067160e+02 -6.3096241126954556e+02 -5.2795613524158682e+00 1.0972760852280024e-02 2.9808050924014333e-02 -1.5379591123124555e+01 -2.9060830328037781e+00 1.0039325925981757e-01 4.0014701129172181e-01 -6.2497716268198565e+02 -5.3455285198419915e+00 -1.1941146977292374e+02 2.3157065068139104e-01 7.7732082251866814e+01 -5.5363825284744737e+00 2.4109992450860318e-02 7.1630737233819673e+01 -9.7521103588200903e-02 2.9178508366271672e-02 -1.3015788894393228e+02 5.1176383158878889e+02 -4.7721695883866921e-01 2.0322869547200639e-02 1.6967166745018858e-02 -6.1338536783779283e+01 -7.1077253308467334e+00 3.9385176736176692e+00 -7.4825466149832209e-01 7.0066386492049787e+02 1.3096033283538418e+01 -4.2543442770605907e+01 -5.3748412297596815e-01 4.2780170840720427e+02 8.8957085635047406e+00 6.8582189363269430e-02 5.2465705456683935e+01 2.3766870768696435e-01 -9.3228726724871744e-02 8.4392179685528390e+00 2.9574468444221219e+02 1.3350180459092371e+00 -4.6194192923500153e-03 2.3302588218694187e-02 1.8279398678056168e+01 -1.0223753985527789e+01 -3.1902668210896081e+00 2.7747623953808570e-01 -6.8251547999449440e+02 -4.6290768224464713e+00 2.5119090273279673e+02 2.9849645575557172e-02 2.0768328067613766e+01 1.4553988763032621e+01 9.0119411092795287e-01 -1.2877945407471003e+01 3.6948577225756245e+00 -1.2829830397643058e+00 -3.2164069197918656e+02 -7.2093768892423384e+01 6.9600819934628486e+00 -1.5618124855474858e-01 8.4713854183474435e-02 1.2515321003092509e+02 -2.7898865415698396e+01 -3.2194423337456435e+00 1.8714453995627451e+00 4.2225257405218008e+02 4.8615285011178031e+00 -4.3385920602159061e+01 -5.6982695238988601e-01 1.3000270993212946e+03 -1.9328984432661978e-01 -7.7620370524099890e-04 -3.8642933270487219e+01 3.3123227887983830e-02 -1.1906004696939476e-02 1.9203120300617464e+01 -1.1722508331576138e+02 4.5102352144439077e+00 -5.7279804178961058e-02 3.5045878705432837e-01 -1.2292445137781616e+01 -1.2674907557575352e+00 -3.5100100338968332e-01 -4.3759356133941593e-03 -4.2217742868481059e+02 -1.6750673049104456e+00 -9.4627086042119117e+01 3.7050067215850704e-02 -1.3171334384188974e+01 1.1234310128383740e+02 
      </Row>
      <Row Index="190">
        1.0841126480240632e+01 1.6094992481657755e-01 8.8226411502808332e+01 -8.4392342089358863e-03 -3.2792748113251946e-02 -2.4084846566431224e+01 -2.2298036976903677e+02 -5.5504504820971761e+00 5.6611139653527587e-01 -1.3409456170461453e-01 4.1245982752123382e+01 2.1710145142860711e+00 4.6540937030222267e+00 1.1346923298333422e-01 -5.1371467417106032e+02 2.8364405736792833e+00 1.3076293535530567e+02 1.3218023017543601e-02 4.6885263912845403e+00 -1.7753829436842352e+01 -4.4807699268858414e-03 1.4801233364501968e+02 1.8006874411184981e-02 1.5809076479627038e-02 2.6790166795253754e+00 -3.6975228847935796e+02 -3.2407854762859643e+00 5.2812417367022135e-02 -9.9113227267935144e-03 2.6453093959252328e+01 1.4367052726447582e-01 -3.7354651116474997e+00 7.6270262652542442e-02 -2.4415378009621054e+02 2.2713438672944903e+00 1.3692329394258559e+02 4.8331098532798933e-02 6.7563290054569734e+01 7.5746738785208436e+01 5.1964010966003116e-02 3.8506271278169152e+01 -2.1347193114706897e-02 5.3376331052277237e-03 -6.8620827142149210e+01 -4.7209974915534258e+02 -4.6179935053960435e+00 6.6284559227369755e-04 5.9513061539746559e-03 1.0783870988199487e+02 -1.5581886949948967e+00 -9.7761681012343615e-01 1.8190859047899721e-01 -5.6454505777510349e+02 2.1412813040660694e+00 -1.2027777684666216e+02 7.4875392101603211e-03 1.7760687105823308e+01 4.2914042921940563e+01 3.0060809398946731e-02 2.0592183149419725e+02 -3.0250189062371646e-02 1.2111733219143161e-02 -1.2504592519253492e+00 -9.1969870005734265e+01 -3.4255632637650706e+00 1.1687577126849646e-02 1.8967205111266594e-03 -5.1081606489664409e+01 -3.2461409555980936e-01 8.8557162225333741e-01 -9.5336833189321624e-02 -1.0682791020907462e+02 3.9995720227234415e+00 1.5528978130919859e+02 -3.7508589884964749e-03 -3.6351480967132375e+00 2.9747576760186348e+01 6.3921439332261798e-03 3.9451975382864475e+01 -5.0935334807036270e-02 -3.3006613200882384e-02 1.1807296563027194e+01 1.6725178175605834e+02 2.5230437619902659e+00 1.5737972174838433e-01 -1.8511901378815310e-02 -3.3229344734572805e+01 1.2947248239070177e+00 2.2411411717766896e+00 -6.1511033133501769e-01 1.4910998992761597e+02 3.2980814860202372e+00 6.5689463327638805e+01 1.5055572021992703e-02 -1.0127593491226435e+01 -2.4355957217660034e+01 -2.9045239400602441e-03 3.6284370250999928e+01 9.9879284161943360e-03 -2.1394732425505936e-02 2.8081247399328277e+01 2.8764973150633159e+02 2.5407244265807094e+00 1.6949124745224253e-02 3.6743097734870389e-04 -8.0300628487020731e+00 1.3530230654869229e+00 -1.3612406454631127e+00 2.8616875088846427e-01 2.9226158604025841e+01 6.3197795592714101e-02 -2.1641893045604229e+02 4.1734794067451730e-03 2.7962899077683687e+00 3.6283872878975671e+01 1.8989400162490710e-01 4.4439657862333115e+02 -3.7425722540092465e-02 1.8034722033917205e-02 1.8784238590160385e+01 6.4887435011938214e+02 7.7684215708904958e-01 -9.6263575671571289e-03 -2.7351522266769734e-03 4.1937703155868803e+01 -7.5174664030782878e-02 3.6854269842751819e+00 1.3909854754456319e-01 -2.3411580052971840e+02 3.3912738577200798e+00 -8.4785794268827885e+01 4.0698554937762310e-02 -4.9000121862045489e+00 2.1016490725283802e+01 5.6330027535295812e-02 2.9014048421382904e+02 5.8909392009809380e-05 -4.1521322444168618e-02 1.3296753718634136e+01 -1.3788100159168243e+02 -8.2500824658200145e-01 2.9876680779352682e-02 1.6816019260659232e-03 -4.0619176427600905e+01 1.4718079091835534e+00 -2.2315776225295849e+00 -7.5548618435277604e-02 2.0015675123734400e+02 2.8301448281854391e+00 2.9617634117603302e+01 4.2386943560785539e-02 -5.4740620506927371e+00 -2.8539643801341299e+01 -1.0551384582299761e-02 1.5978020442975685e+02 3.6343410072439901e-02 -2.5011267223889463e-02 -4.5572107987245545e+01 -7.5838427134254016e+02 3.3843855861699694e+00 -5.8930998716067960e-02 -8.8060635660807893e-05 -9.9471925069228746e+00 -6.5641144446722777e-01 -6.7293798005475765e+00 5.7023076769144154e-01 5.3910401370981708e+02 -4.8062721407131903e-01 7.2074319446459413e+01 -5.7433965882864868e-03 1.4570688533131033e+00 -4.8170199170002149e+01 4.1150586148035018e-02 -2.4906912881426979e+02 2.0099144983433764e-02 2.6677801812070356e-02 -3.6725535927914848e+01 4.8105188915668987e+02 3.0391291601943289e+00 -1.0915957577282143e-02 -7.9884540674015625e-03 -1.3717905309129065e+01 2.2032963011733955e+00 -9.9080874254450979e-01 8.7287452429336554e-02 3.7346915248408914e+02 -1.0880784523833427e+00 1.2913341784616932e+02 -7.2490646439291595e-03 8.8957084809662774e+00 1.1929381986877706e+02 -4.1125258729495746e-02 -1.3106518538502158e+02 -4.7238906688562565e-04 3.9704300488531449e-02 3.4781641485635191e+01 3.4865601967539112e+02 1.9837962200981565e+00 -1.4677924971031099e-02 1.2014795361650534e-03 -1.8663704835851968e+02 -3.7628811934393376e+00 -1.8806382904440397e+00 3.5453836518561460e-02 9.6180844619719733e+02 8.1621270042275018e-01 -5.0636077962682549e+01 -5.8838030464325924e-02 -1.0298238606192172e+01 3.1214041728122396e+02 -2.1114932923485558e-01 6.8938602195202535e+01 3.8198487878474496e-01 3.0194971896496128e-02 3.3700313949122062e+01 -7.6108566123141856e+01 2.1435712442135941e+01 -3.3783772365258757e-02 1.2192870443174297e-01 -7.3012111343726860e+02 1.2361124573084609e+01 -1.7208966066571147e+01 5.5596636502301422e+00 -1.7825096922095878e+02 -2.2519879693778002e+01 9.9324835092607543e+01 -4.0607187905686182e-01 -2.7223497968777863e+01 -8.0135947819345930e+00 4.8797689957791254e-03 -1.9419594336083310e+02 -8.8953836920779850e-03 7.7523986455219074e-05 -5.0756483650988464e+00 -2.0241670248149975e+02 -1.4478253795397800e+00 1.4354330656510683e-01 -4.3038273813949930e-02 -5.2756828855032651e+00 -5.5355542365578003e-01 -5.7068622911901912e-01 -4.1134564677973917e-03 -1.8907179342947671e+02 4.2323959389754542e+00 -2.1379549674586997e+01 3.0836271193112226e-03 4.4588975984322587e-01 2.0390089938713231e+02 
      </Row>
      <Row Index="191">
        -8.7575638914079157e-03 1.7794632215961048e-01 1.7847088747657835e-04 -1.9848239206716300e-02 1.6189284014958893e-02 1.4671163497405360e-01 -1.2552083703340031e+00 2.0589769645867229e-02 9.9997348264091471e-02 -2.1270175646756595e-02 -1.2928594181880726e-01 1.6050870523758931e-01 -9.0631489692896139e-03 7.9207303544478691e-02 -1.9395341841591289e+00 2.2898061191881425e-02 9.4597731309477240e-01 2.1029066482306291e-02 -2.3877731017637416e-01 -1.0152187337553187e-03 2.3699622375374929e-02 6.1321690656404826e-01 -5.3590252450508302e-03 2.6693052826248120e-02 2.1276259791920893e-01 -1.3328204464964983e+00 9.0399383880139794e-03 5.0637041713876840e-03 -5.2622808468667515e-03 2.0734557238796469e-02 7.4650111764640315e-02 4.1106640888983748e-02 -7.8300069949030160e-02 -1.1539799833954021e+00 -1.1260547908023000e-02 -9.2602389126841445e-01 -1.4659892969930866e-02 1.2579293942892456e-01 -1.7118133089979892e-02 1.9587766508374571e-02 2.7445314317422742e-01 -7.9942854164087862e-03 2.8883786371117992e-02 -2.9428915368043818e-02 6.7989225423661992e-01 2.1885322436492771e-02 -1.9432268218020354e-03 1.5880426224668120e-03 1.3531243034503859e-01 -2.3548574988217297e-01 -4.5067703877066378e-04 2.7590175213892820e-01 -3.6216079729274497e-01 1.2618314128303609e-02 -3.5583927705738461e-01 -1.1611903699296988e-02 1.0530216351708077e-01 -3.2233653549837982e-02 -1.8252288088707047e-02 6.5187486032664310e-01 9.8161312303570725e-03 8.7458483852551061e-03 -1.0386304949497571e-01 1.3739777527298429e+00 2.4422745967967785e-02 2.3454666280420255e-04 2.3512578276907448e-04 9.4623342283739476e-03 -1.2203901222756031e-01 4.1286518489584978e-03 -8.0038572400399133e-02 1.5602294719210477e+00 -1.1427850876359003e-02 7.0020221028244123e-01 6.8334571132737665e-03 -3.6558597430030204e-02 7.0932340253762050e-03 -4.6015694756331271e-02 2.2923137352336198e-02 5.7237798206628554e-03 8.0951351145951200e-02 -1.7111455710391965e-01 1.3491770847758744e-01 4.9634711746193716e-04 2.4833582099603291e-02 -9.4106454381779336e-03 1.2794618599400565e-02 1.7801381626850343e-01 -1.9420664809786103e-02 -2.0255846955453194e-01 -1.8586219299868389e+00 -5.7578567240852863e-02 -1.7933151504330453e+00 -9.3446342608274335e-03 -2.0438455132534727e-02 2.5672320453963948e-02 -3.7700645946492806e-02 7.8209773928392678e-02 8.1991143703703528e-03 1.1772833813267880e-02 7.4651794713645359e-02 1.5593810838799982e-01 -6.2479922229101703e-03 1.3415553973690209e-03 1.1721426491400067e-03 -4.0844007737177890e-02 1.7671029213579459e-01 -1.2145093939807339e-02 2.6016718292623864e-02 -2.0131823702249676e+00 1.9883527871115803e-02 2.3664177200116683e+00 7.7762247219510527e-03 2.8580657373822760e-02 -1.6571502525067672e-02 1.6666075055824336e-01 8.8090658452392745e-01 4.3398300049428684e-03 8.3527675756300823e-03 -4.8316014848751365e-02 -2.1598222991779039e+00 -2.0495870755032009e-02 2.6207640761577444e-03 -5.7625559969963214e-03 1.0315614227900483e-01 -1.6023785096876964e-03 -2.1778393158029985e-02 5.1672445583591298e-02 -7.2236748077557422e-01 5.2679526607377625e-03 -2.9232737207266837e+00 -1.8817457584994202e-03 9.9802553780733660e-02 -1.9850785320016939e-02 -4.6213979396398486e-02 -3.2447256613522768e-01 -1.2349953818219461e-02 -1.8586842292386052e-02 -1.1587049164427299e-01 1.2520590433850884e+00 2.6720060111074417e-02 2.3637549161019678e-03 1.7508282484294257e-03 4.4609495957047329e-02 2.7422766069869908e-01 7.4227754670914692e-03 1.1303239557662437e-01 1.7482740791274409e+00 -3.5206030170229496e-03 -2.5882083154283464e+00 -2.1216448896052231e-02 1.3495048329787096e-02 1.8018465856414423e-02 1.5336448814548653e-02 -1.2268802080216119e+00 -7.4843803938582157e-04 2.8997851172528715e-02 -2.2218126361372015e-01 2.3777967135692961e+00 -2.1965036350091616e-02 -7.9420796194387393e-03 -4.6098063216512596e-04 6.2575409999453768e-02 -2.0857578833285650e-01 7.4622759723901311e-03 -3.1573127298907266e-02 -2.3423244478181005e-01 -2.0827736860969281e-02 8.2473043193022022e-01 -6.3705406731344727e-03 1.1119839863567904e-02 1.8169474807522956e-02 2.9097038347008386e-02 1.3889907091061104e-01 -2.2410024955512586e-02 -4.3505529712730251e-02 -6.5572822921645013e-02 -1.8851036271917110e+00 6.9802939292714777e-03 -6.9563008811768245e-04 -2.8584135775480135e-03 9.1522618599199745e-02 -4.3865854522834979e-01 -8.9585030423231515e-03 -7.3821556806155542e-02 3.8921209052568884e-01 -3.6195395274035036e-02 8.8242264770633483e-01 -1.0117082720894288e-02 6.8582188873278938e-02 -4.1125258903690565e-02 2.4500402042175792e-01 5.8979471121110416e-01 -9.1222606619298929e-03 -2.6841057012615452e-02 -3.1588860218835180e-01 -4.9062035161442807e-02 -2.2625125825470604e-03 2.9623553037000094e-03 3.5788189478383426e-03 -8.9286419280426799e-02 -8.9131276464639697e-02 -1.5190929104676343e-02 -2.9079281275558516e-01 -2.1366852863028107e-01 -2.1411365773168711e-02 -1.5302775758353602e+00 -4.2277550710617846e-03 -3.5857826878782362e-04 -5.9636488304633417e-02 9.5523225266642720e-01 -3.9001790701178152e-02 -3.4466573374780984e-02 -1.0846597476363384e-01 -1.0948480553747686e+00 -1.0375124960600601e-01 4.1783867038880373e-02 6.5383515323489003e-02 3.6481287043562009e-02 -3.3628009588723984e-01 -1.8399465112415925e-01 -9.8385545645156114e-02 -3.6585975551736127e-01 -1.7346676289755436e+00 -1.6045011099594930e-01 3.9918065101231548e-01 2.7389638583241727e-03 1.7474192037228065e-01 2.2049499820241181e-02 6.2529735994631607e-03 1.4501833171141598e+00 6.9587199680420930e-04 4.1486861730695712e-03 2.2627769697403544e-02 -1.0217932590091428e+00 1.4744763325111506e-02 1.5147332611229469e-02 -7.1810689729991254e-03 -8.3572169702279542e-03 -3.5086876606811757e-02 2.3217055676241216e-03 -7.6267858970050419e-03 -1.1802763485307892e+00 -8.2359928615214073e-03 -1.6713937591119787e-01 -1.3730310676007653e-03 -7.5413817157015117e-03 1.0141790938465884e+00 
      </Row>
      <Row Index="192">
        -4.8270845640465268e+01 -1.1567407929542242e+00 9.0362092046737671e+03 2.8847456705989316e-01 -1.8570563697721809e-03 6.3567116141319275e+02 -8.6465996847152710e+03 7.0406296315079089e+01 -1.8986126021646843e-01 -5.9408398644882254e-01 -3.1730536203086376e+02 -9.8086765050888062e+01 -5.7291032969951630e+00 -2.1356562487781048e+00 4.1170259151458740e+03 -1.1652011677622795e+02 2.0444899574279785e+04 1.7932766419835389e-01 1.3803073379397392e+02 6.0071412265300751e+01 -2.2257418464869261e-01 4.8993092666864395e+03 -1.4530791970901191e-01 -2.0713527256157249e-01 1.4570001497268677e+03 -4.8534434139877558e+03 6.2309875011444092e+01 -6.6502879140898585e-02 -1.2352264087530784e-01 -3.6828372972807847e+02 -5.4234435856342316e+01 -9.4134836122393608e+00 -1.1709684832021594e+00 -4.3977308323383331e+03 -1.6750135064125061e+01 -1.9752966403007507e+04 1.1907710169907659e+00 2.0423995672410238e+03 -2.2664886023104191e+02 -2.7038993826135993e-01 1.1404913703600410e+04 -1.9655195763334632e-02 1.6549368062987924e-01 -8.4058527207374573e+02 -1.8707204433441162e+04 -1.0488324689446017e+02 1.0614401759812608e-01 -1.5652045755996369e-01 6.7403399114310741e+02 8.4236865639686584e+00 -9.7392890676856041e+00 -3.9377542212605476e-02 1.0223753579437733e+04 6.9332478940486908e+00 8.4806021151542664e+03 1.2852273336611688e+00 2.4914462175965309e+02 -9.1760294515639544e+01 4.9625446624122560e-01 2.0319763293266296e+04 4.5704394235508516e-01 -6.5147677207642118e-01 4.8861669015884399e+02 5.0808056988716125e+03 1.3321454353630543e+02 -1.7129013148223748e-01 8.6753439842141233e-02 -3.5537432099878788e+02 -1.1779195100069046e+01 -5.5066886907443404e+00 3.0660409934353083e-01 6.7027421994209290e+03 -1.3213812388596125e+02 -1.1554414020776749e+03 2.0986172789707780e-01 -1.1677497601509094e+02 -8.8016158314421773e+01 3.2421842962503433e-01 8.8606168050765991e+03 2.9750839644111693e-01 1.6468510439153761e-01 -1.2579178802669048e+02 6.9963978040218353e+03 -9.0103249773383141e+00 -4.7889402543660253e-02 -1.6224919795058668e-01 4.8705016049742699e+02 -1.5675659418106079e+01 1.8600170120596886e+01 -2.3307985295541584e+00 -1.0494171100229025e+04 -3.0246103942394257e+01 -9.0395344856977463e+03 4.4401506893336773e-02 -3.1994952344894409e+02 6.7925343476235867e+01 1.4779892965452746e-01 -1.0162592572212219e+04 7.2842708090320230e-02 -1.3398262648843229e-01 1.7658051927685738e+03 2.7333279638662934e+03 2.4279251533560455e+01 -1.7457037919666618e-01 -3.9496674144174904e-02 -6.3345957040786743e+01 -7.2319864630699158e+01 5.8838861748576164e+01 -2.0257115450222045e+00 -1.4267678359985352e+04 1.8293301171064377e+02 -3.9475000701904297e+04 -1.0801078346557915e+00 5.2103782653808594e+02 -1.3430316260550171e+02 -1.1806932023027912e+00 4.7549028119266033e+04 1.2150515275425278e-01 -3.2697369361994788e-01 1.0467286007404327e+03 -1.4525757571458817e+03 -7.6010498749936232e+01 2.7243205426202621e-02 4.3467078503454104e-03 1.4801736114453524e+02 -7.5330092012882233e+00 6.3136530392803252e+00 1.9046376198530197e+00 -3.7100147466659546e+03 -7.2088423070032150e+01 1.2063413412332535e+04 9.4356491521466523e-02 3.2299546048045158e+01 -4.4333052112255245e+01 7.3493319749832153e-01 5.0442359191894531e+04 -1.7790314857847989e-01 3.4067536029033363e-01 -1.3778567032217979e+03 1.1037110961914062e+04 4.3999720141291618e+01 1.7278390075080097e-01 -1.6437053205117991e-01 -5.3848557651042938e+02 -1.0091144887544215e+02 -5.3385375794023275e+00 1.6918734051287174e+00 1.7580679070353508e+03 5.6415400207042694e+01 -7.6262588882446289e+02 6.9212969081854681e-01 -7.9321558713912964e+01 1.6528740511555225e+02 4.5630453305784613e-01 1.1475894043600559e+05 1.5815197235012481e+00 -6.8343297602774111e-01 -1.9075966140329838e+03 3.7252552838772535e+04 -1.0330179668168421e+02 -2.5444642366556941e-01 -7.5973653200500132e-02 6.0332778269983828e+02 4.2347466685397166e+01 -5.8342759218183346e+01 2.8420353876717854e+00 -1.1452195064663887e+04 -2.7877581379970070e+02 6.1945083302259445e+03 8.8397565396371647e-01 2.8786789384484291e+02 7.0614999951445384e+01 -1.2223759491462260e-02 -8.3997002667263150e+04 -3.8055780162230457e-01 -7.6453120802761987e-01 -8.3988752350085861e+02 8.2319037973880768e+03 -1.8072106920796838e+01 -2.8194976053055143e-01 -5.6586755854368676e-02 7.2083618178708548e+02 1.5909693729877472e+02 4.4453199652091158e+01 -2.6309642381966114e+00 1.0431617067575455e+04 3.0882256105542183e-02 -2.4019844186306000e+02 -3.1335016587399878e-01 5.2465728715062141e+01 -1.3106517284736037e+02 5.8979473981889896e-01 9.2200586950338923e+05 4.6887080834130757e-01 -5.0597190685044446e-01 2.3350217102468014e+02 -5.1048884609935121e+03 1.0279003860801458e+02 3.4694247697529969e-02 5.1981943040036643e-02 8.3126728588715196e+01 4.6448878931253404e+01 -5.8917670397087932e+01 -8.1889850002868636e-01 -6.8061054811300610e+03 -3.7330827205136575e+02 2.6136603630833224e+03 -1.4269196580385124e-01 2.8623891657590866e+02 -2.4449680244122658e+02 6.3076196827462185e+00 2.4638586007348618e+04 1.2917893318544737e+01 -9.9547471090210262e+00 -2.0656916362557522e+03 -1.8137905064044780e+03 4.5445334012394721e+02 -3.1486672667753171e+00 -1.2407689489396789e-01 3.6986085756077882e+03 -2.6970132135831591e+01 -8.8680106225322788e+01 1.0006081775584221e+01 -6.5980648550277365e+03 -1.0386532732522817e+03 -1.5835244815948381e+03 1.1673564174022175e+00 -1.0025679614897626e+03 6.0881030441727489e+01 -5.7616593095967138e-02 -1.5943012549235483e+05 1.9707864217343740e-01 -6.3329639724543085e-03 2.4213715047600522e+02 3.9889807032166013e+04 2.4508648199583533e+01 -7.4777776651899330e-02 -3.8607935642258484e-01 1.5236968731608880e+02 7.7151744794100523e+00 -3.8527519330382347e+00 1.3101478231824039e-02 -9.8148729846198785e+03 -1.4461626607497999e+02 -7.2064267712923393e+03 6.3953593251331320e-02 -9.4721976093527019e+01 -3.9913983206231736e+04 
      </Row>
      <Row Index="193">
        2.0243440885381325e-03 1.6159512179275470e-02 -3.2770135911414400e-01 -1.2478821218615543e-02 1.7952642264613017e-02 -3.3051899830752518e-02 -3.3292352405260317e-01 3.3378075146594632e-02 -1.9660623253167135e-02 6.5252531332418151e-03 1.8978581064357058e-01 1.0614929589064559e-01 -8.1138952573382994e-03 -6.9912236460581312e-02 1.4039399397006491e-01 9.0595184505218640e-02 2.9825821985723451e+00 1.2575054712016254e-03 2.0927251477587561e-01 -1.6645543946651742e-03 2.8638942802743372e-03 6.8941253677621717e-01 -5.4164589095613280e-03 -5.7367849985530128e-03 -3.6337284384353552e-01 -1.0665844071884294e+00 1.9399556220378145e-02 -1.0386345774513472e-03 2.5020593593714224e-03 -2.1027523844652762e-01 2.4218644084612606e-03 1.3465530254734404e-02 2.0837506708133446e-03 1.5423568584083114e+00 5.3106373002265173e-02 2.7950897938208072e+00 6.2018002598733801e-03 3.0384872431622689e-01 -2.5953120392955498e-02 -1.2232709217503412e-03 -4.4198287209379217e-01 -2.3603524055964442e-02 -2.3170746654013641e-02 3.6438984881169745e-01 6.3073949390673079e-01 -6.1967940544320754e-03 6.4936875789900483e-05 -4.6226420104922283e-04 -3.8846879805987555e-02 2.9165339310566196e-02 5.7248683092439023e-03 4.6818244678370036e-02 1.3602212197492918e+00 9.8048228192055831e-03 -1.4784233835162013e+00 7.3949457830373433e-03 -6.5522066379344324e-02 -3.8707536074298332e-03 2.5327669504235928e-03 -4.8182284786162199e-01 8.5320151512665809e-02 -5.9843411788109702e-03 7.9391645995201543e-03 1.3499584196324577e-01 4.1361507653618901e-02 4.0729762909497147e-04 9.0652299214522003e-04 1.9040736469128205e-01 7.0043285251813359e-02 1.7042328775261240e-02 3.7126585608019624e-02 -3.8773898142244434e-01 3.3016058823509553e-02 -2.4398395504613291e+00 -1.4053722141817104e-02 6.4315750296373153e-04 -1.4227239271519920e-02 -4.1719642804238788e-03 1.6482652210106608e-01 9.3827947534244061e-03 -3.1531020684250954e-02 -1.1289509101374051e-01 1.5456047265615780e-01 -4.3036748775762135e-03 -4.3095989631227738e-03 8.6495361479466126e-04 -1.0422232266967058e-01 -7.5187171314610168e-02 -2.5248138824281341e-02 2.7799964468712801e-02 6.3921024595583731e-01 -5.2706031101479311e-03 1.7295091398636941e+00 3.7976256235090489e-03 -5.1735025364905596e-02 8.9921919674225137e-03 -3.9953455688239714e-03 1.2775817915098742e-01 5.4468148111048720e-03 -5.8971129676237410e-03 2.0018067427599817e-01 4.8312671670339569e-01 -9.2172750811414517e-05 -2.5904670477139291e-04 1.1178461114003113e-04 -1.9280357663956238e-01 8.1408265496065724e-03 -1.1939343161316174e-02 3.9757112168686604e-02 -1.5194117058708798e+00 -5.0191636827548791e-02 -1.1331904890830629e+00 6.6928431834298863e-03 1.1455673006275902e-01 -1.3444634315021631e-02 1.3604907244557651e-02 7.1498980220826525e-01 1.6117780573292606e-02 1.6689767772355424e-03 1.7324521720183839e-02 -8.7614009574281226e-01 -3.7235204375027919e-03 -2.0888066782770442e-04 4.0597927083679819e-04 5.2815378540458369e-02 1.6771990285860738e-02 -1.8716956404745133e-02 2.2156600741155330e-02 3.4984217285527848e+00 4.8949375948183160e-02 -8.8387140680561060e-01 -1.7268093608215906e-03 1.0987980164345856e-01 -6.5867340775014327e-03 -2.6327265678531830e-03 5.0271277967840433e-01 -6.7333823337909493e-02 4.7928684415765588e-03 -8.4745694264256599e-02 2.2640457432717085e+00 9.0717246335998425e-03 2.0984138225177418e-04 6.8079527246708849e-04 7.0804880323521502e-02 8.5119572034102475e-03 -1.3572695694605841e-02 -3.0744873617095436e-02 7.0397709767166816e-01 8.0922226336042513e-02 1.8570468606776558e+00 1.4169662968161856e-02 2.5540001774061238e-02 2.0269676844534956e-02 -1.6959260392668263e-03 -2.7227734061307274e-01 5.1113110305782694e-03 -1.2507586117406350e-02 8.8625067588282036e-02 7.7132746642200800e-01 -5.3460281956394740e-02 8.8408217950472381e-04 -6.9520239220121228e-04 -1.0012200508074898e-01 8.3844723691637313e-03 3.5917262030935149e-02 4.4932692369841654e-02 -2.0172659662384831e+00 3.1154305048612940e-02 -2.3131793552092859e+00 3.1022748764645280e-03 1.5206679749553587e-02 1.6359584935224047e-02 -3.7363330492115043e-03 7.8897185929918123e-02 2.9904380733634134e-02 2.8115509234888147e-02 -7.7805956572142065e-02 -7.9139176784838128e-01 -7.8412876691591471e-03 1.1635695153474623e-03 3.9415128055355630e-03 -1.4745352434638903e-01 1.3963380491475164e-02 3.5063729836054547e-05 -1.8777199182478732e-01 4.7579653758020868e-01 1.3823720980235521e-01 -1.8929889079481654e-01 -2.3791993817846802e-02 2.3766870728604772e-01 -4.7238923997383608e-04 -9.1222606622336500e-03 4.6887079675161658e-01 2.4379826371355584e-01 -1.1082970362023641e-02 -2.8169639260704571e-01 4.6571328289700364e-01 -1.7047137384906819e-02 -2.7759039063092990e-03 -1.3408092150984229e-02 1.7186998380395835e-02 2.8828281163187253e-02 5.5781500798161687e-02 -8.7121600894346174e-02 -2.8012159735878441e+00 2.7994450994554221e-02 4.5703483236608964e+00 -4.6139491419714018e-02 -5.7886145761585794e-02 2.0602759603585596e-02 -6.0499320070687229e-02 -1.4790409574451147e-01 8.8036566519327708e-01 2.3719492014911865e-03 -1.0843477834359625e+00 -1.2216469929323459e-01 -1.1878896497956948e-01 -2.1673547102389133e-02 -3.8245273953100810e-02 1.5069669108327233e-01 3.5860141949510371e-01 2.3873276035319657e-01 -5.2309994057842191e-01 1.7440652042895479e+00 2.0023232030929794e-01 -8.8093245560703304e-01 -1.9293893798622003e-01 1.9264970397330217e-03 -7.6606226564308599e-03 5.6158869427977843e-04 1.2693632357471287e+00 4.2646670912415141e-03 -1.0162250026283515e-03 2.5458011962572691e-02 -7.4216079334175356e-01 2.8784768725636213e-02 -2.6237030328080113e-03 6.1187647331304960e-03 -4.4581195394519602e-02 7.0235245016121439e-03 5.6734699088565321e-03 -8.3506147645812415e-04 -3.7284908438157771e-01 1.5815892589928104e-02 -1.0622413851269386e+00 -6.8202713557161013e-06 -9.6379090172145077e-03 7.0892344127445084e-01 
      </Row>
      <Row Index="194">
        1.7009220357340205e-02 1.8197406107578784e-01 4.4319723389344290e-01 -8.2923534999856940e-04 -4.0064535525322409e-02 1.7591212866500427e-01 3.4234539041062817e-01 -1.2425828987024268e-02 6.7543796434523268e-02 -2.4710532897092019e-02 2.5312682723051694e-01 2.9313929366253433e-02 1.5936042015709972e-02 -4.5785901117739058e-02 7.8874976803490426e-02 -4.4940093144759885e-02 -9.6009596990188584e-01 1.7341453747306446e-02 -5.9601130896226096e-02 6.0454557237790141e-03 2.0921381085223345e-02 -6.6308884055615636e-01 -4.3126966910858044e-03 3.6332705534622534e-02 4.6107852243585512e-01 6.8306434938585880e-01 -2.2027369674106012e-02 -6.9669967151320122e-04 -3.9480114026382296e-03 1.6768104748742729e-01 -2.8300132527874666e-02 -2.1866371763394454e-02 -1.5476656774239927e-02 5.8354123595199781e-01 4.5305739350624208e-02 -9.6588104432885302e-01 -3.0833114256076044e-02 -4.6891515437122777e-02 -2.9929489222695338e-03 1.2626747416272011e-02 1.6865567518918922e-01 5.7238326890356461e-03 1.2052654790593920e-02 -1.5238299589327653e-01 6.2842409461154602e-01 3.4667328485522120e-02 -1.0224487666521398e-04 1.2616594693821703e-03 9.8554361010428693e-02 -1.6686231404491991e-01 -5.3687229124761870e-02 2.3704472307401403e-01 3.9660846258084348e-01 -3.2871386039687422e-02 7.5782649456232321e-01 -2.5667537314770783e-02 -9.8381372106814524e-02 2.5158393037031601e-02 -1.3078389524215694e-02 -3.3851707819849253e-01 7.4617555561999893e-03 -2.7067016099278640e-03 -3.4258712377777556e-02 2.7010104461442097e-01 -2.6443580468367145e-02 1.6144450910293706e-04 -4.5094287064162408e-04 2.8256107600327596e-02 -1.7718892520861118e-02 8.0449946566716335e-03 -9.6740693730211547e-02 4.4914982956106542e-01 -1.9105197899456527e-02 -9.0389467012573732e-01 4.3920820834486562e-03 5.5473134420935821e-03 1.6629756833992815e-02 -2.3812313992587875e-02 -1.1441048501001205e-01 9.6879479520382006e-03 1.1229830405155594e-01 2.1984813220399246e-01 -1.4487418282078579e-01 1.1168534638272831e-04 1.4672618011310590e-02 -6.4378242535763075e-03 2.0844639164624823e-01 5.5851457080279943e-02 3.6925474252029744e-02 -1.5128490208864065e-01 1.0636124208358524e+00 9.8800263370321773e-02 -1.2924528208359334e+00 -2.8391568429348979e-02 -1.0338005071389489e-02 -2.5132715681934314e-02 -3.1546109702483172e-02 -2.7328968045185320e-01 9.3385567638399891e-03 1.5509481401821290e-02 4.6962941584752116e-02 -1.8447391511426758e-01 -2.0007165637821345e-02 1.6953719422425628e-03 5.6319725641351681e-05 -1.8425689169089310e-01 3.3113498435341171e-02 1.0106320129239066e-02 9.4622633194518357e-02 -4.7475378779927269e-01 -4.2196594661163545e-03 -2.2588285530800931e+00 2.9532371676097569e-03 5.3651714893931057e-02 4.6223675632859340e-03 1.5039228416496009e-01 -2.6886161869242642e-01 1.4219408748519236e-03 6.6593665255476608e-03 6.2947227711083542e-01 -1.9350212393592301e+00 3.6413750467781725e-02 -3.1424778210138726e-03 -7.1828474317381374e-04 1.5109450689860182e-01 -7.5451067534459071e-02 -1.0226330269816231e-02 -3.1415312233846748e-02 1.3163625909364782e+00 -2.4377838311650635e-02 1.9621020655577013e+00 -5.1423418247269481e-03 -1.0948436269423212e-01 6.5491784607445425e-03 -4.1853947636226962e-02 1.5873502455651760e+00 -9.8687985750158802e-03 -6.0493126065637171e-03 1.5104048333569153e-01 1.3083699611015618e+00 -1.4393783051673381e-02 3.8839049441392604e-03 -3.6273019830984632e-04 5.0990130755053542e-02 6.6862522695601001e-02 -2.4952103374261014e-02 1.1597962149625118e-01 2.4163183801192645e-01 -2.0279476515497663e-02 1.6894630883471109e+00 -2.4915355480559676e-02 -4.8549065711995354e-02 -1.0857319316173175e-02 1.8891338215678566e-03 -5.6411398297859705e-01 -4.5636642852511788e-04 5.7181571501434603e-02 -3.3539909456271744e-01 5.3600054721391643e-01 1.8047318981285976e-02 -4.1473274377066133e-03 -4.0645849917754408e-04 -1.3069150065075519e-01 -3.6058924663858960e-02 -5.8741704058988375e-02 3.3828708373958349e-02 -1.0529804452307872e+00 1.3439720578638514e-03 -1.2480569206745713e+00 -1.7089714149449153e-02 1.5410209035644584e-01 -1.7069021030856946e-02 1.4218743038544979e-02 -4.6960331167633740e-01 -1.4478657810636066e-02 -8.8176918431332130e-02 -1.4845677260463574e-01 3.3794524632412504e-01 1.4761955918787761e-02 -2.0476302928020829e-03 -2.8064639389202561e-03 -1.1476478664545198e-01 -1.9481474166803991e-01 2.5573399086133985e-03 -2.0541563900840032e-01 -5.6990275935913814e-01 -1.6946976842262984e-02 -2.8998600477461878e-01 -1.2328142531246478e-02 -9.3228727141195122e-02 3.9704300217010768e-02 -2.6841057013254677e-02 -5.0597190042253715e-01 -1.1082970362270128e-02 2.6926268764148309e-01 1.1588824486352678e-03 2.8283974383313293e-01 -3.5338189979597701e-02 5.8227812876623410e-03 5.8101578630642553e-03 -2.8296669242402572e-01 1.0343180382853490e-01 2.2921647639350340e-02 -4.4331029340890521e-01 -5.6902555518797726e-01 4.6649700495308366e-02 1.4485022128748191e+00 1.0521831959993989e-03 2.4208282845575013e-01 5.9498074930057321e-02 -1.2673371187879748e-01 2.3411989325552618e-01 -3.3523455555320984e-02 9.5803576630043774e-01 -8.9073102946133353e-01 -2.3087701625376411e-01 -1.0812909622235622e-01 6.8658431951198431e-02 3.4589923086594365e-02 -1.5728651925978880e+00 3.6180605312810243e-01 7.8709958107475053e-02 -7.2159572699813657e-01 1.0438235707991339e+00 1.4099962006081768e-01 -6.8488037993546413e-02 -2.9643780012549470e-02 5.0904829782759187e-01 -2.4350264937623933e-02 6.8754367804085281e-03 -4.4705745831464938e-01 1.2575853963636696e-05 4.4382914332608270e-03 1.0544615200137386e-02 -7.2674101965268612e-01 -7.5413190899743156e-03 7.4681917039312040e-03 -6.9846743725439321e-03 -3.1679006399992993e-02 -5.5306752918085067e-03 -7.4873981353675845e-03 -1.0740002036678757e-02 -1.6009779558622483e-02 -1.5145075796272334e-03 -2.8942025582735198e-01 -5.4518079346013507e-03 6.7659249967633173e-04 7.4945990351795055e-01 
      </Row>
      <Row Index="195">
        -5.0156120747300292e+00 3.8416901365496869e-01 -3.7429215646907687e+02 -2.2578034918751655e-01 1.3543899262930381e-01 -1.0137971573695540e+02 -1.8506743870303035e+03 -8.5851714079661861e+01 -7.8798393960201984e-01 2.3190919680678235e-01 -2.7717656047875062e+02 -8.8119737283326685e+01 1.3369253590470180e+01 -5.0707392674667062e-01 6.4451046176254749e+00 -6.4540863450034522e+01 -1.5522022227942944e+03 -1.0961852923173865e-01 -6.1126378815039061e+01 6.9032066259533167e+00 2.5583878901670687e-02 -8.2309540132060647e+02 1.9228566130641411e-01 -3.6308167838706140e-01 4.9192473743855953e+02 -2.5867458453798899e+03 8.7165745720267296e-01 -9.0011302833772788e-02 -1.6270486297344178e-02 -2.4823646095961612e+02 -5.3268214276060462e+01 -3.0763479491695762e+01 8.4996671103544941e-01 -2.9470137437619269e+02 -8.5082053148653358e+00 -4.4790873020887375e+01 2.1292978247765859e-01 -2.7851259432295274e+02 1.4549804506241344e+01 -5.4810343768622261e-02 9.2371997854636811e+02 2.4672949870364391e-02 -3.1312308366796060e-01 -1.6874368398329243e+03 -1.5958706893324852e+03 1.9544808205391746e+00 -6.6950779232683999e-03 3.9815006426124455e-02 -5.6888409148307983e+02 6.4063313473714516e+01 -3.3077279901423026e+01 -1.0101080894655752e+00 5.2193909929483198e+01 -6.1731677190051414e+01 4.4621726811304688e+03 4.7240301138481300e-01 1.4091414281795733e+02 -1.4036309167830041e+01 6.4561154810235166e-02 1.5848923705872148e+03 4.8151441265417816e-02 5.0550937361123260e-02 8.0338111374340951e+02 1.0137813468538225e+03 5.3479200582311023e+01 8.8233211132376255e-02 1.3932490087597671e-02 -1.3869780425477074e+02 1.2007545657339506e+02 -6.2207799259631429e+00 -4.2804933716524829e-01 9.6824731118790805e+02 -3.1264702095681059e+01 -1.7088900112546980e+01 2.0038780352479080e-01 5.1202421949361451e+01 -2.3312375521651120e+01 -1.5911671622689028e-01 -1.0320574149489403e+02 -1.9626903942207719e-01 -7.9508818126066672e-01 -1.5012204243169981e+02 9.1788826159760356e+02 -2.6914022220196784e+01 -1.6572688790120083e-01 1.0535837589952735e-01 3.9363881267965189e+02 -6.0998748732730746e+01 3.4422604699677322e+01 -3.6483546873751038e-01 -6.2120302486559376e+02 -3.9541570232016966e+01 6.6263426600419916e+02 -1.1563066877988604e-01 1.6904369516111910e+02 1.9122757356992224e+01 -4.8870027056636900e-02 1.0702704410254955e+02 9.7682575737962907e-02 -1.5338141890879342e-01 -1.8914324404939543e+02 9.0552684062087792e+02 -2.4878265882653068e+00 2.0896969759860440e-02 -2.6911977938425480e-02 5.9764497810602188e+02 -9.0401235568569973e+01 1.7609869443316711e+01 6.8559476087375515e-01 2.9671893477439880e+01 7.3640601750870701e+01 1.5750935730040073e+03 -8.6476360725282575e-01 -3.3796876203268766e+00 -1.3101841328170849e+01 4.3414986628295082e-01 7.6724290538334753e+02 4.5317749261357676e-02 3.9435884962813361e-02 7.2263215140672401e+01 1.4314552303878590e+03 1.3440852033211513e+01 1.7357509336818566e-02 -9.7016679719530430e-03 1.4292525817261776e+01 1.9811842470080592e+01 -6.5377544778184529e+00 -7.1468571190052899e-02 2.9234132624417543e+02 -2.6355873909034926e+01 -1.5327358999201097e+03 5.0349144166602855e-02 9.0691398203063727e+01 -9.8677275225272751e+00 8.1586128050912521e-01 1.3726376115083694e+03 1.4513359683746785e-01 4.0104134863213403e-02 -6.8937068982282653e+01 -4.7937827658653259e+02 -8.4220132348127663e-01 6.2083015586949841e-02 8.9629337459960823e-02 -1.0103580202173907e+03 -1.0270643789177120e+02 4.7877156845133868e+00 8.2169484274345450e-01 4.9037462468841113e+02 2.7979001363739371e+01 -1.3706111583858728e+03 -2.3301230721759225e-01 -2.6318742420524359e+01 3.3420256166369654e+01 -1.7821825170744887e-01 -2.3114136708853766e+03 -8.3409408355939263e-01 6.4922073290101801e-03 2.8572215396451065e+02 -6.6708870776090771e+02 1.0040041664675482e+02 -7.2340175745966795e-02 1.2025170549788904e-01 7.6739815375333274e+02 2.0101141808032844e+02 -2.3157701309067306e+01 -2.9338847238060453e+00 -7.1862354471767321e+02 -5.1161963725940950e+01 -1.7776204264014959e+03 1.0412322658011419e+00 -1.5089662097103428e+02 2.1358734521147674e+01 1.3755398557015042e-01 -2.8893647045496618e+02 -2.3905488191431512e-02 3.2743531422477190e-01 -1.8372496691860874e+02 4.1154719412908889e+02 -5.0349714583503577e+01 -6.3504930551061989e-02 4.1202400494171343e-03 3.5573237972673564e+02 1.8436429379928450e+02 2.6531678429273455e+00 1.9641438254939203e+00 4.1029558091075160e+02 -5.8023692986687820e+01 -2.5457390832668170e+03 -6.2934029788141288e-01 8.4392180981812999e+00 3.4781641892761400e+01 -3.1588859985140516e-01 2.3350207391323056e+02 -2.8169639090879173e-01 1.1588842723995185e-03 4.3296486939722672e+03 6.7821545622279154e+02 1.5624543037614785e+02 -9.9530150125926031e-04 1.5868549409655149e-02 1.9381680699981662e+03 1.2525735311086800e+02 1.4407993073982652e+00 6.7640557692611303e-01 -4.0215863766230177e+02 -4.2921967737728210e+01 1.1240919773431779e+02 1.1887341297600300e+00 3.1477138306945562e+00 2.1672328472149360e+02 -2.3921199943321678e+00 3.0776115162695055e+02 -7.1500274134822543e+00 1.5569359854026246e+00 1.4619233788535126e+04 -1.2056144843380116e+02 5.2964892487324414e+02 -1.3773266014658976e+00 6.6367111918664712e-01 7.4734970517933580e+03 1.2156713043755135e+03 4.4973839553366588e+01 -1.5796403347078467e+01 -1.2152734546807915e+03 -1.0116576907969210e+02 3.5079110987932256e+02 8.2179529146497501e+00 3.0851678390076495e+02 9.9783583320459002e+00 5.0202506341088318e-03 -1.1087341005019534e+03 -4.3814008198864940e-02 -3.5411176872869987e-02 -6.0715691932785660e+01 -2.1129860885984269e+02 -9.1121827944731763e+01 -2.7415892056365010e-01 4.1014679803194225e-02 8.1892504672438236e+00 5.9672886812695651e+00 2.2394848602125421e+00 1.8899766647197086e-02 -9.3981957254167537e+02 -5.0214057325497549e+01 -6.1183714959853205e+01 1.9100261481532033e-01 1.0543249195733324e+01 3.0218580784275616e+02 
      </Row>
      <Row Index="196">
        -1.7039940161572304e+01 2.2694132052129135e+00 1.4169176483154297e+02 -1.9827589114429429e+00 -2.2409391071414575e-01 1.8211266660690308e+03 4.0065865867614746e+04 1.8579266278981231e+02 2.3372861708104491e+00 2.0118204001337290e+00 5.0825790672302246e+03 2.3307125425338745e+02 -3.0694684982299805e+00 3.7194392587989569e+00 4.1802367181777954e+03 -1.4626823127269745e+01 -8.3876154937744141e+03 2.1094823088496923e+00 -4.4302962422370911e+01 -9.3263692259788513e+00 2.1920738089829683e-01 -4.1613564386367798e+03 2.2371521103195846e-01 -3.0028463806957006e-02 1.2720605087280273e+03 5.2548522000193596e+04 3.5278756141662598e+01 4.0900576859712601e-02 2.5870489620137960e-01 8.9327240142039955e+02 7.9122504472732544e+01 4.4389145195484161e+01 2.2767291292548180e+00 8.1280675578117371e+03 -1.0107750284671783e+02 -5.5787544507980347e+03 -2.7965431204065681e+00 -3.3298212447294500e+03 3.1711598563194275e+02 5.5310886539518833e-01 1.6733781270091422e+03 -4.6915074065327644e-01 -1.7193506751209497e-01 -1.2009640121459961e+03 8.9078890987396240e+04 3.4702811408322304e+01 -6.6122552088927478e-02 3.0971856863470748e-01 -2.1128813778162003e+03 -2.3739885687828064e+02 1.3900913298130035e+01 2.1634097360074520e+00 -3.0745236779451370e+03 -7.4500083982944489e+01 1.5147772550582886e+03 -1.8930946104228497e+00 -1.4597037342786789e+03 1.0369130815565586e+02 1.5085296658799052e-01 -9.3501085519790649e+03 1.2581169391050935e+00 6.9346885990671581e-01 -1.8129385423660278e+03 -1.7401867285251617e+04 8.1246924042701721e+01 1.4880071333027445e-01 7.9009662498719990e-02 3.5152980880737305e+03 -2.4450824058055878e+02 2.4004931479692459e+01 3.3488065865822136e-01 3.3715286169052124e+03 -1.8366218679957092e+02 6.9269877958297729e+02 1.6137227546423674e+00 2.2653912875056267e+02 6.4242713138461113e+01 -1.3857262998353690e+00 -1.9188382720947266e+02 -4.6796181797981262e-01 -6.8145905144046992e-01 -6.6902219563722610e+02 -1.9344915331840515e+04 -5.3903851501643658e+01 5.4513609316200018e-01 6.9047574646538123e-01 -2.2384253302514553e+03 2.5373450613021851e+02 -1.3836485624313354e+01 9.0647966973483562e-01 -2.4822530262470245e+03 -6.4754811167716980e+01 2.6798056185245514e+03 -9.5921033108606935e-01 5.1770660305023193e+02 -4.4583839878439903e+01 -1.1567237408598885e+00 -4.2419996719360352e+03 2.5051067583262920e-02 5.3290323121473193e-01 1.0861816875338554e+03 -3.3743720367878675e+04 -9.6784829519689083e+01 3.3808711962774396e-01 1.9589740014635026e-01 -2.6664106464385986e+03 3.3382605278491974e+02 -1.0129102128744125e+02 -3.2164270034991205e+00 1.9041460922241211e+04 5.3684713542461395e+00 2.9269132270812988e+03 3.7436682945117354e+00 -1.7394588375091553e+02 1.2303371401131153e+02 2.1824419731274247e+00 -1.9494640693217516e+04 -2.5049397419206798e-01 1.4044298438820988e+00 4.1014824922084808e+03 7.7243751253843307e+04 7.3727063154103234e+01 2.0319820367876673e-01 -2.0537959455396049e-02 1.3520937273204327e+03 1.0496912896633148e+00 -1.0030069333035499e+02 9.8496381193399429e-01 8.6851352767944336e+03 -3.4480538098141551e+01 2.6001469137072563e+03 3.5525141109246761e-01 6.8722951471805573e+01 5.4122749028727412e+01 -9.1764106228947639e-01 -1.3020790527343750e+04 -4.0412202605511993e-01 -4.6403461135923862e-01 2.2851990818977356e+01 -2.2643691650390625e+04 1.5577745866775513e+02 -2.6539174700155854e-01 -7.6907691618544050e-04 3.3910009288787842e+02 3.9793580786511302e+02 -3.4588720444589853e+00 -3.4180040284991264e+00 1.3866519242525101e+03 -1.8005576777458191e+02 4.7632798156738281e+03 -3.4416851944697555e+00 3.6347623348236084e+01 -1.1080081375315785e+02 -4.7081547620473430e-01 1.2743003563880920e+04 -1.5241414595584502e+00 2.5390701292301032e+00 -9.8267145797610283e+02 1.1433991691219807e+05 -2.8786302323057316e+02 3.2944271924792090e-01 5.7501898536484097e-01 -3.1398936162479222e+03 -1.1805706475422903e+02 7.3896742762532085e+01 -7.8397271980065852e-02 -4.1684391903877258e+02 -7.6541659525129944e+01 -8.9497262859344482e+02 3.2874067319062306e+00 -7.6352747660875320e+02 -6.4164653462899594e+01 2.5711315462831408e-01 -1.0776163384318352e+02 -1.0104516432307946e+00 1.5438350373296998e+00 -2.0983245559871193e+03 -1.5770463059532642e+05 1.4691913078937660e+01 2.5650609913282096e-01 2.7452052594162524e-01 -3.3267509854679383e+03 -5.5068198955804110e+02 -3.5638074542662359e+01 1.0185228791087866e+00 -8.9574229218959808e+03 8.6076325774192810e+00 -4.0440281174182892e+03 1.4862985612126067e-01 2.9574474555253983e+02 3.4865604471787810e+02 -4.9062007921747863e-02 -5.1048862158656120e+03 4.6571327489800751e-01 2.8283968550385907e-01 6.7821572357416153e+02 8.6798846287062694e+05 -5.2404741138219833e+01 -1.0066830043375659e-01 7.4220265064968219e-03 1.0671504272595048e+03 -4.8207795044208535e+02 5.2408838361501694e+01 7.1984908773505731e+00 -8.7817237752705933e+02 1.7315734907827880e+02 -5.4394761776111973e+03 1.0756416527040373e+00 -7.3030670714378357e+02 1.1740287768998344e+03 -3.2044553951340244e+00 -5.2317716471554377e+01 -1.0241232478017620e+01 2.6200222360579573e+01 -8.4193165481822052e+02 4.8608027361465021e+04 -5.5928316199296080e+02 5.8739578550774745e+00 4.2552851348188199e+00 -4.3514499085401958e+03 5.4799977044032812e+02 1.3334135193394366e+02 2.3251538567070384e+01 -4.7343265783586958e+03 8.6766197017058585e+02 3.8527312643073174e+03 4.5291031230148349e+01 -6.0563263018448561e+02 3.4345362676307559e+01 1.3660117296229632e-01 -9.6786850521883898e+03 2.4525547504890710e-01 -3.4054934723826591e-02 1.3261588231324924e+02 1.1588552013960357e+05 2.4674865616514452e+02 2.5512165046529844e-01 1.7736688304458894e+00 -9.9285906511937799e+02 -4.7023219773545861e+01 1.4118964064866304e+01 8.2175884919293951e-02 2.5281587886154102e+03 2.2843833550810814e+01 5.0322800005281752e+03 2.1393853558413500e-01 6.5093754082821988e+01 -1.1613437150414796e+05 
      </Row>
      <Row Index="197">
        1.2127095378406523e+00 -3.6633814174535928e-03 -3.2812530432827771e+01 -8.2446982956213333e-02 -2.3242944154517886e-03 -1.3504774192697369e+00 -6.3310597809962928e+01 1.3917644452947002e+01 1.3618048076094702e-01 4.5678620764164179e-02 -1.3821210904599866e+01 4.5023916893405840e+00 2.5837644065322820e+00 -7.3038671687754686e-02 -3.2167740031774156e+02 -6.2644655118492665e+00 -1.0701331023126841e+01 -1.5521225188854260e-01 8.5980141375330277e+00 -3.3142581531574251e+00 -2.8329827897096038e-02 -1.5410133619827684e+02 1.0629575822633797e-02 3.4739673419323935e-03 1.0064491575513966e+02 -1.0655602590581111e+02 2.4383564236108214e+01 8.7813955875049032e-03 3.7337458957011904e-03 -1.1696469616526201e+01 -6.2479248063755222e-01 -3.0298811622851645e+00 -9.8790495923367416e-02 -2.5221962141734548e+02 -4.2219685078889597e+00 -9.1073910517152399e+00 2.1194415563354596e-01 4.5118447345308994e+01 4.9621966867962328e+00 2.5466456657795788e-02 -2.5904765972889209e+01 4.8177729761391674e-03 -2.6017008519829687e-03 -2.0869545736804139e+02 4.1058196426369250e+01 -5.4538160833319921e+01 1.2076516415504557e-04 2.4412028577103229e-03 -1.7535725913170609e+01 -7.9951883828907739e+00 1.0883873257262167e-01 5.0635307347943126e-01 -4.9182416924159043e+01 -4.6615789596398827e-01 2.6411165986047126e+02 1.2230606878688377e-01 4.6116422694176435e+00 3.0848377788170183e+00 -1.1765204172320409e-02 -2.7915250740945339e+01 1.6494934451856125e-02 1.8437566107554204e-02 2.0349299011623953e+02 -5.4565767064807005e+01 5.3638352220572415e+01 4.0621971294783066e-03 2.6005259976642492e-03 5.2859980372268183e+01 2.8201375093995011e+00 -6.2025798909326113e-01 -1.5007874488861717e-01 7.3734395561506972e+01 -2.2138749046010844e+00 1.6032083941210294e+02 -8.3088219687397213e-03 -1.0664493246076745e+00 3.4396567222629528e+00 -1.3701152885403189e-02 -9.7657615588977933e+00 9.9192618672532262e-03 -1.2297923033500524e-02 -2.2899757482295172e+01 2.6755353125161491e+01 -1.1636449896107479e+01 3.2763611554202043e-02 9.8850150401403880e-03 -4.3618196024835925e+00 6.1039398225257173e+00 5.4716283388261218e+00 -2.0715059839176320e-01 -1.6195531584031414e+02 9.9101083719870076e-01 1.0791089893734897e+02 6.0549472898856038e-02 -4.4068943792954087e+00 -2.6775521489580569e+00 -3.7885675839106625e-03 -4.5595137069467455e+01 -5.5287227798999083e-03 -1.0261477418680442e-02 1.9328716618403269e+02 3.9481432836546446e+00 1.4786383987451700e+01 7.5875666163938149e-04 6.4351657664474260e-04 8.5846290490590036e+00 5.1710214285994880e+00 2.0818847708578687e+00 7.1834632003401566e-02 -2.8092445293162018e+02 7.6880100951602799e+00 -1.2161409026663750e+02 -1.1369461610934195e-01 6.2579157389700413e+00 4.2174751944285163e+00 3.7870017997590821e-02 -1.9603752991023066e+02 1.6579919898816797e-02 1.8386501082233053e-02 1.3825790553624392e+02 1.8245487487499486e+02 -1.4471243983742852e+01 7.2223813764864531e-03 1.1177277822245202e-03 5.3528404914450221e+00 -8.3444127027178183e-02 1.8546899841458071e+00 1.3177407867897273e-01 -1.1442713957466185e+02 -1.9657714206130095e+00 -2.5564503235960728e+01 3.7552213471570894e-02 8.9800958416453796e+00 1.6750918588516015e+00 4.8235518379442510e-03 -1.7386735114455223e+02 3.8646655172840383e-03 -1.4843625890080148e-02 -4.7597008417040342e+01 -1.3544573773443699e+02 2.5553228200034937e+01 1.6556338374613233e-02 9.0969051722673555e-03 7.2423577174980892e+01 9.3104199661183884e+00 1.0906910766298097e+00 -4.5291393555089599e-02 1.8035283177421661e+02 3.6185048516490497e+00 2.8555056748911738e+01 1.1836568782992529e-01 7.8577198553830385e-02 -5.9505072779084003e+00 -4.3710825314605017e-02 -2.2675559113943018e+02 -3.5983131898404963e-02 4.9597516348480052e-02 -1.6289720666543872e+02 -6.6544356110913213e+01 -4.1401881497991923e+01 -5.6337350905440644e-03 5.8531124048817537e-03 1.9792212458311496e+01 -1.3014338160206762e-01 -9.6095606221430216e+00 3.5815684118712454e-01 4.3127079017460346e+01 -6.2852274739310587e+00 -1.1449903605855070e+01 2.2548680315712488e-01 1.2941459773850511e+01 -4.7571873284130106e+00 1.0051659584561889e-02 1.3851845658561797e+02 -1.8952545368503687e-02 -1.2129813918420496e-02 -1.8247901433513394e+02 -8.0323866634498700e+01 -5.7236786559088308e+00 -1.6215584249259507e-03 2.3550343856300060e-03 4.1478411533619060e+00 -1.2432513737903719e+01 -4.7604822116493484e-01 2.0890452152434591e-01 3.7388621372665511e+02 -6.0016285979390886e+00 -1.4824102798296371e+02 -5.7271111147130682e-02 1.3350181187634007e+00 1.9837963243198828e+00 -2.2625121019643757e-03 1.0279002030564880e+02 -1.7047137030360204e-02 -3.5338189649607443e-02 1.5624543054134119e+02 -5.2404796198301483e+01 7.0113200208652415e+01 -9.9575598964310695e-03 -2.2941656612947945e-03 2.7280045339447497e+01 1.5658718088674970e+00 -1.3583033386679745e+01 -1.0924028860900165e-01 3.6237894463645853e+02 -6.8699294405889590e+00 -1.3854860254129477e+02 1.2813797271712349e-01 6.4908064316841774e+00 -1.3207177323406684e+01 -3.2075272056234316e-01 -2.5797694804474702e+01 -3.3796700517551237e-01 1.8720362546180264e-01 1.5282081964162325e+02 3.6885008900770231e+01 2.5229996124775982e+02 1.4006337428196236e-03 2.0117847203539263e-02 9.1942405534864406e+01 4.2735170428257440e+01 -5.3454811700340755e+01 4.2330245889802427e+00 -1.9807931601433495e+02 -3.0538669851329498e+01 1.2987700503305373e+02 1.0580071244702509e+00 -6.5614552658330467e+00 -3.5838021874028527e+00 5.6959765436596617e-04 1.7560364013492014e+02 1.3445039947590942e-02 -4.2600167531858801e-04 2.1354639317789314e+01 2.2877075641800918e+01 1.8442008952297630e+01 4.6923034580750311e-02 3.7401586878271026e-02 3.8799097083691336e-02 -3.1571812504880654e+00 1.6394608986302046e+00 -6.5849992954986752e-03 -2.9982583739820103e+02 -5.3867725192540092e+00 1.7681777624207598e+01 2.7999642797900681e-02 -4.1956898955081492e+00 -4.1377607248376862e+01 
      </Row>
      <Row Index="198">
        -5.1452138700420758e-03 -1.4304560568697000e-02 -5.8369254224089673e-02 6.0052310569729261e-03 7.3686878460966221e-03 1.2799471294783871e-02 4.5935634782654233e-01 -6.5030334911522214e-03 -4.2563199160303829e-02 -1.9996763352025937e-04 1.1768006310489909e-02 2.1505315455215168e-02 3.5717873595331184e-03 3.6679098994390813e-02 1.1971785886271391e+00 -1.1307176263812835e-02 -5.7827928989718203e-01 4.5527706895143183e-05 3.5639678021311738e-02 1.0099711035763903e-02 -1.0090968812974666e-03 -1.3658196232336195e-01 1.0728404148521165e-03 -2.3161299403238189e-03 2.6933890978398267e-02 7.0895318579812283e-01 -7.6620953791461943e-03 -1.6347166989012507e-03 -2.0246567432102847e-04 -3.7832433216662409e-02 3.1823655529933603e-02 -1.9728421479499048e-03 3.0244704576022130e-02 4.6532580914754362e-01 -5.3259847643403191e-03 -5.9622370587021578e-02 1.0638921801081835e-02 7.1294228550303984e-02 -5.5186574510912578e-04 -1.2096700406556415e-03 -1.8072421113639070e-01 8.2583439701178207e-04 6.1334663772782960e-04 -8.2136050923509174e-03 2.9209056367108133e-01 2.3517536182003695e-02 -7.0011911121070636e-04 -2.7381380347146766e-04 -4.3103390937403674e-02 -3.9783824465757789e-03 -8.4117217073185202e-03 -1.0269723598952041e-01 1.7484472711998933e-01 3.7380643869369123e-03 9.3917690410307841e-02 4.9178993053393683e-03 -6.4918369263978093e-02 -7.7528625272975660e-03 3.8948135161875896e-04 -3.3419184964714077e-01 -2.1528600109532725e-03 -5.3123068978548627e-04 -4.4464862423410523e-02 -1.4487584557355149e-01 -1.4451670043115428e-02 -6.7862278098279605e-04 1.3920969757647006e-04 -9.9790795295518819e-02 -8.4297685538672340e-03 6.9955623024213764e-03 3.3423965558155633e-02 -4.8775760201897356e-01 6.1744695657139914e-04 2.4588249097087100e-01 -2.4319969961403842e-03 -1.2086140284793601e-02 -4.4727385368190653e-03 1.0083574722302036e-02 1.0919926742644748e-02 2.4072167058095673e-03 -8.7189170352984791e-03 -7.5063449642684077e-02 -3.1751430908116163e-01 4.2498205497167874e-03 -1.1236222118844452e-02 -3.4865595809008276e-05 -5.8500577287645683e-03 -2.6137883132832940e-03 8.7337915097691621e-03 7.9209410358942023e-02 3.8168842196137120e-01 1.1431365129965343e-02 -2.7379041785866320e-01 7.7215214173902424e-03 -4.6952871311077615e-02 1.3461868846462721e-02 4.3309985292319109e-03 -1.3663770651328377e-01 -8.7350025094412587e-04 -7.3910774860408424e-04 3.4566027363553076e-02 -4.2971487455292845e-01 6.7780639668839626e-03 -1.1437941137644181e-03 -3.8705679814565741e-05 3.8667956110657542e-02 2.5271633566944729e-02 4.5118764871858730e-03 -1.7065289212983892e-02 -2.9056442475121003e-01 4.5212715272668902e-03 -5.2604698937648209e-01 -2.0954294736377221e-03 6.5229594209085917e-02 -5.7589351226141616e-03 -1.2012837333789772e-02 -3.2581608463016209e-01 -9.1538011765868177e-05 -1.0958062979504746e-03 -8.7804824691374961e-02 -1.5242048989853174e-01 -7.3430705092059068e-03 1.5726717305578064e-04 1.1309975677320505e-04 -5.4400840937546491e-02 1.6091387440269500e-02 3.8555026099817979e-03 -6.3192256464041918e-03 -2.5990405725315213e-01 -5.5248238294858254e-04 6.6662547408520823e-01 1.4545459017105689e-03 -2.9925460905744217e-04 -6.3541638308350912e-05 2.9339757842130609e-03 -2.1559847646858543e-01 2.3754278534742213e-03 2.0514052665152605e-03 1.3075874265041421e-02 -3.1332716858014464e-01 -6.4371607493285410e-03 -2.8028698481219472e-04 -4.2341568672318863e-04 3.1322341474606219e-02 2.4953549465863034e-02 -2.8745327197654547e-03 -4.4107552971453856e-02 -6.1954666104452372e-01 -1.4939629845684976e-03 8.7791012127127033e-01 9.3625903603993810e-03 1.3699737743991136e-02 6.4032977466226271e-03 1.3102668146358631e-04 2.7907971000422549e-01 -3.1440951271159007e-04 -2.9241318877577284e-03 -5.9605804460090894e-02 -2.2319058689913618e-01 4.3454344757168861e-02 4.5046234009278509e-03 9.3406746324958736e-05 -5.9450750548606379e-03 -3.1171231671454080e-02 -2.2237407300768286e-02 -8.2655006104901396e-03 4.7576215449680603e-01 -3.1063891138307653e-03 7.7152008512712200e-02 1.3368639092598000e-04 1.1268981266300671e-01 1.1287557782237945e-02 -4.4214927204506149e-03 -1.0870116452224465e-02 2.6677222904589546e-03 2.5500811227332498e-03 -4.6843377776443873e-02 1.8982102898212361e-01 7.8808456542844851e-04 1.2248996003821622e-03 -4.1573242144810063e-04 3.2184350161625019e-02 -3.9084121005870998e-02 -2.6421754266534592e-03 2.6866734892471378e-02 -3.8074195129479449e-01 -3.1492989410608629e-03 3.7479374859776726e-01 4.4954665528423865e-03 -4.6194192162829495e-03 -1.4677924977242185e-02 2.9623553035063033e-03 3.4694261724439457e-02 -2.7759039065285984e-03 5.8227812873881124e-03 -9.9530106842848909e-04 -1.0066827123773692e-01 -9.9575597924967951e-03 1.3044796102604493e-02 2.4663592961775950e-03 -5.3538521331667255e-02 6.5341879379894330e-02 2.3194435621434195e-03 6.2489534407217939e-02 6.7379195612452847e-01 -6.5195068853984850e-03 3.5145695817115152e-01 -1.0786270533316284e-02 1.1694990518208215e-01 -1.1383945782339588e-02 7.4398694414796254e-03 -5.0353428245913268e-02 -1.4136944208556153e-02 1.5321204588504167e-02 -9.5055217280155091e-02 4.5506901965085333e-02 -2.0682798630571320e-03 4.1112980440503398e-02 8.4225219990775139e-03 -1.2206112743330166e-01 -5.0004182845519551e-02 -2.8322630374467361e-02 -1.0308962535424160e-01 -2.2023333456674266e-01 -1.3940207728680210e-02 -1.2701702111326085e-01 -4.6200826129615291e-02 2.8410437226478702e-01 5.2862482935012167e-03 -1.1867038327182139e-03 3.4771162580682358e-03 -2.9821408052344012e-04 -2.5959793167178169e-04 -9.6681584510915908e-03 2.1065531154182290e-01 -1.0124931432267436e-02 -9.5589587592854741e-03 -2.0996857778679729e-04 1.7782106062373959e-03 4.0565278745674505e-04 -1.5418116013563576e-03 3.1936481712202896e-03 3.2539353123234349e-01 2.2250765148612572e-04 -1.6281377993698243e-01 1.9596507629804001e-03 -1.7134772366267592e-02 -2.0417767696259093e-01 
      </Row>
      <Row Index="199">
        7.4205238215164920e-03 -3.5208243089785152e-03 1.3777655322064675e-01 3.9786645975415924e-03 2.0299703736738894e-03 -2.2049755320040276e-02 7.1664419725038897e-02 -9.1857383334227327e-03 9.2959770678284169e-03 -4.9237028845775938e-03 -5.0566483795712713e-02 -5.9439200053930108e-03 -2.8951212735250920e-04 -6.3370010510723329e-02 1.7469518208508816e-01 -6.6453423116286103e-04 9.9205472845005715e-01 -4.9349600961887674e-03 -5.9629796808437163e-02 1.2002786872926663e-03 -2.7275825029753342e-03 1.3000280802987163e-01 3.3863796019275583e-03 -2.8253619558897547e-03 -2.2981000837035026e-02 -6.2178154232519489e-02 -6.9594237922956381e-03 8.7208002695571274e-04 -4.9302146783000711e-04 7.3204794328620704e-03 6.9670965122838879e-03 -2.1176354050354007e-03 1.3191901463168620e-02 -4.6636944923159263e-01 -1.7769221743350272e-02 -3.3344529158193836e-01 -5.9677894304854817e-04 6.3262951945172174e-03 -7.0117084000287377e-04 2.1239321030241121e-03 8.9095500022671803e-02 3.1596785982473952e-03 9.7834006005781404e-04 -3.0849590563605034e-02 1.4405970344841990e-01 1.3424657771256010e-03 -2.7623555340212935e-04 -1.3768280093595653e-03 -1.0492598791257990e-01 1.2715552036439703e-02 -3.2849742508851421e-03 -1.0618353261724156e-01 1.9933098278627881e-01 3.0507108481359069e-03 -3.6688009787212650e-02 -2.2669593390413634e-03 -1.0058545530455376e-01 3.5097368737844192e-03 -3.2393964678406606e-04 1.8722901517963919e-01 -1.1091225265697252e-02 -7.4463720407028436e-04 -2.3072251701023561e-02 -2.1792484461110462e-01 -1.0066117872618463e-02 3.1815432140435904e-04 -8.3413960876450172e-04 2.1229431826782275e-02 -1.2067785365807993e-02 -6.3303791111479768e-04 3.4976004547529194e-02 1.8331349420623155e-01 -1.1709865318492718e-02 -2.5828361297652691e-01 1.8644176426563241e-04 -2.2682826973650094e-02 1.6685900965320855e-03 -3.5878491844594795e-03 -7.3424422594143834e-02 -3.7388660499962922e-03 -6.3200097713024400e-03 -7.2468746851512833e-03 5.7340844383588774e-02 1.0066043340986042e-03 2.3941210705658578e-03 -4.9602297268469542e-06 -5.8164072974850711e-02 -1.0617876194771725e-02 2.8225761420799245e-03 6.5556340293821291e-02 -3.2022131710154156e-01 -1.3736956852795856e-02 5.9782020404099967e-01 -8.6952446579069420e-04 -6.3041750752290682e-02 -2.4151887822299045e-04 1.2253545831663326e-03 3.6948424375623290e-02 -6.0740620132186951e-03 -2.2007301424562531e-03 -4.5844360506990256e-02 1.3749767516440770e-01 1.3482221073117806e-03 1.7562397741303915e-04 -5.5169529609475076e-04 -1.8638597273138657e-02 1.3012643143525793e-02 6.7052222436103648e-04 -2.0589532265304022e-02 3.0961488120738068e-02 1.4710039876490555e-02 4.5693462045892375e-01 -4.9018256530541926e-04 4.9119082364541100e-02 -1.6400172685582248e-04 -7.3274283986513589e-03 3.8884473809373077e-01 -4.4351551788279764e-03 1.1199716066884191e-03 -6.0882599696157058e-02 2.5307035103531916e-01 -2.8295437954768549e-03 9.2010385838341320e-05 -6.5689010268045640e-04 -2.6915278848052004e-03 2.9030264050931009e-03 -1.2482360578658369e-03 -1.6209623207709800e-02 -2.0353647993988488e-01 -9.3004126882102467e-03 4.3934966031486056e-02 -9.1248120406861588e-04 1.4735860759369501e-02 9.7459035127878124e-04 3.6924607328781001e-03 2.3585762176662683e-01 1.1259964467958877e-02 1.3816376710162892e-03 2.3686892238217183e-02 -9.5301611640024930e-02 -3.5340062316393528e-03 -1.1979373886500388e-05 -4.6552576898867878e-04 -1.9276150101603662e-02 4.4705550178454345e-03 -6.6500337001818011e-04 -4.5078245598956457e-02 1.9814761204445119e-01 -7.2719579148667890e-03 -1.0120031447149813e+00 1.2993144687632567e-04 4.3136836854785088e-02 -8.5536713863154645e-04 9.4389084470500317e-05 -2.5124686608251068e-01 -3.3102356486501626e-03 -2.2162782960917140e-03 2.6865059450763340e-02 -6.1862777358190613e-01 1.2522348452217134e-02 -3.4321440171617942e-04 3.2774833895629759e-04 -3.0367709265607168e-02 -1.1219245899500407e-02 -2.2041444996648840e-03 -6.1429347846422705e-03 -1.7474118532197735e-01 -1.6660974442458454e-02 2.9317876212724059e-01 -1.2653495734168026e-03 1.3023406199691578e-01 -2.8032527548523013e-03 1.8891462237155821e-03 -1.0009011301149684e-01 1.0672397381316426e-02 5.0064808858035631e-03 2.2299113854588271e-02 -1.3042366844560149e-01 1.4570744834965232e-03 6.3232960743748318e-05 6.1611112625722594e-04 -3.1790188257498464e-02 3.9472116400158797e-03 -7.5345556411397785e-04 1.8632160277740561e-02 4.6201843424540812e-01 -3.3181666844578572e-02 1.7104588224293593e-01 1.3243124278553703e-03 2.3302588262403390e-02 1.2014796256973881e-03 3.5788189482948984e-03 5.1981924371659716e-02 -1.3408092150642190e-02 5.8101578634005419e-03 1.5868549473452731e-02 7.4219733493521289e-03 -2.2941656824784218e-03 2.4663592960843480e-03 8.5298303317696764e-03 5.9274107054951841e-02 -1.5419581592395204e-02 2.7283748864537216e-03 7.8464550740378253e-02 3.1421799827436203e-02 -1.2885202289637077e-02 9.6339869342443318e-02 -1.3468468712350178e-03 5.5957673659577267e-02 4.0145249863674515e-03 2.9049003784352330e-02 2.5271513169557558e-02 -5.7026765897317824e-02 2.6214572275655674e-02 1.1924650414658622e-01 8.5977503684981471e-02 3.6846187234029770e-03 1.6654195974490381e-02 4.1226181702351032e-02 1.0394075742858533e-01 -8.1550547450699895e-02 4.5071102997814028e-03 -9.0277899487197777e-02 1.3255907837148584e-03 -8.2536259058149097e-02 -5.0811899874574351e-02 -1.1785283095958277e-02 1.9087462088659635e-01 7.7483299386660320e-04 9.8147510776401515e-05 2.6786631461992805e-01 -3.5293158570389831e-03 -4.3934962374129419e-04 -6.1762598442518524e-03 -1.9931900039769947e-02 -5.4845398928718321e-03 1.1817795782639653e-03 -4.8710333395746950e-04 -7.9063415970918594e-03 -9.6032700034887064e-04 -7.0540828045384529e-04 3.3345469353599699e-03 -2.9957214467937199e-01 -2.4329994234282282e-03 -2.2915169132161850e-01 -5.6190871193983344e-04 -4.7692990413619185e-03 2.3308351382386031e-02 
      </Row>
      <Row Index="200">
        3.5385804488573626e+01 -6.2667692097079453e-01 -5.7167883976548910e+02 3.5857987974532080e-01 -1.1443769891366173e-01 6.0045347169972956e+01 3.3457009010761976e+03 6.6650760922607333e+00 4.1955358347146809e-01 2.4211024593228103e-01 7.6023410243273247e+02 -8.1920793659053743e+01 -5.5163856339408085e+01 -9.1492642023513326e-01 -3.5032415650784969e+02 3.9473039272241294e+01 -6.0544057029485703e+02 -9.7704878850345267e-01 -1.0683125203847885e+02 -6.8334137848578393e+00 -7.2329647460719571e-02 -1.4201508751427755e+03 5.9683420491637662e-02 -1.6009880523824904e-01 -1.5306684216298163e+03 4.5220383870985825e+03 -6.4489508055150509e+01 -1.0463844757759944e-01 1.1991158772389099e-02 -1.2035192538869760e+03 -3.4452251802198589e+01 4.5982748836977407e+00 9.6505510822680662e-01 -5.2534495163708925e+01 -1.8196982932277024e+01 -2.2890276602692902e+03 3.6188874797517201e-01 -8.9791001297878483e+02 -1.5708224923565285e+02 -5.8440042509118939e-02 1.1151770890888110e+02 1.5817770151261357e-01 -5.9968263860355364e-02 7.4977925461716950e+01 1.2369369123578072e+03 2.0922953196084563e+01 -5.4761227522021727e-02 -6.4302795616413277e-02 -3.9496876143474365e+03 9.6607922262512147e+01 4.7434185698104557e+01 -1.8738933592067042e+00 -3.1507116060703993e+01 -7.4850267773843370e+01 7.2134906419366598e+02 5.5927026161134563e-01 1.0392466555186547e+02 -3.8079095143591985e+01 4.9769300241041492e-01 -4.6795627682749182e+02 1.1041730231454494e-01 -1.7246441084972730e-01 -1.3279264687933028e+02 -6.9582207463774830e+02 -2.7823539753444493e-01 2.5206345696119570e-02 3.6070656105266607e-02 1.7521164265322732e+03 1.3519191822363064e+02 -3.2726255324407248e+01 1.1223545484408533e+00 1.5378389670252800e+03 3.1249348312376242e+01 8.3358437743317336e+02 -2.9187232148615294e-01 3.4274994215229526e+01 -9.2336300832103007e+00 -4.7685891944183822e-02 1.2999259412288666e+02 1.8272813851399405e-01 -1.3857346879831312e-01 -1.0238148757588933e+03 -1.8961908492781222e+03 -5.3918961255301838e+01 8.0217385066589486e-02 3.5453181878438045e-02 -2.0863144208770827e+03 -9.8982079955749214e+01 -2.4945984416757710e+01 1.0134225632609741e+00 -1.9188047312337440e+03 -1.3394892480969429e+02 2.1815529632754624e+03 -2.3362783812444832e-01 1.4271124796569347e+02 -3.3923632907331921e+01 -3.1728449389902380e-02 -4.3052572516351938e+02 1.7004497244124650e-01 1.2034490751921112e-01 -4.1734247671999037e+02 -3.3954405834415229e+03 -1.0634214881428488e+02 4.9868469023067519e-02 -5.7234515250456752e-02 -6.0050377831608057e+02 -1.1200058713648468e+02 2.7719065855490044e+01 -1.2600774372076557e+00 -3.0355857232213020e+02 4.4703517889371142e+01 -1.9141652171313763e+02 -4.6490936669943039e-01 -2.1424174953252077e+01 -3.7106536895320460e+01 -4.7796448145072645e-01 -2.1451231233313447e+03 -9.7364712966282241e-02 -6.9495146598001156e-02 -4.4338762683747336e+02 -1.4548951774365269e+03 -5.5680480033846607e+01 7.0478831067546821e-02 5.7228711898972051e-02 -7.2069564721539791e+02 2.8066203822148964e+01 -5.3677145748952171e+00 -1.5208316833413846e+00 1.2688017321154475e+03 6.1179610552644590e+00 -2.5074028534584213e+03 2.8468977997499678e-01 1.0723275856584223e+02 -8.7857134855839831e+00 3.1537737380858744e-01 -1.0395108113288879e+03 5.6154311408590729e-02 2.5115888155960420e-01 -3.4489717929414473e+02 -9.9861739373207092e+02 -2.1039061880670488e+01 7.2904884335912357e-02 2.1261464716985756e-02 -3.3333387851947919e+02 -1.3543564685271849e+02 2.2456248117006908e+01 -2.9174772696569562e-01 1.1024607684840448e+03 1.8175131691154093e+01 -1.6313450939655304e+03 4.4408434871672853e-01 3.7059610686264932e+01 5.6258415158154094e+00 -1.9502483351493538e-01 -4.9303559795487672e+02 -8.1240229438151346e-01 -2.9546158807061068e-01 1.1639290950435679e+03 -3.2124828441645950e+03 7.6031135594787997e+01 1.8695029227076804e-02 1.3365873819616816e-02 -3.9433080818415328e+02 1.9698412218794539e+02 8.7037047844819426e+01 -2.8211867195745981e+00 -7.5472107769362628e+02 -2.9504813683542125e+01 6.6767174693755805e+01 1.3121001137909616e-01 -8.7897583947749808e+01 -2.7419736664405043e+00 -8.9861913980712416e-02 7.8289359671866987e+02 9.5754554173086870e-02 -1.2190395246648222e-01 4.6998374878976182e+02 3.4236378900539130e+03 6.6869469878438395e+00 7.3903512125639281e-02 2.3497566095727507e-02 -9.0187714964738529e+02 2.2298651085025631e+02 1.0086324044293658e+01 2.6430136929502623e-01 6.3658606492029503e+02 -8.0276858961922699e+01 1.7779527307609096e+03 4.2323059525006101e-01 1.8279399264603853e+01 -1.8663704753642378e+02 -8.9286415394326468e-02 8.3126585103687830e+01 1.7187001075853914e-02 -2.8296668984239659e-01 1.9381680716562551e+03 1.0671499935775064e+03 2.7280045371153392e+01 -5.3538522179913173e-02 5.9274107293887823e-02 6.0076629357279744e+03 1.7140781521310362e+02 1.1793049945859821e+01 1.1363868871575122e-01 3.8282355197403376e+02 -3.7138841434157172e+01 8.4684210043753592e+02 1.4951777030306754e+00 7.7468889600131661e+01 -7.8237215578178086e+02 -1.9815133131673628e+00 -5.7987755593156400e+01 -6.2845079938782096e+00 -3.4868375211203713e+00 9.5198342848994871e+03 -1.1315529955037414e+02 1.9267280393716368e+02 8.4931911894395684e-01 2.0915533030352673e-01 2.3178037660674781e+04 1.0378145428929229e+03 1.6043506938904582e+02 -2.5208849858785925e+01 1.2897654875914086e+03 -3.1524134718525022e+02 -3.0577528812278424e+03 3.6463958838307100e+00 1.4211580201243553e+03 -2.7981539239524864e+01 -2.0351121729615184e-02 -7.0818447001697166e+02 -3.5692913830246198e-02 3.2254618559619530e-03 -5.5713523370568545e+01 3.1638182402067008e+02 -3.6154616391502060e+01 -9.0715054700012843e-02 1.6989866032649409e-01 -2.0859375465727257e+02 1.4392018231639668e+01 5.7645994156919187e+00 8.8954803021533413e-02 -1.4120342930798447e+03 -4.1938605055620428e+00 -4.4494142369731526e+02 9.7983898303908468e-02 2.3479421069714618e+01 -2.8056853196193481e+02 
      </Row>
      <Row Index="201">
        -1.8290777114727916e+00 1.8090859818244098e-01 1.7991659095138311e+02 4.0147567742360479e-01 3.8829246187560784e-02 6.9600953953340650e+01 6.3004490205645561e+02 4.2012276577243028e+00 3.8715669764950111e-02 -1.3858391195117292e-01 6.9464272037614137e+01 -8.1075503928586841e+01 -1.4436535257846117e+00 8.9286659142817371e-01 6.0904177866876125e+01 -8.7762670638039708e-01 -2.0109500765800476e+02 -1.7401906069790130e-01 6.9878939595073462e+00 -3.6703745012637228e+00 -2.8505846566986293e-03 -7.5644489414989948e+00 1.1225706573077332e-01 -7.6283245735794480e-02 -2.8393457978963852e+00 6.4486700772214681e+02 -9.8911134898662567e-01 1.5846847842112766e-02 4.1419526041863719e-04 -1.4259227559728970e+01 9.9234718866646290e+00 -4.2459184331819415e+00 1.8571390007855371e-01 -8.5491961397230625e+01 -5.3763380763120949e+00 -8.6878007583320141e+01 1.1668998495588312e-01 -1.2825714697989497e+01 5.6739936028607190e+00 -7.8883884160859452e-02 -8.9763187736554755e+01 9.3996302108280361e-02 1.1484193910291651e-02 -2.7469349654391408e+01 3.4496533103287220e+02 3.7950031994296296e-01 4.0990897564370243e-03 3.0536099200844546e-02 -6.3472831607563421e+01 8.8354707736056298e+01 -3.5016140181105584e+00 -2.0787775336102641e+00 -3.3918362770229578e+01 -1.2998505897121504e+00 -3.8819905265420675e+02 2.1233351141927415e-01 1.0627395088784397e+01 -2.1680577186634764e+00 2.4683636304871470e-02 -2.1179263393208385e+02 -7.1312962500087451e-02 3.1643160535963943e-02 1.1062465355172753e+02 -5.6870143055357039e+02 7.5291609189007431e+00 -1.4725523935680940e-02 -1.5947814751029910e-02 1.5558746679220349e+01 1.3738538257358596e+02 -8.8151512254262343e-01 2.0468035499834514e-01 2.5113703509420156e+02 1.0056819285233360e+01 5.9190062701329589e+02 -1.2438435483272769e-01 -1.6888605537824333e+00 1.7559355033445172e+00 3.3983996233473590e-02 8.2176805362105370e+00 4.5976242661708966e-02 -3.7766926948779656e-01 -5.4120045593066607e+01 -2.4460097612813115e+02 1.1861354546854272e+00 6.0984768595517380e-02 -6.8165264106028189e-03 -4.2309165896731429e+00 -2.1498831791430712e+02 2.1030548600247130e+00 1.1437635814218083e-02 2.0698127725231461e+02 -1.5335856010206044e+00 -1.4458907974734902e+03 1.4863083910495334e-01 -8.3350838199257851e+00 -6.3683768053306267e-01 3.0224353444282315e-02 -8.1639260306954384e+01 -5.1242893670860212e-02 -9.7793557062686887e-02 1.9482545529492199e+01 -2.8843578328075819e+02 -3.2099286527954973e+00 1.6659394276757666e-02 5.0846557869590470e-03 1.0873486332595348e+01 -1.1591720822174102e+02 3.1997375953942537e+00 -2.5510679562466976e-01 -3.3726220092177391e+02 3.6848323674639687e+00 -1.0591188499033451e+03 2.1954310988803627e-02 4.7328921779990196e-01 2.8307828890101518e+00 1.2685672857332975e-01 -1.6359001149714459e+02 -8.4034413941253661e-02 2.4917957440720784e-02 1.7484990175208077e+02 1.0941906808661297e+03 9.7207035268975233e+00 2.1191086083746313e-02 2.5534284476776747e-02 8.4020365398173453e+00 4.5025905724032782e+01 -3.4477706124635006e+00 -9.6812200984277297e-01 3.9002261161804199e+00 -1.3134886568659567e+00 -4.9617664932529442e+02 3.8520791115843167e-02 2.6107888808292046e+01 -4.9895039130205987e-01 -2.8392058593453839e-03 9.9295124530792236e+01 6.6694096008177439e-02 -1.4781212462548865e-01 -2.4910896681714803e+01 -6.0152253770828247e+02 -6.3616472227731720e+00 4.3041961106155213e-02 1.0773279239728595e-02 -6.6825638408306986e+01 -2.3285837251796329e+02 -4.1082307769102044e-02 2.2717807542940136e+00 8.1950759754981846e+01 -6.0330516938120127e-01 8.0533251941204071e+01 1.1808592176083721e-01 -4.6580936945974827e-01 -3.2250166917219758e+00 -2.7843527980621730e-02 -1.4545995289459825e+01 -1.6696059005724351e-02 -1.1791686686680275e-01 -4.0477354938746430e+01 -6.6394737188611180e+02 -1.4137784971695737e+00 -4.7010191251909694e-02 -2.7163234058940326e-02 2.7563158406162984e+01 2.0076906723095598e+02 -2.9462121780416055e+00 4.5419558922367287e-01 -4.6982014921493828e+01 3.9698904476117605e+00 1.0147714943066239e+02 -8.1474590894458743e-02 2.2477639086777344e+01 -2.7639023183836109e+00 6.1623381468280058e-02 9.9517681722063571e+00 2.1984066012097159e-01 1.4552615739830799e-01 -7.3601583817164283e+01 -1.1223168413294479e+02 -2.7369349401851650e+00 -7.5632638716911060e-02 -3.1988330795684305e-02 -1.0045111296859375e+01 2.9049773883281159e+02 2.9023981681670108e+00 8.7769148217921611e-01 -1.1511346004251391e+02 -1.4732709626579890e+01 2.1758269209023565e+03 -1.9406833238986110e-01 -1.0223753720056266e+01 -3.7628810515016085e+00 -8.9131276154148509e-02 4.6448879252420738e+01 2.8828281288951985e-02 1.0343180375662087e-01 1.2525735421967693e+02 -4.8207797520235181e+02 1.5658720188075677e+00 6.5341879225428556e-02 -1.5419581378548486e-02 1.7140781685789989e+02 7.6524244942415294e+02 -1.8919220946263522e+00 1.6534811411992458e+00 6.9384476062350359e+01 -1.3581785866329696e+01 -1.3920025949722071e+03 -1.9596676438603328e-01 3.8079297243617475e+01 -2.2649465250933027e+01 -4.4010439455359618e-01 -3.7276826122217244e+01 5.4248615798659555e-02 2.1667617722258969e-01 1.5383995595496810e+02 2.5257053071671274e+02 -1.1225475627967725e+01 -3.9115150989552633e-01 -1.6919871642693973e-01 6.7445417042394388e+02 1.1610329412187177e+03 7.2401822078173570e+00 5.1404255078721253e+00 1.7218379775638346e+02 -5.9116952684433400e+01 4.4419740833725950e+02 -2.7239115093257196e+00 1.3036146641419504e+02 -1.4068467721735942e+00 -1.1053596053340012e-02 3.1819464180651312e+02 -5.0372480883766002e-02 -1.8492774047132343e-02 3.5903335146457920e+00 4.5714871338919431e+02 -5.6621490323928581e-01 -1.6496952395073095e-03 2.5214925696809377e-02 2.1823198619822506e+00 1.0412777830737468e+01 -7.3707041119632777e-01 -4.4088611743729904e-02 -1.0990817029769870e+01 -1.8895419942855369e+00 -9.1869044012388940e+01 1.7440282084205345e-02 -9.3173072317155459e+00 -4.5657184546624336e+02 
      </Row>
      <Row Index="202">
        2.1886364366997384e+00 5.9159961497812219e-02 2.9957473916932940e+01 5.8396162077883673e-02 -2.8708331876998727e-03 1.4655602542683482e+01 -4.5553235856816173e+01 5.3725802912388190e+00 -6.2343486666969455e-02 3.7805844268518740e-02 1.9586794755043229e+01 8.5532770073041320e-01 -1.1409764334093779e+01 -6.0033284978999291e-02 -5.3034621123224497e+01 -5.3352407942293212e-01 -2.2926628768444061e+01 -1.5551066162515781e-02 -7.9416759260348044e+00 -1.0231353983399458e+00 1.6775696512922877e-03 6.0323726842645556e+01 -2.5351351769131725e-03 -4.2593367827521433e-02 -2.2536473365500569e+01 8.9900933515455108e+00 1.2316247413400561e+00 -1.3828832411491021e-02 -1.0202050228826920e-03 9.7633650684674649e+00 8.7527061090804636e-01 1.5881593111218535e+01 9.4201501754469064e-02 3.2646452117245644e+01 -1.6397672584280372e+00 8.1251887977123260e+00 -4.1344090145230439e-02 -3.4696371750453295e+01 1.7061203185148770e+00 -2.1173865707169170e-02 7.8637774150092810e+00 -6.5960535994236125e-03 -3.1720404904262978e-02 1.9756206510122865e+01 -9.0550601448863745e+01 7.7587743768949622e+00 -8.4683993283078962e-03 -1.4641180174521651e-03 -8.2258270398888271e+00 -5.5188989988528192e-01 9.0373326768749394e+00 -1.4048146750610613e-02 -4.9977305344946217e+01 -1.6829877765558194e+00 -1.2605735485674813e+02 -7.2743925329632475e-04 5.8158268841798417e+00 -1.1718383588595316e+00 -7.0261905898405530e-04 2.4966912948992103e+01 2.9659146093990785e-02 -3.1782852430389141e-02 -4.3594273021910340e+01 6.7575231074122712e+01 -1.3172852288989816e+00 3.5242971857911698e-03 -2.3234536250811288e-03 2.6145272785215639e+00 -2.0823990988719743e+00 9.7472757505238405e-01 1.9808813055306018e-02 -2.7869885610416532e+01 -1.7153894680004669e+00 -3.6330371583346277e+01 -3.8479866761008452e-02 8.5317714823759161e-01 6.8952021040240652e-01 -2.6812652843432261e-02 -1.6857784651219845e+00 -7.5553654619398003e-03 -4.7621431400500569e-02 -2.7403966779391340e+01 2.8248367053456604e+00 -1.9169213567074621e+00 -1.3897727358880729e-02 1.3947473318722814e-02 -1.3561159520788351e+01 9.2466177418828011e-01 -1.5561671907140408e+01 -1.4875925420710701e-02 8.2828401708917227e+01 -5.2549166509415954e+00 -6.3630148775991984e+01 2.3276730446468719e-02 9.3678893931210041e+00 -1.0969218543468742e+00 -1.5487152060245535e-02 1.2808525193482637e+01 -1.2343078606136260e-04 5.4872779908237135e-03 -3.1788310902717058e+01 1.5823958643057267e+01 -1.9252315854500921e+00 4.5188817802568337e-03 1.5583329453647821e-03 -1.7619831701274961e+01 1.0173478799988516e+00 -8.8385349544405472e+00 -7.5774431737954728e-02 4.1571928117424250e+01 7.5313628942240030e-02 3.7565733194351196e+00 4.3478392456563597e-02 -5.6272985469549894e+00 8.9167758148141729e-01 8.4931612081618368e-02 1.1665177283174125e+02 -8.3512037469404277e-03 -3.5578821244826031e-03 -6.6579256511759013e+00 -2.1493515026755631e+01 1.2073019017758497e+00 3.9621434286800650e-03 -1.1892465897034299e-04 -2.6874647327294952e+00 -4.2237917007878423e-01 -7.4519522141108610e+00 -6.8304134906611580e-02 5.9803230375051498e+01 -1.7082844106325865e+00 -2.4305105630424805e+01 -2.2149136843268025e-02 -5.6682457865827018e+00 -2.3779699721671932e-01 -3.2036553469879436e-02 9.3612104594707489e+01 2.8792958951271430e-03 3.9576585609211179e-03 -7.5322290798649192e+00 4.3112418353557587e+01 1.4254373049916467e+00 -1.3014667527386337e-02 -1.3723415365589631e-03 -5.2971912442008033e+00 9.5709729692316614e-01 3.7876698935760942e+00 -3.7004064557550009e-02 8.1823918113950640e+00 -2.6785802603699267e+00 -4.1649574905633926e+01 -1.4446288037817112e-03 -1.6319959103129804e+00 -4.1084571012106608e-01 7.6652573201272389e-03 1.0469523290870711e+02 -4.0672118691478687e-02 -3.9364963063777195e-02 2.7832077725004638e+01 3.8343740521115251e+01 -6.4956724631996963e+00 -1.2123524798605458e-02 -7.3704332348906096e-03 -1.8838059803625583e+01 -4.3826439221552072e+00 3.2611027352073506e+01 1.2605283881254081e-01 2.9353709756396711e+00 -8.5368504577195381e-01 -8.0004361898172647e+00 4.5369735839202008e-02 -1.5813398322497960e+01 -1.6368223282224059e+00 9.6718500911663341e-03 -8.2022896578040672e+01 2.8954284298637792e-02 2.0267317194509360e-02 7.5950192105624481e+00 1.4167261596134631e+02 -1.9055692165875371e+00 3.7100475361881990e-03 6.0048917538466640e-03 -3.0103275814232518e+01 -1.9881526945246151e+00 -8.2981385312839393e+00 -1.2057105605617835e-01 4.9688357996055856e+00 -1.0344659852635232e+00 2.7175065250601619e+01 1.4990700122154976e-02 -3.1902668640250340e+00 -1.8806383112787444e+00 -1.5190929144182519e-02 -5.8917671033210354e+01 5.5781500788327776e-02 2.2921647662144551e-02 1.4407991221814882e+00 5.2408840856980532e+01 -1.3583033422866720e+01 2.3194435862503582e-03 2.7283748506992112e-03 1.1793049664016507e+01 -1.8919221012984053e+00 3.0062711395385122e+01 -5.0630183632903364e-02 -8.3231198409893764e+01 -3.0578106675287664e-01 -4.0706544061846763e+01 5.3137104220138238e-02 -1.3690725463675335e+01 -7.0055785092342600e+00 3.0595807592758428e-03 1.9310779202532544e+01 -1.1728348566801980e-01 -1.1736577947293025e-01 4.5181986609132082e+01 -3.8696340547807893e+01 -5.9039870933805496e+01 -1.2181100741038164e-01 -7.2194127192782620e-02 -3.1940080547524246e+01 -3.1741381302161152e+01 9.0157528464778167e+01 4.6913598677059554e-01 1.6080772717310788e+02 5.1445622908476878e+00 1.0371465090210293e+01 6.7853853663112829e-01 7.4731565911549467e+00 -7.7253989828841441e-01 1.9673641993208438e-03 -8.4495114425156913e+01 -5.0011879101532486e-03 -1.4624065137347486e-03 -1.2756311676805154e-01 -7.8124829562862942e+01 2.3890375244603308e+00 -2.0972548249886813e-02 1.4639716669694054e-02 -3.3045981534523889e+00 -2.6073020315379836e-02 2.7175399579264194e+00 5.8614760820794587e-03 4.3625799455617795e+01 -5.8274154423270375e-01 4.0862873445727956e+01 8.0900566403176374e-03 2.3526139270742235e+00 7.5708248584506549e+01 
      </Row>
      <Row Index="203">
        -2.1653048086207960e-01 -1.4997801980172198e-01 -5.2913278733612970e+00 1.3332825648036817e-01 3.5981630719581048e-02 -7.5986338866641745e-02 -3.1155420583672822e+00 1.2995320764369467e-01 9.7095355357573493e-02 -2.2493614649220461e-01 -7.0536815084778937e-01 -1.1537948519689962e+00 -8.7297923724690918e-02 -1.5361939018183648e+00 4.7217064625583589e+00 3.5282810852731927e-01 5.2421820308081806e+00 1.2582915044009724e-01 5.1674858594924444e-01 2.1853659143380355e-01 -7.1154605092942802e-02 -2.4440997469355352e+00 3.8234913066773402e-02 -1.1925672680126098e-01 -7.6271283021196723e-01 -4.6567083834088407e+00 -5.2044678901438601e-02 2.4226735924457898e-02 -1.1097825102844183e-02 -6.3904162841720336e-01 7.0726279003429227e-01 -6.3657196733402088e-03 3.5065304993262316e+00 -3.7780775106512010e-01 1.3212679895514157e-01 -2.8073670804733410e+00 -1.2039491266972391e-01 1.3908525202522952e+00 5.6647074146894738e-02 2.1550001380866490e-01 -4.9693240341069895e+00 8.9420668677632875e-02 2.5197409746124322e-01 -1.5507004671089817e+00 -1.4104489505290985e+01 -5.3539141351819808e-02 -7.9624044374206449e-02 -9.2758616834103691e-02 6.0463083774084225e-01 2.9073033475724515e+00 2.4476505644997815e-01 -1.3969542080510962e+01 5.7429697646584827e+00 -4.4781156066164840e-02 -4.2757381921866909e+01 7.9932895495886669e-02 -1.5257800040781149e+00 7.2515766934884596e-02 -7.4872015745270915e-02 -4.1918040449672844e+00 -1.0216410638824414e-01 -5.8977975146332184e-02 -9.4747068430297077e-01 -3.7947381437697913e+00 -5.2506867043121019e-02 3.9932400968265114e-02 2.8566300850052073e-02 2.3483882852087845e-01 3.4295184081565822e-01 3.3515607844037731e-02 4.3966726165300116e+00 -1.4751187723944895e+01 4.6689355200442151e-03 5.2004596361075528e-01 -3.1749419992593175e-02 2.1012571695791848e-01 -3.9637265584769921e-01 -5.8342256349760646e-02 1.4767792319180444e+00 -8.6992898999710633e-02 -2.9697439646730217e-01 1.2833305250769627e+00 5.0353204177226871e+00 3.8056951645558001e-02 4.8355337384478503e-02 -1.0232647732877354e-03 -1.7484716823673807e-01 -8.6302885101758875e-01 8.2437173106882256e-02 1.0636419547744424e+01 -1.6716895274570561e+01 -1.0342543158913031e-02 5.8325537509081187e+00 -3.8145297724128113e-02 7.5959712173789740e-01 3.2029416131535982e-01 9.4204424524768626e-02 6.6104127396829426e-01 -5.7156935786565555e-02 -3.5106460249750171e-02 -6.2970037528430112e-02 5.8914541215217469e+00 -1.1684161187167774e-01 -2.7518151894625476e-03 -1.0079567077497131e-02 4.4152587320422754e-01 -1.1406975966383470e-01 3.7335478470595262e-02 -2.4467392258231087e+00 3.6811996319331229e+01 2.4009488462252193e-01 5.2099607931450009e+00 2.3472473910146618e-03 1.0406865971162915e+00 -1.5150730886853125e-01 -1.3509810486488050e-01 -7.2557792462575890e+00 -6.7492287306627929e-02 9.3149108104576328e-02 -5.0069134663499426e-01 1.4949506030505290e+01 -3.5023090771680643e-02 -4.7665048695537671e-03 -4.6332753295668105e-03 -3.8320320884213288e-01 9.3904383300650807e-01 -8.2043097040241264e-02 -1.7306036084860352e+00 6.4436723019462079e+00 3.8710378647579091e-02 -8.4032833197925356e+00 2.6793059796652585e-02 1.2922511624900608e+00 -2.2262221526716530e-03 1.0091732266027975e-01 -1.1333510678261518e+01 1.0873109276490567e-01 1.0294387137662397e-01 3.0298557238711510e-01 -1.1181953497231007e+01 -4.1720444116435829e-02 -3.8437741324067076e-02 -6.1153578895872140e-02 6.0988673033716623e-01 -1.3206460762728511e+00 -7.3863546513166511e-03 -5.0338787976174899e+00 -2.3671916160164983e+00 8.9309953924384899e-02 2.4147994589060545e+01 -1.0764567938707614e-02 7.1169002883834764e-02 1.0506129559416877e-01 -3.4696988429452347e-03 1.4660207977372920e+01 -1.0761224279771442e-02 -9.5767968411201915e-02 4.1526705308569944e-01 -1.7132463504800398e+01 -6.2888970394258337e-02 -5.5077147649939678e-03 -6.0236792495845029e-03 4.6175728991192955e-01 8.5622367689572343e-01 1.7247085724157785e-01 6.1417617968686145e-01 -6.7184183634526562e-01 -2.4343073845551544e-01 1.5239911639160709e+01 -3.1476887088899730e-02 1.9017186919263622e+00 4.0098623147051882e-01 -2.4659862445179925e-02 2.9081791827920824e+00 8.4163808171794530e-02 1.5948179528559336e-01 2.3871604405640312e-01 1.2441008480745950e+01 7.2197937855889904e-02 2.3634267872960635e-03 -2.1090416540097578e-02 2.7562713112064330e-01 2.9360247637605426e+00 3.5744207754305535e-02 3.8685943763550767e+00 3.0949103233069764e+00 -6.6699890619020152e-01 1.5497986063433927e+01 6.1529461114904649e-02 2.7747624349649413e-01 3.5453838772582458e-02 -2.9079281275075175e-01 -8.1889849713115836e-01 -8.7121600892675843e-02 -4.4331029340998285e-01 6.7640559387291432e-01 7.1984904946002644e+00 -1.0924028542103770e-01 6.2489534404830849e-02 7.8464550743613581e-02 1.1363871304979511e-01 1.6534811411966075e+00 -5.0630183546672924e-02 1.9490577061518049e+01 -2.1847175359335267e+01 -1.3953887729398673e-01 -1.3731913329486918e+01 -1.8866631750427765e-01 2.8004861941735726e+00 8.0728229757814507e-01 -8.2208329235631583e-01 -1.4601746176761026e+00 -4.2121446673844187e-01 -1.4853432195576111e+00 4.6797526102416498e+00 -1.0674940246935591e+00 -5.1308093789188547e-02 2.9798401502791405e-01 3.8169176867578297e-01 2.2660967013337370e+00 -4.9705348565685981e-01 1.9615911106303230e-02 2.8019650420819499e+01 -5.6134399340562595e+00 -2.7747159396929746e+00 7.1942713697927445e+00 -2.7987967277461800e-01 2.6586762332946137e+00 2.0838779624375547e-01 -1.4168701006913906e-02 -1.0590919642893198e+01 -7.1545763429821108e-03 -1.1141349113839238e-02 -1.6545057305379984e-01 6.8317545204314136e+00 7.0557369041770990e-04 6.4599736814745512e-03 -8.5444340777061700e-02 9.3052065295523789e-02 1.4572449042339031e-01 7.2940515576647158e-03 3.0175282370682549e-01 6.2918835083396516e+00 7.4589831670891726e-02 4.3400805042001593e+00 -2.0687896385853614e-02 -3.6730848571529151e-01 -6.9976003603477590e+00 
      </Row>
      <Row Index="204">
        -1.6450670457221440e+02 1.8460814625332205e+00 -2.1662840808629990e+03 6.4678323083899159e+00 -5.6640364633040008e-01 2.7822574116289616e+01 5.9625942176580429e+02 9.8774792796213660e+01 -8.7310256331932994e+00 -9.6191541122789204e-01 1.7649375990265980e+02 -6.8025267049670219e+00 -7.8790363155305386e+01 7.0487857321859337e+00 -4.4466886758804321e+03 1.9220979246310890e+01 7.4949938107728958e+03 1.9516391822835431e+00 4.2009032482001930e+02 -5.3548554790299386e+02 1.3540969064633828e+00 -8.2562087411507964e+03 2.0566813042023568e+00 6.0372221310717578e-01 -9.7371708580851555e+02 1.4471985912444070e+03 -1.0808362849056721e+00 -7.4311326111637754e-01 -1.1576672467435856e-01 -7.1299085163914424e+02 -1.0838525276631117e+01 -3.1214792944956571e+01 1.4235207688834635e+01 -4.0100432598516345e+03 3.4899125816300511e+01 -1.1387155006721616e+04 -1.6241565586824436e-01 4.2590764893899322e+03 3.1478692667139694e+02 5.0657659713033354e-01 -5.0854397299419215e+03 2.0973005402192939e+00 1.2097693923424231e+00 6.6313337399810553e+02 -6.6131934468150139e+03 -5.1942490371618624e+02 -1.2801324879546883e-01 -1.5855202470811491e-01 -1.1443003312824294e+03 -8.2723794769495726e+01 1.7531806025188416e+02 -7.6114680159516865e+00 -1.1556443860630319e+05 2.9031417020363733e+02 2.0497831165343523e+03 -5.5733381435202318e+00 4.1111795753985643e+02 2.7992775885341689e+02 -7.9763411343446933e-01 -6.3480895633846521e+03 -1.3758771713000897e+00 -6.4706148932532415e-01 5.5929974137246609e+02 5.6613933148458600e+03 -1.9566252765245736e+01 -3.4128064500146138e-01 1.1550883259269540e-01 1.1662419136893004e+02 3.4446815827395767e+01 -2.4994547102309298e+01 1.3570780173409730e+01 -2.2236894902989268e+04 -1.2317111320095137e+02 -4.3577856922522187e+03 -1.0492634111724328e+00 1.1059537594020367e+02 6.8439548040961381e+02 8.9411461374766077e-01 2.5113115379810333e+03 2.9525437667907681e+00 -5.3711090113029059e-01 -1.8629164633547189e+03 -6.8241768361628056e+02 -9.2710816606413573e+00 -2.2561402760184137e+00 -2.0075257510507072e-01 -1.8005009567183442e+03 1.1621527511626482e+02 -8.5541895935311913e+01 7.1154092608194333e+00 -4.4502686246855184e+04 8.5884777441620827e+01 1.5708325042799115e+03 -3.7648543387549580e+00 -1.4836424379050732e+02 -4.8309353128098883e+02 -4.0556646191726031e-01 -6.3686654684245586e+03 -1.8270687953918241e+00 -4.2364383611129597e-02 -1.6473718741908669e+01 -8.0523242842219770e+02 1.3946838466526242e+02 -8.0452981239432120e-02 2.0521514517349715e-01 -4.3809802828729153e+02 4.1050675775855780e+01 3.8146670570597053e+01 -3.7535774867574219e+00 5.5720136777997017e+04 -2.5427888221573085e+01 -2.9217545272707939e+04 -2.4012491962494096e+00 6.7658237443864346e+02 3.5912408418074483e+02 -6.9482610669729183e-01 -1.4379967762166634e+04 -3.7167961979866959e-01 -1.7104410937809007e+00 -7.7118851231224835e+02 -1.7190199431478977e+03 -3.2738033108955096e+02 -5.7950152920670917e-01 -2.1957462533441685e-01 6.9231829625205137e+01 2.9444964081048965e+00 6.5780613047259976e+01 6.3942700934421737e+00 -1.3829893129289150e+05 6.2357297227252275e+01 3.1234950974453241e+03 -1.6496027772536763e+00 2.2501178921147948e+02 1.9301479289488634e+02 -1.7014008702244610e-01 -1.3990893425941467e+04 2.0729631343638175e+00 -2.3742290541122202e-01 -2.7322893958725035e+02 2.2004145584106445e+03 4.0367855064570904e+01 -2.2196668436117761e-01 6.9589716065479479e-02 -2.5505453687533736e+02 1.0586273111047922e+02 5.5392940921592526e+00 -1.2663909155759029e+01 -1.6412533548558131e+04 2.1840853601694107e+01 5.9110781431198120e+02 -2.9817417867031963e+00 -8.0026805579662323e+01 -3.1369060973060550e+02 1.6150014045952048e+00 1.4856557994108647e+04 -5.9123844889782617e+00 -4.3578144713751055e-01 9.8008306587627158e+02 8.0900547995604575e+03 -6.3281831498097745e+00 1.3724099940794747e+00 7.2555337653355245e-01 -1.2100495117256651e+03 -1.2173168728056316e+02 4.6844007462066656e+01 -4.9431029924136965e+01 1.9068275588017702e+05 1.0539569181324623e+01 2.0651444418065250e+04 1.5068341638584570e+00 -4.5598198203463107e+02 -3.7846829754769328e+02 4.4639382521290827e-01 -6.0724037560168654e+02 7.9564406943221400e-01 -2.4115876718942673e+00 -2.4988621096286784e+02 6.4070393922626972e+03 -5.5247449474351015e+01 -1.4912528095010202e-03 -1.3788557583802685e-01 -1.8498030866374647e+03 -2.4008634778484702e+02 2.3048657028499292e+01 1.6089502796749002e+00 -8.3470608236733824e+04 9.9747653284284752e+01 6.9188697515167296e+03 -8.7467663807819918e-01 -6.8251548226457089e+02 9.6180844159133267e+02 -2.1366855100495741e-01 -6.8061044564750046e+03 -2.8012159952031652e+00 -5.6902556787099456e-01 -4.0215863584261388e+02 -8.7816950232908130e+02 3.6237894536415115e+02 6.7379196118270102e-01 3.1421800826194612e-02 3.8282356741058175e+02 6.9384487829753198e+01 -8.3231200479669496e+01 -2.1847175186747336e+01 3.1400893445221009e+05 -1.0502532449290129e+01 1.1178673145778084e+04 6.7576662115343220e+00 -6.0155109106749296e+02 2.8765662097613431e+03 1.4482054135741340e+01 1.9527019490725161e+02 -6.1582820848775683e+01 -1.2779402541881730e+01 9.6364829391934109e+01 -2.3866811035094861e+03 1.6730294080768058e+03 6.5410325588209020e+00 6.1056932842335003e+00 -6.2098077958356425e+03 -8.0068507112371026e+02 -2.6471732541293642e+02 -4.5613329343634950e+02 5.7588424097450785e+04 -2.0521184458261450e+02 -1.1617044036385851e+03 3.9425150058011553e+01 -1.2189097690799143e+04 -2.8275101446808549e+02 -3.6622907741155841e-02 -1.2527215386160826e+04 -3.4791773482038479e-01 4.5340761806357932e-02 -1.5737794980017031e+02 1.7162078821285579e+03 -2.9795264998987356e+01 -2.5901933901614029e+00 -2.1463255745855589e-01 -2.7220560426323209e+02 -4.3380561819853028e+01 4.1438568988814950e-01 6.4854202747051748e-01 4.7879883222096658e+04 -5.9126808665692806e+01 -2.4689016557767987e+04 -3.1264457400273088e-01 -5.5748709052071604e+01 -1.6864477582099921e+03 
      </Row>
      <Row Index="205">
        -8.2737880941954245e-01 2.0438436104018365e-01 2.5090029755234718e+02 1.4058093644689507e-01 1.5325106370710273e-02 -3.6140786644071341e+01 4.0456942225992680e+02 7.1479282679129028e+00 -6.9535922414320772e-02 1.5497811690579510e-01 4.7705732278292999e+01 8.9646627232432365e+00 5.2751544215716422e+00 5.0843041739426553e-02 2.7048301026225090e+01 2.5997751002199948e+01 -7.9125068637728691e+02 -1.7060444763046689e-02 -1.2099092943128198e+01 2.4406470772810280e+00 1.7246602452360094e-02 5.8767313766293228e+02 1.7883528145830496e-02 -1.9914820795747801e-03 -1.2533052004873753e+01 5.9813172309473157e+02 -1.5344621054828167e+00 -1.1199132859474048e-03 1.9279510860997107e-02 2.5678183325206192e+01 1.5907177468761802e+00 -2.6684138857526705e+00 -2.0752991294648382e-01 6.9240954652428627e+01 4.4670250911731273e+01 -9.8053626867756248e+02 -2.4152862638584338e-01 -3.4546722456266252e+01 -4.5916925265919417e-01 -7.9979728425314534e-03 1.7924763995399371e+02 6.9497385109571042e-02 -5.5371060192555888e-02 -1.3194061240181327e+01 5.7975293417274952e+02 4.8195555223974225e+00 2.8318099184616585e-03 -2.1573252565758594e-03 2.0303869111230597e+01 -1.2918654533103108e+01 -5.4915373352123424e+00 -5.3806232978240587e-01 -1.5126177286170423e+02 3.8562319588847458e+01 8.0349241569638252e+01 -2.6067391738433798e-01 7.7475013718940318e+00 -1.7166876887786202e+00 -6.3835218597887433e-02 2.8306982030719519e+02 4.5466784124982951e-02 1.3653434343154913e-02 -1.5570713543519378e+02 4.2286183763854206e+02 -4.1515770002733916e+00 -8.0836258235876812e-03 -4.2022144369411762e-02 3.0483867525588721e+01 -9.5436834730207920e-02 3.9972608535026666e+00 1.5445389778869867e-01 -1.2909925219416618e+02 1.6937790424843115e+01 -2.1829575440846384e+02 5.7358461606781930e-02 -1.7102431934326887e+00 -2.0609863185673021e+00 -5.7470868114251061e-02 -1.8558105483651161e+01 -3.4844358997361269e-02 -4.3650124202031293e-02 9.2644505219359417e+01 -2.8639437365904450e+02 8.3560244171530940e-01 -1.3594385845863144e-02 5.1435736115990949e-02 1.3421443441731390e+02 8.2096453625708818e+00 7.0208739850204438e+00 7.4441662189201452e-02 1.0315786235919222e+02 1.1412106219679117e+01 -1.9389799609407783e+02 2.7919286205360550e-02 3.5064486265182495e+00 2.9492525188252330e+00 2.9812654129273142e-03 5.3364477410912514e+01 -6.4159665751503780e-02 -4.4273674782743910e-02 -3.9799094125628471e+01 -3.4812700579594821e+02 -7.6209898700908525e+00 1.9119108183986100e-02 2.1225780633358227e-02 5.7533173937350512e+01 7.9099051561206579e+00 4.0577773738186806e+00 7.4977737571316538e-02 8.2668091654777527e+01 -7.3477214108919725e+01 2.1307377308607101e+01 6.1906932169222273e-03 -9.0206320360302925e+00 -1.9338011278887279e+00 1.5072669143046369e-01 1.0257653056376148e+03 1.8142514339615445e-02 -6.1825428274460137e-03 4.5553531659767032e+01 -1.5351809091996402e+03 4.4806176399797550e+00 -3.1162941366289942e-02 -1.9278045561009094e-02 -2.3951652948016999e+00 -3.2034050256479532e+00 2.2478447826615593e+00 -1.5803685403807322e-01 -4.9420014068484306e+01 2.8492267463192547e+01 -4.2964387366361916e+02 -4.7482009766099509e-02 -1.5609038030001102e+01 -1.1112310208045528e+00 -9.3276320985751227e-02 6.7720735406875610e+02 7.6382669568374695e-02 3.8925583481614012e-02 8.5930537547450513e+01 1.0988215155601501e+03 1.8795397678622976e+00 -1.1270638665337174e-02 2.7366532505993746e-02 9.8010397940874100e+01 1.6605961516819661e+01 -1.2813503620272968e+00 -1.6522720875218511e-01 -7.4315562009345740e+01 -1.9736587869003415e+01 5.2836360299587250e+02 -2.6190183636930442e-01 -6.5156045407056808e+00 3.0747950939694420e+00 -1.0993939277477693e-01 3.1554966829344630e+02 -9.5485891239377452e-02 3.0626342460717368e-02 1.2027139281830750e+02 6.0427190342312679e+02 -4.0090347688313841e+00 1.2326169999603072e-02 -2.0840460526512793e-02 3.2323992682795506e+01 -8.4659741249001570e+00 -8.6024009003504034e+00 8.2481516663847287e-02 1.2274961818568408e+02 8.8182779573249718e+01 -9.9681091733276844e+01 -3.2779866181505213e-01 -2.2805021401494741e+01 3.6001521370571750e+00 1.0347408955794890e-02 -5.3283095263247378e+02 5.7397165041423087e-02 5.5301269637311634e-02 3.5289127927244323e+01 7.4536330848932266e+01 6.9344169258984039e+00 5.1877043675858658e-03 1.1738363695485532e-02 3.1077201514124965e+01 -2.5346503670618404e+01 8.3904917494510300e+00 9.6187454035316478e-02 -7.6847150094807148e+01 3.8103472758899443e+01 -2.1927390392683446e+02 -7.5142544387290400e-02 -4.6290771530475467e+00 8.1621254328638315e-01 -2.1411366055872350e-02 -3.7330827775318176e+02 2.7994450924779812e-02 4.6649700696889340e-02 -4.2921969138784334e+01 1.7315736583713442e+02 -6.8699297215789557e+00 -6.5195067025882736e-03 -1.2885202562753051e-02 -3.7138843609922333e+01 -1.3581785927235615e+01 -3.0578106557368301e-01 -1.3953887822754041e-01 -1.0502517060842365e+01 1.2781478730633168e+02 -9.7395326799673185e+01 2.8267732745122581e-01 -7.7123257275670767e+00 1.3371871667169787e+01 -9.9397568388053159e-01 1.3964637518308146e+02 -6.9701955537624438e-01 6.3158035075547092e-01 3.4378029075251845e+01 -1.5984791352349743e+02 -1.5581872875421922e+01 7.3359125350721754e-02 -2.3248438316858344e-01 -1.7519148126297370e+02 1.1501299001105174e+01 2.8018262223973888e+01 -3.8849642427223330e-01 1.8486161446258501e+02 3.0458734009123447e+02 2.6318552760494782e+00 -1.2413985061807766e+00 -3.5970018968846489e+00 8.8784687081351876e-01 7.4557893341737373e-03 -9.5408080999705078e+01 -2.1312013552915232e-02 -1.0455556181909742e-03 -8.4579037049486736e+00 -5.9764951138019967e+02 6.8563961668161237e+00 -2.4098739061855667e-02 1.3560516795429009e-01 -7.1760445553809404e-01 -1.7954108761332463e+00 -2.1496696161921136e+00 -1.1731170907115288e-02 1.5713397514679338e+02 2.5816285669920035e+01 4.8924540874482318e+01 -8.8649209873279955e-03 2.8188428940700874e+00 5.9067586460437280e+02 
      </Row>
      <Row Index="206">
        -2.1259717501876003e+02 -1.0703944916240289e+00 1.5526619863748550e+04 -2.8407879928417969e+00 4.9845161585835740e-01 -1.8568619971871376e+03 -2.6569061708450317e+02 -1.4451298655700521e+02 -4.9585699990731307e+00 6.7078605431743199e-01 2.4249876414462924e+03 -1.4819714832305908e+02 1.9029354721307755e+01 -1.2956211757613346e+01 1.6011719529867172e+04 -3.4171074894070625e+02 9.1151599578857422e+04 -3.6064228860195726e+00 4.4285375949740410e+02 2.0651042537391186e+02 -8.5822304489556700e-01 -6.2042921448945999e+03 -3.2349681245977990e-01 -6.7910614935681224e-01 -5.1308498692512512e+02 -4.8566834774538875e+03 -1.0023941177129745e+02 -2.8978472168091685e-01 -2.9669296630891040e-01 -4.5102564840693958e+02 -1.6509159743785858e+02 4.7520502895116806e+01 -4.3283305586082861e+00 5.6682937055826187e+03 1.0282429710030556e+01 -1.1318406389594078e+04 2.2835090379230678e+00 2.8276829445554467e+03 -1.2411776580102742e+02 -1.2141880026902072e+00 1.9301962652544025e+03 -2.5407864733133465e+00 2.2927065019030124e-01 3.1560131273865700e+03 1.1006424310684204e+04 4.3430714387889020e+02 1.0158156895340653e-01 -3.2489012875157641e-01 -5.4930875862985849e+03 3.0170040477812290e+02 8.9242208950221539e+01 2.8610986960120499e+00 -2.3388281632065773e+03 1.2538156911730766e+01 8.4839323866009712e+04 4.8039429464261048e+00 1.0993911124169827e+03 -7.9013463713228703e+01 7.3985537033877335e-01 5.3959719914197922e+02 3.7070361605437938e+00 3.4152005125870346e+00 -7.1465034222602844e+02 2.5781502808332443e+03 -3.5181510172784328e+01 1.0649209157418227e-01 2.7133278701876407e-01 -1.1321480420976877e+03 -3.2342021830379963e+01 -2.1072528711520135e+00 -4.5924016577191651e-01 -1.0978521676421165e+04 2.0404602206777781e+01 -1.2716845928949118e+05 4.7922169673256576e-01 -3.9287441700696945e+01 -2.4550827017985284e+02 9.0305362941580825e-01 2.7947921714782715e+03 2.7424043671926484e+00 3.5986612348206108e+00 2.0918317284472287e+03 -3.3183035254478455e+01 1.1941936487331986e+01 -1.6248590687464457e+00 -5.8581581943144556e-02 2.1142199644464999e+03 2.6192783224582672e+02 -3.7629955772310495e+01 1.0036221616901457e+00 -1.4184343789063394e+04 1.2981943245232105e+02 1.2572668593898416e+04 4.0821624897653237e+00 -3.1261622583866119e+02 2.3180207869037986e+02 1.1951630070980173e+00 -1.3981258564472198e+04 1.9613124291645363e+00 3.9738669904181734e-01 -9.8752182433754206e+02 2.2571570034828037e+03 -2.8613126039505005e+02 -7.2698786182445474e-01 -1.2852928311622236e-01 -1.4916480951309204e+03 2.5262833744287491e+01 7.3439670691266656e+01 3.5683673425228335e+00 2.6761665032386780e+04 1.0831767661124468e+02 -1.2814171972751617e+05 7.9411477257963270e-01 1.4615901111364365e+03 -1.5587602468254045e+02 1.4386528491741046e-02 3.0033923953622580e+03 4.7925961410510354e-01 4.8655343349673785e-01 2.8724200309962034e+03 1.2149562257975340e+04 2.8734803979325807e+02 -1.2779741804297373e-01 2.1569189926231047e-01 -2.4705284675490111e+02 9.1189533770084381e+00 -5.7613910016254522e+01 3.7684362540021539e+00 -1.6819029537200928e+04 -2.5921773788053542e+01 4.1489321450896561e+04 5.7011661912838463e-01 2.2003802631446160e+02 -5.5667117245495319e+01 -3.0864714528433979e-01 -1.1162536010742188e+03 -2.5872256400180049e+00 -1.1651916559785604e+00 1.0711276635527611e+02 -1.8894485626220703e+03 -6.2608257006853819e+01 1.2117489840602502e-01 -3.5213391172192132e-01 -1.2261640756279230e+03 1.2870084535889328e+02 3.8753881561569870e-01 -2.4399537704885006e+00 -1.2934946506038308e+04 1.4301109501719475e+02 -2.1675116533279419e+04 3.4683656000852352e+00 -7.1325909316539764e+01 1.6841715357312933e+02 1.4388515496102627e+00 -2.4923374110400677e+04 1.6223517157700371e+00 1.4063084463029101e+00 2.2948146757967770e+03 -8.1108932831138372e+03 2.1999157026995090e+02 4.9588648360197907e-01 -4.0072513163902024e-01 5.8686739024193957e+02 1.4304206172986187e+02 3.6611786520574242e+01 -1.1324632655087044e+00 1.5350586861819029e+04 -8.1103554668137804e+01 -4.4028266264796257e+04 6.6713307953068579e+00 -3.7704775238782167e+02 3.8410652303954225e+02 -7.2983253483835142e-01 -3.0593688343763351e+03 -1.6616409049375545e+00 1.3507131687219953e+00 3.4651851209611268e+03 -2.0445660819068551e+04 1.7133404398057610e+02 1.0643963043949043e+00 3.6202827774104662e-01 3.4454362480768918e+03 1.7215702873654664e+01 -8.7653272679541260e+01 -1.9439181931084022e+00 -2.0120331129103899e+04 3.5357181460596621e+01 4.7262831817269325e+03 1.8574407031337614e+00 2.5119089625775814e+02 -5.0636078580282629e+01 -1.5302775657764869e+00 2.6136595543548465e+03 4.5703483336183126e+00 1.4485022302469588e+00 1.1240916649252176e+02 -5.4394776811897755e+03 -1.3854861012846231e+02 3.5145695942082966e-01 9.6339862890204131e-02 8.4684204029757529e+02 -1.3920026040999219e+03 -4.0706542743369937e+01 -1.3731913468975108e+01 1.1178673495873809e+04 -9.7395316949114203e+01 2.4329963072092543e+05 2.1795801691441330e-01 7.7453607439994812e+02 7.1620503433279760e+02 2.5253483578064984e+00 4.7905783845409815e+02 2.7716655601865050e+01 1.8213678496576616e+01 8.4473945225247026e+03 4.1355081778356034e+03 -1.5242187588408501e+02 5.0066212384364661e+00 -2.2903435224931528e+00 2.5416067991185882e+04 1.6763654992166084e+02 -4.2564001756326206e+02 -4.5648537096783912e+01 1.9798561418173322e+03 -1.0422029259513283e+02 1.1047616952391749e+05 3.9490790780379072e+01 -4.5177273829617661e+02 1.4485721808648668e+02 5.7739439298488286e-02 3.9003606887660280e+04 6.0106991761131212e-01 1.9952151475627034e-01 9.8624496247803108e+00 -1.5033059105505721e+04 -6.4792744683855432e+01 -1.5434625795060128e+00 5.5237603267094454e-02 1.4423407389502972e+02 3.5163585069123656e+01 3.8277834006585181e+00 -1.7420302658823827e-02 1.7831109114436364e+04 -2.1562981470488012e+01 -7.3183060342975310e+04 2.7741135397806960e-01 -3.0425117320247932e+02 1.5097456573614243e+04 
      </Row>
      <Row Index="207">
        3.9256500390960625e-02 -2.6124293500648932e-03 -1.5894639004545752e+00 9.6086140465114767e-03 -1.3858541758377640e-02 -1.6736650015081977e-01 -3.1033189726294950e+00 3.0616651307765252e-02 1.6404020011501610e-02 9.3463282007197890e-03 -2.3824685163162940e-01 -4.2299056462070439e-02 -3.7598586701278691e-02 9.8813166962870014e-02 -3.2829238440463087e+00 -2.2117724760028068e-01 -3.0341179357492365e+00 -1.1746397368543882e-01 -8.5414320264135313e-02 -9.7679788268578704e-03 -7.9575331961621032e-03 -1.1420132642306271e+00 -1.3071692849848660e-03 -9.4496482374104573e-03 6.2649540827260353e-01 -4.3844916734828985e+00 4.2615409402060322e-02 2.6951394126122352e-03 7.7645311510199377e-04 -4.7691902294935318e-01 -7.1496644628496142e-02 -7.6412998396335752e-03 -1.0304292530629056e-01 3.8298629245327902e+00 9.9679342849412933e-02 -8.0739784103934653e+00 7.9075541584280984e-02 -5.3780387143448216e-01 -3.7573323192873431e-02 -7.3257508494783963e-03 -4.9928475187525123e-01 6.0090945389319472e-03 2.6501586727647464e-03 -5.0630704089053324e-01 -2.1266156577330548e+00 -3.3390382562920706e-02 -1.5698242155304243e-03 -5.2513149144584048e-04 -4.6849812529944757e-01 6.1832111257899669e-02 3.6771393007711595e-02 -1.3469944337676054e-01 -2.2212960010720053e+00 -1.4295127810237318e-01 -3.9870983935397817e+00 -5.0997304323168180e-03 -2.8994503277681360e-01 -1.6203863981331779e-02 6.0493951323792317e-06 -1.1164498318285041e+00 3.4729886471254190e-03 3.4123826338436913e-03 2.1671877346670954e-01 2.6083889579967945e-01 7.2024607487946923e-02 6.5729463597530291e-04 1.7847937566481953e-03 5.7819396734612383e-01 1.3252469706912962e-02 -2.5811359403121514e-02 5.8618621983086427e-04 -6.9061733502894640e-01 -1.3131110893599640e-01 -1.3319505506369751e+00 2.8188034128106665e-02 4.7352743549708975e-02 1.9476853807134376e-02 1.4581663652908361e-03 3.6640184272255283e-01 4.3483358577134368e-04 3.4305227961386464e-02 2.6403566884869178e-01 1.6919037518600817e+00 -3.6516303130838423e-02 5.6479075214141972e-03 2.3018557054541589e-03 1.0848969129385750e+00 6.6741545222612331e-02 -1.9849758275540808e-02 -2.1655383412664264e-02 -5.6270664816711360e+00 8.8441521731510875e-02 -2.1410918896890507e+00 6.0173148234113683e-02 4.9070428649429232e-02 -4.0015047731458253e-02 6.7877439847254806e-03 9.3567192243062891e-01 1.0482435935315948e-02 1.3795086951748914e-02 7.2117367255668796e-01 2.4208120861308089e+00 -1.0939464950664046e-01 -4.8753261489142830e-04 3.8311499262810855e-04 6.5258144312974764e-01 -3.0642760828413884e-02 3.5957861633505672e-02 2.1204183171299462e-02 -6.6710385116166435e+00 1.8931435903414240e-01 -5.8905901268008165e-01 -3.1341700387912397e-02 -2.5031072556157596e-01 -5.4437120918748860e-03 -9.5468049991573878e-03 -2.3357579118946887e+00 1.8647510801352851e-03 -9.8276644349226672e-04 1.6121221919438540e+00 -2.3024971772974823e-01 4.0833672482571970e-02 1.7726960140557191e-04 7.5639220433998400e-04 2.1167436577349008e-01 5.1322416843504470e-03 -7.6663697008257259e-02 -3.7647474400884562e-02 4.3401756856474094e-01 -6.2661342153603528e-02 -1.2966438918483618e+00 6.6903879385868947e-03 1.8738267773053963e-01 -1.1005187000989736e-03 -4.3677591536948057e-03 -1.6277596037834883e+00 1.2601053109332128e-02 -2.1741205623513338e-03 -1.2054094960967632e-01 2.9761090008541942e+00 3.4071636676571870e-02 8.7539088472965432e-04 1.9493774584363188e-03 -2.8458883728853834e-01 -6.8897457175808086e-02 1.2059090848254073e-02 -9.0084293853919917e-02 1.3170679172890232e+00 7.2283264638826950e-02 3.7578898225910962e+00 -1.6093847674385264e-02 -5.6807109889632557e-02 1.4513624837633188e-02 2.6369696199139980e-03 -1.0701566882999032e+00 2.0450513090123912e-03 1.0267206896906706e-02 -5.8533474137902886e-01 2.2109405927894841e+00 -4.8002435354264517e-02 -7.4420444384064310e-04 1.2780720579513088e-03 5.6868606544131239e-01 -3.8498399351567514e-03 9.5341665476638582e-02 -4.8751043470172561e-02 2.2094807624089299e+00 -1.7217707776401880e-01 2.6214574516634457e+00 5.6422155551399511e-02 9.4398813949737814e-02 -3.3659423313452952e-02 -9.5252625022097526e-03 3.1851456000440521e+00 -2.2126649088934351e-02 -4.9389699387835329e-02 -5.0401853899172977e-01 3.4188347384679219e-01 2.1092779683385743e-02 7.8652160946690586e-04 -2.1646536142081452e-03 4.5229263727084401e-01 9.3298571400282526e-02 -5.1016549698999825e-02 2.5121478593117530e-02 -2.0788339215432643e+00 -1.2681589901109191e-01 2.5079952887499530e+00 3.7328214634286816e-02 2.9849644859041291e-02 -5.8838030803144648e-02 -4.2277550718372581e-03 -1.4269197341309336e-01 -4.6139491420035483e-02 1.0521831962995165e-03 1.1887341269307399e+00 1.0756417001302907e+00 1.2813797210492339e-01 -1.0786270532886416e-02 -1.3468468717998741e-03 1.4951776985651577e+00 -1.9596676445871708e-01 5.3137104210009056e-02 -1.8866631750531937e-01 6.7576662474666591e+00 2.8267732737845108e-01 2.1795799520873516e-01 4.2683140180610807e-01 -4.7748881531333609e-01 -2.1252671872095430e-01 -2.0939080104159000e-02 -2.9485363087489347e-01 -1.6419964722829500e-01 -1.1711340761455337e-01 2.7524960324881533e+00 -7.1822746967868767e-01 5.1208950020208732e-01 -2.0265644810296315e-02 -1.6442398333855163e-02 4.9926482754384267e+00 -7.5669423740827213e-01 1.5518732072663732e-01 -8.5772163179382177e-01 -1.8945669919811934e+00 6.8424623846768817e-01 1.0931703143527471e-01 1.2927634951769791e+00 -9.8708606582119529e-01 -3.0666810045261172e-02 4.0374109635953450e-05 3.8812307516241162e-01 6.1458791937250012e-03 2.4693472886764267e-03 4.0738691781379455e-02 -1.2659019278940531e+00 3.6833434915744340e-02 3.7068844544241308e-03 3.7933560253330762e-03 -8.6440033145606776e-02 -1.2687097160437588e-03 1.7300390050763781e-02 1.5029680028202897e-04 -1.5651589952197202e+00 -8.8971399934962392e-02 -1.1242055274129470e-01 8.5195082516700323e-03 1.7917816359890537e-02 1.2163209120481568e+00 
      </Row>
      <Row Index="208">
        -6.1034011363720538e+01 -1.5044485475550573e-01 -4.1357814589142799e+02 -1.7862656691704615e-01 8.9132535698354332e-02 1.3202214576303959e+01 -7.1997263611853123e+02 2.8687423251103610e+00 -1.1776376498353041e+00 -5.6743049638498633e-02 1.3665369940048549e+02 1.2038394808769226e+00 -1.1391054576728493e+01 -3.5952158869622508e-01 1.2653806015737355e+03 -1.0509295001626015e+01 -2.1828110322952271e+03 -1.2145396487539983e-01 1.1019337026122957e+02 2.4653669715626165e+01 1.3494789565083920e-01 -1.3467357573863119e+03 -4.4740558150806464e-02 2.2198647564164276e-01 3.1523628994822502e+01 -1.1995094557856210e+03 -1.8821562640368938e-01 -5.8304488433350343e-02 3.7439126911976928e-02 4.9430591028773051e+01 -4.5771398488432169e-01 -5.4306633936939761e+00 1.8361972719030746e+00 4.4800767043791711e+02 -8.6930053578689694e+00 -4.7843186412379146e+03 -2.7038850711323903e-01 5.4309273136942375e+02 5.4242635195725597e+01 -1.8666192040200258e-01 -5.4961297488171112e+02 -9.3155693666631123e-02 -1.0440323005241225e-01 7.3470991905778646e+00 7.3794133290648460e+01 -6.2725317753283889e+00 -4.0077361986050164e-02 -9.4186783372833816e-02 -1.0899036901677027e+02 2.1095694242976606e+00 3.0528199503663927e+01 -2.6129023711837362e-01 1.6849939394881949e+02 1.8678076267242432e+00 2.7937386306338012e+03 -7.6044702404033160e-02 -4.2535243329918012e+02 -5.2121678315568715e+01 2.2137211005883728e-01 -1.1220141303595155e+03 2.3586941674238915e-01 -2.1774979846981068e-01 -2.8274339124560356e+01 -7.3024009232968092e+02 -1.9355574613437057e+00 -5.7084658265580401e-02 -4.9110844951201216e-03 3.0879118415527046e+01 1.5674323495593853e+01 7.6174861527397297e-01 -4.9246559378752863e-01 3.7495777668058872e+02 6.6548236104245007e+00 -2.0043575939163566e+02 1.2790436592331389e-01 -1.7114774314337410e+01 -4.5583926340885228e+01 1.0470465773869364e-01 2.6976264107227325e+02 1.5613182739616605e-01 2.5389828023185146e-01 -6.6669095321325585e+01 2.7678580368310213e+02 1.6934559657238424e+00 -3.1140758601122798e-01 -4.0343200477991559e-02 -1.7766819348337594e+02 -2.9849165603518486e+00 -8.1827225186862051e+00 -7.4969049841456581e-01 2.3062686239765026e+02 1.1398422030266374e+01 7.8610712453676388e+02 -5.6817817778392055e-01 -2.8775449658930302e+02 7.7242839335172903e+01 1.0109433968864323e-01 -4.3448655372112989e+02 1.8811957211073604e-01 -5.9223306301646517e-02 1.0207227085833438e+02 4.9289400296664098e+02 7.3411726269114297e+00 -3.0717696465671906e-02 -1.0273912218053738e-02 -1.4618647583574057e+02 -5.5183672076091170e+00 -6.5530253030592576e+00 1.0264648610791482e-01 5.3608236539363861e+02 5.8490937747992575e+00 -1.2772893830388784e+03 2.9710711659572553e-01 5.4054994539916515e+02 -2.6391086619318230e+01 -2.5314888838056504e-01 -2.5540045916977106e+03 2.2245820836451458e-01 1.5608004243040341e-01 6.5918493251316249e+01 7.7212654257752001e+02 -1.3586079150376008e+01 2.8192736198462853e-02 7.2658874887963520e-02 -2.5914482586638769e+01 2.7895072614774108e+00 -5.6421803958292003e+00 9.6304558222618653e-01 1.2828707338869572e+02 6.9824345682718558e-01 -1.3991755824869033e+03 1.4556393901330011e-02 2.1582461724434688e+02 -3.5813590001635021e+01 -1.0844835477473680e-01 -1.5615988259315491e+03 -2.6469104471470928e-01 3.4429336898392648e-01 -3.7979569644667208e+01 6.0540213108062744e+01 3.5156650939024985e+00 1.0227836871308682e-02 -3.3001772895929093e-02 -7.7751217633951455e+01 -3.3241294230683707e+00 -1.2341527350363322e+00 1.6124253002635669e+00 -3.2329251410719007e+02 6.9332806272432208e+00 5.2832215523719788e+02 -2.1600162911016696e-01 1.4654131993651390e+02 4.2868327856296673e+01 4.4782799163499476e-01 -1.4585628055408597e+02 -3.3193245051012354e-01 2.0845957624088203e-02 -1.3677529482892714e+02 1.0459678746610880e+03 7.4497890354687115e+00 1.4499703263718014e-01 1.2002082577421716e-01 -1.4078450166671246e+02 9.1048305797606304e+00 5.3678242539081111e+00 9.5101098808002007e+00 -1.8580795856937766e+02 3.4237823118019151e-02 -2.1721494270302355e+02 -4.5244291507088974e-01 1.2249523020843044e+03 8.7878615225699775e+01 -1.3398796940487046e-01 1.1067605716063408e+03 -3.1163896371653543e-01 -1.9722450874633068e-01 -9.2852169462994311e+01 -2.7526980036217719e+02 -3.9377206789504271e+00 4.4418422728824680e-02 -7.2987389652894308e-02 -1.6265041549117814e+02 3.4314236970094498e+00 -1.5393588821461890e-01 -1.5629280638186174e+00 -1.3059004951734096e+03 -8.5827705844421871e+00 -1.0080987451598048e+02 -1.6005847160158737e-03 2.0768328318372369e+01 -1.0298238499686704e+01 -3.5857812372341868e-04 2.8623892498807982e+02 -5.7886145802740430e-02 2.4208282824474736e-01 3.1477149440906942e+00 -7.3030670989584178e+02 6.4908066528150812e+00 1.1694990506127567e-01 5.5957673881998460e-02 7.7468891369469929e+01 3.8079297334857984e+01 -1.3690725472581107e+01 2.8004861956596869e+00 -6.0155110293254256e+02 -7.7123257870553061e+00 7.7453608085308224e+02 -4.7748881547340716e-01 1.8017126992428675e+03 1.8397986234914435e+02 3.0614712481222615e+00 -2.8583544615117194e+02 -3.1816488309654645e+00 3.7721534502529908e-02 -3.0695833902237121e+02 5.8392168515290678e+01 4.0044768031166257e+01 5.8147693012729851e-01 7.9634357048534099e-01 1.6480076947922083e+02 6.4809333631726986e+01 -7.0328369423789638e+01 7.3974404798130706e+01 8.8525558676617948e+01 -2.2814640194501663e+01 -8.4089609700102756e+01 -3.6750666994542422e+00 4.3816004772672704e+03 1.9114623605579254e+01 -1.2583600974126254e-02 4.3149563661436184e+02 1.1243017754065932e-01 1.1297779565666133e-02 9.0010605660525016e+00 4.7375485926961915e+02 -8.0928199050000316e-01 -2.7647691720085277e-01 -8.9884845206602032e-02 -1.5230888313672040e+01 -3.5368319526314735e+00 1.2345684276224347e+00 -4.1792254654298755e-02 6.2874044630507933e+02 4.5438945199421141e+00 -2.9362827832291100e+02 -4.6345307786951707e-02 -2.0229107004698068e+02 -4.7276095062732941e+02 
      </Row>
      <Row Index="209">
        -1.1639116556768158e+02 5.2106015193271560e-01 2.0208883876353502e+02 -2.2364958485422903e-01 -9.5551156838837414e-02 -4.2137306126579642e+02 -6.9780996163189411e+02 -2.0718959190872283e+01 -4.1421391777493488e-02 -1.4813407176711735e-01 7.0554791057948023e+01 9.3993567097932100e+00 1.5257552378345281e+01 1.1352570533927064e-01 1.9770909382663667e+03 1.0542392622213811e+01 -5.5565460231900215e+02 4.1854047414744855e-01 8.2668308834545314e+01 1.5858195224148221e+02 8.9046437304205028e-02 6.8311337544023991e+02 -8.5579680480805109e-02 5.9813342655615998e-02 -2.5732317703962326e+02 -1.0828673080659937e+03 -1.6211935093626380e+01 4.4421408845664700e-02 -6.6114207106693357e-03 1.3598063255330271e+02 2.5452081160619855e+00 -2.8263461643364280e+00 6.2873042043065652e-03 -4.4671448243968189e+02 2.4740279205143452e+01 3.5665983121842146e+01 -1.2762626643961994e-01 6.7244508455266077e+02 5.5486208579270169e+01 4.9012926038813021e-02 1.3867036872237259e+02 -4.3246892977549578e-02 2.4086259176692693e-01 -5.7606230372563004e+01 -1.3714299651682377e+03 8.9344471463009540e+00 3.5676013211968893e-02 1.8732467083964366e-02 4.3861747194081545e+02 -1.1430182624608278e+00 4.6457939653191715e+00 -2.7695590360235656e-01 -5.8990228625852615e+02 3.1775995515985414e+01 -3.9558614762872458e+02 -2.2198391238998738e-01 2.1301539464853704e+01 -5.2663708394451533e+01 2.0781355383223854e-01 6.6228434576280415e+02 -7.8938923966234142e-02 -6.6482718811556651e-02 -8.7244627263396978e+01 -4.0608200543187559e+02 -2.1853418349521235e+01 5.3819570016344187e-02 1.9125447180499577e-02 -3.0858407727535814e+02 -3.5086355081293732e+00 2.2960877907898976e+00 4.4844683604060265e-01 -1.2036882102862000e+02 1.2658640085861407e+01 -5.6736593855544925e+01 7.1467650610429700e-02 -2.0653866092790850e+01 -2.0045681317159324e+02 1.4479869431943371e-01 2.5948274426162243e+01 -1.2663820209127152e-01 2.7915970956928504e-01 1.9810776051727589e+02 5.2152542828395963e+02 -4.8458967131155077e+00 1.3833184816303401e-01 1.2326382156970794e-03 -3.0246464284602553e+01 8.1656123399734497e+00 -5.4343938363017514e+00 -2.4455112499708775e-02 -2.2118224333154503e+03 1.5999887872952968e+01 1.3527964762551710e+03 -2.2096932411477610e-01 -1.0476346331834793e+02 2.1988792389980517e+02 -9.7011113260123238e-02 3.5950574155896902e+02 -3.9207885096402606e-02 3.9085665601305664e-02 -2.3537586790509522e+02 8.5634919050079770e+02 -1.3993660608044593e+01 -6.2720132595131872e-02 3.2359918482143257e-03 1.6674787070602179e+01 7.5215584472753108e+00 -7.6269397539435886e+00 -5.8332062627414416e-01 1.1577167290449142e+03 -9.6361468104878440e+00 1.8985978558659554e+01 1.2503963336348534e-01 1.5553888069838285e+02 -1.4572701726506057e+02 4.6647592239241931e-01 1.4734194953928236e+03 1.2763192571810578e-01 3.0428449840292160e-01 -1.9576516698673368e+02 2.0094215552359819e+03 2.2145949343274424e+01 8.9720844474868500e-02 7.3739145815920892e-03 1.4021409396495437e+02 -1.1961251846514642e+00 1.4231123104997096e+01 1.4664425482915249e+00 -4.1692753430753946e+03 1.9584296980108775e+01 -8.0622603578562848e+02 -5.0351351835161040e-02 1.6780364768004802e+01 -7.1859610708866967e+01 5.0054127241310198e-02 9.6179678392410278e+02 -4.1604771030961274e-02 -1.6523392976159812e-01 1.2302675050823018e+02 -4.9806050062179565e+02 -1.1051570877199993e+01 1.7330130101981922e-02 1.5914301060476532e-02 -2.6853788862051442e+02 1.1985027051428915e+01 -6.3381442437676014e+00 3.1149164386442862e-01 -1.2150528042940423e+03 1.4832857357338071e+01 -1.3334197667241096e+02 -2.3805248105861665e-01 2.8232518322765827e+01 2.7663924906108878e+02 1.0532688045486793e-02 6.2348958033695817e+02 2.9201985555246779e-02 -2.3331785932312499e-01 2.9855265430547297e+02 -2.3268972087809816e+03 2.0456607217445139e+01 -1.8266219066561132e-01 -2.0210288261404318e-02 -3.5597886966133956e+01 -8.7207619823599032e+00 -1.4873854300110906e+01 -2.1132366613883278e+00 1.6540447560511529e+03 5.0587790697372839e+00 9.1195131431706250e+02 -2.5881005836828308e-01 2.0880721068382263e+02 2.7303583125900644e+02 9.2917079589369678e-02 -6.9021187450748403e+02 7.6945929999072238e-02 -1.1123377844023707e-01 1.4714630903489888e+02 1.4453643583636731e+03 6.0899791062183795e+00 -5.2888556785092078e-02 -1.0343253343080505e-02 -1.1988990488468698e+02 -2.0253230831731344e+01 -9.1659287211514311e+00 -6.4660953016755229e-01 -7.5475966467801481e+02 4.6312962631636765e+00 8.2485616237483919e+02 -2.8405905033855561e-01 1.4553988503757864e+01 3.1214041717301006e+02 -5.9636488430442114e-02 -2.4449681084090844e+02 2.0602759596840770e-02 5.9498075213014090e-02 2.1672328365384601e+02 1.1740287794210017e+03 -1.3207177558098920e+01 -1.1383945650109695e-02 4.0145247697793707e-03 -7.8237215755517536e+02 -2.2649465342692565e+01 -7.0055785017902963e+00 8.0728229605483648e-01 2.8765662214569747e+03 1.3371871719136834e+01 7.1620502778317314e+02 -2.1252671861611816e-01 1.8397986234817654e+02 2.1277220385152077e+03 -3.2492532153406994e-01 1.7065493121863756e+02 6.2899661626644443e-01 -2.4820725168265252e+00 9.6797542445878639e+02 -2.4080882546263567e+02 -4.8149090815363152e+01 -1.9195103928205111e+00 -2.6164396772255460e-02 -3.5217606000691103e+03 -3.2842002259182038e+01 -7.4577579611529501e+01 -1.9349115177473067e+01 -1.8500855646390437e+03 -1.0008648601280427e+02 -6.5765491780119282e+02 -2.3960960608690707e+00 -4.3160325726487869e+01 1.6583808191410935e+02 7.1478559134601563e-03 -7.1790687973989043e+02 -2.7000231894021454e-02 9.2114612133400442e-03 -4.0608851548497768e+01 -4.7736848152581490e+02 -6.7949384799849142e+00 7.4051185769576477e-02 -5.6594348778669659e-02 -2.2977409566068673e+01 1.0888196233136114e+00 1.2854817687039031e+00 9.0912033733398477e-03 4.9659168658329395e+02 1.9987307908479124e+01 -1.0982091193783517e+03 -3.5783044135384204e-02 -4.5231404504449344e+01 4.8423326179809345e+02 
      </Row>
      <Row Index="210">
        -1.6149631992655600e-01 2.8270726846108829e-01 7.5936451950110495e-01 -3.3096056569590360e-01 1.3115240084018254e-01 9.6178331239498220e+00 -6.2382386839017272e+00 -1.3845049117281860e-01 8.1162823621447255e-01 -2.6302533772290104e-01 -7.4780479601031402e-01 9.8429025750374421e-01 -5.2679845172679052e-01 3.5634674559605628e-01 -3.6542977604898624e+01 4.7026468002150068e-01 4.0478602120652795e+01 1.2673853608305308e-01 -3.4136739926907467e+00 7.8830843856849242e-02 5.7570253096969282e-02 1.6995041380112525e+01 -5.9143496175636301e-02 7.9478506975306118e-02 5.9893594912718982e+00 -8.4288495758155477e+00 1.0581599373836070e-01 3.2681917236629943e-02 -3.0990099726082576e-02 -3.7653060653323109e+00 7.8559377274359576e-01 6.9639046509109903e-01 -2.4335795023193896e-01 -1.8282463650393765e+01 -4.3767457921057940e-01 -2.5637788316234946e+01 -5.9361348368611289e-02 4.1301685176068759e-01 -7.1752288129573571e-01 5.2415742739896132e-02 4.3510323988823529e-01 -7.4908646023573056e-02 8.7286475432506450e-02 -2.4427073651459068e+00 1.4321480624377728e+01 4.9211320363224331e-01 -4.2233396318209770e-03 5.9820651094710797e-03 -1.7299341754478519e+00 -1.0229322289815173e+00 7.7493009030877147e-01 7.4450769510883674e-01 -1.8633748242966249e+01 -2.0389238674761145e-01 -2.2674583116779104e+01 -3.0611656122744080e-02 -8.4349988811300136e-01 -2.8088820702760131e-01 -3.8503046265560670e-02 9.8424950602930039e+00 1.7105960745027460e-01 2.6680981023779360e-02 -5.2548562060110271e-01 1.6703273806953803e+01 3.5308193283708533e-01 4.8856894796251993e-03 2.6512479925457910e-03 -5.1664344980235910e-01 -6.8608415628114017e-01 1.1572512553584602e-01 -2.1950938566163813e-01 5.1290718367090449e+00 -6.8908281756546330e-01 2.0928812334022950e+01 3.7989129448646963e-02 -1.8757980484224390e-01 1.4193418342620134e-01 -1.2307988023906091e-01 4.4874517363496125e+00 4.2367753664962038e-02 3.3886113309747401e-01 -3.5239726193976821e+00 8.9876937866210938e-01 4.0579869587145367e-01 1.6035067581645990e-01 -6.8651440930509011e-02 2.6361833105092956e+00 8.4382850758265704e-01 -4.8441955004454940e-01 -7.4931772964441734e-01 -5.0423080387554364e-01 -9.5702259804238565e-01 -1.2381459650423494e+01 -6.8819441821062810e-02 -8.1066459766589105e-02 3.5470370967050258e-01 -1.1695663088318042e-03 -2.5333825445268303e+00 1.0638629660161314e-01 3.5205836414718306e-02 3.9926782251495752e+00 -2.1346381437397213e+00 -2.0639210641547834e-01 5.6309584393972045e-03 9.5316034046675213e-03 -1.4637672936078161e-01 1.0610830610530684e+00 -2.8957282746159763e-01 4.6196764032572446e-02 -8.3854074915871024e+00 6.9940425127788330e-01 -2.4728802805766463e+00 1.6047190830136060e-02 4.4140773511026055e-01 -4.7428458030117326e-01 -5.0062239579574452e-02 2.0262307222859818e+01 6.3286165836217378e-02 1.7116436608347385e-02 3.6634791837568628e+00 -2.7418430542340502e+01 -4.6442747711191146e-01 1.4971278110381903e-02 -2.9440325469641593e-02 1.5517816344618041e+00 1.5927040075621335e-01 -3.4595148347511895e-01 2.1665106938917233e-01 -7.5478261685930192e+00 -1.6814787681016696e-01 -5.6128225349377317e+01 2.3757241416575425e-03 2.2431238730016503e+00 -1.6766314613573741e-01 -6.9730997272699824e-02 -2.2713700301945210e+01 -1.7507596507297762e-01 -4.7533652911511126e-02 -4.5997597378591308e+00 1.1008560657501221e+01 2.2254116963449633e-01 8.6040560280480349e-03 -3.1023326377561666e-03 1.5937549790251069e+00 1.3484802706789196e+00 1.2441589388799912e-01 2.7895549540426146e-01 1.7387117497302825e+01 -4.8126307345228270e-02 -2.5543793503195047e+01 -8.9070838344078140e-02 6.4357999456115067e-01 4.1745005938855684e-01 1.6988022991590483e+00 -6.6855462684179656e+00 -8.0998117699461858e-02 -4.6998664110973687e-01 -8.0022700630106556e+00 2.1586316853557946e+01 -1.1320891325364002e-01 1.3070252776240410e-02 5.8858355649953786e-02 1.4402026127245335e+00 -7.9633856479762244e-01 6.4063672076156308e-01 4.6668647383874884e-02 9.2102558742626570e+00 -7.6510903129246799e-01 2.2959184448292945e+01 3.1700155667460095e-02 2.1207068047951907e+00 1.6683542064820145e-01 7.2272935902526569e-01 1.8339377743577643e+00 -2.2140762313148610e-01 -3.4568875899748264e-01 -3.6482901981653413e+00 -2.8754029077739688e+01 2.1344616962551299e-01 4.3898018098891711e-02 -2.0482336025491321e-02 3.9205176748682788e+00 -1.9806484652144718e+00 -3.5966327606070081e-01 -4.2247836690251006e-02 1.8369563318716246e+01 -6.9806725647958956e-01 3.8651250020717271e+01 -2.3344144494842567e-02 9.0119410510669695e-01 -2.1114932924683671e-01 9.5523225267892542e-01 6.3076187787155504e+00 -6.0499320057772366e-02 -1.2673371186008353e-01 -2.3921200250406400e+00 -3.2044572090671863e+00 -3.2075272793736076e-01 7.4398694418289502e-03 2.9049003777955162e-02 -1.9815133732931827e+00 -4.4010440465899592e-01 3.0595822981922538e-03 -8.2208329251301393e-01 1.4482054455686011e+01 -9.9397567246887775e-01 2.5253484025379294e+00 -2.0939080078889560e-02 3.0614712403330486e+00 -3.2492531379102729e-01 1.9445314824735515e+01 -1.4791057128800276e+00 -6.6990673003102863e-01 -5.5689424981038815e+00 -1.3030362589091965e+01 9.0222661039570085e-01 -2.4016996644724031e-01 1.2174359543111717e+00 8.7987023660906072e-01 1.5596480648005127e+00 1.7457869032995177e-01 -1.7213245435284819e+00 6.3758468318401107e-01 -1.7653242778058257e+01 -1.8656505936592112e+00 1.5791078361059817e+01 5.2544830066257431e-01 6.0591607362723607e+00 3.1375350878988684e-01 8.1849511391591523e-03 3.2887784975644649e+01 1.7565274245228579e-02 1.2884160978787307e-02 4.6655766182918512e-01 -1.4631340097566387e+01 1.1703782622849103e-01 8.9982909696317392e-02 -4.9289701899011586e-02 -3.7199379787307407e-01 -2.1072101402796761e-01 6.8255657617100951e-02 -2.2430426195172517e-02 -1.3557505218525478e+01 -2.7855806205388944e-01 -1.0717532796697924e+01 5.3477894579020985e-03 -3.8398392909483903e-01 1.4554217975093307e+01 
      </Row>
      <Row Index="211">
        3.8644686105795699e+01 6.9330295343024773e-01 -1.1195469501018524e+04 1.4134456988540478e-01 3.6936949078153702e-02 -3.0258256772160530e+02 -4.8893286120891571e+02 -4.9678513187347562e+01 8.1081535540955851e-01 -2.7560356843241607e-01 -2.2851041086576879e+02 3.9186676949262619e+01 -3.3280464336276054e+00 -2.7772293757880107e-01 -5.0118062174320221e+02 7.2818926610052586e+01 -2.9633977675437927e+03 1.4673960924847052e-01 -1.3258067820966244e+02 -9.3807236962020397e+00 1.6810602298937738e-01 -6.9621140569448471e+01 4.3804077722597867e-03 -7.5944611191516742e-02 -6.6202123028039932e+02 -1.4387195705845952e+03 -3.9012231424450874e+01 3.5647947253892198e-02 -2.4669529830134707e-02 -9.7656240167649230e+01 2.4461267314851284e+01 5.1975838886573911e+00 -4.2940559505950660e-02 1.6901162053048611e+03 1.1002968809753656e+02 5.0513449038863182e+03 -1.1095723962062038e+00 -5.9864915325571201e+02 3.9635971753858030e+01 7.7284308979869820e-02 -1.3776633419967460e+04 2.5508789462037385e-02 -1.1490339611191303e-01 2.1588065627217293e+02 2.1343984538316727e+03 3.1949879153689835e+01 -3.0752261496672872e-02 2.3992971156985732e-02 -5.8887928750365973e+01 -8.2585357576608658e+00 2.5905758067965508e+00 3.7271999387303367e-01 -8.7489007462933660e+02 -5.3535733371973038e+00 -1.8938573432564735e+03 -9.8816192617232446e-01 1.5700341311469674e+02 4.8636858231388032e+01 -2.8201828314922750e-01 -1.6528957846254110e+04 -2.8584726611734368e-01 -6.4050852719446993e-02 -2.0326155096292496e+02 -1.8966296269297600e+03 -7.0110330935567617e+01 7.3993941940898367e-02 -5.8791113740880974e-02 -3.1290129991434515e+02 1.0488936629146338e+01 -3.1168582709506154e-01 -4.8161858688399661e-01 -4.2024106085300446e+01 4.3374216155003523e+01 -1.1383009270429611e+03 -1.3620662881294265e-01 4.0272369980812073e+01 2.5408099433872849e+01 -2.1459024137584493e-01 4.5528276622295380e+02 -1.8972084182314575e-01 -2.3670594625582453e-01 2.2037806472461671e+02 -6.2113078069686890e+02 2.8732982010114938e+00 1.9345248738682130e-01 -5.5421257782654720e-02 2.9653945394046605e+02 1.5832368135452271e+00 -2.0996063835918903e+00 3.2394034974277020e-01 -7.4931012155860662e+02 4.5222283750772476e+01 1.0187479225397110e+03 -3.9152932623983361e-01 1.3697628676891327e+02 -2.6734683633781970e+01 -1.8524088009144180e-02 2.3275650566816330e+03 3.2901468366617337e-02 2.6008031069068238e-02 -8.7988688845559955e+02 -2.7130248072557151e+01 -1.6159698622999713e+01 7.8904429425165290e-02 1.8573768626083620e-02 2.5854144614934921e+02 1.8515460684895515e+01 -1.7260412303730845e+00 7.9676071961876005e-01 3.5806702384948730e+03 -1.0937157080508769e+02 8.8705792202949524e+03 6.7049083340680227e-01 -2.8486547166109085e+02 3.2072566496441141e+01 9.7046275439788587e-01 -2.6803218187045306e+04 -2.3122769576002611e-01 4.5882948608777951e-02 -4.6332521028816700e+02 -3.0782214625254273e+03 1.5372780266814516e+01 -8.7868887258082395e-03 -6.5591723068791907e-04 2.6809171269997023e+01 -1.0185215622186661e-01 6.6694815720547922e+00 -5.8641421108040959e-01 2.1332106204032898e+03 4.5317465320171323e+01 -2.3766351977065206e+03 -2.8420626760635059e-01 -1.2584104460373055e+02 1.9658169941860251e+01 -7.2523629118222743e-01 -4.8990306934356689e+04 2.3451265420590062e-02 2.6014345465227962e-01 4.7433058187738061e+02 -5.8474657135009766e+03 -3.3311595547944307e+01 -1.2580121292558033e-02 9.9881126882792159e-02 -2.0304795354604721e+02 3.3163669995730743e+01 4.9546259427443147e+00 -8.8632629113271832e-01 3.6866160568594933e+02 -2.0680734895169735e+01 -5.2955600309371948e+02 -8.5888815744829117e-01 9.2856580764055252e+00 -3.6669423362473026e+01 -1.4753981969261076e-01 -1.1351561959743500e+04 -5.0576442034616775e-01 2.8102853968717273e-01 8.6566571775823832e+02 -2.1378594432696700e+03 8.7245103490540714e+01 -1.5302238626998338e-02 6.9650743995172709e-02 1.4454023217083886e+02 -1.8302744671379912e+01 1.9446157333761221e+01 -2.7960853169679467e+00 3.5102231247723103e+02 1.3216376244505227e+02 -1.8395947134792805e+03 -1.0948163145567378e+00 -2.4387974462658167e+02 -3.4884481063316954e+01 1.0456886304746149e-01 3.6894604282990098e+04 2.5548016920220107e-01 5.5845613644123659e-01 7.5170625953376293e+02 -2.2813990395739675e+03 2.3688635962316766e+01 5.2846369035250973e-03 3.0202939899027115e-02 2.0675301276723985e+02 -5.7523767901118845e+01 -1.6426757354172878e+01 6.6754822006623726e-01 -7.8082711839675903e+02 2.7350541051942855e+01 -3.3562715463340282e+02 1.1936346176298684e-01 -1.2877948600798845e+01 6.8938600579043850e+01 -3.9001793964416720e-02 2.4638585978087038e+04 -1.4790409688794171e-01 2.3411989468513639e-01 3.0776113829389215e+02 -5.2317486628890038e+01 -2.5797697414644063e+01 -5.0353426422361736e-02 2.5271510576857281e-02 -5.7987775949761271e+01 -3.7276826412882656e+01 1.9310779167804867e+01 -1.4601746225962415e+00 1.9527033595368266e+02 1.3964637480303645e+02 4.7905773590877652e+02 -2.9485363111598417e-01 -2.8583544535934925e+02 1.7065493038110435e+02 -1.4791058290579948e+00 9.8777960114733421e+05 -4.0914497454375134e+00 5.2003750479153990e+00 3.4374843358425051e+03 7.3819670930786287e+00 1.7669843993159631e+01 5.1166969740610924e-01 8.9791948754920448e-01 -5.7476049198468263e+02 -7.2415636884528112e+01 3.0284123065675402e+01 -2.1977142320474968e+01 5.8221871047062496e+02 3.5447943750087870e+02 -3.9846377754283321e+02 -4.6002853018089347e+00 -2.9195728113525547e+01 -9.2951188422739506e+00 2.6201342469749974e-02 5.2061752251926300e+04 -1.1559361534000345e-01 -1.0689989213915396e-02 -1.3536627224723523e+02 -5.5931323505524042e+03 -4.5400667208800179e+01 1.8415673236631847e-01 -2.0785676685335908e-01 1.4856595421908423e+01 -2.1895689257653430e+00 1.5934902334120125e+00 -1.7697289595428614e-02 1.7690877522562619e+02 7.3691375893540680e+01 7.8452697689932654e+02 -1.4721937284543718e-01 1.0880115297056668e+02 5.6388841595431259e+03 
      </Row>
      <Row Index="212">
        2.1550465935523277e-01 3.6668889225737189e-02 -7.3567337200511247e+00 -9.6417734350645645e-01 2.1648928166854375e-02 5.5652945730253123e-01 1.0211779763689265e+01 -5.9428194290605063e-01 -2.0222300472603594e-01 2.2794654383340784e-01 -2.8116693923457206e+00 2.7897048558224924e-01 -1.8789455731894122e-01 -2.0505702639854917e-01 6.2178672531154007e+00 5.6219931619125418e-01 6.9021808914840221e-01 -2.2576897433111753e-01 3.4541549181994924e+00 -6.8932016799590201e-01 2.0025362819012571e-02 2.6207635740138358e+00 -1.7573130633415701e-01 4.9655908266075244e-03 -1.3527808920480311e-01 6.4460041334750713e+00 -5.7018778026395012e-01 -7.0896268454134770e-03 1.5474028822911379e-02 -5.9099345112150559e-01 -9.0256129740737379e-02 -7.9361537340264476e-01 -2.3478632720411952e-02 1.4423039969813544e+01 6.0881927774607902e-01 7.6121493427723181e+01 2.1042318502128410e-01 6.8995409515964070e+00 4.4994888734890992e-01 8.1940848093324803e-03 -3.8939502982329088e+00 -2.5783602713070763e-01 -2.8895407662048456e-02 2.4208137008245103e+00 2.0033181465696543e+01 2.3077798497308777e-01 -1.6186196621781335e-03 -4.6069769254515336e-03 8.8267713785498927e+00 -6.1826029025542084e-01 -4.9411312535448815e-01 1.4680247793160106e-01 4.1541257487977418e+01 -2.5172977078909753e-02 4.7334232398250606e+01 1.8963814024937165e-01 2.9874648413169780e-01 5.1674263667700870e-01 1.0200793850017931e-02 -3.2491959921026137e+00 8.7394686880475092e-01 -4.2849078137465746e-03 6.9767774408392143e+00 5.7112417824100703e-01 -5.9149958684611192e-01 8.9273885402709752e-03 1.9546260693152462e-02 1.6783835769929283e+00 5.6393349917925661e-02 -2.4733597506588012e-01 1.5612169681126886e-01 1.0565135858720168e+01 7.1824683461713335e-01 -1.2050456818382372e+01 -3.3939103514569524e-02 2.6935557263823284e-01 6.0689758394437376e-01 -4.3317569801359923e-03 5.3642929437337443e+00 2.2960305088304267e-03 -7.3164293126097846e-03 -5.1166867490201184e+00 -6.6558886287675705e+00 -1.8990143051269115e-02 -4.2308796809244598e-02 5.4181427013695327e-02 -6.1412503935316636e+00 1.2077981673064642e-01 4.7231917599128792e-01 9.2646538792735100e-02 1.1567983859691594e+01 7.0300159754697233e-01 1.2275876319181407e+00 1.8909270161759650e-01 7.7673735690768808e-01 -6.0854582832871529e-01 -1.9611834937784067e-02 -1.7885524617740884e+00 4.3512699336682203e-01 -3.7465858305552047e-04 3.9860195632900286e+00 -6.9233738156999607e+00 -7.0674065280854848e-02 -2.3702241789500533e-03 1.0766251854825271e-02 -5.2941837551770732e-02 4.0843946203676751e-01 -3.8889962755820306e-01 1.8869895623925004e-01 -2.1422165866708383e+01 -3.9127706441649934e-01 -3.8848774156998843e+01 -1.3080018997641218e-02 1.3160974477068521e+00 5.0401198608290088e-01 6.3329927463755098e-02 -9.7246506367409893e+00 2.3481766999750420e-01 2.2341882865404727e-02 -6.4280776606319705e+00 -1.6135473857357283e+00 -1.7734716055444011e-01 2.2076885182067407e-03 1.6638229840324925e-02 -5.5032610965793083e-01 8.3057860192639055e-03 2.7521828073969345e-01 8.8123065609465812e-02 6.3286307524191216e+01 5.4330058783713753e-01 1.0844590579690703e+01 5.7039402233208136e-02 6.3496052426853566e-01 2.1152455856918095e-01 -8.4159370752558971e-03 -1.8626556567847729e+01 -8.2493740791468895e-01 -1.5361633970968569e-02 2.7758422219267231e-01 1.4451908919960260e+01 -3.9293771840766567e-01 -7.1246325134382005e-03 -1.0829092238273663e-03 4.9716887882677838e+00 8.2456786525085590e-01 -1.6917062592040111e-01 -1.0120977726410274e-01 2.3609336230198096e+01 1.3265471591512323e+00 4.4595845548436046e+01 2.3729825739429700e-01 -1.7887519087526016e-01 -6.2404702241963150e-01 -1.0284522672042051e-01 -1.2466243579998263e+01 1.6688273998778953e+00 -1.5541242225610194e-01 -5.0745516343613417e+00 1.2550529410011222e+01 1.0705656321016361e+00 -9.9890751143371561e-03 -9.9156813305121438e-02 -6.6180092472905017e-01 -2.0725868627766886e-01 -8.7514369793699132e-01 -1.8002209877973741e-02 -5.3388153137202607e+01 2.4274726779295008e-01 -5.5600601568410639e+01 -8.4890969442873221e-02 -3.8657038380188169e-01 -4.7826203061286066e-01 8.4333538528653662e-02 1.1481230111634432e+01 -3.8579284035361638e-01 -1.0105538041733553e-01 -7.1446922756222193e+00 -2.2249860035866732e+01 -9.4819818439191295e-02 -1.0563948458874428e-02 -4.0782647216802026e-02 -1.8809987979507241e+00 -1.5018646428225111e+00 -1.0522530160608312e-01 -5.8955218091071515e-01 1.9317563206161140e+01 2.4812936219882431e+00 -5.7591575647602440e+01 -1.9264434427005739e-01 3.6948577246639616e+00 3.8198487897216182e-01 -3.4466573379773990e-02 1.2917893613925116e+01 8.8036566518965742e-01 -3.3523455563397420e-02 -7.1500274012942100e+00 -1.0241231912288640e+01 -3.3796700246512046e-01 -1.4136944208722468e-02 -5.7026765895094367e-02 -6.2845079711364633e+00 5.4248619119334762e-02 -1.1728348618430573e-01 -4.2121446668883777e-01 -6.1582820918240031e+01 -6.9701955907839874e-01 2.7716655628943954e+01 -1.6419964723510105e-01 -3.1816488281692727e+00 6.2899661439405463e-01 -6.6990673002300216e-01 -4.0914497826943261e+00 1.7166931819414494e+01 -1.7060859879437333e+00 -4.3467551641062641e+01 4.5842193224299308e+00 -1.8245779077332429e+00 -3.9867146681727361e-01 -1.3454183335312371e+00 -2.8828203808063961e+01 3.0725089597296460e+00 -2.1288340647972177e+00 -3.1490633593614561e+00 2.5042843394557167e+01 3.3027807219419856e+00 1.9604910282537674e+01 -2.7585225182693405e+00 -1.3840094631200373e-01 -3.7344041346091217e-01 2.0983655232429529e-03 2.2251272045488577e+01 1.1234784634332140e-01 2.4495241892072972e-03 4.2299761718271611e-01 5.5763053909689173e+00 -3.8583496510541972e-02 -2.1647628936742436e-02 1.1131042793917126e-01 2.5581252788902020e-01 -3.7730961372574257e-02 -1.1073175879550945e-01 -3.0398994018410183e-03 -1.9897968400048285e+01 2.1050702979937341e-01 4.3054682272986611e+00 4.7769957412372686e-02 -1.8101690369121570e-02 -5.6925884346257307e+00 
      </Row>
      <Row Index="213">
        5.6846740804616758e-01 9.0146168903658719e-01 4.0995087902992964e+00 2.3828760414056660e-01 1.4070946810858231e-01 4.5539562872727402e+00 1.0518861066550016e+01 1.2324433959180681e+00 6.1587882037934538e-01 -3.7847935175562952e-01 6.6785634236366604e+00 1.2188189080916345e-01 8.7478568243386690e-01 -1.6044754097629266e-01 -3.3849513333989307e+00 -6.2241329744574614e-01 2.6253937100991607e+00 2.6150881330761422e-01 -3.3228473755298182e-01 -2.8354428192687919e-01 6.5734534026205438e-02 -1.3470478599483613e+01 3.8254686599486831e-02 -1.6143079743073940e-01 1.1198671998456120e+01 1.8779401364008663e+01 6.2594505009474233e-01 1.7147066676329814e-02 -2.1660644808704888e-02 5.6921231100781142e+00 -1.6302659932989627e-01 -7.0875508783137775e-01 -2.2212398376609599e-02 5.1433600431191735e+00 4.1982580229523592e-01 1.9099223755882122e+01 -3.4472003946984842e-01 -1.2035321866246136e+00 -7.6801751973107457e-02 2.4756843008276519e-02 3.7863344711666400e+00 8.0571471805683359e-02 -4.6402312376756072e-01 -1.1150560975307599e+01 -6.2471450003795326e+00 -5.5468420597435397e-01 6.4259477303636459e-03 1.1533061099399333e-02 2.0679109871925903e+00 -3.7588190189853776e-01 -1.4825126750365598e+00 9.9246452434658750e-01 1.3199696780371596e+01 -1.7047385210025823e-01 -8.8414521182421595e+00 -3.0399930902774486e-01 -1.3384231580421329e+00 6.4611448428695439e-01 -7.1608161435960938e-02 -3.4258271818398498e+00 -1.2715481885825852e-01 -1.2203210911312645e-01 -2.1759400982409716e+00 9.6757533488562331e-01 1.3615935737543623e+00 4.5851380936205999e-03 -6.1304912319748439e-03 3.2538092689646874e+00 -7.6803032789030112e-04 4.1949821212801908e-01 -3.4380026393645835e-01 6.3583174993982539e+00 -6.5211265302764332e-02 -2.6391490567591973e+01 7.0712358474565917e-02 5.8072553842066554e-02 5.7995720319195243e-01 -1.7318590223490560e-01 -6.3697761886287481e+00 7.7799857444688314e-02 -7.1189752347306268e-01 4.6023761615215335e+00 -4.1458185188239440e+00 -2.5782650483597536e-01 1.6081964283705474e-01 -7.2242994710762787e-02 5.8320275153128023e+00 2.3390225443290547e-01 1.5953481992983143e+00 -5.9378600805416681e-01 -2.4388525182730518e+00 9.3874390286509879e-01 -1.0571153350610984e+00 -2.9900721852442302e-01 -3.6845419881865382e-01 -7.7890783993461810e-01 -1.6592404927884274e-01 3.2689656363800168e-01 -6.3572714367069239e-02 -1.5798256069803074e-01 8.3710092214605538e+00 -5.2045649402280105e+00 2.5217892371574635e-01 2.5230891381298193e-02 3.9177386713618034e-04 -2.7002537311054766e+00 2.2717092407401651e-01 4.9616615305603773e-01 3.6399898099449501e-01 9.0719245746731758e-01 -6.6168112418381497e-02 -1.4231110363267362e+01 7.5250667219620482e-02 3.3849948772694916e-01 5.2256063419918064e-01 6.9810820343502655e-01 -6.2185810655464593e+00 -4.6342370341065475e-02 -1.8404892935879502e-01 1.8825441674198373e+01 -4.2868784389924258e+01 2.2797072469060708e-01 -2.2790027611006458e-02 -1.4336223146017346e-02 1.7061249086118551e+00 -3.2184184623110923e-01 -8.8007875066068664e-02 -1.0851790967240049e-01 1.5445986471604556e+01 -1.9975661664830113e-01 5.0806609311177453e+01 -7.0656093968040068e-02 -1.8970572992466259e+00 3.4036851994619610e-01 -1.8613985260708432e-01 2.9293214939534664e+01 9.9696678418609963e-02 1.8963945512962255e-01 2.8241136914148228e+00 5.9103164821863174e+00 7.7209375530583202e-01 1.3225846102997707e-02 -1.1998432839837481e-02 3.2785226529231295e+00 3.2920662813876334e-01 -4.8865137508573753e-01 4.1439865648499108e-01 4.6300263834564248e+00 -4.2054843014921062e-01 1.6840122867375612e+01 -3.2843033048549231e-01 -8.8092378084547818e-01 -8.8471741363946421e-01 -5.7618168345790366e-01 2.9440139577491209e-01 -1.6864336213135278e-01 1.5513143672486669e+00 -1.2740540745744511e+01 -2.0704834627395030e+01 -2.2367104523440915e+00 8.1449890955157256e-02 8.1397692195401106e-02 -2.5789604294195669e+00 -1.2809470331012562e-01 -1.8202838987662062e+00 1.7604103753659217e-01 -1.5046084643719951e+01 6.3276288746237697e-02 -1.6728818956587929e+01 -2.3272536765041174e-01 -6.7942580192175228e-01 -6.4627590983799621e-01 -8.4722201620799353e-02 -1.0613707519412856e+01 4.3181735682310318e-02 1.3617984535287917e+00 -7.0654529787134379e+00 3.6924417250178521e+01 -1.1644939727784731e-01 2.2272440645911828e-02 9.5858063154352635e-03 -4.0497646596822960e+00 -8.1133861487251124e-01 7.3714004423754886e-01 -8.6670078175063736e-01 -7.2607112082187086e-01 -5.2846755864084116e-01 -5.5844928008154966e+00 2.6900660236677254e-03 -1.2829830474001938e+00 3.0194968058822269e-02 -1.0846597476989928e-01 -9.9547472609847318e+00 2.3719492013256627e-03 9.5803576630503784e-01 1.5569359485743917e+00 2.6200222717103316e+01 1.8720361870146007e-01 1.5321204592700699e-02 2.6214572268849601e-02 -3.4868375762857795e+00 2.1667617543789675e-01 -1.1736577936153481e-01 -1.4853432195810683e+00 -1.2779402216852759e+01 6.3158035114793165e-01 1.8213678239808360e+01 -1.1711340761047495e-01 3.7721535598393530e-02 -2.4820725182689785e+00 -5.5689424983792168e+00 5.2003750593703444e+00 -1.7060859878293400e+00 2.1206427752216015e+01 -1.4648146977225110e+01 -1.0467798308497947e+01 -6.6756374720227996e-02 1.5333397922733809e+00 1.1998992920809861e+00 -2.6118766491389124e+01 1.3359696015220379e+00 2.4756916784576219e+00 -2.3233379013192561e+00 8.4757212870217700e+00 -1.2204571141467113e-01 -1.5269288286579467e+01 -2.7423304468107457e-01 -7.1402227619519181e+00 -6.1688624844032347e-01 2.4259728809484772e-02 -3.3051088660950782e+01 -3.8105120229392497e-02 -1.9680260420392948e-02 8.5314079852261671e-01 -1.4963843951043483e+01 7.1851103237053493e-01 7.5836253923526442e-02 -1.0582377495105452e-01 -6.1912446804490173e-01 -2.1602705784516729e-02 -1.9719036325295747e-01 -3.7196660774771510e-02 -4.7718110077165647e+00 2.0109879447772983e-02 -5.6551027194745984e-01 -4.7004198736330480e-02 5.3908828756004823e-01 1.4412872311055139e+01 
      </Row>
      <Row Index="214">
        -1.0201364935869606e+02 2.7923116631245648e-01 4.4699921369552612e+03 -1.3475034295333899e-01 1.2361769675208052e+00 -3.6446261644512415e+03 -1.3032565192341805e+04 -8.6100744853680590e+02 -3.1163776442139408e+00 2.3550746793280268e+00 -2.5378807861963287e+03 -3.4566826528310776e+02 -1.9347509035468102e+02 -2.2073509435285814e+00 3.3747319070398808e+03 3.4479024894535542e+00 -4.1990716264247894e+03 -3.9789777195255738e+00 -4.1105388883128762e+02 8.7868416141718626e+01 5.6631053655291907e-01 4.0106445890367031e+03 8.4725805962807499e-01 -1.6868085029054782e+00 -5.8343173024058342e+03 -1.8981443160017952e+04 -5.0080462025105953e+02 -5.6445055942458566e-01 1.4451034945523134e-02 -3.2476900142584927e+03 -1.9833617649972439e+02 5.2212694032117724e+01 4.6483888199436478e+00 3.9433701917827129e+03 1.8142103616148233e+02 -1.7927326851636171e+04 1.6507566340442281e+00 -4.1765928085616761e+03 9.9145403783302754e+01 -6.7096286993182730e-01 7.5290373585894849e+03 3.6893201492785010e-01 -4.7693768283352256e-02 -2.9439257532507181e+03 -3.7283182317018509e+03 3.9935430001132772e+02 -8.3547841930339928e-02 7.2619934306203504e-02 -5.9928261165563017e+03 2.9970243419334292e+02 1.5882835034746677e+02 -1.0413995692942990e+01 -5.1151680267453194e+03 -4.4965976093616337e+02 1.2171579260140657e+04 2.8714639594400069e+00 1.8123841681703925e+02 -5.6955238983966410e+01 3.7614435490104370e-01 1.2356955807045102e+04 4.1343563904956682e-01 3.9040132177933629e-01 -9.6988483411073685e+02 5.4872832000553608e+03 -8.9050499210134149e+02 2.4464016890669882e-01 1.3735794370040821e-01 -3.2414505921788514e+03 3.3414066499285400e+02 -1.3772195878159255e+02 2.5987065737936064e+00 2.0801719530224800e+03 4.7070473274536198e+01 -9.5041220189630985e+02 -1.6564359153271653e+00 1.9005608154088259e+02 -9.4243582279887050e+01 -6.3785119725798722e-01 1.1664444852471352e+03 -6.3248707263846882e-01 -1.6541498887818307e+00 2.3031948216268793e+03 6.8368220537602901e+03 -6.2684101001592353e+01 -7.9212471441860544e-01 7.1979451538209105e-01 1.7322636461714283e+03 -1.6539664821326733e+02 -7.0774860795587301e+01 4.8291567309061065e+00 2.4223845774736255e+03 -2.2320335749164224e+02 9.9456545594893396e+03 1.5906692613352789e+00 6.6169227606058121e+02 1.1101434546848759e+02 2.3766331834121956e-01 1.2254484326839447e+03 1.4645375674299430e+00 -2.2841584892012179e-01 -1.0374639811821282e+04 9.8921670986823738e+03 -4.2427712605020497e+02 8.7763581657782197e-02 -1.1092431434735772e-01 2.4468639315068722e+03 -3.0296974657103419e+02 1.8129473982658237e+02 5.4561758463387378e-01 8.7885066928863525e+03 2.6811781391501427e+01 5.0642727504968643e+03 -3.0176740635070018e+00 -1.0237852002084255e+03 -4.5794580987188965e+01 1.1629029393516248e+00 1.7965174109536223e+04 -1.6202599646931048e-01 -9.2641238050418906e-02 -7.2059684417098761e+03 8.6391389650180936e+03 3.2475107811271664e+02 -1.3638285679871842e-01 -2.9979680307405943e-02 -7.6260344475868624e+02 5.9515085639432073e+01 9.9826961482467595e+00 -1.5522111926693469e+00 6.7729359917640686e+03 -8.3235899347724626e+01 -8.0564301210716367e+03 3.6312382497999351e-01 2.2251033074496081e+02 -5.5631852275284473e+01 2.2201135162613355e+00 1.9308812519073486e+04 6.5084439447673503e-01 -3.4910184211912565e-01 9.8555640415474772e+02 5.7200864219665527e+03 -6.1193931836076081e+02 -1.9281381657492602e-02 2.4524676375972376e-01 -7.6140460733734071e+03 -3.3776003711798694e+02 1.2130319903203053e+02 -6.0602458636276424e-01 5.6010948760062456e+02 7.3606146305799484e+01 2.8340289812088013e+03 2.6639759353824957e+00 -8.0801565468311310e+01 8.4537695918697864e+01 -1.0038508221805387e+00 -1.0588088981062174e+04 -5.1694980633481009e+00 -2.0006947847872891e+00 1.0883129453660920e+04 4.7029838930666447e+03 1.6830753792877013e+03 -8.6522783971565786e-01 3.9156178438215294e-01 2.8001915098187746e+03 6.8945591452286317e+02 3.6560231842935900e+02 -2.3316634583252380e+01 1.9614789183661342e+03 -1.1355516182520660e+00 -2.0313423574566841e+03 8.9133521209223545e+00 -8.5762431004643440e+02 2.2999131473418817e+02 5.4156602709554136e-04 -9.4488975989772007e+03 -3.0832796733011492e-01 9.5214151340769604e-01 1.4785967397864908e+04 -9.6065056615844369e+03 3.2241803446726408e+02 1.0570236169678537e-01 1.5924324852676364e-01 4.4852823679007206e+03 5.9722502170503139e+02 -5.1874311493942514e+01 4.7889092633995460e+00 -8.2562115823104978e+03 -1.1301202125148848e+02 -1.6251856274083257e+03 2.7223577347758692e+00 -3.2164069425314665e+02 3.3700313163688406e+01 -1.0948480546030623e+00 -2.0656917717847973e+03 -1.0843477826492744e+00 -8.9073102615475364e-01 1.4619233779208735e+04 -8.4193179139494896e+02 1.5282081765867770e+02 -9.5055216580931301e-02 1.1924650226453082e-01 9.5198342678977642e+03 1.5383995444513857e+02 4.5181986802956089e+01 4.6797525877773296e+00 9.6364891748875380e+01 3.4378030305728316e+01 8.4473944806419313e+03 2.7524960339724203e+00 -3.0695833984762430e+02 9.6797542466968298e+02 -1.3030362633135683e+01 3.4374843504517339e+03 -4.3467551635782002e+01 -1.4648146927808929e+01 9.6896695075122960e+04 6.0392806935305816e+02 2.7686261156523988e+03 -9.0452990324927498e+00 1.1751415370952429e+00 4.8970206483837435e+04 3.9926220852868660e+03 4.5699873019553229e+02 -1.7549187805333713e+02 -1.8710805357858667e+03 5.1515528037817126e+02 1.2254438012950177e+03 7.3519430921470416e+01 3.0147576040272625e+03 9.3992523182067089e+01 6.8214990184602947e-02 -2.2942688964147728e+03 -6.6210129500177572e-02 -4.5435270772031799e-02 -1.3705051061320223e+03 -3.9937292605859079e+03 -1.0130149096874840e+03 -9.8603247290338913e-01 6.7738707373241069e-01 3.6687729229126126e+02 5.8629655671596993e+01 4.5829549680696800e+01 3.1657087845927534e-01 2.1419495860131919e+03 4.2180087562417611e+01 -1.6507211321211416e+03 9.4265272291214508e-01 7.0223921615405743e+01 5.0048474841941843e+03 
      </Row>
      <Row Index="215">
        2.0626718801489915e+01 -1.3161945846222807e+00 -2.5429571857452393e+03 8.5922694770852104e-01 8.1231015457888134e-02 -7.3853945004940033e+02 -2.1611109206199646e+04 -7.7825165522983298e+01 -1.3251594479988622e+00 -2.5267141876975074e-01 -1.8642175775468349e+03 -1.1368678820133209e+02 -4.9716091156005859e+00 -2.2417007451876998e+00 5.6905896139144897e+02 -2.0555594295263290e+01 3.3512170028686523e+03 -1.2368824270088226e+00 -2.1025001168251038e+01 2.1314142882823944e+01 -3.1899513117969036e-01 -1.1405825055837631e+03 -1.8545091664418578e-01 -1.2980037200031802e-01 -6.0966950035095215e+02 -2.5911373932331800e+04 -2.3828420042991638e+01 -3.2238848507404327e-02 -5.3426971106091514e-02 -3.1432583591551520e+02 -3.8603330194950104e+01 3.0856444239616394e+00 -1.0354082947596908e+00 -1.5193332664966583e+03 1.0023186206817627e+00 -4.9152658987045288e+02 1.1499897418543696e+00 1.0461818734845147e+03 -1.4720948039740324e+02 -2.8552252351073548e-01 -2.8356373074697331e+03 1.2006402318365872e-01 -1.1342323664575815e-01 5.0828559136390686e+02 -3.5411233778953552e+04 -6.5197088087443262e+00 5.3836373757803813e-02 -8.6270975793013349e-02 4.9627930898964405e+02 1.4971763849258423e+02 1.1739450275897980e+01 -1.3613792634569108e+00 -2.9309554263353348e+03 1.5026735842227936e+01 1.6438291802406311e+03 8.9722415548749268e-01 7.0096788084506989e+02 -1.1652998983860016e+01 7.1458429563790560e-02 -4.7758255004882812e+00 -6.3373326923465356e-01 -3.1195737652524258e-01 8.0080081439018250e+02 1.2781600644588470e+04 -2.4202016487717628e+01 -4.3673092601238750e-02 -7.5062591393361799e-02 -1.4259841252565384e+03 1.6258489626646042e+02 -1.6278498093597591e+01 3.2876652409322560e-01 6.2222884702682495e+02 1.7399163763155229e+02 -1.8549237259626389e+03 -7.6123652048408985e-01 -5.6769361004233360e+01 -3.5655733879655600e+01 5.0212859647581354e-01 1.0075577845573425e+03 1.5565961669199169e-01 -1.6945134961861186e-01 1.9892423464357853e+02 9.6750701100826263e+03 2.4695713825523853e+01 -2.9649400070775300e-01 -1.1135510174790397e-01 5.4728124469518661e+02 -1.5902862060070038e+02 -1.3134099021553993e+01 5.8197587681934237e-01 -2.8039626363813877e+03 6.0836830258369446e+01 -1.3286946827173233e+03 6.2850152095779777e-01 -1.4431541681289673e+02 2.2842104464769363e+01 6.4037082227878273e-01 8.2126829147338867e+02 6.1214732471853495e-02 -2.0535295398440212e-01 -4.5786030653119087e+02 1.3948143493376672e+04 2.8703815294429660e+01 -1.4905768496100791e-01 -5.6917858601082116e-02 8.4355673742294312e+02 -1.9837184932827950e+02 3.3797466292977333e+01 2.1084071628283709e+00 -6.0694930973052979e+03 2.9250949934124947e+01 -1.2659827165603638e+03 -1.2642154339700937e+00 -5.7773194313049316e+00 -6.0700925739482045e+01 -1.2259327730862424e+00 1.1923708858937025e+03 -2.3925395304104313e-02 -5.1567843917291611e-01 -1.6246379948258400e+03 -4.5717305084049702e+04 -3.2974743600672809e+01 -3.2650284274495789e-02 1.7894748943945160e-02 -5.4633748830109835e+02 -4.0684681683778763e+00 5.7277914670761675e+01 -7.5852437922731042e-01 -3.2718216028213501e+03 8.5294703722465783e+00 -9.3027927902340889e+02 -1.4936288975877687e-01 -2.9273481919430196e+01 -1.3765562983229756e+01 4.9411976803094149e-01 -9.1232812500000000e+02 1.7753832560265437e-01 2.6138978404924273e-01 -1.7057095897197723e+02 1.7651154479980469e+04 -6.6438758380711079e+01 9.1567406838294119e-02 2.3669596434046980e-02 -4.5610247403383255e+02 -2.2185100030899048e+02 3.8569873878732324e+00 1.1988837011158466e+00 -3.3149674785137177e+02 1.3736529099941254e+02 -2.1195592117309570e+02 1.6367657117334602e+00 -4.7030124902725220e+01 6.1405556037090719e+01 1.4219524536747485e-01 6.8022259887456894e+03 6.1553329923299316e-01 -1.1398451285129261e+00 4.0702992184460163e+02 -1.9834956777274609e+04 1.3799257657514681e+02 -5.5708255778881721e-02 -1.5923875841926124e-01 1.0579676111442968e+03 4.6893694557700655e+01 -1.8143382409471087e+01 -5.8495189400855452e-01 -1.8956388524770737e+03 2.3518368436838500e+01 -1.2232853317260742e+02 -1.3999496373180591e+00 4.0517482876777649e+01 2.3569183906527712e+01 -8.2825534511357546e-02 -2.6794491606950760e+02 5.1810697361361235e-01 -3.2721347961341962e-01 7.4549640095233917e+02 5.7350227365136147e+04 -1.3120205808430910e+01 -1.0328186547121732e-01 -1.5699274976213928e-02 1.0528700104753593e+03 3.1406596048176289e+02 7.9379913248121738e+00 4.9826098885387182e-01 6.4283364723622799e+03 -5.6553333507850766e+01 1.3554754252433777e+03 -2.2019508373341523e-01 -7.2093790650367737e+01 -7.6108574328944087e+01 -1.0375125505379401e-01 -1.8137915009558201e+03 -1.2216469313716516e-01 -2.3087699175812304e-01 -1.2056154450774193e+02 4.8608026843905449e+04 3.6884988702833652e+01 4.5506911683332874e-02 8.5977484439581531e-02 -1.1315545875020325e+02 2.5257051965594292e+02 -3.8696339301764965e+01 -1.0674941949546337e+00 -2.3866800659298897e+03 -1.5984790475666523e+02 4.1355076977238059e+03 -7.1822744706878439e-01 5.8392165780067444e+01 -2.4080882239341736e+02 9.0222601464299501e-01 7.3820756860077381e+00 4.5842195046134293e+00 -1.0467798114576333e+01 6.0392804069416820e+02 9.7948345091653313e+05 2.8494416281240098e+02 -2.1612880852142897e+00 -8.2958947157700180e-01 2.5020778071340446e+03 -5.0051828091243692e+02 -1.5845371852890685e+02 -7.7070898613033023e+00 -1.6894887430877625e+03 -7.9882261359132872e+02 -2.5278645608168149e+03 -2.1193085196957959e+01 -2.6407893937941208e+02 4.4162436751648784e+00 -6.4498876379282227e-02 -7.0175642102838156e+03 -1.6212671867106110e-01 -1.2202549694848130e-02 -7.6647688884236175e+01 -4.2165559583292306e+04 -1.0817729657071348e+02 -1.8562700452457648e-01 -2.8151183568524302e-01 3.6236631691083312e+02 2.2753916610032320e+01 -2.8029891531914473e+00 1.5169342405248337e-02 -2.3545579441688269e+03 -1.2463241554796696e+00 -3.4882464186998204e+03 -1.3504270500007753e-01 4.6466303899884224e+01 4.2274178410919638e+04 
      </Row>
      <Row Index="216">
        7.3853720180103508e+00 9.6917017325353072e-03 2.1781357905035838e+02 -2.9957583801711962e-01 1.3009888451764340e-01 1.0925294147181557e+02 -2.9429784411005676e+02 1.3530166856679386e+00 -9.4616676807722566e-02 4.0655154212785760e-01 -2.1713322600285755e+02 3.2309409693290945e+01 -2.3385367618757300e+00 -2.4768608024305649e-01 -1.5899956849985756e+03 -7.3360889980103821e+00 1.9286305840220302e+02 -6.1944437855015622e-01 3.5913137267241837e+01 -1.7278009770190693e+01 -9.3972010688048613e-02 -3.3899911646870896e+02 5.5406071965023784e-02 1.7063730262663057e-02 3.3515492016519420e+02 -5.2991699878210056e+02 4.6129146599967498e+01 2.6584765172572133e-02 3.7573581251919563e-02 -2.4586152724016154e+02 -9.7467090346617624e-01 -1.0783675582926662e+01 -3.5356560992397590e-01 -1.2764823250086047e+03 3.1904162324208301e+00 -1.0582785711677279e+03 1.0313494512915895e+00 1.3532845880946240e+02 2.8318134411128995e+01 1.4620359168711161e-01 2.2969722597935038e+02 4.7402225063478909e-02 3.8383196038353162e-02 -1.0965430702206213e+03 6.0016395892668515e+02 -2.1788478785423354e+02 1.5015051379620559e-02 2.0774724498139108e-02 -2.6995251984166680e+02 -5.3309600376145681e+01 2.4007091234827385e+01 1.9264705876612425e+00 -6.6502191964414669e+02 -1.1382998165390745e+01 1.2707486443691887e+03 5.1982903058393504e-01 1.0826520959322806e+01 2.5133992522412882e+01 -7.4077947464672889e-02 3.1682743408333044e+02 2.9790081296710014e-04 9.2729662784867273e-02 6.3714161317318212e+02 -1.8396641448227456e+02 1.1075809275094798e+02 2.7097523368198040e-03 1.6787426175802977e-02 7.0890111151667952e+01 6.2416287262749393e-02 -1.0591942792647387e+01 -4.5839042669763330e-01 2.4145243340241723e+02 -1.2234577266971201e+00 5.8705054327100515e+02 -3.2294267628003581e-02 -3.8243118445825530e+00 2.5033753839763449e+01 -8.4348883923752282e-02 -7.3118154611904174e+01 1.3644855973211634e-02 -1.2149217547660385e-01 -1.5724523526220037e+02 1.1155690720397979e+02 -2.5975999382566442e+01 -2.8848642684124570e-02 1.0019529881349598e-01 -6.3032412456399470e+01 4.7203628340794239e+01 1.0258975829267001e+01 -7.8837240043003476e-01 -5.3123250873299548e+02 9.4824178204580676e+00 6.0965352406812599e+02 3.3326788495696746e-01 -1.6565539441537112e+01 -1.9448809096029436e+01 -8.4942451272041808e-02 -1.4879924475820735e+02 3.5358222571744591e-02 -1.1076160881799524e-01 5.6769083679889445e+02 8.7358084911273181e+01 5.7335723817845974e+01 9.5258279472290042e-03 -6.6120324546545817e-03 1.1037249831482768e+01 4.0522408281060052e+01 7.6467689670171239e+00 1.9589729608753714e-01 -1.5505790427010506e+03 2.1243159468547674e+01 -6.3963341487990692e+02 -3.8543827964826960e-01 2.9862837461987510e+01 2.6083494573608277e+01 2.6385027171050979e-01 -1.1309626062383177e+02 4.4164403867199553e-03 7.8069794930826220e-02 4.7955566851363983e+02 1.0079987584273913e+03 -6.5949710196742330e+01 1.8184667860531079e-02 8.0267908000415389e-03 3.8807874447766153e+01 -4.0985095174983144e+00 2.0799946751600373e+01 6.2172505750800156e-01 -2.7428303093882278e+02 -4.5984398004327431e+00 -3.2051877983033773e+02 2.4854644750502075e-01 5.1512618041549558e+01 1.2936730059953334e+01 -1.0745497301286377e-01 2.3455859160423279e+02 7.8958617579758084e-02 5.0173095719969751e-02 -2.0816629571164958e+02 -1.2971911497414112e+02 5.1335608656310797e+01 4.9201326702331016e-02 3.2897812305821006e-02 3.6840580007381504e+01 6.8400108140683642e+01 2.6666704320728059e+00 -4.5085663110512542e-01 8.7503453409044596e+02 1.6977676358917961e+01 6.2260658123716712e+02 6.2318768313252448e-01 -1.8245108547853306e-01 -3.9640792061202319e+01 -4.4326992029311896e-02 -1.6731738957652706e+03 -1.8513877721916217e-01 2.0423399294710598e-03 -7.8848280334718584e+02 6.8918319609962055e+01 -3.4078689519829197e+01 -5.7587404298583778e-02 -4.8043845214249987e-03 8.1979504752698176e+01 -2.4227438738610630e+01 -2.0238981691676258e+01 2.0936268789043595e+00 3.7629159318003803e+02 -2.0088169465132410e+01 -6.1356214542756788e+00 5.0832052246876458e-01 5.3945619309859467e+01 -2.8184181709055267e+01 1.5576341556332807e-02 1.9274432836569031e+02 -6.1641683291270510e-02 1.0314393407767852e-01 -5.7279636450490216e+01 -9.8412460702608223e+02 7.0433216455684942e+01 2.2405628472068173e-02 2.9083477427835902e-02 2.0097753183177895e+02 -9.8408969549383983e+01 -1.4841218623555505e+01 1.2592262668494527e+00 1.8021157041569968e+03 -2.7396682945287466e+01 -4.2396485495439265e+02 -7.1061932376522918e-02 6.9600822011852870e+00 2.1435712812211023e+01 4.1783868876308361e-02 4.5445326693212701e+02 -1.1878896361328373e-01 -1.0812909488967648e-01 5.2964892525347386e+02 -5.5928337422964978e+02 2.5229996119112548e+02 -2.0682802387836929e-03 3.6846187485394255e-03 1.9267280332837754e+02 -1.1225476466575856e+01 -5.9039870791548310e+01 -5.1308106591704927e-02 1.6730294061887835e+03 -1.5581871780235815e+01 -1.5242184844567964e+02 5.1208950252049590e-01 4.0044767167593818e+01 -4.8149089929334878e+01 -2.4016993983157797e-01 1.7669854284082248e+01 -1.8245779177617578e+00 -6.6756347763242907e-02 2.7686261232910892e+03 2.8494424000701110e+02 1.3839265963271184e+03 -6.1757330996683657e-01 -2.4192832335686099e-01 1.2930800669292680e+03 1.1847660889292838e+02 -2.8162128545343791e+02 2.4359702123104967e+01 -8.0284343169105478e+02 -1.4009531045378384e+02 5.7579812551769260e+02 1.2357606032184689e+00 7.5343815414286382e+01 -1.8867060012903949e+01 4.8588431165128192e-03 1.0307639806516459e+03 4.4695801702864912e-02 -3.0992459336216527e-03 2.4083617765654822e+01 -1.9960412647223304e+01 1.9281446454273059e+01 6.4435592533648389e-02 2.4967691089380942e-01 -1.0331242057063719e+00 -1.8174424923757670e+01 3.4463725281793813e+00 -1.7792680677881846e-02 -1.3682739183575331e+03 -1.1901030415037894e+01 -7.9118099884222602e+01 1.1759552470322410e-01 -2.2929184547698242e+01 3.3549068303527751e-01 
      </Row>
      <Row Index="217">
        1.2227087681079318e-01 4.6089318257411804e-03 2.6415665593231097e-01 3.6017014679693204e-02 3.0421820036525382e-02 2.1986793034011498e-01 9.5948620783165097e+00 2.0631607949330188e-01 8.3391822503017954e-01 -2.6131052977273228e-01 3.1871453412422852e+00 2.3295320100442041e-01 1.6061604093192727e-01 2.3484371118257741e-01 -6.8051096979470458e+00 -8.0406702849359135e-02 -6.3544243259821087e+00 -6.0177487273023189e-02 -1.6387293081061216e-01 -2.8142078780729207e-01 -2.1274165378997623e-02 -1.9840943849703763e+00 1.6103163797595244e-02 -2.4615344751438784e-02 7.8922233654884622e-01 1.4582082613536841e+01 1.5898077537713107e-01 3.0826113143078260e-02 -2.5419145821441447e-02 7.8826167960393434e-01 7.2793300409102812e-02 -2.2543325420701876e-01 1.3404639411089647e-01 -2.7078221890405985e+00 -1.1407456051529152e-02 -4.8037240347184706e+00 1.1840644294701974e-01 -1.1341306271304106e+00 4.0639681584798382e-01 8.8164089076983032e-03 -1.3533439185626008e+00 5.7086544624098678e-03 4.9605049855472316e-04 -1.3038957635581028e-01 2.3678865660913289e+00 -1.1403424057530742e-01 -4.3073088815290816e-03 -6.7256748350335016e-03 -2.5864207132817683e+00 -2.3655548934402759e-01 -3.1099391720090352e-01 -5.4001403469209208e-01 -3.7379455940172193e+00 -7.2375940305391850e-02 -2.2887916346953716e+00 7.7602347656892334e-02 -3.7270621395873604e-01 4.2813588474928110e-01 -1.0063153445933892e-02 -3.2967283728503389e+00 -1.3069079250115578e-02 -9.3044816622045445e-03 -1.3491804167570081e+00 -1.5050327841308899e+00 3.9664642038769671e-01 6.7471726456194148e-03 5.6657828085082684e-04 1.8613015555456514e+00 -3.2581042441233876e-01 1.6477214313226796e-01 1.8072760807573474e-01 1.2381600233493373e+00 7.2868399383310134e-02 -3.1580490790656768e-01 -2.8452902885533149e-02 -6.4703214690780442e-02 4.6245618013290368e-01 -4.0116253162558735e-02 1.7896490137209184e+00 2.2251734726808081e-02 -2.0715017063546171e-02 7.4036652588620200e-01 -6.0185121808317490e+00 -1.8488370262684839e-01 1.7384196499545368e-01 -6.4057778827564249e-02 -1.0679786830792182e+00 2.5523455318761989e-01 2.5747756536566158e-01 4.2317087732766367e-01 2.9484859680324007e+00 1.7389384629495908e-02 -7.9773516909626778e+00 6.7140159950369593e-02 -2.0462803641567007e-01 -4.2764207073014404e-01 -6.6876872309720170e-03 -3.2423932264209725e+00 -5.6597428440738895e-03 2.7696083265027482e-04 1.1699279081713030e+00 -8.0516263884751424e+00 1.0584122755199132e-01 8.3234593887340225e-03 -3.4724849888689846e-03 -2.7025530720129609e+00 3.8242551181974704e-01 4.2012755000541802e-02 -8.4000065253931666e-02 -4.8968713784124702e+00 -2.3079661670635687e-02 -1.0779702253290452e+01 -3.1148989679394390e-02 4.3560246587730944e-02 4.6968140957881133e-01 3.1700450065898167e-02 -3.2463233860389664e+00 -4.2121621633235407e-03 -1.2169629823223005e-02 4.4008505897363648e-01 -1.2220826145065075e+01 -2.5209407998157829e-01 -1.0478304687768780e-03 -4.5018210956049298e-03 -1.2295413329873099e+00 -8.0532337233307771e-04 4.3836977205330641e-02 -2.6681948262535116e-02 1.7445873224642128e-01 1.4613584078659869e-02 6.0447436506201484e+00 1.9994054743481371e-02 -2.7037550295113988e-01 2.7992802939621697e-01 -1.4910035520529163e-02 -2.0876972135156393e+00 1.8603037632054509e-02 5.1533846642257686e-03 5.9131733288813848e-01 -2.0588944926857948e+00 2.3266777096523583e-01 1.7057045856347486e-02 -1.3641937235673640e-02 2.5036269689662731e+00 5.8553152595698066e-01 -1.2597805922899852e-01 -2.3660222099192652e-01 2.8593924093802343e+00 -5.2035822081961669e-02 8.8265158289577812e+00 1.0921002860523110e-01 1.0057592987141106e-01 -7.0047966688878205e-01 1.0820351400215245e-01 6.3654111737705534e+00 -3.2252747912200674e-02 1.2313984987147247e-01 -2.6622946220231825e-01 -1.0332715854045091e+01 -5.4112060148080854e-01 3.7676621016968670e-02 1.2215168258933550e-02 -3.2104678620368077e+00 -3.9854460778738598e-01 -6.5319916681991685e-01 -3.5222546330119187e-01 2.4717225474669249e+00 3.9721873010080344e-02 -1.5198509925685357e+00 -6.4050078052003911e-02 3.3728819701354951e-01 -6.4512716534643033e-01 4.0394039749935828e-02 -2.6771844313243491e+00 -3.8423180433397874e-03 9.1251956483922925e-02 -1.4390783201415616e+00 1.3057052425163420e+01 -1.7378084915191039e-01 3.3864270057080592e-02 -1.7554147922264285e-02 -3.6577156620128335e+00 -7.1966442113330231e-01 4.1210739125290274e-02 -8.2738978444282907e-02 3.6547704644144687e+00 2.1025687415885841e-02 -3.6528485545495641e+00 6.7476234447081396e-03 -1.5618124979846471e-01 -3.3783772411538848e-02 6.5383515326722375e-02 -3.1486674733387190e+00 -2.1673547099013035e-02 6.8658431955659793e-02 -1.3773266093667189e+00 5.8739574371211347e+00 1.4006320170665276e-03 4.1112980440508928e-02 1.6654195973033803e-02 8.4931910441764558e-01 -3.9115151226656053e-01 -1.2181100705083736e-01 2.9798401499135707e-01 6.5410326093442563e+00 7.3359127997264295e-02 5.0066212404681210e+00 -2.0265644804105420e-02 5.8147692822240060e-01 -1.9195103912943523e+00 1.2174359543116045e+00 5.1166972424653068e-01 -3.9867146680661847e-01 1.5333397923388121e+00 -9.0452990273856813e+00 -2.1612879483691358e+00 -6.1757331625403822e-01 1.5792458927616744e+00 3.9110674562282854e-01 -2.3888936646676484e+00 8.4194353642885744e-02 -6.7256703224323022e-01 -3.8324497062413823e+00 6.6805151072264835e-01 4.9897077063053885e-01 2.3003270148473121e-01 -1.0355515252283247e+00 2.6047982029830905e+00 -3.0443831115582043e-01 1.3150138679500593e-03 -4.0380916386776562e+00 -1.9717044018161545e-03 -2.1339473720343172e-03 1.7189634659805364e-01 -3.5792805870940776e+00 1.6763509066392107e-01 5.1215331756619520e-02 -9.7791680314711735e-02 -4.0482575524947606e-01 -3.3351958786965952e-02 -5.7689502639163948e-02 1.4594087619629752e-02 -3.0513907008947854e+00 9.4558236073225999e-02 6.6530036552921956e-01 1.7247957446268052e-02 2.8530713184409251e-03 3.4656756851725512e+00 
      </Row>
      <Row Index="218">
        2.2302885071250600e-01 1.8063772021488234e-02 1.7505539512494579e+00 1.2055430424745950e-01 6.8828790600078626e-02 -1.9570079397817608e-01 6.9828599342145026e-02 1.7763557110476924e-01 2.5931240733633398e-01 -3.1400149483918760e-01 -1.1367600595804106e-02 8.0418449753778987e-02 1.9934964097410557e-01 -2.9697857377846049e-01 -5.9496240547450725e+00 -3.5894959408324212e-02 1.9874780676793307e+01 8.1594036080900878e-03 -7.6395784276610357e-01 -6.1586570953295450e-02 5.8824890232358484e-03 1.8651692967978306e+00 4.0927273975768230e-02 -1.3615732589332907e-02 4.0140046557644382e-01 -5.0972319883476302e-01 1.0331631719600409e-01 1.6118514860536948e-02 -9.8856790603836231e-03 3.8684732468495042e-01 7.3497478028002661e-02 -2.3691725628850691e-02 3.6266996411626451e-02 -4.1399931925989222e+00 -2.4635882574148127e-01 -2.1781488616543356e+00 -2.6512857317129601e-02 -4.7595384664198548e-02 1.7858345284412280e-01 4.9741458747547540e-03 2.1140755691471043e+00 4.1702837017822958e-02 -2.4517715598364020e-02 -1.2001773256633896e-01 -3.6455783003475517e-01 -1.9462854230070548e-02 -1.0791426550760264e-04 -5.2851716191373299e-03 -8.7929510987669346e-01 8.6019801932707196e-02 -1.0575908234932285e-01 -4.7745462415633710e-01 -1.6813311435980722e+00 -3.8465020797048055e-02 4.8934752134373412e+00 -4.0951119388438428e-02 -1.3262135232798755e+00 1.5071716385955369e-01 2.2113936662293554e-03 3.0741206333332229e+00 -1.4899667173466469e-01 -6.3448413182971564e-03 -6.0854959776042961e-01 -5.2425869027501903e-01 1.8733535773753829e-01 3.1297143690478535e-03 -9.4718368924224805e-03 3.1223216362377570e-02 -1.3566256335434446e-01 8.0079012409441930e-02 1.5419445096412687e-01 1.5325730819604360e+00 -2.7649441647128015e-01 3.1475804273068206e+00 5.3685899854940544e-03 -2.2714828108564689e-01 2.0056149549304791e-01 3.7121549108384500e-02 -1.5086882947362028e+00 -2.5756231545187802e-02 -6.6832548649864876e-02 9.5900247453255361e-01 7.3043696445529349e-01 -1.4874907371449808e-02 6.2095832162569309e-02 -6.2803132123034899e-02 1.1331238897018920e+00 -1.5372996713267639e-03 1.6465234093811887e-01 2.3636477759220043e-01 -5.6722444104270835e+00 -1.8512944726171554e-01 5.5085142006064416e+00 -3.2914117702176782e-02 -6.7113506363239139e-01 -1.4035739385644774e-01 1.9660331517087570e-02 1.6311361755360849e+00 -1.0251756512309385e-01 -2.0893080288743704e-02 -7.8639427312737098e-01 1.4964376323232500e+00 5.6694569961109664e-02 4.7445715893594809e-03 -7.3660038176051046e-03 2.0091705664526671e-03 1.4914752942422638e-01 5.4724393023207085e-02 -1.0055993279989650e-01 4.2368664133828133e+00 2.6246827054455935e-01 9.1003014375455678e+00 5.2636736066062895e-03 3.1911016837693751e-01 1.5769661736999296e-01 -6.1361936739153577e-02 6.3469213207808934e+00 -5.1909229709735882e-02 -1.4532240276039943e-02 7.1381341660162434e-01 -2.7323302284021338e+00 -2.1666518095752707e-02 1.8041178201859687e-03 -8.2797248981048011e-03 5.4286411594830497e-02 2.9951698713375663e-02 -4.1656592568756423e-02 -1.7141721740358662e-02 -2.8850324301747605e+00 -1.6903343952333216e-01 1.5810248559337197e+00 -5.8796916400787325e-03 6.9462250892797783e-02 7.2235957727002642e-02 1.9865218687300512e-02 7.6629753913730383e+00 1.4289348106659716e-01 2.4343761668319530e-02 4.1159791293466697e-01 6.4963599294424057e-01 1.3794375166526152e-01 4.0332806687821687e-03 -6.0351728142176153e-03 1.4847021270179539e-01 7.1022773205754675e-02 -4.4417212572795961e-02 -2.2388855301142030e-01 2.7287385504569102e+00 -1.5237026725662872e-01 -8.8117125711869448e+00 -3.3323411448532347e-02 4.1956946962454822e-01 -2.1051633031970596e-01 9.0435596288433118e-02 -3.0413163724078913e+00 -1.4326117935492333e-01 6.6830719362413638e-02 7.8767724100362102e-01 -7.6965389285978745e+00 -3.3928537800082781e-01 4.8338568797882120e-03 3.5311819824613025e-02 -5.9832313032529783e-02 -1.0872622434789037e-01 -2.1183300537063587e-01 -2.7501371994318013e-01 1.6257838042365620e+00 -3.2322607309784246e-01 1.8723527743859449e+00 -3.3135545587468673e-02 1.3302187622302881e+00 -2.2919947576665400e-01 6.7933074278956340e-03 -2.6328501531843358e+00 1.3523843293531002e-01 1.3771490942774989e-01 2.4543230754716205e-01 3.1914812362010707e+00 -7.8729977300270093e-02 7.2893929787243295e-03 1.2241673986681967e-02 -3.3941410810632533e-01 -3.9280604778696215e-02 3.0961954704935124e-02 -5.0785763323489164e-02 5.4278267851223063e+00 -4.7167360804530745e-01 6.5012300031958148e-01 1.3843060377174865e-02 8.4713853048015153e-02 1.2192870462229166e-01 3.6481287047383404e-02 -1.2407713660468289e-01 -3.8245273949412351e-02 3.4589923091496999e-02 6.6367111239378573e-01 4.2552846140388283e+00 2.0117845521781419e-02 8.4225219989095823e-03 4.1226181700917783e-02 2.0915531606306104e-01 -1.6919871915411022e-01 -7.2194126768181377e-02 3.8169176863475229e-01 6.1056933392428618e+00 -2.3248438003338379e-01 -2.2903435050766348e+00 -1.6442398327008334e-02 7.9634356815950014e-01 -2.6164394724219164e-02 8.7987023662333563e-01 8.9791951905635869e-01 -1.3454183335336154e+00 1.1998992921581157e+00 1.1751415494945832e+00 -8.2958929646520119e-01 -2.4192832935432307e-01 3.9110674562597481e-01 9.0951130586861295e-01 -1.7405460699287687e+00 -8.7825850677734252e-01 -8.5528246585699463e-02 -2.8052401921534349e+00 -3.0547374710885151e+00 -1.0401088946951234e+00 -4.3870532071046284e+00 -1.0207048086563031e-01 2.8790171543226961e-01 -5.3165036848440650e-02 -5.4228581781051825e-03 -7.4903977993966464e-01 -3.8408095504333772e-02 -4.6417780934516761e-03 -1.8705903447653327e-03 -3.3282991977862428e+00 2.2359429832280293e-02 3.1924807431749080e-02 -2.5762025288261360e-02 -7.1584737421176214e-02 -1.9908335821526180e-02 -7.6971491326958130e-03 1.2492242976198865e-02 -4.3747311751085931e+00 -8.7632977700650372e-02 -2.8787016681690147e+00 -1.0867257029599212e-02 2.7791750262622372e-02 3.3259452201222377e+00 
      </Row>
      <Row Index="219">
        1.5249420600695976e+02 -3.4738262435075740e+00 -1.7926443098783493e+03 1.6015583041280479e+00 6.5799172859078681e-01 4.7612887757271528e+02 -5.2041552408933640e+03 1.3260293920491677e+01 1.1553431545454593e+00 1.7370945192833460e+00 2.9514913288569078e+03 -3.7284206156432629e+02 -2.5531504822336137e+02 -3.9323915955610573e+00 -3.5627148710787296e+03 3.8982883622869849e+01 6.3549480454921722e+03 -6.8049456445733085e+00 -2.5943948863632977e+02 -5.3658446416258812e+01 -7.1167860258719884e-01 -4.0808299943208694e+03 2.0654610119527206e-01 -2.2601883547758916e-01 -7.8882979409992695e+03 -8.4205715960478410e+03 -3.1831442598253489e+02 -4.6415405797597487e-01 1.2683772635864443e-01 -6.5284788358035294e+03 -1.6803250799328089e+02 1.9162394633051008e+01 3.1163005573471310e+00 1.9823515578508377e+03 -2.2255582801252604e+02 -8.5131499496102333e+03 4.1330420902813785e+00 -2.7955485858438078e+03 -8.2169455452868715e+02 -1.4639698475366458e-01 1.3999966395982483e+03 2.5112608647759771e-01 -1.5781728579895571e-01 1.1704584849402308e+03 1.3098126050829887e+03 2.4901409029470233e+02 -2.5711681645225326e-01 -2.0625072838993219e-01 -1.4371603335319087e+04 4.6994331992417574e+02 1.9369907075678930e+02 -1.0269800942813163e+01 -3.3918053926490247e+03 -2.2966700517665595e+02 -3.7900868750363588e+03 4.7629529327241471e+00 6.1002547058649361e+02 -1.0293869867851026e+02 1.5533223072925466e+00 4.4794312474131584e+02 4.4345064102526521e-01 2.0301959574521788e-01 -1.1230447644591331e+03 1.9828513270467520e+03 -2.2397628853097558e+01 9.8948379789362662e-02 1.5503463599725364e-01 3.2492097980845720e+03 5.6116018903767690e+02 -1.3915689892467344e+02 3.4304930365615292e+00 1.0513324036747217e+03 1.7710378021904035e+02 -9.4932057512551546e+02 -1.7939454063307494e+00 9.9828661662526429e+01 -7.3567342451191507e+01 1.1841890035066172e-01 1.1090449085831642e+02 1.2465990053751739e+00 -2.0876478227182815e-01 -4.5228566346445587e+03 2.5816614635586739e+03 -2.3075966680038255e+02 -1.0703645861212863e-01 2.8406037978311360e-01 -7.8476381756020710e+03 -4.7594565659761429e+02 -6.8394698430784047e+01 3.9118361449218355e+00 2.8553251733975485e+03 -4.8696921952068806e+02 1.3369725390877575e+04 -6.8675826760591008e-01 4.2983234715461731e+02 -1.8323622734425589e+02 3.6992881753394613e-01 5.5304733324050903e+02 1.8446712243603542e+00 1.2977318184857722e-01 -2.1983853138852865e+03 1.9052938541267067e+03 -5.9233109458518447e+02 -1.8887528038249002e-01 -2.9740312931789958e-01 8.1453844352066517e+02 -5.0969783962517977e+02 2.9082203076872975e+02 -2.7345274745312054e+00 2.1787627835273743e+03 1.7173006408102810e+02 -1.3061659600794315e+04 -2.9216799796558917e+00 -5.3535089254379272e+01 -1.8230189169535879e+02 -1.5125792571125203e+00 -2.7982265717806295e+03 9.5803629810689017e-02 -8.1924293770134682e-01 -1.7560056957043707e+03 1.0475551021102816e+04 -1.6636588979421504e+01 6.6166683530923365e-02 1.8773462218337045e-01 -2.9698568059267709e+03 1.1782769647054374e+02 -2.0621971366053913e+00 -5.3883531393948942e+00 1.0115128753125668e+04 1.4046294170475448e+01 -1.1119602231873199e+04 1.0834863929485437e+00 4.2545097903301939e+02 2.3400742381636519e+00 2.1541396261891350e+00 2.0356507968902588e+03 3.1515213537204545e-02 4.7448377445107326e-02 -2.0886578333582729e+03 -1.7245014209747314e+03 -1.2579191834526137e+02 4.0205373533899547e-01 1.9790345778130813e-01 -3.3532589766569436e+03 -6.3791800673748367e+02 1.0803669342512148e+02 -2.0207263762131333e-01 2.5792493975628167e+03 6.4494392890483141e+01 -8.2007734243869781e+03 4.8231862731968249e+00 8.3734838694334030e+01 1.5013819824380334e+01 3.8711498212524020e-01 -1.2607630421437323e+04 -3.6399886306505778e+00 -2.2848372782204232e+00 4.8663728881934658e+03 3.3121433113217354e+03 3.9921850925637455e+02 -6.0978733145839215e-01 -1.6418842951803309e-01 2.1613947772235260e+03 9.0671755659709379e+02 2.7920185695671535e+02 -1.0122541161278605e+01 -2.2231770004034042e+03 -5.3247549564155634e+01 2.2022378281652927e+03 1.5741377424672010e+00 -4.4226828689500690e+02 -6.4855529344550931e+01 -2.2855378117583314e-01 5.0256374570457265e+03 -1.9791846318548778e-01 -1.0162214162373857e+00 5.4073636675849557e+03 -9.7687494996245950e+03 1.9615750431810739e+02 2.4576701735577444e-01 1.0122172568480892e-01 3.7432272703573963e+03 1.0733910323930904e+03 8.7605100326880347e+01 -3.5869839173028595e+00 9.8648556799627841e+02 -2.7789979019237217e+02 1.9419377031765878e+04 4.6331525302211958e+00 1.2515321277920157e+02 -7.3012111016811104e+02 -3.3628008118284924e-01 3.6986080678338185e+03 1.5069670087541454e-01 -1.5728651835706842e+00 7.4734970604954287e+03 -4.3514515078663826e+03 9.1942406199406832e+01 -1.2206113082220327e-01 1.0394075884418896e-01 2.3178037664833886e+04 6.7445416459301487e+02 -3.1940079531865194e+01 2.2660966156254290e+00 -6.2098078829981387e+03 -1.7519147340627387e+02 2.5416068227334879e+04 4.9926482913397194e+00 1.6480076295137405e+02 -3.5217605935800821e+03 1.5596483042609179e+00 -5.7476041916012764e+02 -2.8828203900193330e+01 -2.6118766287275669e+01 4.8970206547513604e+04 2.5020783989559859e+03 1.2930800712527707e+03 -2.3888936056424903e+00 -1.7405460116869058e+00 1.1646957409018790e+05 4.7646274243446760e+03 5.7397660932244366e+02 -1.0687342231887669e+02 5.3934978378613632e+03 -1.0056027522317625e+03 -1.8631361383187777e+04 1.7408566632546354e+01 4.6473137314496344e+03 -1.0925435445120092e+02 -5.5932166729766503e-02 7.7419932745363440e+03 -7.7683146068011411e-02 8.2338693007159236e-02 -2.3263132089168070e+02 2.3087417871636735e+03 -1.9098546756753871e+02 -5.2506737573821738e-01 1.2776722772299021e+00 9.6145626489073038e+01 8.4276911355409538e+01 2.2898337886668742e+01 3.7170164290358959e-01 -7.4478525891150548e+02 -3.2151803987100720e+01 -8.4889504149955792e+03 6.6822208071827172e-01 7.4480047987424769e+01 -2.1200309571997368e+03 
      </Row>
      <Row Index="220">
        -3.5504658126956201e+00 5.9996638477787201e-01 6.9259361347556114e+02 1.4894578241546697e-01 -1.1502136492345016e-01 -2.4686036761477590e+02 -4.4490880382061005e+02 -1.9080787800128746e+01 1.4459388609986603e+00 -5.7447413604677422e-01 2.4073913206672296e+02 -5.9290296476334333e+01 -1.4034443935379386e+01 -4.0596938325325027e-01 1.9834451943635941e+02 1.2342722784727812e+01 -7.1341555583477020e+02 -2.6634638001996791e-01 1.1186783233657479e+01 -1.1102292708121240e+01 1.9856572158460040e-01 9.0835154670104384e+02 1.6372636695814435e-01 -1.2963327326360741e-02 -3.5080881588160992e+02 -7.8876388256764039e+02 -4.5222266998142004e+01 1.0911878605111269e-01 -5.6357226030741003e-02 -1.5709307523359166e+02 -8.1399036981165409e+00 -1.9535132140154019e+01 -1.2902465239458252e+00 -4.9317838037759066e+02 2.8952709805220366e+01 -1.2677458700537682e+02 -1.4591193161322735e-01 1.3547706000412654e+02 -2.6408046416472644e+00 -1.7417317934086896e-01 -3.0089776815915684e+02 2.3142523437127238e-01 9.1622167892637663e-02 1.8967297688126564e+02 -5.8235252135992050e+02 -1.0523494409892010e+01 7.2073934574291343e-02 8.0577070975778042e-03 -4.1236221743375063e+02 -6.4120839715003967e+01 -6.4740464105270803e+00 1.5331302613922162e+00 2.2908931189775467e+02 -8.1218561180867255e+00 -2.0318611615300179e+03 6.3026284480292816e-01 6.6562215061858296e+01 -7.0466435689013451e+00 3.6330890623503365e-02 -5.5287498719245195e+02 3.9077455659753468e-01 1.4424315973565172e-01 9.6112791434675455e+02 3.2440935486555099e+02 6.1890031344257295e+01 1.4794459684935646e-02 -3.9959016918146517e-02 2.2405571968574077e+02 1.3244131948333234e+02 -2.0845779053692240e+01 -1.5519941116072005e+00 -5.8096190869808197e+01 5.7975160285204765e+01 -2.3276728809624910e+02 -1.6025118983816355e-01 1.0632034700363874e+01 -8.1462149854050949e+00 -5.1836492675647605e-03 -2.6398328560590744e+02 -6.8568595073884353e-02 3.0193749144655158e-01 -9.5037813868373632e+01 -3.9564014531672001e+01 -1.4114540440554265e+01 3.8717600757263426e-01 -1.2839851206172170e-01 -5.8971960015827790e+01 -3.2345497110486031e+02 1.7870901360642165e+01 -3.0730151635216316e+00 -2.3589328231010586e+02 3.1754640517756343e+01 -4.6331420248188078e+02 2.3361938571179053e-01 1.5867148011922836e+01 6.6527425537351519e+00 8.4356548613868654e-03 2.9411664691567421e+02 2.8484917274909094e-03 2.3234839562064735e-01 -1.0357932624965906e+02 4.6669922101451084e+02 -2.0774740537919570e+01 4.8239493744404172e-03 2.3951683637278620e-02 1.3931348212808371e+02 6.8924591889604926e+01 1.6777502620592713e+01 2.6607420715081389e+00 -1.0780998077988625e+03 -1.6194433212745935e+01 -5.6461948686838150e+02 3.8850674062268808e-01 1.9381190985441208e+00 -3.4818798803025857e+00 5.8302177349833073e-01 8.5983499731356278e+02 1.5757111971652193e-02 1.9472062422028102e-01 5.1356018684245646e+02 2.3185602176934481e+01 2.9789914246228363e+01 5.4974981880320684e-02 4.3211568449123661e-02 -1.8151663395983633e+01 7.7343216761015356e+01 -1.7198870706968592e+01 -8.4578009188408032e-01 -1.0777677804231644e+02 2.9379389672685647e+01 -9.9429299759212881e+02 2.8585041424230440e-01 8.3997958506573923e+01 2.9874608590034768e-03 9.7101671455311589e-01 1.4741782684326172e+03 -1.4460321990372904e-01 3.0003001268778462e-01 -2.5777094344142824e+02 5.5071516771316528e+03 2.3155514371581376e+01 1.2070793177372252e-01 -3.8577250578555322e-02 -2.2508007790520787e+02 -1.4481693182390882e+02 7.3464207173092291e+00 8.1829900029115379e+00 -1.3462165146693587e+02 6.2876349575817585e+01 7.3379787731170654e+02 5.3033311405590666e-01 -3.2007407009601593e+01 6.2261294536001515e+00 1.4367535327392034e-01 6.7078252821043134e+02 2.9298654922052947e-01 1.6148062345892888e-01 2.7827224952261895e+02 2.2639423931622878e+03 -2.5108368007811578e+01 -9.8076885092837074e-02 -1.1240609081297301e-01 1.8689191092888359e+02 6.8058865439118028e+02 1.0521751882170065e+01 9.9072338933719948e+00 -3.9114280370995402e+02 5.9146942898543784e+01 3.7389099798351526e+02 -6.3014440517554249e-01 -6.8695596884936094e+00 -1.1179157742956164e+01 1.0898185117139292e-01 -4.4931084420252591e+02 -1.4772784227534430e-01 -2.3132191861259344e-01 2.3607740074396133e+01 1.7986132399756461e+03 2.9542862460366450e+00 -6.6299177310838786e-02 -6.2831630531945848e-02 1.1336302323736368e+02 3.0017306070565246e+02 4.5153049728833139e-01 1.5868185981635179e+00 6.3524692427739501e+02 -4.0492396543500945e+01 2.1693275632411242e+03 8.2136516811260663e-02 -2.7898866045754403e+01 1.2361124482878949e+01 -1.8399465033235174e-01 -2.6970203964039683e+01 3.5860142041474319e-01 3.6180605467870919e-01 1.2156713012773544e+03 5.4799964292533696e+02 4.2735169729683548e+01 -5.0004182707937161e-02 -8.1550548088891617e-02 1.0378145371505525e+03 1.1610329404072836e+03 -3.1741381184314378e+01 -4.9705349824216682e-01 -8.0068503843527287e+02 1.1501299866707996e+01 1.6763654775940813e+02 -7.5669423546605685e-01 6.4809333078563213e+01 -3.2842001715674996e+01 1.7457868405836052e-01 -7.2415627904236317e+01 3.0725089607003611e+00 1.3359696235637939e+00 3.9926220876574516e+03 -5.0051824095193297e+02 1.1847660629847087e+02 8.4194352693593988e-02 -8.7825850955512941e-01 4.7646274018939584e+03 6.6720779700327694e+03 -7.7963434592952467e+01 8.7528992732656434e+01 9.3956765634271505e+02 -1.1975926699069825e+02 -4.4621986469786987e+02 -8.3244169657856446e+00 -1.3660016959289533e+02 -1.0499446003814228e-01 1.7385611222197839e-02 7.8497430479488867e+02 3.1655891205673470e-02 1.6321847382755550e-02 -2.0262438326483654e+01 -1.4278485606450283e+03 -2.6559889252144817e+01 3.2428839382737351e-01 -2.5700299283306954e-01 2.5082314973522443e+01 2.1773170077867690e+01 -8.7900613566744141e+00 -1.3836654914168614e-01 -3.5767964459039788e+01 3.5930522180977277e+01 -3.5000639813069574e+02 6.8963904501551987e-02 -1.9468527065706439e+01 1.4547009809033354e+03 
      </Row>
      <Row Index="221">
        9.5417867986670899e+00 3.9940207558902330e-01 1.0780497250705957e+02 2.4251751603515004e-01 -5.4233737301274232e-02 7.7056031961925328e+01 -1.2880432344973087e+02 2.6898104785193482e+01 9.2760975120901201e-02 -3.9952247315113709e-02 1.1304920772160403e+02 2.7584610525518656e+00 -3.1146054181735963e+01 -2.1293589982815320e-01 -4.0884478740766644e+02 9.2732547777704895e+00 -3.9753384059667587e+02 -2.2669202138786204e-01 -3.0540616427548230e+01 -6.1569626019336283e+00 1.6264335285086418e-02 2.7223169340007007e+02 -6.0854290597490035e-02 -1.7400797161781156e-01 -4.8425075676292181e+01 1.9484246414620429e+02 -2.0607953965663910e+00 -4.7687350903288461e-02 -2.1989562804492380e-02 3.1495543737821208e+01 5.4584725713357329e+00 1.2183781870990060e+00 4.2303493268991588e-01 -5.0694941505789757e+00 5.1761619043536484e+00 1.7097531547024846e+02 -1.5165197321039159e-01 -9.6433355459412269e+01 -1.8850362645229325e+01 -7.0020783216023119e-02 4.0182535281801393e+00 -7.3569771862821653e-02 -9.5383655345358420e-02 5.5947184469550848e+00 -2.8145326562225819e+02 2.4994345198840165e+01 -4.1766462583609609e-02 -6.4840632787763752e-03 -3.7038732101907954e+01 3.2659883489832282e+00 -1.0615586439613253e+01 -5.3379891633812804e-01 -1.5095409330655821e+02 8.3638855334138498e+00 -3.9552615778520703e+02 3.3845659709186293e-04 1.4248282909858972e+01 -1.4962018194550183e+01 7.7796269370082882e-03 1.2023208723962307e+02 1.9943249548487074e-01 -1.7122794724031110e-02 -2.2146867710165679e+02 5.1942429464124143e+02 -6.6436111208749935e+00 3.1970349680932486e-02 -2.3215338791374052e-02 6.8986217977828346e+01 -2.4823202565312386e+00 1.1554670386132784e+01 2.2695880830997339e-01 -1.1514690770208836e+02 -2.0025532047966408e+00 -2.2290510700177401e+02 -1.9511950653759413e-01 8.5720151083078235e+00 -2.7202706586394925e+00 -1.5349094893099391e-01 -5.7192023858428001e+01 5.8029087649629219e-03 -1.2592926646107117e-01 -5.0965104403236182e+01 -3.5320041498169303e+01 4.1356402129604248e+00 2.1916673481882754e-02 6.8836840807762201e-04 -5.4130624496378005e+01 -8.2444511931389570e+00 -2.0761352775385603e+01 3.5830258281930583e-01 5.1274972396204248e+01 -8.9295961637981236e+00 -4.5882071101246402e+02 -1.6559188741484832e-01 5.0430567394942045e+01 -1.3794538356596604e+00 -1.0660221698663008e-01 8.0515333920717239e+01 4.0452845954860095e-02 8.8341660433798097e-02 3.3411777481669560e+01 -2.2948672650731169e+01 -1.1949390583991772e+01 2.2864853724513523e-02 9.1962184346812137e-03 -2.5673253979533911e+01 -2.2665106258355081e+00 -8.4989721194724552e+00 -3.3542670294991694e-01 9.5255365967750549e-01 -2.1055091113783419e+01 -1.3988952264189720e+01 1.2164068046331522e-01 -1.0213343005627394e+01 -8.5399582611789810e+00 3.9337140015140903e-01 4.2762840860849246e+02 1.8134986153654609e-02 -1.0012657385232160e-01 8.4544607569463551e+01 -4.3521398870646954e+02 4.6458954168797391e+00 -7.7798294393289780e-03 -1.5455142142968725e-02 4.9756866882118629e+01 -5.4367225279565901e-01 -2.9076038440845878e+01 -2.5116489402716979e-01 9.1297485217452049e+01 2.6085337698095827e+00 -2.6648017593380064e+02 -1.3701443464651675e-01 -3.5010930749085674e+01 -5.6525721501675434e+00 -1.4071897190297022e-01 1.9484230971336365e+02 -4.2096443914488191e-02 -5.8484974721068284e-02 -5.0656945840455592e-01 1.1024114727973938e+02 3.1884405435412191e+00 -4.8427253761019529e-02 -9.9726100706760690e-03 -8.4990279976744205e+01 -6.7874877231952269e+00 2.0085641428740928e+00 -1.3927346898708493e-01 1.1366795117221773e+02 -1.8955573086626828e+01 -3.5062135848402977e+02 7.9417164894550751e-03 -1.4040152417495847e+01 1.1027265542121313e+01 -1.6267097967602240e-01 3.1230815884284675e+02 -3.7507694071894093e-01 1.8704479818700576e-01 8.9207753838505596e+01 4.6969003115873784e+02 -3.2485967644339553e+01 -9.7000631270560689e-02 -1.1349503137251866e-02 -1.8914243640618224e+01 -8.3437667790477263e+00 6.8690873094762537e+01 -1.3434158374775507e-01 -5.2126115615479648e+01 2.1212254061983913e+01 -1.5362133423797786e+02 9.0710979145467263e-01 -8.4404014498461038e+01 -2.5275427225214040e+00 3.1456287070113831e-02 -1.9360280113539193e+02 7.7394351238581294e-02 1.5537004688189882e-01 -6.9826506501995027e+00 3.8918345930310898e+02 -1.1637625179188035e+01 2.3676723971391311e-02 6.8882950816941957e-03 -2.5292143210115000e+01 9.3077543168910779e+00 7.6680951806323719e+01 -6.0850328230208106e-01 4.7316388801950961e+02 -6.3148648854985368e-01 -1.9650650085974485e+02 6.6050529937228930e-02 -3.2194425066700205e+00 -1.7208966114645591e+01 -9.8385545597466262e-02 -8.8680118683958426e+01 2.3873276048357184e-01 7.8709958387207735e-02 4.4973838767269626e+01 1.3334133577346802e+02 -5.3454811880248599e+01 -2.8322630308821317e-02 4.5071101383076240e-03 1.6043506801190961e+02 7.2401820681698155e+00 9.0157528482668567e+01 1.9615909022832057e-02 -2.6471731611015275e+02 2.8018262359080836e+01 -4.2564002008078387e+02 1.5518732106693278e-01 -7.0328369492664933e+01 -7.4577579529490322e+01 -1.7213245472312337e+00 3.0284124575613532e+01 -2.1288340635419445e+00 2.4756916812444616e+00 4.5699873055424541e+02 -1.5845371422125027e+02 -2.8162128611796652e+02 -6.7256703315692790e-01 -8.5528247794774970e-02 5.7397660409286618e+02 -7.7963434794335626e+01 7.1044642979319838e+02 -4.3929727653377313e+00 7.9844093670918392e+02 5.9206150444691730e+01 1.2914722156141090e+02 8.1246043216533650e+00 -1.1314030947864160e+02 -2.3466575872953399e+00 1.0389733568851780e-02 -1.0225236532835493e+02 -2.3649923469520218e-02 -2.0691277900937166e-03 1.2384225396646940e+01 -3.6478020595824751e+02 1.3442923523714608e+01 1.2824700317082716e-02 -7.3945862017546451e-02 -7.4798175351170357e+00 2.1229416461210349e+00 -4.7059588406409603e-01 1.8760003116711506e-02 -5.8131110888080400e+01 7.3817222751385998e+00 1.9879763791171536e+02 1.2078303239885513e-03 1.3777254139014985e+01 3.5138816664143610e+02 
      </Row>
      <Row Index="222">
        1.4307045917920931e+00 -2.1468385282003055e-01 -3.7887572429142892e+01 4.8736205202743577e-01 8.9281694589146809e-02 2.9750734226428904e+01 -2.0833131225779653e+01 7.8145659269739554e-01 -6.6641580171571091e-01 8.9671740618513240e-02 -2.5038045120309107e+01 -2.2286243885755539e+00 -3.6368362325592898e+00 -4.8237390390886503e-01 -1.4799454882275313e+01 1.8219338963099290e+00 -2.1245134065113962e+02 3.4966133498255658e-01 6.1538928124646191e+00 -5.4230437375081237e+00 -8.1859971255653363e-02 -4.9824273577774875e+01 7.3120066426326957e-02 -2.8658283988875155e-01 2.6507070940919220e+01 -2.1691016219410812e+00 6.6666466067545116e-01 -5.3561868242354649e-02 2.0040728387016316e-03 -6.2140353389315806e+00 -2.5454075768357143e-01 1.5829431788661168e+00 3.6493528512337434e+00 -5.6557481967844069e+01 1.2309898793173488e+00 -3.3175258176401258e+01 -5.9731391547916246e-01 7.3980022365957041e+01 8.0554509523462912e+00 2.9376983771595633e-01 -5.0101507547022265e+01 4.1145688895005605e-01 3.9929123182855619e-01 -1.4700682799215429e+01 -3.2149537966586649e+01 -5.1673814106093232e+00 -4.0787605423020068e-02 -3.4261023606163121e-02 5.6661589519309928e+01 -6.5625422057928517e-01 4.0773237484827405e+00 -9.1656589771125709e+00 7.2079936233640183e+01 5.8832389008603059e-01 -4.1175847151852213e+02 3.4429638349160996e-01 -2.1390733391715912e+01 6.6507451070428942e+00 -1.3335883462900711e-02 -6.2185094622196630e+01 -3.4376632042159372e-01 -2.4826022417520122e-01 1.2471463728230447e+01 5.0016706340480596e+01 2.0451995953044388e-01 3.0636880303674729e-02 2.1762636285970416e-02 -7.2836659595923265e+00 6.8118846041761572e-01 -9.1662847348288778e-01 3.0967240306214308e+00 -1.7927917661308311e+02 2.4938440234723203e-01 -6.9600432665378321e+02 -1.6454198460496627e-01 -2.0832203435857082e+00 8.9506444605030993e+00 -7.0376321181527146e-02 6.9917547856457531e+00 -2.2292681237354373e-01 -5.8710874654516942e-01 -2.2454021126748557e+01 2.3104583469917998e+01 1.3547052208123205e+00 -1.4153030702487968e-01 9.1100715542395960e-02 -1.9403864547566627e+00 6.6054651521844789e+00 -1.8422429338970687e+00 7.7522385724200831e+00 -1.2174414765411348e+02 4.6088532602298073e+00 -2.9482503644708777e+02 -5.0971967484372271e-01 -1.4630673289299011e+01 -7.7655808949784841e+00 1.7292368111350243e-01 -1.8023581390269101e+01 -7.7572193502419395e-02 -5.4285944478806414e-02 4.3374613886655425e+01 5.9979051706322934e+00 1.6136227101014811e-01 -5.1467544896581785e-03 4.4123404566676072e-03 1.7355732712894678e+01 4.4258556599379517e+00 -6.6413588655632338e-01 -1.6001698687653061e+00 1.9492080941796303e+02 1.5353768671484431e+00 -3.6665601673536003e+01 1.8772587103512706e-02 1.1994224291061983e+01 8.1807137647429045e+00 -3.6317212582650882e-01 -1.3022123697535426e+02 -8.9909890062330078e-02 1.0158268280446237e-01 4.5375753048516344e+01 -7.5066532030177768e+01 -1.9693298920117002e+00 1.9423439176067703e-02 3.5517252810352673e-02 1.5019050345774303e+01 7.5375011705909856e-01 -3.6047398697724020e-01 -2.0872904364246097e+00 1.0962230451591313e+02 1.0867094611976427e+00 -4.0639326064876514e+02 8.8450433067635004e-02 2.0753452562966231e+01 4.1383615179115623e+00 1.8994378998286265e-01 -1.7359078919887543e+02 3.2839011008786656e-01 4.2239082460582722e-01 -1.3551837631675880e+01 -8.6152643322944641e+01 7.2533690033014864e-01 -8.5546484398889788e-02 -3.9099782380960235e-02 -1.0065045574039686e+01 7.0486680867797986e+00 8.8059298538701114e-01 -2.9363244721207593e+00 -3.3228569617058383e+01 1.9098365585668944e+00 -3.6157907724380493e+01 -8.7189623474245082e-02 6.6855660581495613e-01 -1.1696463127150309e+01 1.1559040011357524e-01 8.1880821944563650e+01 -1.6235227695272947e-01 -1.3798425621444155e-01 -7.3876749117378495e+01 1.8436586807802087e+01 -1.8485518458732741e-01 -2.8397295987757687e-01 -2.3503519589009833e-01 2.3622142846390489e+01 4.5334003769810352e+00 4.9839547678236613e+00 3.2402873656784465e+01 -1.3112341462780023e+02 -2.2937574423683600e+00 -3.1979276189522352e+02 -9.9800579338680251e-02 5.5649384426593315e+01 -1.0811046206257174e+01 1.2409520476391833e-01 6.9495050288736820e+01 1.3308838161367476e-01 2.3746643710785520e-01 -3.7886061980068916e+01 -1.3750055118522141e+01 6.4444021386407258e-01 -1.7210493953689365e-01 -1.3539300396319476e-01 1.4668229958995653e+01 -6.6117781322209339e+00 -1.3404848064583348e+00 1.8077946134028707e+01 1.3471300742728636e+02 -2.4067577875412098e+00 -5.5564638275955804e+02 2.0656758125596753e-02 1.8714454111905070e+00 5.5596636474911065e+00 -3.6585975556471340e-01 1.0006084598688176e+01 -5.2309994062187570e-01 -7.2159572705712094e-01 -1.5796403272936004e+01 2.3251544779282995e+01 4.2330246067285771e+00 -1.0308962535111643e-01 -9.0277899472334999e-02 -2.5208849708925300e+01 5.1404255404049763e+00 4.6913598167884629e-01 2.8019650421279835e+01 -4.5613329408748541e+02 -3.8849646159360418e-01 -4.5648537423723610e+01 -8.5772163187380102e-01 7.3974404824664816e+01 -1.9349115202217945e+01 6.3758468294736304e-01 -2.1977142688800086e+01 -3.1490633592047743e+00 -2.3233379022880527e+00 -1.7549187819601502e+02 -7.7070919675170444e+00 2.4359702187077346e+01 -3.8324497063177869e+00 -2.8052401921920023e+00 -1.0687342170119518e+02 8.7528992697916692e+01 -4.3929727806803385e+00 3.6194312967373793e+02 -5.4688665160967503e+01 -2.0295832011642915e+01 7.9052665913490273e+01 -1.7251053453624365e+00 5.9370951809931285e+01 -5.0683642072031034e+00 -2.4583242104646838e-02 -1.1367703078959494e+01 -2.1621355915911522e-02 -2.7598135120822320e-02 2.2945794346761659e+00 3.5385408282603692e+01 -2.2093448203917498e-01 -1.5547182538507798e-01 -1.4577144747506557e-02 1.4846869848079223e+00 -9.8392340048530968e-01 5.4846295919560362e-01 2.9408222942303197e-01 5.7357851609999670e+01 5.0835787955656997e-01 1.4690850156177476e+01 -8.6925925382492830e-02 -9.8356629209629318e+00 -3.5306112512399366e+01 
      </Row>
      <Row Index="223">
        5.5555918804479006e+01 6.1181146260678361e+00 -5.6923759217262268e+03 -1.9446015314970282e+00 -3.9495765504034352e-01 -3.5039626383781433e+02 -1.3829717235326767e+04 -8.3154328715740121e+01 7.4222459317601253e-01 9.5072763023199514e-01 5.4026174849271774e+02 -1.5447365343570709e+00 1.8814643375575542e+01 -9.2341637169010937e-01 2.2928061114311218e+04 -3.3347977966070175e+01 4.7885278692245483e+03 -1.8560647754929960e+00 -2.6710854826122522e+02 7.0686921574175358e+01 9.4973040465265512e-01 2.3903800179064274e+03 -2.8453968718531542e-01 -2.0167531417973805e-01 -4.8548472785949707e+02 -1.7217662459831685e+04 1.9720001369714737e+01 3.2485421776073053e-02 8.0458783122594468e-02 3.5736309632461052e+02 8.5772201418876648e+00 -2.3741885118186474e+01 2.1496630104375072e+00 1.7106543174028397e+04 -3.1650050878524780e+01 9.8813005394339561e+03 7.4219261528924108e-02 -5.2076937198698288e+03 -1.5075265742652118e+02 1.7975752133788774e+00 -2.4855494175643253e+03 -1.0165537022403441e+00 -2.0598033780697733e-01 2.1258017397224903e+03 -1.5434382390499115e+04 2.9475373553181998e+02 1.2663623638218269e-02 9.1584652742312755e-02 -2.3267300588972867e+03 7.5783787667751312e+01 -1.4355452296324074e+02 5.3773785242810845e-02 -8.8169711844854057e+04 -2.5754510066658258e+02 7.7393425897955894e+03 1.5169833672116511e+00 -4.5577891523391008e+02 1.7963174605555832e+02 6.3092538985074498e-01 1.1268755518794060e+03 -7.1434223264805041e-01 4.6157055604180641e-01 -7.4392201370000839e+02 8.2023006075918674e+03 -2.3109678514301777e+00 3.3361758876708336e-01 -1.8158785978448577e-01 5.1628373896703124e+02 1.0333422593399882e+02 2.2808781482744962e+00 1.9729838718485553e+00 -3.9153189918994904e+03 5.3352256801503245e+01 9.1020772296190262e+03 -2.2684128966648132e-01 2.4209269255399704e+01 2.4715000728890300e+02 -2.1782802757807076e+00 -6.6786343097686768e+01 -1.5159355707583018e+00 1.3776618248448358e+00 6.2502381635643542e+02 7.6948436814546585e+03 -8.5260965023189783e-01 2.6708692812826484e-01 3.1165154476548196e-01 7.9792813306860626e+02 -1.8049276888370514e+02 -1.2927334532141685e+00 -9.0405683265998960e-01 -1.0968218051315099e+05 -4.2078806981444359e+01 1.7718477912843227e+03 1.6504239027854055e+00 -1.1527147591114044e+02 -8.8353911450132728e+01 -8.1243759499920998e-01 4.3976392679214478e+03 -4.8454171820776537e-01 -1.3839729761821218e-01 -1.3454628780260682e+03 1.1629527008257806e+04 -1.4217431904282421e+01 1.6698776652629022e-01 -1.3543390537961386e-02 -9.0860344147682190e+02 -1.0539588914811611e+02 -4.2295025615021586e+00 -1.4544530661078170e+00 -1.1377873635292053e+04 -5.2048514999449253e+01 2.2123473296880722e+04 8.3862930862233043e-01 -9.1596416294574738e+02 2.8724556530360132e+00 6.9344876513059717e+00 4.2325653828084469e+03 -1.1112132501584711e+00 3.9687355545320315e+00 6.4206093333661556e+02 1.0977901198416948e+04 1.4590043620940560e+02 1.7433002360530736e-01 2.2313127073084615e-01 3.9914928131038323e+01 1.0055483140051365e+01 -1.4482961077499203e+02 -6.5847143391147256e-01 -4.5780154232978821e+03 -5.8636240599211305e+01 -3.6499997536912560e+03 1.2750032255426049e+00 -4.7000202674767934e+02 6.6737569446791895e+01 -1.2011298146098852e+00 -8.8832661437988281e+02 2.4821995676029474e-01 4.4190356071339920e-01 3.3893156710267067e+02 3.1321309432983398e+03 -2.4014651304110885e+01 3.2951632155163679e-01 2.7553136308279136e-01 2.7821858698129654e+02 -1.7188224777928554e+02 -7.5614487478742376e+00 -1.5701307263225317e-01 -9.1678903581798077e+03 -9.7846200853586197e+01 9.6562555589675903e+03 1.0559205283634583e+00 5.7228142887353897e+01 -1.2350022700498812e+02 -1.3149041786346061e+00 2.2995036335229874e+04 1.7719143847962187e+00 1.0153842708760790e+00 1.7661538591757417e+03 2.0392554315537214e+04 1.3949927946596290e+01 -4.9777737940530642e-03 -3.3341433011908250e-01 -5.8898467980534770e+02 1.5619826063470668e+02 6.7517145980033092e+01 -5.6661388331631315e+00 8.1660389719724655e+04 1.4985843880538596e+02 -1.9006809152215719e+04 9.2510749453595054e-01 3.5734571203589439e+01 -3.4647989053854889e+02 8.6099185840794235e-01 -3.5755951505489647e+03 1.9442314999760129e+00 4.5355613197898492e-01 1.0547505753636360e+03 -2.3118111297115684e+03 7.3154115358134732e+01 1.7659552107033960e-01 2.3987640727682447e-01 8.2901218093931675e+01 3.4348035036399961e+02 -6.1196940827649087e+00 2.9607266672828700e+00 1.4663300933127105e+05 -1.1692050594557077e+02 -2.7257659882307053e+02 1.3456850199218024e+00 4.2225257876515388e+02 -1.7825096734147519e+02 -1.7346676278684754e+00 -6.5980646255575120e+03 1.7440652018340188e+00 1.0438235682449886e+00 -1.2152734296098351e+03 -4.7343264542967081e+03 -1.9807931214943528e+02 -2.2023333600645856e-01 1.3255953502380180e-03 1.2897655248944648e+03 1.7218380033690482e+02 1.6080772679485381e+02 -5.6134398859576322e+00 5.7588423864901066e+04 1.8486161213926971e+02 1.9798562508746982e+03 -1.8945669991953764e+00 8.8525559470057487e+01 -1.8500855651162565e+03 -1.7653242654283531e+01 5.8221868687774986e+02 2.5042843359871767e+01 8.4757212533975217e+00 -1.8710804918706417e+03 -1.6894887450113893e+03 -8.0284341500047594e+02 6.6805153724163091e-01 -3.0547374274910428e+00 5.3934979788810015e+03 9.3956766617298126e+02 7.9844093713525217e+02 -5.4688665635495681e+01 8.7882439562015142e+05 9.6906205526854455e+02 -4.1693307690643778e+03 8.5504964597724253e-01 9.6907936117688459e+03 -1.4170830872713123e+02 2.4054509175435845e-01 -2.4406446360001253e+04 -2.4942580722563434e-01 8.8252998509233294e-02 -6.5732851582437036e+01 9.5196398013784274e+03 2.6064271862304150e+01 1.4374754039818072e-01 2.9137812775660432e-01 -6.6006344661582261e+01 2.3657963907811791e+01 -1.2853817411232740e+01 -1.2140532016224032e-01 3.5196478378891930e+04 2.6727835374884307e+01 1.4892780800257289e+04 9.6224918573984963e-02 2.8529121898999438e+02 -9.5461112203134653e+03 
      </Row>
      <Row Index="224">
        7.3091808924536963e+00 8.9286960992467357e-01 5.1261857891082764e+02 6.1847913299607171e-01 -1.2829652815435111e-01 4.5447901636362076e+00 6.1245260578393936e+02 -6.3037653970168321e+00 -5.6502456987018945e-02 3.4630055019533756e-01 1.3392798536643386e+02 -1.7067305468022823e+01 2.3266709543764591e+01 -4.5107132516568527e-01 3.4190056920051575e+00 -5.3058136198669672e+00 -1.6119593253135681e+03 -2.6791850051085930e-01 -6.2371611654758453e+01 -8.8003947902470827e+00 1.3464111281791702e-02 9.4621489743888378e+02 2.1895611633954104e-01 -1.1771581543507637e-01 1.6521627596020699e+02 1.2083733240487054e+03 7.2915608584880829e+00 -8.1730397214414552e-03 2.2713028411089908e-02 1.0893311060243286e+02 -1.7248100262135267e+01 -1.2138986809179187e+01 -1.1834808666753815e+00 4.7770654278993607e+02 7.4243697021156549e+01 -3.8755281094014645e+03 -4.6358061478531454e-01 -2.8755148362775435e+02 1.3281629172386602e+01 -2.0310707754833857e-01 5.0345836642781069e+02 3.5650506496313028e-01 -3.8267354496929329e-01 -2.9082352384924889e+01 1.8107688394784927e+03 2.7334882941620890e+01 1.0132299845281523e-02 -5.6575970256744768e-02 -7.5943699268624187e+01 -5.9215525973588228e+01 -2.1559595121536404e+01 -8.7416639660659712e-01 -2.3106321135722101e+02 6.6598441008478403e+01 8.7094030614197254e+02 -6.5141751457849750e-01 -7.6866341827437282e+01 -2.9683661176823080e+00 -4.3074336346035125e-01 5.6391476672887802e+02 1.4612400943588000e-01 -5.3629881370511612e-02 -4.1663915337622166e+02 2.3827590178251266e+03 -2.5287693983875215e+01 -4.7811233106585860e-02 -1.8562548326372053e-01 -1.2423562697507441e+02 -3.5013540437445045e+01 1.2203611501434352e+01 -2.1636867852066644e-01 -1.0452833217382431e+02 5.0941425761280698e+01 -2.4624295230954885e+02 -1.1477087828097865e-02 2.8776711411774158e+00 1.7102943426929414e+01 -2.4468936530684005e-01 1.3901739782094955e+02 -1.8970156718569342e-01 -1.7229633611532336e-01 2.4257582695619203e+02 -7.3892684677243233e+02 6.9408918427070603e+00 8.2651288903434761e-04 1.4759267823683331e-01 3.7095119310636073e+02 3.4057878762483597e+01 2.3040893510915339e+01 -6.3999390407116152e-01 5.9727003180421889e+02 1.1871978504210711e+02 -3.5904714948311448e+02 3.1876389039825881e-01 5.4336170405149460e+01 -1.6325590243097395e+01 1.9183827669621678e-02 -1.8225424885749817e+02 -2.8168604699021671e-01 -2.0104663538950263e-01 -1.7522865986172110e+02 -1.0846093626683578e+03 1.4048677847255021e+01 2.0593957024175324e-02 7.8776926246064249e-02 1.5375600390136242e+02 1.4197003616020083e+01 -1.0575682641007006e+01 1.7964649765053764e-01 2.6850803017616272e+02 -2.0417699235491455e+02 -3.5238815432786942e+02 2.5487288774456829e-01 -4.8139087408781052e+01 1.3485223949595820e+01 8.7855199656769400e-01 1.7999592790575698e+03 -4.2043255496537313e-02 1.9570865784771740e-02 8.6302059963345528e+00 -6.9861253854073584e+03 1.2499650128924259e+01 -4.4315917939115934e-02 -5.0918812201985020e-02 -8.8072059237863868e+01 -1.6171241423115134e+01 1.0326112540133181e+01 -6.2943415279733017e-01 5.8423290002346039e+02 5.8174367692816304e+01 -9.1425136669911444e+02 -2.8297339684286271e-01 -1.2824534322216641e+02 2.5172320455312729e+00 -2.5967591424705461e-01 1.2488500938415527e+03 1.8671401019309997e-01 7.9642908865935169e-02 2.4554399075917900e+02 4.2446760540008545e+03 -3.1571238539181650e+00 -3.4789267541782465e-02 1.0782175256485971e-01 2.5594113310053945e+02 3.5394750864652451e+01 -1.1485983548307559e+01 1.6125769494101405e-01 6.6892788071185350e+01 -4.1206057783216238e+01 1.6297003960609436e+03 -4.6767137904066658e-01 -2.2169407777488232e+01 -1.6902334619604517e+01 -1.8909594682463648e-01 5.7538584345579147e+02 2.9372539864084501e-01 -1.2324598000066564e-01 3.1126318215578794e+02 3.7523863844610751e+03 6.6582832569829407e+00 6.6639284260077147e-02 -8.1858269341002335e-02 9.1771207580459304e+00 -2.7366041331164656e+01 -3.0025055427002371e+01 -1.4792377795274660e+00 9.7159796487540007e+01 2.4534364130582981e+02 -9.2686080113053322e+01 -6.7078074641290186e-01 -6.8781159216538072e+01 -1.6793399428941228e+01 1.6596635251517000e-01 -1.1608552642576396e+03 3.6057065345084993e-01 1.0258950259230915e-01 2.2506790029257536e+02 -1.0982853600755334e+02 4.8030600303900428e+00 3.3881381805258570e-03 4.0198482847245032e-02 1.5396014984697104e+02 -7.4975879652425647e+01 1.4984440588275902e+01 -2.8798652860859875e-01 -4.3695663389563560e+02 2.9530815583409276e+02 -2.4136313236504793e+02 1.6107315299632319e-01 4.8615271709859371e+00 -2.2519880351028405e+01 -1.6045011228197836e-01 -1.0386532897278666e+03 2.0023231991763168e-01 1.4099962072032213e-01 -1.0116577470302582e+02 8.6766205508634448e+02 -3.0538670955691487e+01 -1.3940206976883474e-02 -8.2536260150774865e-02 -3.1524135579343420e+02 -5.9116952853742987e+01 5.1445622841129079e+00 -2.7747159423597623e+00 -2.0521178390271962e+02 3.0458733999822289e+02 -1.0422033420437947e+02 6.8424623855753453e-01 -2.2814639896154404e+01 -1.0008648630324751e+02 -1.8656506412589806e+00 3.5447943809069693e+02 3.3027807373873657e+00 -1.2204571512864781e-01 5.1515527451783419e+02 -7.9882265500165522e+02 -1.4009531479584984e+02 4.9897075953599179e-01 -1.0401089077056933e+00 -1.0056027831546962e+03 -1.1975927065219730e+02 5.9206149853183888e+01 -2.0295831858190979e+01 9.6906206544116139e+02 1.5577540595336066e+03 1.8876561226138415e+02 -1.5014462029117119e+00 3.3991529536060852e+02 -8.4095859908265993e+00 3.1512938488225430e-02 -2.8635248691733386e+02 -1.0915864416983823e-01 -5.2015052203842060e-03 -1.0294947420339497e+01 -2.3686512460971121e+03 1.2376684958956831e+01 -3.1963624837771931e-02 2.7056046134982487e-01 1.3120438709855080e+01 -5.3141974682221189e+00 -4.4986241328297183e+00 -7.0128734099436776e-02 3.3831638655777778e+02 5.3555010785115883e+01 1.5135182721578303e+02 -5.1983986310433133e-02 8.9362254095030949e+00 2.3561193853140035e+03 
      </Row>
      <Row Index="225">
        1.4105832203331374e+02 -7.6215030977618881e-01 -1.0696633694171906e+04 2.1304922638519201e+00 2.1172840231156442e-01 3.3950501856207848e+02 1.6865419888496399e+03 2.6881170724547701e+01 6.1544219196084526e+00 -2.0858218109497102e+00 -1.2469040411636233e+03 1.0292412611842155e+02 -5.3206599131226540e+01 -1.8125619979109615e+00 -1.2850957979321480e+04 1.1176981262117624e+02 -4.8001157627105713e+04 -1.8496213625185192e+00 -2.2627794957160950e+02 -1.8795460432767868e+02 -1.7789675877429545e-01 3.9267290311157703e+03 6.3130782751250081e-01 8.5281646432122216e-01 -2.0773509502410889e+02 6.0531766631752253e+03 1.7547419220209122e+01 6.6721091186627746e-01 -6.7814734182320535e-02 -2.3389104235265404e+02 5.0115790754556656e+01 -9.3778757248073816e+00 1.2213594617787749e-01 5.2511483686566353e+03 2.9987944960594177e+01 7.3205142647027969e+03 1.1971585515420884e+00 -1.9547996463216841e+03 1.0909536690078676e+02 1.7134662100579590e-01 7.0562306223378982e+01 3.8787823420716450e-01 1.0924997520050965e+00 -8.9620910251140594e+02 -7.4170367736816406e+03 -2.6127421220944962e+02 1.8962283091241261e-01 1.6598901805991773e-01 3.6177487074881792e+03 -1.4248800997436047e+02 1.1255998309701681e+01 -4.2884510424919426e+00 7.4198636298775673e+03 -1.7143833116069436e+02 1.3417506640911102e+04 9.6877693408168852e-01 2.2985521154105663e+02 1.2884116119891405e+02 1.5936407845583744e-01 4.3393565940856934e+02 -1.9080786703416379e+00 -6.5665422461370326e-01 1.0059428118467331e+03 -2.0012550313472748e+03 -7.5262443665415049e+01 -1.4931900771989604e-01 -1.0607682746558567e-01 -1.0348493594005704e+03 -1.7771501559764147e+01 -1.8390171250328422e+01 1.6141591420164332e+00 -1.3390422652959824e+03 1.5531063524656929e+01 -5.8157955321431160e+04 -8.5299242276232690e-01 4.8521565224975348e+01 2.5176512105390429e+02 1.4680702018085867e-01 -3.4741165752410889e+03 8.9896065974608064e-01 -3.5019712872599484e-01 -1.7635838503232226e+03 -8.3425983321666718e+02 3.1440763187129050e+01 1.4996138904680265e+00 -6.9242604354440118e-01 -2.5214960828199983e+03 5.8630031347274780e-01 -3.7965528912842274e+01 2.7178062904858962e+00 -3.2232673449553549e+04 -4.1469834163784981e+01 4.2896286048695445e+04 -2.6308576343581080e-03 2.5682157552242279e+02 -2.1743362986296415e+02 3.2780006293614861e-01 1.0269866894245148e+04 -7.1273472410393879e-01 -1.4181239192839712e-01 -2.4492390006780624e+02 -2.6162485795803368e+03 2.0689800214068964e+02 2.6654016971588135e-01 -8.2862069801194593e-02 7.9154182738065720e+02 6.4479906111955643e+01 -4.5647900365293026e-01 4.9545152223436162e-01 2.8088533578395844e+04 -2.1316679909825325e+01 3.3170987698078156e+04 -2.2080027619376779e+00 -4.1339672696590424e+02 1.5649014585884288e+02 -1.9831479858839884e-01 4.8710682147741318e+02 -6.9032700343814213e-01 -2.4322415287315380e-01 -3.5345946376770735e+03 -5.8851590763032436e+03 -1.9252709106694965e+02 4.3013473707560479e-02 -4.7054217768163653e-02 2.8239028541976586e+02 -6.9865281581878662e+00 5.5464546669973060e+01 -1.4993305252864957e+00 1.2123478463649750e+04 -3.4120724671985954e+01 -3.3648015869736671e+04 2.5088202785991598e-01 -1.9179104139632545e+02 7.1899353225133382e+01 -8.4692202531732619e-01 7.8883901214599609e+02 1.4690370778844226e+00 1.4335107355145738e-01 -1.4659305672347546e+02 -4.8591644287109375e+01 6.1217852123081684e-01 1.9212295021861792e-01 -1.4363764173140225e-01 -9.3444942891597748e+01 8.1315469228196889e+01 1.4164944093208760e+01 -3.1266318354755640e+00 5.8097348461151123e+03 -5.1097875386476517e+01 -1.2830237380027771e+04 2.2395734653309773e+00 3.3107016980648041e+01 -2.0669928808440454e+02 1.5708238501902088e+00 1.7627220668196678e+04 2.3409629595626029e+00 -1.3617062863048006e+00 1.8916404026001692e+02 3.2570955644696951e+03 3.1067518282190576e+01 -4.5175317017128691e-01 -3.5595640173847615e-01 -3.0305302838864736e+02 -1.4472914360426103e+02 2.8142096081603086e+01 2.7572885043628048e+00 -5.2955110038816929e+03 2.7056111159268767e+01 5.0709993701994419e+04 -2.1189207226289000e+00 -1.5614709506183863e+02 -3.6197513258541727e+02 3.2874465926943230e-01 1.9699038528278470e+03 2.6380261181620881e+00 -1.4398327729722951e+00 -7.7906402111053467e+02 1.4756906744301319e+04 -7.2105985404457897e+01 -2.5481187170043995e-01 -8.5219262245664140e-01 -1.0362587470933795e+03 -2.3236494867596775e+02 3.8585965767968446e+01 1.1334519948868547e+01 1.2823005306661129e+04 -4.2365100019611418e+01 4.3123193637579679e+04 1.5369515101338038e+00 -4.3385910138487816e+01 9.9324845027644187e+01 3.9918069072882645e-01 -1.5835257184654474e+03 -8.8093242878676392e-01 -6.8488018063362688e-02 3.5079114460200071e+02 3.8527270146161318e+03 1.2987700975313783e+02 -1.2701703192283276e-01 -5.0811893934735508e-02 -3.0577528491546400e+03 4.4419739406649023e+02 1.0371467701159418e+01 7.1942711488227360e+00 -1.1617047603204846e+03 2.6318754982203245e+00 1.1047617022653669e+05 1.0931707291456405e-01 -8.4089626938104630e+01 -6.5765490058064461e+02 1.5791079079761403e+01 -3.9846359554491937e+02 1.9604910028981976e+01 -1.5269287790653197e+01 1.2254439615905285e+03 -2.5278629626110196e+03 5.7579814766626805e+02 2.3003286566248082e-01 -4.3870530359607933e+00 -1.8631361306697130e+04 -4.4621979941427708e+02 1.2914723655069247e+02 7.9052663997154696e+01 -4.1693311338499188e+03 1.8876569056417793e+02 9.3171852288354444e+05 -2.0730720401283804e+01 3.0587539806723548e+03 -1.1588112757820636e+02 -2.9941079508324319e-02 -2.7589030271410447e+04 -3.1824012797369505e-01 -2.7899343212993699e-03 -1.2001673682610777e+02 1.1707450471546943e+04 -6.1375450245786929e+01 1.7190516795635631e+00 -1.5575917438760030e+00 3.8943085617851466e+01 -3.8814024782972410e+01 -8.8645124128088355e+00 2.5653424056558072e-01 -1.2700359833415741e+04 -1.4560151339508593e+01 5.1060835049669753e+04 9.3211945287094755e-02 1.5407362016011029e+02 -1.1644882245095214e+04 
      </Row>
      <Row Index="226">
        3.3137162841575218e-01 -1.2355613200760729e-01 -2.0942785661667585e+01 2.1022715815618653e-01 -1.1176210255341346e-01 -1.2636114925728180e+01 -2.4848184822127223e+01 -5.0922316385845079e-01 7.4969313808165627e-02 1.0568194339913362e-01 2.6451724887425371e+01 -1.1000429710838944e-01 -1.9768814701819792e-02 2.8919280786612944e-01 -1.0304124182788655e+01 -1.2017184037249535e+00 2.5360734285786748e+01 4.6479918495288075e-01 -1.5417245183489285e+00 4.0102534234756604e-01 -1.8726143148569463e-02 -3.5700293341651559e+01 -6.3292824273730730e-04 3.6909249037961445e-02 -1.4713845406658947e+00 -2.9728663972928189e+01 7.6363274856703356e-01 -4.5727405453135361e-03 5.1363241416311212e-03 4.0668409101604084e+00 -2.8092290007043630e-01 -2.3586407442053314e-02 -2.4570242383310870e-01 2.4593993873102590e+01 1.6293222797685303e-01 -1.3384899631142616e+01 -4.2362193835992912e-01 -7.7898337096735872e+00 -1.4011615755334788e+00 -1.9458179630760242e-02 -6.4518942021228440e+00 8.3074816517410000e-03 1.0830766497383593e-01 1.0136165009695105e+01 -2.7543345605023205e+01 -9.3760442938389588e-01 -1.1639635314367069e-02 -7.7341854397587895e-03 -2.6238137368607568e+01 -2.7481444651493803e-01 1.2821663187060039e-01 -4.6416225030702662e-01 9.6458292749302927e+00 -1.7604516715728096e+00 -3.8869744824944064e+01 -4.2860054544928516e-01 -8.3845329456380568e-01 -3.5018747698995867e-01 1.2024022451441851e-02 -2.2492941408301704e+01 -1.0951962148874372e-01 5.4118473933044697e-02 -2.7791382130235434e+00 6.3114084501285106e+00 -1.5355615980661241e-01 1.3259549698005912e-03 1.1074961076417367e-02 1.7705486072045460e+01 -4.3089816773135681e-01 4.6222767446579383e-01 4.4062543507266128e-03 9.5543720391578972e+00 -1.8019618421865289e+00 -5.2124991947785020e+00 2.0442887010540289e-01 6.4832723604922649e-01 -5.6749713960016379e-02 3.8398766390344008e-02 7.5587820131331682e+00 1.9865254581532099e-02 2.4230496331523455e-01 1.7768195777343863e+01 9.6661063828505576e+00 3.0704189893549483e-01 1.6933429722598703e-02 2.2571400887301252e-02 -1.0726219275085896e+01 1.1283152648247778e+00 -4.4839827199757565e-01 -3.0674934643002416e-02 -4.4794570288315299e+01 -1.3619670461630449e+00 -4.4762751232192386e+00 -3.4355585743367101e-01 2.3361222324892879e+00 -4.8347825642122189e-01 3.0237360774549416e-02 -1.6653448874130845e+00 -4.2199588705784663e-02 8.2345818164299089e-02 -5.4155146623525070e+00 7.1321250543769565e+00 -5.0624380697718152e-01 -2.0752930196294983e-03 2.7993987300192202e-03 -2.7600886502303183e+01 4.8586530398461036e-01 3.5898647566136788e-01 -1.2814071417324158e-02 1.9857758749276400e+00 2.7085111977503402e+00 -3.7163327210582793e+01 1.1720850119945680e-01 -1.7057627895846963e+00 -3.8762717186045847e-01 -1.5539849991949950e-01 -7.2194852768203418e+01 -2.2664171416465706e-02 -1.5789087248606393e-02 3.8771396846277639e+00 -7.4653651154367253e+01 4.6253857868885007e-01 4.1056466890587728e-04 -2.3052234628728741e-04 1.9517762985924492e-01 -2.1321558652562089e-01 -8.5394152576418492e-01 -1.2069578840828399e-01 5.3709024162963033e+00 -9.0812509221450455e-01 -8.3148476423666580e+00 -1.7481935098732038e-01 2.2503079208472627e+00 1.2777362085626010e-01 9.1995421553292545e-03 -4.6128868296742439e+01 1.1994292040691334e-01 -7.7567183186374677e-02 3.8770547851454467e+00 2.9362219452857971e+01 -5.1368792497669347e-02 -6.6049273357009497e-03 7.5209554174637816e-04 -3.9305373327224515e+00 6.5374045879070763e-01 -3.4664969601544726e-01 -2.5132191934790171e-01 8.8389032476115972e+00 6.4092115691164508e-01 -3.4258245453238487e+00 -6.0695774319545848e-01 -6.9292422570288181e-01 2.2596772679298738e-01 6.8431287008536401e-02 -2.0071343285380863e+00 -2.3220308673611711e-01 4.4022211397385103e-02 2.2879508927442657e+01 1.9044204939738847e+01 -2.6532304539544072e-01 -1.0389689975923311e-01 -4.4462269104840347e-03 -2.6766057920161984e+01 -1.0462168574482575e+00 6.0735358413774065e-01 -1.2586986148218671e-01 5.5960514275357127e+00 -2.7036208362919751e+00 2.0811223295866512e+01 1.3474368910385905e+00 -1.2647957854351262e+00 8.4435186819852959e-02 -3.6025392955643554e-02 3.6261135243752506e+01 -2.9800801404576305e-02 -1.1581042127328089e-01 1.8150836107844952e+01 4.6063538282644004e+01 -1.8331419249534520e-01 -3.8655363178889957e-02 1.0826493937216242e-02 -2.2217704526177840e+01 -1.0482282571065298e+00 5.2741107387828379e-01 1.3630969128553261e-01 -1.7350969290506328e+01 -1.7964757660638497e+00 5.1280269291542936e+01 6.8285334836211575e-01 -5.6982696652994491e-01 -4.0607188511057757e-01 2.7389638497652413e-03 1.1673559808405116e+00 -1.9293893798577244e-01 -2.9643780001705977e-02 8.2179528522974579e+00 4.5291031454515178e+01 1.0580071122240042e+00 -4.6200826122618999e-02 -1.1785283108126210e-02 3.6463957851892701e+00 -2.7239115140528156e+00 6.7853853707310918e-01 -2.7987967284150272e-01 3.9425150740513345e+01 -1.2413985033745121e+00 3.9490790414827643e+01 1.2927634951860227e+00 -3.6750666990992613e+00 -2.3960960609547328e+00 5.2544830022793576e-01 -4.6002852608035028e+00 -2.7585225181528585e+00 -2.7423304462589426e-01 7.3519430870306678e+01 -2.1193085395803791e+01 1.2357605550678272e+00 -1.0355515253284238e+00 -1.0207048098747151e-01 1.7408566271216841e+01 -8.3244169976751436e+00 8.1246043174769511e+00 -1.7251053438577273e+00 8.5504970382316969e-01 -1.5014461879181908e+00 -2.0730721356601862e+01 1.8308341674346032e+01 -9.5415879032768771e+00 3.1493403810145537e-02 -1.2989765199757277e-03 -1.9537523170592976e+01 -1.2576898735012776e-02 1.2048682695819046e-02 3.3823366332220672e-01 -2.6466277909408060e+01 3.7148387473065383e-02 1.3690119993924554e-02 7.7958472575641299e-02 -3.9248444943423237e+00 -4.8737044075551239e-02 2.4550154031203419e-01 9.8291922562266949e-04 -1.2898240608275842e+01 -1.2783174397172843e+00 -1.4555027240688219e+01 -1.8025954140000265e-02 6.2697948198183440e-01 2.6366950098072877e+01 
      </Row>
      <Row Index="227">
        -1.3712906077704702e+01 -1.9344112820363080e-02 1.2415921747684479e+01 -1.5574850794282611e+00 6.1764104991107160e-01 4.3526159289479256e+02 -7.3425583391189575e+03 6.7980266612576088e+00 -4.3039151993500999e+00 1.3359420762321861e+00 1.0981912823985331e+03 -3.0492177125066519e+01 -2.8273422827012837e+01 -6.3647356996661983e+00 3.1470693593174219e+03 -6.9021558450534940e+01 -7.6330847159028053e+03 -1.0607876762223896e+00 -5.7397239691298455e+02 -8.9381897556595504e+00 8.5981467724195682e-01 -2.1376919508092105e+03 -1.8927332319981360e-01 3.0023119283214328e-01 -9.5037325993180275e+01 -1.1385489335334860e+04 -2.9026492226868868e+01 -3.3434550404126639e-01 2.2456685180895875e-01 4.7225576705197454e+02 -1.8228683508932590e+01 8.3539382959716022e+00 2.9891724055196391e+00 9.1773256383910775e+03 -7.0831138148903847e+01 -2.0278759761765599e+04 2.9232680919085396e-01 -2.4519258056637100e+03 2.8641979220532812e+02 -6.2909892249081167e-01 -1.2975732872461122e+03 -2.1368501960023423e-01 -1.7386496996186906e-01 1.2903218688070774e+02 -3.5201939953863621e+03 3.5913647581615805e+01 4.7800694060242677e-02 -2.5949791334778638e-01 -1.2918101248219609e+03 7.2139147849753499e+01 3.6019527573371306e+01 -1.0459231280619861e+00 6.1029325809283182e+03 -2.0631671823887154e+02 1.2058791616328061e+04 1.9467213799362071e-01 -2.2862768283486366e+02 -8.8647210275987163e+01 -8.0265877684723819e-02 -1.3439433497302234e+03 1.2481003325719939e+00 -4.2260258127106454e-01 3.1994933828711510e+01 -2.3744673077799380e+03 -4.5560406493023038e+01 -1.7990732762473272e-01 -6.5563269834910898e-02 5.9194827650627121e+02 9.5258767894236371e+01 -5.9651419508736581e-01 -6.5525115378477494e-02 5.0640917231738567e+03 -3.4336689986157580e+01 1.0263815465681255e+03 2.3175258579431102e-01 1.0851798214530572e+02 9.9607523500453681e+00 1.8139330165104184e-01 1.1621684556305408e+03 3.8811429139605025e-01 3.1762274705579330e-01 -3.9160429276304785e+02 3.5913965176194906e+03 1.4783793135429733e+01 -1.1724614789709449e+00 3.0833177426666225e-01 -1.1626194895973895e+03 -2.3185513436794281e+01 -3.2602095257258043e+01 -2.0571037575427908e+00 4.8141979155116715e+03 -7.6332096539437771e+01 -6.0624903321731836e+02 -1.9264662150817458e-02 3.2708211378753185e+02 6.8675476697389968e+01 -1.8072291765656701e-01 -1.3853027792423964e+03 8.2252994349983055e-01 -1.6923114574092324e-01 -4.5135159035678953e+02 6.3871301458678208e+03 4.2705317854590248e+01 -6.7605831607579603e-02 -9.1785004608937015e-02 -8.9230918895453215e+02 -6.7804571982473135e+01 -4.2711146941059269e+01 -1.3188311531703221e+00 4.7365878695249557e+03 7.3685222273692489e+01 -4.9779190697073936e+03 9.6225617176969536e-01 1.4746692136377096e+03 6.3599577725166455e+01 4.9861703934948309e-01 -1.6121175653284881e+03 3.9232393576003233e-01 2.0849815442124964e-01 -1.8999432290531695e+02 7.9347422097343951e+03 2.2598195776699868e+00 3.9802170890197885e-02 1.6738133586693493e-01 -1.0494693479983835e+02 1.3637643291149288e+01 -7.8772166102498886e+00 -7.9768483556108549e-03 2.0028248074263334e+04 -7.6834503661222698e+01 -4.5444579218393192e+03 3.1615187278839585e-01 3.7305715436342871e+02 -3.8138831035394105e+01 -1.8361474263656419e-01 -1.2836810979843140e+03 -1.0332130269998743e+00 1.2540714549686527e+00 -1.9226709581445903e+02 3.4552726879119873e+03 -1.3175879084505141e+01 6.6900998325763794e-02 -4.7300884184551251e-02 -2.2853660216648132e+02 -7.0097998337325407e+01 -2.0733632612536894e+00 7.0002217835281044e-01 4.1055213467366993e+03 -4.3994813555851579e+01 7.2322925571203232e+03 6.3581953293123661e-02 4.3420530334860086e+02 -5.6486306602193508e+01 9.8394291960767077e-01 9.6163303130865097e+02 -6.9474648425881469e-02 -7.6668981032533146e-01 3.6196475315932184e+02 1.4526457684319466e+03 9.2791725278587592e+01 5.7052810652109542e-01 1.5993559535201832e-01 -8.1332628543241299e+02 2.6968967787251586e+01 2.4928778945315571e+01 8.8888345373648008e+00 -9.0783961168080568e+03 -4.1090711358876433e+01 -3.7166913887709379e+03 -3.5135038468627044e-01 2.4670189258726314e+03 4.4375920039619047e+01 -3.1386265491482845e-01 1.1871758094290271e+01 -1.0873890343318635e+00 -6.3875109935634100e-01 2.7734200504049659e+02 -6.8231670415773988e+02 3.5972316105908249e+00 2.7888438999582377e-01 -1.1518114352315934e-01 -9.0253158505540341e+02 1.1438165498035960e+02 -1.8093973425449803e+01 -4.4404833666012564e+00 -5.2367198556382209e+03 -1.2947846833185758e+02 -3.8772979568224400e+03 -1.0825444116794642e+00 1.3000270988992415e+03 -2.7223497993429191e+01 1.7474192107874842e-01 -1.0025680209789425e+03 1.9264978336650529e-03 5.0904829878891178e-01 3.0851678164955229e+02 -6.0563274504616857e+02 -6.5614557564258575e+00 2.8410437231735841e-01 1.9087462044009129e-01 1.4211580159211589e+03 1.3036146573821316e+02 7.4731566937989555e+00 2.6586762247970910e+00 -1.2189097667305730e+04 -3.5970011497847736e+00 -4.5177273683063686e+02 -9.8708606394302478e-01 4.3816004767753184e+03 -4.3160325242672116e+01 6.0591607351707353e+00 -2.9195720580988564e+01 -1.3840094672195846e-01 -7.1402227452481384e+00 3.0147576057612896e+03 -2.6407890235446393e+02 7.5343813576037064e+01 2.6047982023570930e+00 2.8790171382169494e-01 4.6473137147761881e+03 -1.3660016933223233e+02 -1.1314030924998224e+02 5.9370951837283371e+01 9.6907936030272394e+03 3.3991529847553466e+02 3.0587539313740563e+03 -9.5415878737082735e+00 2.4137901127665096e+04 -5.9299291816074401e+01 3.3376394522082048e-03 7.9757362745744058e+02 3.8171065773758528e-01 2.7569661097288645e-02 -4.7597663435477841e+01 -1.0252563879755146e+03 -1.4892212142844439e+01 -1.1048003285150116e+00 7.3435744451320750e-01 -1.0519778167415643e+02 -9.7887763628823450e+00 1.3916973481827881e+00 -3.2904858508344959e-03 -9.9622904795324212e+02 -1.8961948603973724e+01 2.4951932577164516e+03 3.1525396938754974e-02 -4.5651971429964760e+02 1.0393938940019079e+03 
      </Row>
      <Row Index="228">
        -2.3133051375926371e+01 -7.4159905345098309e-02 1.3559191599953920e+01 -4.3249112144962965e-02 7.6125364878762980e-03 -4.7653101279633120e+01 3.7167402734979987e+01 1.5418676154858417e+00 -2.1166083935942009e-01 3.5017883956896867e-02 2.3344218076606921e+01 1.4083472210913897e+00 -3.1352863414213061e-02 4.6169916221515450e-02 5.0594892969029024e+02 3.1393808209395502e-01 -7.8837669378146529e+01 3.9981684222539116e-02 8.3297121172072366e+00 3.3415038044637186e+01 5.0099735542517010e-03 4.5077230647555552e+01 -1.4305308320786025e-02 -6.6770641743687520e-03 -3.6993954877834767e+01 4.4881285177092650e+01 -4.4104539998807013e-01 -1.5835295559668339e-02 2.1899994144405355e-03 6.8775902112287213e+00 7.2081798588624224e-01 6.5447869932540925e-01 -2.2636834710510811e-02 -1.0130733927024994e+02 2.6011256910860538e+00 4.4411493057850748e+01 -4.3491694387284952e-02 6.6494014691394057e+01 -4.1089043595606199e+01 -2.7824847349961601e-02 1.7986221340709221e+01 5.7033309068401650e-03 2.0713404546313541e-02 3.3342841401346959e+01 2.2037706475704908e+01 4.9650695360203372e+00 3.0571302174138282e-03 1.6648321220174012e-03 8.9587106079707155e+00 -1.1848580488003790e+00 8.0865982520481339e-01 -1.4087864654493387e-01 3.7811421789339511e+02 3.4826912514399737e+00 -3.8251541157485917e+01 -8.0969106915063094e-03 -5.4036385724321008e+00 -2.6918012035072024e+01 1.7547098625584567e-02 1.8200035289162770e+01 6.2238643903924640e-03 -1.4210325125054268e-02 -1.6339009463088587e+01 -1.5076706797117367e+01 -7.5924231538374443e-01 1.2384534244986867e-03 1.0319779604159862e-03 -9.0475185584364226e+00 -1.4462286140042124e+00 -4.7265814807360584e-02 1.0734345880587171e-01 2.1385000821575522e+02 1.0510661237817658e+00 -6.9442482309183106e+01 1.7158391594421118e-02 1.0514939750064514e+00 -4.6410493022774972e+01 7.4554588319415416e-03 -1.7534429644234478e+01 6.1581366969676310e-03 4.9156593171574059e-02 1.7512718369998765e+01 -1.0258948639733717e+01 -2.4991868028246245e+00 -4.5181956033161441e-02 5.3687449420323219e-03 -2.7177082268808590e+01 -1.5606553687248379e+00 -2.4001105528295739e+00 3.4816825991447331e-01 -7.6261061930202413e+02 1.3516009742743336e+00 1.5418114889558638e+02 -3.7803685474955273e-02 -6.3914848093409091e+00 4.2795943131201057e+01 -4.1942854795706808e-04 3.7486830159090459e+01 -1.2363743589048681e-02 1.1823211189152971e-02 -3.5697474287124351e+01 -1.3064196208561043e+01 -5.2844883366688009e+00 -1.8193469857095579e-02 -2.3315152546388163e-04 -9.1607349924743176e-02 5.3553649404784665e-01 -1.2590096185522270e-01 -2.5108697874475183e-01 1.5247783699445426e+02 -1.2561452886948246e+00 5.5365131910890341e+01 2.2084974966674054e-02 1.6949605891481042e+01 -4.3286385965154295e+01 -8.6375752763956370e-02 3.7825107837394171e+01 2.8859449974305562e-02 6.2825231366531398e-02 -1.9931540717690950e+01 -1.9857159339648206e+01 5.2175207999898419e+00 2.0216077345477146e-02 3.9885162738979574e-03 4.6781067409920070e+00 -5.3221091438172152e-01 -1.5674295331291432e-01 2.3230326184966543e-01 -6.0667360553517938e+02 1.2917806281122921e+00 -5.0105482654689695e+01 -9.2762230871414886e-03 2.7735908775648568e+00 -1.9043350879535410e+01 -2.8510863944120501e-02 5.3880208656191826e+01 -6.9774436711043109e-03 -3.8902483706806379e-03 1.1437884911574656e+01 -4.3556045234203339e+01 -8.0421242827287642e-01 -1.5891719393295034e-02 -3.6350634531601145e-04 -2.3082440774451243e+01 3.8730740502342087e-01 -2.7378770041514144e-01 1.4001302635915636e-01 -2.0673313182583661e+02 1.3325961439986713e+00 -7.0172414315864444e+01 -4.4227741500712625e-02 3.9928696029819548e+00 5.8367624300108218e+01 2.9411661059342009e-02 -9.2931715936632827e+01 -4.3672768059550116e-02 -5.2083802587201813e-02 6.6903263189109566e+01 -9.2200680607842514e+01 -4.3708033702461790e-01 -9.5287074953516182e-03 -3.4649032215083204e-03 -3.7090487153964204e+00 -7.2600515201074511e-01 1.6826672545448673e-02 -5.3764148252879806e-01 -2.6513396750635002e+02 9.5387540722060749e-01 1.5090249162621330e+02 2.9452778613716646e-03 1.7455114467607928e+01 5.9193161381565673e+01 -1.3860739600900729e-02 2.5879233318628394e+01 -7.5460876196302706e-03 -1.5214180943289080e-02 3.1175677362509305e+01 -1.3108111758541781e+01 1.0391917036108680e+00 -6.3948520864585134e-03 1.5395691736159733e-03 -1.5844151872210205e+01 -1.2777885418781807e+00 -2.4824772343845325e-01 -1.4184626326175476e-01 -3.1550848181184847e+01 9.5039898450704641e-01 1.1652709588734433e+02 -3.2079674961721594e-02 -1.9328985159518197e-01 -8.0135947750713967e+00 2.2049499868643352e-02 6.0881027396739228e+01 -7.6606226062949645e-03 -2.4350264885427464e-02 9.9783582834934350e+00 3.4345355376077350e+01 -3.5838022029565764e+00 5.2862482892379603e-03 7.7483298224612085e-04 -2.7981539361943760e+01 -1.4068468067998765e+00 -7.7253989287237346e-01 2.0838779575410626e-01 -2.8275101379651460e+02 8.8784691241380642e-01 1.4485721867929533e+02 -3.0666809952265339e-02 1.9114623575529549e+01 1.6583808194580342e+02 3.1375350921359768e-01 -9.2951184327030205e+00 -3.7344041364769964e-01 -6.1688624755288402e-01 9.3992523436900228e+01 4.4162462074018549e+00 -1.8867060063999816e+01 -3.0443831109045627e-01 -5.3165036773650476e-02 -1.0925435497242142e+02 -1.0499440139392391e-01 -2.3466575684251438e+00 -5.0683642076259261e+00 -1.4170830923126778e+02 -8.4095858214095642e+00 -1.1588112936419202e+02 3.1493405511986428e-02 -5.9299291780778731e+01 3.7643066163884669e+01 -4.1816501374112008e-03 9.5095881692500029e+01 3.8092006762724395e-04 -3.0116881720232413e-04 -6.5721291663809467e-02 -2.8597109313890481e+01 1.7742518232726170e+00 -4.5645473871140041e-02 1.2221320866204572e-02 -4.9588409594298355e+00 6.6915664444695722e-01 3.2644687595893629e-01 3.4233154870574362e-03 -3.5993229371430793e+01 9.3572851101816923e-01 -2.0231721941455271e+02 -5.7461787378342323e-03 -3.0285894973312679e+00 2.6816541975905476e+01 
      </Row>
      <Row Index="229">
        -3.7952495264130803e-03 8.8039446047665115e-02 3.9283606565732043e-02 4.9152884287573251e-04 -3.1157346723527102e-03 1.6315642465997371e-02 1.8289737192390021e-02 -1.0415369492580151e-03 1.3522408853033109e-02 1.5850460132723343e-02 1.2798380403239662e-02 1.5351893260231009e-02 8.3192734291515080e-04 -1.6149515427468231e-03 -2.3503128655647743e-02 -3.7599467987092794e-03 5.7412994116020855e-02 6.5539245435886073e-04 -6.8476700866995088e-03 1.6091065560885909e-03 8.3795395159338426e-03 -7.5634955937857740e-03 6.9339519708222497e-05 6.3629319331905965e-03 1.9290669677502592e-02 3.9513331910484339e-02 -8.3940179001729121e-04 5.3040810121096627e-04 1.6025878507162084e-03 1.6009576523047464e-02 -9.0119858512025530e-03 -2.7125817686624032e-04 -1.0916807455956246e-03 9.1828747194085736e-02 2.2881700763264234e-03 -2.4002821384783601e-01 -7.0582601755653229e-04 -1.3495971935604922e-02 9.7570655703691500e-03 1.0248092734803205e-02 3.4796976405385038e-02 -2.7212707528345703e-04 1.0522608867510996e-02 -4.5418600463563052e-02 -1.0708785484894179e-02 -3.3252335140749878e-03 -7.4367496716110093e-04 8.1589739442944342e-05 -2.4310399975320252e-03 -3.5114457031113488e-02 -1.4156323260863246e-03 5.5031593513685806e-03 1.9415555154978392e-02 3.8539051213888342e-03 2.2013541852538765e-01 -3.5042494815629155e-04 1.2484315320421047e-02 2.4184025037925494e-03 -8.2486713555955937e-03 3.6858137810213520e-02 7.5637750168544571e-04 1.1005456709944558e-03 1.5977054927134304e-03 1.4428271245424185e-01 -2.5066809785698752e-03 3.6366132005596907e-04 1.8851674467684765e-04 -8.3894031592421925e-03 -9.5374503575840208e-03 7.9584687879119542e-04 -5.5129672122422591e-04 3.0080770509812282e-02 1.4243830979463468e-03 -2.2167041196553328e-01 1.0278088818260755e-04 3.3602604668203639e-04 4.4445151714072040e-03 -2.7192599256524286e-02 -1.2388889943395043e-02 2.2088956346877353e-04 1.2693306775215074e-02 5.3529382663427327e-02 -2.2752757341550023e-02 -1.3807382385380151e-03 4.4609805827742210e-03 5.1473466029005599e-03 3.6120098404751388e-02 2.6947397522690153e-02 3.2568238090675550e-03 -3.8577786757567623e-03 1.0701543456025320e-01 2.1407898545930948e-03 -1.1958247465804561e-01 -1.0709902494414614e-03 6.9987317019695183e-03 -6.9841531419001512e-04 -1.7840636945060329e-02 -1.7855843761935830e-02 1.1185928672219347e-03 1.2031190881272025e-03 -3.4483063125549052e-02 -4.3155298414660592e-02 -3.6342518049536920e-04 6.2403173360014996e-04 5.7744653174096605e-04 -1.8549164160504006e-03 1.3957523696944918e-02 -2.1965818724964947e-03 2.1242660641833666e-03 -6.1384563887258992e-03 -7.0843489255594250e-03 3.3877070243761409e-02 2.5006413130945759e-04 -6.5464812396385241e-03 3.2444203870660715e-03 8.3060334311265471e-02 5.4465592607527924e-02 -5.7875199303447644e-04 6.4384565179980147e-03 2.9923906246040133e-02 -3.5521426391574096e-01 3.9725291045861200e-03 -1.5166713102327117e-03 -1.1391153906874923e-03 8.6723200114988686e-03 -1.3667069014616118e-02 -2.1426590758597541e-03 -1.2767808012007720e-02 1.5097696746670408e-01 -9.9998708241066936e-04 2.0672016588468978e-01 -2.1598228118955287e-03 -3.1878399520834932e-03 1.6155235598525053e-03 -2.3126260635940810e-02 8.0041859648190439e-02 -7.4289636868907216e-04 -5.9671586636049767e-03 3.2962228049314035e-02 2.3957773065194488e-01 -8.1668310701843438e-04 1.0710511672078482e-03 1.5870455172777437e-03 1.4322387469292153e-02 3.0365295553952620e-02 2.3925357410981007e-04 8.7331052082646465e-03 5.0528369695257425e-03 -3.0388998079615703e-03 -3.1708546842855867e-01 -7.9041095915360904e-05 -4.9575008047213487e-03 -5.4055427522960997e-03 -2.4573337163530384e-03 2.3953832073857484e-02 3.0009571780436478e-04 8.5727914813950763e-03 -1.4785789603251942e-02 9.8532964678270218e-02 -1.3484817377135694e-03 -1.4679685252119573e-03 9.6251635909425461e-04 1.0566973010561753e-03 -1.9873476174145033e-02 1.6207452736227701e-03 -1.9264767111434322e-03 -4.8673935261376755e-02 1.0477089672028761e-02 -6.8550278984275792e-02 -4.8533002672761227e-04 -2.1036315403648587e-02 -1.4815119806161903e-03 1.5202599051755084e-02 -7.6306205166702057e-02 -1.4284201038652355e-03 -1.1978948563902914e-02 3.0425850702613388e-02 1.1605057600195323e-01 1.0219430883253722e-03 -4.3902933947095879e-04 1.8153670969708324e-03 1.3497760870677666e-02 -5.6192677726315310e-02 -2.7005499294929791e-04 -2.2757608814156782e-03 -2.8725922194894338e-02 2.6112681093692913e-03 4.1087370522745914e-02 -2.9856948058459842e-04 -7.7620378664278178e-04 4.8797689723087956e-03 6.2529735994383273e-03 -5.7616596647335427e-02 5.6158869427824776e-04 6.8754367804869654e-03 5.0202503151126621e-03 1.3660117112135595e-01 5.6959758381935899e-04 -1.1867038326790237e-03 9.8147510710523168e-05 -2.0351122278754019e-02 -1.1053596092324369e-02 1.9673642028621430e-03 -1.4168701007525986e-02 -3.6622902405042623e-02 7.4557893628934835e-03 5.7739437890006684e-02 4.0374109733010144e-05 -1.2583600988364196e-02 7.1478559465276703e-03 8.1849511371596684e-03 2.6201342856893461e-02 2.0983655233566267e-03 2.4259728810001824e-02 6.8214990268643305e-02 -6.4498876363813906e-02 4.8588428551568086e-03 1.3150138674897054e-03 -5.4228581786784982e-03 -5.5932168758545231e-02 1.7385611087775033e-02 1.0389733548910485e-02 -2.4583242099233571e-02 2.4054509207792307e-01 3.1512938625709808e-02 -2.9941085266585787e-02 -1.2989765192831237e-03 3.3376392325976667e-03 -4.1816501475260281e-03 4.1634177020304659e-03 -9.0788306188647638e-02 3.2632713329819318e-04 1.2475967592262063e-03 -1.2075248838534502e-03 -1.4963144785523547e-01 -1.1650006083639716e-03 2.4768175165004735e-03 7.3336171903759101e-03 2.4667588719680111e-03 -3.3876563843389107e-03 4.7903642647639799e-04 -1.0329022340769298e-04 9.4567078283773753e-03 1.0895068235186045e-03 -2.7473751848560823e-02 -2.7136621504826396e-04 -5.3952102994259121e-04 1.4146377037768310e-01 
      </Row>
      <Row Index="230">
        4.9078621278167702e+01 -1.7951039939071052e+00 4.3413277244567871e+03 1.6103774904040620e+00 -3.9086955759557895e-01 -9.5462741470336914e+02 -3.0491752182006836e+04 -6.8288433981593698e+01 4.1077619161394185e-01 -1.0187177332700230e+00 -3.2667668848931789e+03 -1.4885180282592773e+02 1.8125459551811218e+01 -8.2876876890659332e+00 9.2821457862854004e+03 -3.1533490896224976e+01 2.9445464790344238e+04 -1.7632340369746089e+00 6.4917302548885345e+01 5.0958848416805267e+01 -9.5714929979294538e-01 -2.1447310178279877e+04 -2.4096810584887862e-01 7.5703848921693861e-01 -4.2702924919128418e+02 -2.1529575775921345e+04 3.7830016851425171e+01 1.2197683518752456e-01 -1.9787136983359233e-01 -8.3508051649853587e+02 -1.1339793992042542e+02 -1.8103967517614365e+01 -4.9628157634288073e+00 -4.3490977215766907e+03 -1.2052958512306213e+02 -9.3498617181777954e+03 5.7911832127720118e+00 2.7137092496841215e+03 -4.6015438058972359e+02 -6.9757189811207354e-01 2.6079046215683687e+04 6.3789890287443995e-01 1.0069722728803754e+00 9.1865414571762085e+02 -5.9273078762054443e+04 -1.7484958206489682e+02 1.8806662759743631e-01 -4.8829277325421572e-01 6.9883851236104965e+02 2.4231246709823608e+01 -4.8246237099170685e+01 6.1281592668965459e+00 4.4452299453079700e+04 2.1361079198122025e+02 1.6035849471092224e+04 3.6169118406251073e+00 1.4217753371000290e+03 -9.8348098844289780e+01 9.8101899586617947e-01 3.2941923841476440e+04 -2.3586281621828675e-01 -1.0091968827910023e+00 1.1794301033020020e+02 4.4190405139923096e+03 2.0461682230234146e+01 -3.6730362806702033e-01 -1.0061062738532200e-01 -3.1632510094642639e+03 9.6047038584947586e+01 -1.8290443718433380e-01 3.6484961584210396e-01 3.1824158157348633e+04 -1.7419446179643273e+01 -1.7681291180610657e+04 -1.8049049684777856e+00 -2.7719324547052383e+02 -5.4000501222908497e+01 1.1385246743448079e+00 1.2860645866394043e+04 1.0080864047631621e-01 2.7294979408034123e+00 3.0485513940453529e+01 2.1011452690124512e+04 6.2053098231554031e+00 4.9074689857661724e-02 -3.1865853531053290e-01 1.5089975945502520e+03 -6.9871414661407471e+01 4.6519818305969238e+01 -8.6866274159401655e+00 -6.6757003134489059e+04 -5.9933419585227966e+01 -1.2696692173361778e+04 2.2519629979506135e+00 -8.2512608432769775e+02 7.0824651122093201e+00 8.2469020539429039e-01 -1.3913669616699219e+04 -4.3059875536710024e-01 -8.3933268208056688e-02 4.2238570046424866e+02 1.1069281713530421e+04 1.3157637760788202e+02 -3.9729345496743917e-01 -1.2813047645613551e-01 1.9303865642547607e+03 -1.2893329453468323e+02 1.0813800038397312e+02 7.4113888991996646e-01 -1.0413439941406250e+04 6.6750457704067230e+01 -4.0274418991088867e+04 -5.6886244555935264e+00 4.6071582984924316e+02 -2.0290499329008162e+02 -2.6835888063069433e+00 5.4109192152559757e+04 -1.2005064496770501e-01 -6.2294413475319743e-01 -1.9481861889362335e+03 -7.5042973147630692e+03 -1.8138496348378249e+02 -1.0041448762058280e-01 -1.7258658941864269e-01 -9.0464574081078172e+02 -2.9725605249404907e+00 6.7493657949380577e+01 1.9004852361977100e+00 -2.0199604034423828e+02 3.1077085469849408e+01 -4.4135919475555420e+02 6.7563707602676004e-01 -1.4909508983977139e+02 -4.5517855295911431e+01 2.5125917047262192e+00 1.1871037786865234e+05 6.4778125321026891e-01 -1.6491768462583423e+00 -1.7195716973543167e+03 7.8733688964843750e+03 -1.6674560189247131e+01 3.1508185237180442e-01 -2.0991218786366517e-01 -1.4297330648899078e+03 -1.5911329610645771e+02 -1.1994901912286878e+01 4.5495047941803932e+00 1.2446095244646072e+04 8.5127265691757202e+01 -4.8376146163940430e+03 5.2520217493001837e+00 -2.5951002120971680e+01 2.5259039912745357e+02 3.3174762282869779e+00 2.3379207070255280e+05 2.0153942344368261e+00 -2.3130230670380358e+00 2.5215498086810112e+02 9.5592672420144081e+04 9.3932039567065658e+01 -4.2563852878811304e-01 -3.9519270241121068e-01 2.4984993758648634e+03 1.1453198679673233e+02 -1.2222809210093692e+02 1.6819138440769166e-01 -4.1108456895589828e+04 -1.8364784754812717e+01 -1.5157311720848083e+03 8.3522301059565507e-01 4.5707826322317123e+02 -6.7564452189020813e+01 -2.2593746136408299e-02 -1.6659038603314757e+05 1.6449129949323833e+00 -3.2164598156232387e+00 1.0923754684925079e+03 3.0411542361140251e+04 -1.5590691657736897e+01 -1.8694002991833258e-01 -1.0971233717282303e-01 3.1007944287061691e+03 2.9417545080184937e+02 7.8144494049251080e+01 1.1645848280750215e+00 2.6980310315728188e+04 4.1653721798211336e+01 1.8216488263607025e+03 -5.4620036022970453e-01 -3.8642873644828796e+01 -1.9419591517001390e+02 1.4501833660760894e+00 -1.5943012439072132e+05 1.2693632470327429e+00 -4.4705749675631523e-01 -1.1087338474392891e+03 -9.6786878964900970e+03 1.7560369083285332e+02 3.4770839847624302e-03 2.6786636432234445e-01 -7.0818407536298037e+02 3.1819465357065201e+02 -8.4495114818215370e+01 -1.0590919454116374e+01 -1.2527218112468719e+04 -9.5408081904053688e+01 3.9003608650624752e+04 3.8812306232284755e-01 4.3149562716484070e+02 -7.1790687051415443e+02 3.2887787015642971e+01 5.2061752176538110e+04 2.2251271390356123e+01 -3.3051088633714244e+01 -2.2942686767578125e+03 -7.0175626960396767e+03 1.0307641783654690e+03 -4.0380911741096046e+00 -7.4903921671288032e-01 7.7419947016239166e+03 7.8497445833683014e+02 -1.0225234135612845e+02 -1.1367709715203091e+01 -2.4406446721196175e+04 -2.8635250754654408e+02 -2.7589026609241962e+04 -1.9537522719701627e+01 7.9757375937700272e+02 9.5095889164134860e+01 -9.0788300833082758e-02 6.1234494854802056e+05 -2.2146834159502760e-01 1.3502436915223370e-01 8.2452494488470620e+01 1.0770543221937880e+05 -1.0748656634808331e+02 2.1495259742368944e-01 -1.8191840641510301e-01 7.2752171003818512e+02 -1.1975730415433645e+00 -1.1896594420075417e+01 -2.5502488643732685e-01 -4.0866929596966555e+04 -9.3827882058918476e+01 -2.8992623133715053e+04 4.8230019825959780e-01 1.3859769001603127e+01 -1.0759800363655125e+05 
      </Row>
      <Row Index="231">
        -1.0110902742854332e-02 7.8921961296061494e-03 -4.0874690942973757e-01 -8.3456717791430587e-02 -5.7404943612287566e-03 3.8221089866858904e-02 -2.5349864353165685e-01 9.6880587499760008e-03 4.5382852203684548e-04 1.7487792969087992e-02 5.9493214536775696e-02 1.9447674534994519e-02 -1.0092166962227367e-02 9.3605284051525017e-03 4.1866133896476754e-01 3.3418864474104026e-03 3.8493654171702474e-02 -4.1145142753045968e-02 2.1862396078452306e-02 2.1120010029491709e-03 -6.5354763422473261e-04 -4.6344743466904248e-01 -1.7824406750901120e-02 1.3405749196178027e-03 8.6978556683050101e-02 -2.7480708674534338e-01 1.3849419090540493e-02 4.4976590366882507e-05 3.2654605652177732e-05 -2.6300467194304886e-02 -1.9949797090923482e-03 1.7004318922055006e-02 1.8515848417657021e-03 -4.4969613673117692e-02 -8.4935495147924200e-03 -2.9561969564078083e-01 3.1079177776557221e-02 -1.4558571553632445e-03 -2.4277970711674701e-03 2.3510286028174364e-03 -2.0678668527069569e-01 -2.1893706840731428e-02 3.9763484312122510e-03 -1.7241996555370065e-02 -4.5214917352382145e-01 5.9166868671561845e-04 -3.8208912266574600e-04 -1.0135726956742655e-03 -1.6863633378951803e-02 -3.6296680021976613e-03 7.0682061474802715e-03 -1.9644555000387823e-02 2.1650713441891334e-01 -1.1082703196978905e-02 1.1019540407397983e+00 2.7970622975119104e-02 2.5021891243071082e-03 -1.1457055883734135e-02 -3.1905976361160729e-03 -4.3457482146531135e-01 8.0251219923830636e-02 1.7445112156733535e-03 1.0070560758207137e-01 2.2434137357102202e-02 2.4052664381870592e-02 8.8013641034441264e-04 5.3643032639340343e-03 2.1846245607145320e-02 -9.8697681258586023e-03 -3.2108022359599309e-03 3.4973056935586541e-03 5.6370317926308644e-03 8.2452409143215916e-03 -1.8694631230356862e-01 -2.0369756437376152e-03 5.2455128600721324e-03 -1.3056271104353701e-02 -2.0391836223496683e-03 2.6678612044321426e-02 1.3516267481943720e-02 8.7816042450540050e-03 6.2510824978423418e-03 5.6088761835141554e-02 -6.5314311068686015e-03 2.5462897674861235e-04 4.8192846208025934e-03 1.6843043930946600e-02 -2.3854944210057738e-03 -1.2199607951155933e-02 1.3685695045248636e-02 4.6553497252714138e-01 -1.3877289362511647e-03 1.2008408096601642e-02 2.1764089568467863e-02 -1.5351646525488150e-02 7.3947194612919986e-03 -1.1779620134419848e-03 4.6394640059418180e-02 5.0370002863984520e-02 3.0193054748498052e-03 1.4873993933086460e-01 1.3648557823544571e-03 -6.4747986428032034e-04 -6.8053307512026470e-05 2.5248464538896419e-03 -6.0551374656768076e-02 8.7772182067080706e-03 5.2760090014962735e-03 4.0163127163506396e-03 -5.5324530629218316e-01 2.4114820448091656e-02 -1.2247913512169362e-02 -3.7752713787060632e-03 3.0314279044489467e-02 -7.2465455304144832e-03 6.3248655547564897e-03 -8.9532374500929368e-01 2.9767430655413606e-02 3.6950700420418717e-04 2.7049778147393511e-02 -2.0387277277200866e-01 -6.6283772610561953e-04 7.8047588961198964e-05 1.5874924554357215e-03 -4.6218646846022116e-02 -2.5049470266989005e-03 -1.9819584850282818e-02 -5.5183123903278231e-03 1.7536429819836030e-01 5.5606310762493921e-03 -7.5314156351292283e-01 7.7343067243941972e-03 3.4812193473802933e-02 -7.6151757320183644e-04 -7.8090866337160447e-04 -3.6938198378629750e-01 -7.2575333770648343e-02 -4.5617541801439426e-03 -9.5847656691873340e-02 -2.6613331936459872e-02 9.7714596628555306e-03 -2.9828674546522951e-04 -3.2652056297437213e-03 2.5331276484603649e-02 1.0037803538831436e-02 1.2690248883252764e-02 -5.5670214631140524e-03 3.6539549006251448e-02 1.0994558324242121e-03 -1.0475569024238212e+00 2.9853552601504570e-02 4.5707208304150981e-03 5.4239148129937576e-03 -3.5630068647201675e-04 -2.8872157217030292e-02 1.8776541541775729e-02 3.4058014093745689e-03 -1.2552301175529834e-01 1.7297412202517215e-01 -1.5426014001362880e-02 -5.5516500677559337e-06 1.4209158801477442e-03 -5.3275694549422159e-02 -2.6143645410527938e-03 2.1444013692619203e-02 1.8199978028638859e-03 -2.8001852938695748e-01 -1.7507562662149916e-02 -4.3020924847778019e-01 1.5274594685032535e-02 3.7832484753769435e-02 1.0280062272186086e-02 6.1447358273005607e-03 4.6408501119273904e-01 -9.8009559629523291e-02 -1.3635907124973480e-02 -1.4469653345443589e-02 6.3214140433723287e-01 -3.9732610877061814e-03 -4.8759192344926573e-04 -4.1513761033962447e-03 -3.5494735409358213e-02 -2.5204967723884142e-03 -7.5235637303442959e-03 -1.4726768727823525e-03 -3.5772924209375567e-01 -1.6119623809185524e-02 6.3415956243105143e-02 1.3141631673845439e-03 3.3123227883077533e-02 -8.8953836701740618e-03 6.9587199685599774e-04 1.9707863960195571e-01 4.2646670912461822e-03 1.2575853999095311e-05 -4.3814008154376083e-02 2.4525546765791972e-01 1.3445039948870363e-02 -2.9821408052585127e-04 -3.5293158570365341e-03 -3.5692913816449456e-02 -5.0372480911468731e-02 -5.0011879066101939e-03 -7.1545763434715456e-03 -3.4791773097447098e-01 -2.1312013516458617e-02 6.0106991933485387e-01 6.1458791938582922e-03 1.1243017751370132e-01 -2.7000231821641130e-02 1.7565274246351882e-02 -1.1559361495909215e-01 1.1234784634180818e-01 -3.8105120228816181e-02 -6.6210128963803072e-02 -1.6212671594348116e-01 4.4695801722181683e-02 -1.9717044015153465e-03 -3.8408095504065681e-02 -7.7683146037033524e-02 3.1655891302275307e-02 -2.3649923454427207e-02 -2.1621355922022856e-02 -2.4942580765074140e-01 -1.0915864403144093e-01 -3.1824012872143825e-01 -1.2576898733465014e-02 3.8171065763887713e-01 3.8092006607745588e-04 3.2632713330877239e-04 -2.2146834899153678e-01 2.2965380222048720e-02 5.7847319208430129e-04 7.8179497266379627e-03 -2.2313693034049626e-03 6.4711389330800598e-03 3.5336997438556450e-04 8.4697232508909627e-03 -1.7567270201456986e-02 -9.4175637747023755e-05 5.0047099203056056e-03 7.3876989286593983e-04 1.6748855115495331e-01 -4.8667457557296512e-03 -3.0929263932793916e-01 8.2355925292463879e-03 -1.3977509643626207e-02 -2.2139373112854244e-02 
      </Row>
      <Row Index="232">
        -6.9991156531801213e-04 2.1064359510217401e-02 2.8559734482769272e-02 -5.1232587972585009e-03 -1.7338496918434032e-02 1.6278129966622146e-02 -4.7558977319567930e-02 3.4380752987435148e-03 -2.0057722688786566e-03 3.6816903442687954e-04 -2.2252197120195660e-02 2.4125978568008577e-02 -3.3026604614860844e-04 6.8733012649424552e-04 7.2909358757897280e-02 3.1708983300973159e-03 -3.0463779999990948e-02 -3.1245439266722741e-03 -5.1331810159354063e-03 4.0799057672415984e-03 4.4737881143452896e-03 5.8517657471384155e-03 -1.1094920191345725e-03 2.1279306632734585e-02 -1.5522851636887935e-02 -4.4976458724050872e-02 1.5446971860910708e-04 -8.8666143142024367e-04 -7.4302440935120062e-04 -9.2712226010434051e-03 -9.2544404989212126e-03 1.5916098483899077e-03 -4.0966494315997082e-03 1.8402423287170677e-02 6.5014098777282925e-04 -8.2749901810529991e-02 4.4122086309386077e-03 1.4863404232572375e-03 4.2468878952917066e-03 5.5477809265904732e-03 -1.0790527729040988e-02 -8.7457299787008225e-04 3.7986669321655064e-02 2.5412084328308993e-03 6.0393451956770150e-02 -2.3653144975264162e-03 -1.2643965908902821e-03 -9.7635175763627347e-04 1.3172826787695158e-03 -2.3187276777662191e-02 -8.2484490459933113e-04 9.7316881574638359e-04 -2.0124547441753293e-02 1.3513664486310972e-03 -2.6389482138984022e-01 3.6331946803911386e-03 5.4501737468513056e-03 -3.0653767838089152e-03 -9.6801595475626279e-04 -3.4422873419316602e-02 4.1204329005608553e-03 7.6400580313443350e-03 -1.0374827100804396e-02 1.6683429252407223e-01 1.0335074706517844e-03 -2.4879259014824739e-04 1.3543373277163928e-05 2.6391292045389037e-03 -5.8971972101460324e-03 -1.3816685558190045e-03 -1.8151627582969621e-03 1.5786826676958299e-02 -5.4681017771729401e-04 -3.2527274208314338e-01 -1.3757526246491736e-03 -1.7074248131336844e-03 -6.6374420046599880e-04 3.7686942929979761e-03 1.0651974673237419e-02 1.1683652955021273e-03 6.6092098053381898e-02 9.8384238403141921e-03 -3.2842585369508015e-04 -8.1787878622563426e-04 -2.0629940461833751e-03 -1.4462371946347696e-03 -1.3466269049445145e-02 2.0714036110803136e-02 -1.7769557003930458e-03 -9.4813847042081179e-03 1.9542644282165611e-01 -1.5603750260879679e-03 -3.0318191489050150e-01 1.5333297828035164e-03 -5.2206634900358040e-03 3.4415420891065196e-03 -2.5561002242383557e-03 -2.8586036587512353e-02 2.7971716416455017e-03 1.6457109430180417e-02 -1.5493949346307545e-02 -1.5229341321614243e-02 7.3694380461830633e-04 -5.5476530123255152e-04 -2.5482746016136648e-04 1.6215924318657926e-02 1.5701218928825256e-03 -6.8078498908619167e-04 -2.0978793709414134e-04 -7.1758073492674157e-02 -1.0489558750919059e-03 -3.7415026389862760e-01 -1.9967462002208336e-03 -7.7852999102105969e-03 -1.4520962557860173e-03 2.0626601918889653e-02 -1.8231294631220862e-02 1.5509867332589855e-03 4.9807002508720499e-03 -1.0072609070334693e-02 -2.5244025694064476e-01 -9.7127520523732080e-04 -6.8454275718583119e-04 -4.9418274039764870e-04 -3.5741210144557556e-03 -8.0868417904014223e-03 -2.9775171352701690e-03 -4.2256384668011293e-03 2.2679063382383902e-02 8.5226148783634770e-04 -1.1749500157213788e-01 2.0610017530597879e-04 6.7826204989476224e-03 -1.0391261011468700e-03 -6.3624826562893588e-03 -5.2097565552685410e-02 -3.8915709048691349e-03 -1.6901061341768830e-02 -4.1135536364436120e-03 1.9237875822000206e-01 1.6692948480141467e-03 7.3478289703143851e-04 4.0076224847153397e-04 9.9836759095524030e-03 1.9343497135924537e-02 1.3178269877816007e-03 5.9544762557592890e-03 -1.5752672287931091e-02 1.1006068558572224e-03 1.4010379186947830e-01 5.4576999972664811e-03 7.9918660230759997e-04 1.7029559932382199e-03 3.9392021276392353e-03 -1.2024804903148834e-02 9.4079758966857455e-04 2.3993560791440390e-02 -5.5984650077789411e-04 3.0535266488146817e-01 -5.6630651300277751e-03 -6.9341332527730892e-04 -5.9991200590240462e-04 1.0808923152282546e-02 -1.1004183080128849e-02 2.4668035497652507e-03 -1.8630526964211747e-03 3.7306323852817513e-02 3.4204278307927716e-03 -1.2451529672216566e-01 2.5465148431696172e-03 1.3286783739943075e-02 4.0480760092380663e-03 -3.6286589767559885e-03 3.0489881860120249e-02 -6.3457085769242916e-03 -4.6530832569879610e-02 2.5755240026001047e-02 -1.4118805633751208e-01 -4.1508679248281055e-04 1.5632522534108767e-03 6.0004129082774638e-04 2.5687872557625724e-02 -3.6186646026841629e-02 -2.2449870169793940e-04 -2.8779042121058751e-03 -6.3013750282607361e-02 -2.6014114595405147e-03 -1.1323075104405689e-01 3.2716701969009998e-03 -1.1906004739927312e-02 7.7523974582049959e-05 4.1486861730860580e-03 -6.3329667894436170e-03 -1.0162250026066189e-03 4.4382914333269130e-03 -3.5411177060154841e-02 -3.4054938178428529e-02 -4.2600171573781154e-04 -2.5959793165514396e-04 -4.3934962377897022e-04 3.2254615302598211e-03 -1.8492774077756735e-02 -1.4624065099795303e-03 -1.1141349114339505e-02 4.5340764162915548e-02 -1.0455555887460832e-03 1.9952151412729791e-01 2.4693472887626911e-03 1.1297779548954168e-02 9.2114612359921466e-03 1.2884160977896020e-02 -1.0689988890902669e-02 2.4495241893287556e-03 -1.9680260419625617e-02 -4.5435270749749179e-02 -1.2202548835375637e-02 -3.0992460867835803e-03 -2.1339473721983097e-03 -4.6417780937132924e-03 8.2338691749328063e-02 1.6321847331369099e-02 -2.0691277928461815e-03 -2.7598135118154343e-02 8.8252997482413775e-02 -5.2015050896088155e-03 -2.7899378474955938e-03 1.2048682696868273e-02 2.7569661016613622e-02 -3.0116882101793863e-04 1.2475967592285031e-03 1.3502436396603912e-01 5.7847319207803005e-04 3.4187121107392589e-03 5.5534522099820460e-04 -8.6775945144064295e-02 1.2564178355580820e-03 -2.8178154857927407e-04 -7.2490894433964209e-04 1.7027841586028103e-03 -1.6932545239276564e-03 6.8753404987376143e-04 -2.2207794688011766e-04 5.0066935847417504e-02 -3.4368553801300550e-04 -7.2321211399504204e-02 6.3070488159851007e-04 -3.8889483367938738e-03 8.3968925631954600e-02 
      </Row>
      <Row Index="233">
        1.9751917914688022e+00 -4.1565752318604154e-03 -2.8351685236208141e+02 -7.1415900332453930e-02 -3.4497191726728715e-02 1.6701711589167826e+02 -8.9674288872629404e+00 4.2575675295869530e+01 1.0625472546362680e-01 -3.9809570589085297e-02 1.4303288149165746e+02 1.1374241892481223e+00 2.8719566921645310e+00 -6.3597394815587904e-02 -2.4723365283804014e+02 -1.3047374561458128e+01 1.3255139231123030e+02 -3.5552566511114492e-02 5.8338154997618403e+00 -6.2433036839938723e+00 -4.0209880784459529e-02 -3.7210065815015696e+02 -2.5359065655266022e-03 1.8181321349288737e-02 3.0911457144375890e+02 8.3994191816658713e+01 2.9362489222898148e+01 5.7686065052848789e-03 -3.8973952074456975e-03 8.2686280246320166e+01 7.8451193613000214e-01 -1.8578260117283207e+00 -1.2947078494335074e-01 -1.2584696366242133e+02 -8.9117826075525954e+00 4.5890101802395657e+02 4.2174771105010223e-02 1.1435221913987039e+02 -1.0046549047518056e+01 9.9361936082686952e-03 -1.6965522296627262e+02 -1.5220431807847490e-02 -1.7511688152353599e-02 -1.4718646873754915e+02 -1.3147231920808554e+02 -2.1665668562000064e+01 -3.6055213480779003e-03 -6.2228872394598511e-04 7.1347659120161552e+01 -3.2277499688789248e+00 -5.0507636768670636e+00 3.1025601138298953e-01 3.2296046597449458e+02 7.0218350081267999e+00 1.1037456944142468e+02 6.6135798535469803e-02 6.9859548111271579e+00 -2.8060129195764603e+00 -2.4795687158757573e-02 -3.6140349255711772e+02 3.2642419782462184e-02 1.9131103426822449e-02 8.8917574579361826e+01 8.6399828597903252e+01 6.2410322429655935e+01 -4.6143749347038465e-04 -5.5328615338368081e-03 1.4784175031492487e+02 -3.0797251343028620e-01 3.3842609750381598e+00 -1.8845166946368863e-01 1.0358405159693211e+02 -7.6014164247715144e+00 -8.2830067288945429e+01 5.4438826590285316e-02 1.6057245078263804e-01 2.7350179037766793e+00 3.9788211940958718e-03 -8.6545057246461511e+01 1.0572671209047257e-02 3.0908547944846987e-02 -1.7286349704095483e+02 -3.6278156600426883e+01 -1.1461042945911686e+01 2.7692580679968160e-02 -1.3118154729681919e-02 -9.4374973950507410e+01 -1.8680455274879932e+00 4.7778288536792388e+00 -2.5642947458482013e-01 -2.5691300635048538e+02 1.7797321958933026e+00 -2.3403973109688377e+02 3.4069387297677167e-03 4.0695751458406448e+00 -6.3624965813942254e+00 -2.5281539279603749e-02 5.9932908853515983e+00 -2.3744567929725235e-02 1.5655328014190673e-02 4.5123489979971782e+02 -1.1724156701421452e+02 -2.3705055068603542e-01 -9.2080845652731114e-04 1.0288524582620084e-03 -8.2867179843364283e+01 -9.2642459771013819e-01 5.2016749529866502e-01 4.6541713893475389e-03 -8.6281469816341996e+01 8.5093094065960031e+00 -2.5765457639750093e+02 3.1614273848390440e-02 4.9400707561988384e+01 -1.4053308368311264e+00 3.2536983322870583e-03 -8.3323887141734303e+02 3.4001073581038099e-02 -1.8109179684984156e-03 4.0535651673842221e+02 -3.8235549584432738e+02 -4.7123377837805833e+00 7.0714890383296591e-03 -1.4102478934248097e-03 2.4246468103538064e+01 -4.4329796542297117e-01 -8.7130114427595799e+00 2.6581961187730485e-03 -1.0800436195638031e+02 -3.5454985629687599e+00 -2.3422149577323580e+01 2.3937077328241685e-02 -1.9908292553045612e+00 5.1612352452912091e-01 -1.1826953266790952e-02 -5.5022907820343971e+02 -1.8739216803339787e-02 -1.3710264627889046e-02 -8.0690915504645091e+01 -1.4237558495998383e+02 3.4331278792611556e+01 4.7094163379597376e-03 3.4969339325030546e-04 1.7226433143817121e+02 -1.9729635536823480e+00 -1.9482079429963051e-01 1.5061644562229048e-01 1.2799155950531713e+02 2.1586504473816603e-02 -3.6805926890298724e+02 -9.1366244261301688e-03 -1.6096512612421066e+00 2.7717180650615774e+00 4.4272656265803789e-02 -1.5961187158385292e+02 4.1424428719933459e-02 1.1628101280712144e-01 -3.9766164949587255e+02 1.6701211762297316e+02 -8.2040235113989866e+01 1.7269773079142681e-02 -1.5292619263762575e-03 -4.3335707240080410e+01 -2.6422535398189666e+00 -5.7207410131807137e+00 2.7209242800026345e-01 -2.8727035613893531e+02 -5.9704992186840400e+00 -1.4682254188728984e+02 7.8881391175322335e-02 8.1512259150331374e+00 -1.0655902922181212e+01 1.0766238090710090e-02 5.0668493628219585e+02 -1.3353990149539641e-02 -2.1049718495135039e-02 -4.7828013536613435e+02 2.3702301854378311e+02 -2.0928296957099519e+00 -4.6488614896773583e-03 -5.6031791570703149e-03 -7.9106539155764040e+01 4.7311099233738787e+00 3.5992371866750545e+00 -3.8314730925208096e-02 4.4852117282603285e+02 -4.5563215810398106e-01 -1.9996607454505283e+02 -7.0052198757110773e-02 1.9203120396399754e+01 -5.0756482429187599e+00 2.2627770215791543e-02 2.4213713089493103e+02 2.5458012359479198e-02 1.0544615537099844e-02 -6.0715691704783239e+01 1.3261582168308087e+02 2.1354639325349126e+01 -9.6681585659235125e-03 -6.1762598113210831e-03 -5.5713523305984381e+01 3.5903332895504718e+00 -1.2756307777090115e-01 -1.6545057644145800e-01 -1.5737795001501217e+02 -8.4579033964473638e+00 9.8624583718483336e+00 4.0738692498166529e-02 9.0010603276314214e+00 -4.0608851278375369e+01 4.6655767012384786e-01 -1.3536626940096903e+02 4.2299761432605010e-01 8.5314080534840286e-01 -1.3705051038918318e+03 -7.6647666490694974e+01 2.4083617862565006e+01 1.7189634839651813e-01 -1.8705884726690769e-03 -2.3263132126251003e+02 -2.0262437550089089e+01 1.2384225602445440e+01 2.2945794154431951e+00 -6.5732854863977991e+01 -1.0294946218662517e+01 -1.2001674150354665e+02 3.3823367645566549e-01 -4.7597662907479389e+01 -6.5721272720566049e-02 -1.2075247962073377e-03 8.2452438906417228e+01 7.8179497413444210e-03 5.5534526706679799e-04 7.2371677519730724e+01 3.9266652552870433e+01 4.7513550964232365e+01 2.4950484883618174e-02 -1.0805182201753775e-02 -1.3261090386571595e+01 -7.6208594400668517e-01 -2.7479155112814624e-01 -1.2986075545113395e-02 -2.9143519572871486e+02 -1.1505571325724304e+01 -7.7557119859875002e+01 5.5460994510050377e-03 -9.2610742390388623e-01 -8.6763166116152803e+01 
      </Row>
      <Row Index="234">
        -6.3619608978508040e+01 -3.3554981241468340e+00 1.5132236099243164e+04 7.2735535958781838e-01 3.7138581008184701e-01 -4.9610261917114258e+02 -2.9594479354858398e+04 -4.9801139835268259e+01 -4.9452196640855934e+00 4.5821677637286484e-01 -1.8240082029104233e+03 -2.5171771621704102e+02 -1.5113272190093994e+01 5.1233574002981186e-01 -3.1420274124145508e+03 -1.7840304350852966e+02 -3.8844537963867188e+03 -2.0126625262200832e+00 1.9156028962135315e+02 3.8450486660003662e+01 -4.8282694444060326e-01 1.0636434906005859e+04 -2.7702602557837963e-01 -5.9712374256923795e-01 1.9492355728149414e+02 -4.2806758826971054e+04 -8.4653434753417969e+00 -2.2041692491620779e-01 3.1921078683808446e-02 -4.7514595940709114e+01 -7.1542805194854736e+01 5.3122749328613281e+00 7.3160272836685181e-01 -4.3727313098907471e+03 -1.5545832920074463e+02 -6.0642995491027832e+03 1.4199449196457863e+00 1.9969799167709425e+03 -1.3786529248952866e+02 -4.0013393014669418e-01 6.8293175944089890e+03 -1.5346735157072544e-01 -6.2592093273997307e-01 1.7938266944885254e+02 -4.9157003997802734e+04 3.2833542453125119e+01 7.7062855008989573e-02 4.4625551206991076e-02 7.6799514412879944e+02 3.4266897249221802e+02 4.9265733480453491e+01 -7.4858851805329323e+00 -3.1697153987169266e+04 -8.3827806949615479e+01 -1.9545015983581543e+03 1.9061170229688287e+00 4.0333033561706543e+02 -6.9006785333156586e+01 1.7127763107419014e-01 1.5013888623237610e+04 -7.3462045053020120e-01 2.4090230348519981e-02 2.1592642593383789e+03 3.0105954345703125e+04 5.1682400703430176e+01 -3.5390082281082869e-02 1.3422202784568071e-02 -7.1382911431789398e+02 2.8703551781177521e+02 -3.6922467455267906e+01 1.5079380348324776e+00 -1.7623792114257812e+04 3.1062928231619298e+02 8.8206997871398926e+03 -3.5900915414094925e-01 -4.7883560180664062e+01 -1.0084864294528961e+02 9.2893127072602510e-01 -6.3617351303100586e+03 6.7599454708397388e-01 -1.5383542058989406e+00 1.1740567177534103e+01 1.0646713937759399e+04 5.2147094294428825e+01 -1.1088513932190835e+00 1.2430521775968373e-02 -2.8751566529273987e+02 -3.2065453433990479e+02 -5.3230900287628174e+01 5.7680540457367897e+00 3.5264433517694473e+04 7.7946473121643066e+01 2.4213758430480957e+03 8.6829101853072643e-01 -1.2372368240356445e+02 1.0377423179149628e+02 9.9787927139550447e-01 5.3599778671264648e+03 3.1931469962000847e-01 -4.7431840933859348e-01 4.1531100392341614e+02 2.5127218391656876e+04 2.0716245785355568e+01 -2.6031573046930134e-01 -9.5157838426530361e-02 2.0935844421386719e+02 -4.0999022960662842e+02 1.5580279231071472e+01 2.6642594169825315e+00 -1.5098506820678711e+04 2.5527594709396362e+02 2.6915161743164062e+03 -8.6037011072039604e-01 2.9992168045043945e+02 -8.1882007807493210e+01 -3.2285809395834804e+00 2.6771888889551163e+04 4.8251108871772885e-01 -8.9326263312250376e-01 -1.6678154044151306e+03 -9.1823642966270447e+04 3.4668145687319338e+00 4.9152356077684090e-03 1.4530299001489766e-01 -7.6011986403912306e+02 -6.7795968055725098e+00 7.7837032370269299e+01 -1.5938710495829582e+00 -1.1804342041015625e+04 -9.3975587075576186e+01 3.1831552400588989e+03 -1.4890541043132544e-01 2.8497890145331621e+02 -4.5092250663787127e+01 1.1468795090913773e+00 2.9458696044921875e+04 -1.2006536126136780e-02 1.0565899629145861e+00 -3.1338624095916748e+02 4.7220831542968750e+04 -8.6550192713737488e+01 4.4421027880162001e-02 -3.8126824889332056e-02 1.8124297666549683e+02 -4.7644548188149929e+02 4.9951472505927086e+00 1.9102899134159088e+00 -9.0378601469993591e+03 3.0172856187820435e+02 3.6077980346679688e+03 2.3329123700095806e+00 -1.1127653026580811e+02 6.2191127322614193e+01 -1.3569266223348677e+00 -1.0105618771934509e+05 1.2429116391867865e+00 -1.8238739601802081e+00 -9.5662581527233124e+02 -9.8277784147977829e+04 1.1143710288830334e+02 1.5175387603812851e-01 -2.7821668675460387e-01 5.8534112751483917e+02 7.9328285668926128e+01 -1.0132342716678977e+01 4.4855882758274674e+00 1.9701173583030701e+04 -2.1384085610508919e+02 4.5100176906585693e+03 -1.3801988518680446e+00 3.3063772892951965e+02 1.6855183487012982e+02 -4.1075753548648208e-01 2.1927342466592789e+04 -3.1285356916487217e-01 3.5257590468972921e-02 -3.8384190177917480e+02 1.1628228168892860e+05 -7.0006777018308640e+01 -1.3049992290325463e-01 -4.9833628407213837e-02 8.8103479385375977e+01 6.5497531357407570e+02 5.6548438966274261e+00 -1.0323050208389759e+00 3.6494578123092651e+01 -2.0807403370738029e+02 2.6488909597396851e+03 -3.8481410057283938e-01 -1.1722489857673645e+02 -2.0241662776470184e+02 -1.0217931822407991e+00 3.9889814080238342e+04 -7.4216082179918885e-01 -7.2674120054580271e-01 -2.1129780030250549e+02 1.1588552084779739e+05 2.2877243041992188e+01 2.1065522402932402e-01 -1.9931738901505014e-02 3.1638314039260149e+02 4.5714879110455513e+02 -7.8124837562441826e+01 6.8317557200789452e+00 1.7161991317272186e+03 -5.9764956569671631e+02 -1.5033054637968540e+04 -1.2659020815044641e+00 4.7375487136840820e+02 -4.7736849224567413e+02 -1.4631334683857858e+01 -5.5931330821514130e+03 5.5763037055730820e+00 -1.4963845101650804e+01 -3.9937288818359375e+03 -4.2165558275938034e+04 -1.9959768712520599e+01 -3.5792793375957102e+00 -3.3282976361523477e+00 2.3087466492652893e+03 -1.4278481823205948e+03 -3.6478015915304422e+02 3.5385389583285360e+01 9.5196394512653351e+03 -2.3686515180170536e+03 1.1707463440775871e+04 -2.6466278741363816e+01 -1.0252560456991196e+03 -2.8597087323665619e+01 -1.4963144343346357e-01 1.0770544151592255e+05 -2.2313471999950707e-03 -8.6775935211335309e-02 3.9266837269067764e+01 3.5177473157595104e+05 -1.0722941261897007e+02 -9.3998478213325143e-01 -2.0574752871684154e-01 3.4995560719072819e+02 5.7341609634459019e+01 -3.1470470428466797e+00 2.2189709292349108e-01 1.8844130556304284e+04 -1.0048624193668365e+02 7.8641462526320684e+03 -2.9665473773286843e-01 -1.3218892762064934e+02 -3.5166707897749572e+05 
      </Row>
      <Row Index="235">
        -6.2415498115944956e-01 -1.7532074512587315e-02 -1.0226316259428859e+02 -3.2171729849892472e-02 -2.7324582834467037e-02 8.3927271807566285e+01 -9.1026111178100109e+01 3.9060256745183892e+01 8.7140487737459527e-02 -3.3641664006040628e-02 1.0158932548025041e+02 4.4789702338166535e+00 2.1866602927912027e-01 -6.5373310029826825e-02 -1.2056521070376039e+02 -2.4793261787854135e+00 8.3189740642905235e+01 -1.3430462355245254e-02 3.8624398601241410e+00 -2.1276346899103373e+00 -2.2724701368133537e-02 -1.3248629687214270e+02 -5.9589409127056570e-03 1.5304507938367351e-02 1.5977608728781343e+02 -6.6357254937698599e+01 2.7693526230286807e+01 -5.7875677566698869e-04 -2.1062062689338745e-03 6.9388540783494591e+01 2.4627619343809783e+00 1.8995757775264792e+00 -5.9225266631983686e-02 2.5071778776124120e+01 1.3665264486335218e+00 5.5234497020952404e+01 -2.2456115998465975e-02 2.1192347346078350e+01 -7.2868375187681522e+00 1.4129942209820001e-02 -1.2387472415775528e+02 -6.4150174207497912e-03 1.8188059220847208e-04 -7.8954555485863239e+01 -2.1357639974355698e+02 -2.0714495054946838e+01 -5.7959177610769075e-03 -2.1174584160803533e-03 6.8178661204059608e+01 -4.3422665632097051e+00 -4.8268924508010969e-01 1.8339981870303745e-01 1.6859176193847088e+02 4.9452601570810657e+00 3.6978194097056985e+01 -1.5702619974035770e-02 -8.1977077921619639e+00 -2.9037594201363390e+00 -1.4948899148521377e-02 -1.6458213313622400e+02 3.5809222717944067e-02 1.4268125444701241e-02 2.4164081095717847e+01 4.8866075500845909e+00 5.5289865959552117e+01 1.4529108076430930e-03 -3.7597004583744820e-03 1.2176798690235591e+02 -3.0191104015102610e-02 2.4529492577057681e+00 -5.8090110672992523e-02 5.4464891829527915e+01 -2.7999594808061374e+00 2.3189339063130319e+01 2.5468528967394377e-02 5.0505150895332918e-02 -1.9232787854634807e+00 1.1362879854459607e-02 -1.3034079076722264e+01 1.1973752430094464e-02 4.3881760023964489e-02 -9.8955491674525547e+01 2.6058742634020746e+01 -1.1548992382027791e+01 2.0796018969804209e-02 -9.8830944320411618e-03 -2.3238564262428554e+01 8.3754163701087236e-01 7.7073503716383129e-01 -7.0528892002585053e-02 -6.3391643340641167e+01 7.0363489678129554e-02 1.0662377865682356e+02 -2.2168178271385841e-02 1.3935442604124546e+00 -1.4514769217930734e-01 4.6036242362106350e-03 -5.4550436586141586e+00 -1.9532600295406155e-02 1.1005657143414282e-02 3.0006691655376926e+02 2.6736886126309400e+00 9.2643458556267433e-02 -3.5364327035267706e-03 2.9270271916175261e-03 -2.8804708003066480e+01 2.0225442516384646e+00 -5.4175667303206865e-01 -1.3488617772054567e-02 1.7818585024774075e+02 -2.5477834244375117e+00 -1.8494940228760242e+01 3.9795462369511370e-02 1.2139476079493761e+01 -3.1554892127714993e+00 -1.0543629164203594e-03 -2.8023307631121133e+02 2.7804080951852939e-02 -1.1252496949509805e-03 2.7389465005649254e+02 -2.2399878152238671e+02 -4.2874399408992758e+00 2.5425049367626684e-03 -1.5339885273277787e-03 1.9957345971426548e+01 -5.2613729902077466e-01 -7.2877243865359560e+00 1.7293053380853962e-02 -1.8286852832883596e+01 -1.1911146900547465e-01 -3.3466686505416874e+01 5.0629754875899380e-03 -6.4285589992632595e+00 -8.6617426957309362e-01 -2.8405719665897777e-02 -3.2556164407730103e+02 -1.3626726701772895e-02 -2.0825450756092323e-02 -5.3649508010013960e+01 -1.9787639856338501e+01 3.1457133295829408e+01 5.2330332437122706e-04 -6.8372635588431763e-04 1.7638090502342675e+02 2.8485383608458505e+00 6.8812875975709176e-01 -1.9444994977675378e-03 6.5116488167783245e+01 -2.2466793586499989e+00 -1.7526438892632723e+02 -5.3000529920453232e-02 6.2998238438740373e-01 5.2277480135307997e+00 6.4507035133374302e-03 2.3502145683299750e+02 -1.3571664155762164e-02 1.0668587749842118e-01 -2.0205872328203986e+02 -6.6191618994926102e+01 -7.6471043905268118e+01 1.7858966441199442e-02 1.3569603037666411e-05 -1.6466139670683333e+01 -5.4768147961129898e+00 1.0283368185951076e+00 -5.2705763990616106e-02 -1.0017863435531035e+02 4.1544272259429817e+00 -9.8739643394947052e+00 8.2328628534469317e-03 4.0003213244490325e+00 -2.0793493580258655e+00 1.3261678241462960e-03 1.3518522188928910e+02 -1.2226878041474265e-02 -1.7558449555451716e-02 -3.3904784681892488e+02 3.8858745866070967e+02 -1.7663890179937880e-01 -3.6336951182391886e-03 -2.6624366709881997e-03 -2.8820412230095826e+01 -3.1156818157687667e+00 4.3419933766926988e-01 -1.8181554182319815e-02 7.7193089817534201e+01 -1.6994592503760941e+00 3.6987537258071825e+01 -8.0878381132208688e-02 4.5102352097164840e+00 -1.4478253285706160e+00 1.4744763620797130e-02 2.4508633476332761e+01 2.8784768982745845e-02 -7.5413188101833839e-03 -9.1121828101109713e+01 2.4674861796759069e+02 1.8442008895566687e+01 -1.0124931470151921e-02 -5.4845399294807251e-03 -3.6154616819374496e+01 -5.6621507141971961e-01 2.3890375516421045e+00 7.0557119261138723e-04 -2.9795261319843121e+01 6.8563963810738642e+00 -6.4792740766744828e+01 3.6833435446055773e-02 -8.0928214103914797e-01 -6.7949383003870025e+00 1.1703782944323393e-01 -4.5400665156455943e+01 -3.8583497718718718e-02 7.1851103694689300e-01 -1.0130149084473960e+03 -1.0817728300270392e+02 1.9281446279375814e+01 1.6763509133703014e-01 2.2359430443328776e-02 -1.9098546953650657e+02 -2.6559888913849136e+01 1.3442923638749562e+01 -2.2093448662485571e-01 2.6064270503120497e+01 1.2376685810617346e+01 -6.1375458032969618e+01 3.7148395779922794e-02 -1.4892211957048858e+01 1.7742518274499162e+00 -1.1650005532715113e-03 -1.0748660468048183e+02 6.4711389340743608e-03 1.2564178610183774e-03 4.7513550897519963e+01 -1.0722952836625073e+02 4.5091622120796501e+01 1.6168610360892899e-02 -2.6704528115288895e-03 -4.7097466527702636e+00 -1.1100921628876677e+00 9.2836131203875993e-01 -6.2761727020086075e-03 -6.3841035032631964e+01 -1.1629803774994798e+00 -6.0298039341369076e+00 3.8876384791031171e-03 2.6257552656170446e-01 6.2141894570424633e+01 
      </Row>
      <Row Index="236">
        4.3816743847123973e-02 3.6219971133144124e-02 8.9808976888889447e-02 6.7784367669521117e-04 -9.3179883201153224e-03 -4.6308908098581014e-02 -1.0599656152189709e+00 3.6971331391946194e-03 2.7926452456304396e-01 -4.0506000828021804e-02 6.0515120924264920e-02 -7.5076774333865615e-02 -1.8013558737948188e-03 4.2422600826029111e-02 -7.4335923913604347e+00 -1.3198882386859623e-02 6.3471811159979552e-01 -6.8877146869184003e-03 3.5160347109922441e-02 -8.9665569626049546e-02 -1.2820425304695959e-03 -4.7241047783609247e-01 1.0192728944620200e-03 9.6139037959908080e-04 -8.1080856340122409e-02 -1.6208619036938217e+00 -8.2078094783355482e-04 1.8781369725910935e-02 -3.9050608069457482e-03 -2.3546329796417353e-02 -1.0180009184659866e-01 -1.8837006517742338e-02 2.7893691149429856e-03 -2.6116773232533887e+00 -1.1159240700180817e-02 -9.0051099677657476e-01 1.2006630978120825e-02 -3.3765876051349508e-01 6.8719324385824621e-02 4.3386889473211454e-03 4.1043341455347004e-01 -6.0055383740120760e-04 2.4465708339249659e-03 5.8904434175929055e-02 -8.4523685983731411e-01 -9.4897489844271377e-02 -1.6878642199005256e-03 -1.0298276422004982e-03 7.7969698683773458e-02 7.7665596645601909e-03 -2.7444823540236030e-02 -1.8997790318969976e-02 -1.9019028655438888e+00 -3.2668973430190817e-02 -2.5453602372726891e-01 9.0385393456848817e-03 -9.2236416880950856e-02 1.2072350228402229e-01 -6.7256461868652195e-03 4.6626502270009951e-01 1.0486748363369713e-03 -7.2945968517568183e-04 2.3399199549749028e-01 1.6795716210617684e-01 4.0160458752325212e-02 5.0579145308871087e-03 2.2433741384730865e-04 2.0850174474617233e-01 -4.6652126973185659e-03 -3.5717164138304724e-05 1.1248733624025675e-02 2.1384363491597469e+00 -2.2446888277592336e-02 -5.7268046725221211e-01 -4.1431298928387150e-03 9.2635304959003406e-03 6.9541416592187488e-02 -2.5770213400981845e-02 3.1725782074499875e-01 1.7021792842655259e-03 2.6266135460839557e-03 5.2047133603639395e-01 5.7894540889537893e-01 -2.7891316620980433e-03 7.1562612602049214e-02 -9.8400601434982526e-03 2.8706430991655907e-01 3.0686390455230139e-03 1.1889681436514365e-03 4.4306040509596301e-02 -1.9209759620434852e-01 -4.5098096402398369e-02 -2.8731157349911882e+00 5.5373415138220139e-03 2.5587496274965815e-02 -1.0780488394652821e-01 -1.1386744525349712e-02 -2.6995882979827002e-01 1.5724086167807627e-03 -1.2180724910280105e-03 -2.0091101012894796e-01 9.9209815830442949e-01 -4.5937179544353057e-03 4.4853809424951763e-03 -5.5465663529385978e-04 -1.0762651517143240e-01 -4.1648831607744796e-02 -1.3383087512238490e-02 2.6067853700091348e-03 -1.3820520547451451e+00 1.9438795024598221e-02 -1.7933747175266035e+00 -2.6370450864305894e-03 -2.9650289308483480e-01 9.3484216780325369e-02 4.5765605702877465e-02 -1.8582030896459401e-01 -1.8150799622240754e-04 3.9215493723450123e-03 4.0073276347720821e-01 1.2295824796819943e-01 -1.1292293821547617e-03 2.6835558694359718e-03 -6.5309020817927443e-04 1.6987559478681646e-01 -2.3701861455492690e-02 8.8532553954081550e-03 -8.4962338080885047e-03 1.4516914865525905e+00 -2.5618527765409738e-02 7.4131085953513320e-01 4.9550348327542793e-05 -2.9930488426529678e-02 4.4612478818294221e-02 -1.5342773006295829e-02 2.5978978583589196e-01 -1.2838958542351619e-03 -2.8342145291588849e-03 4.0266407168019214e-02 8.1654703244566917e-01 1.7117368616936801e-02 7.7476227869688330e-03 -1.8776880461121581e-03 -1.1068595748201915e-01 1.5524808437817228e-02 -1.7950466250979957e-02 -1.3176999608049300e-02 2.9509026428331708e+00 -8.5164215706754476e-03 -1.3084404254914261e+00 1.2819156846786250e-02 -1.4179515997966519e-02 -1.2079696676988760e-01 3.7077726139034262e-03 -1.4124889321210503e+00 -1.0270834543715246e-03 5.3362882263048306e-03 5.9616737792111962e-03 2.1021630606355757e-01 -1.3296805219069441e-01 -2.1080618985497457e-02 -6.4370236362301658e-04 -5.4595226165616850e-02 2.2509877224266006e-02 -4.1391590552283475e-02 -1.3115569208062450e-02 -2.1517424257472157e+00 -3.5053615106757974e-02 -7.2283835495545645e-01 5.9107602046546415e-03 -1.6105457171215676e-01 -1.4021907116125476e-01 1.1582731524138801e-02 -5.1755135650410011e-02 -4.0233864847856182e-03 5.3862720603712333e-03 2.4419977080833632e-01 2.0645497705754678e-01 -1.6258122236919803e-02 -4.7044807898034557e-03 -3.6879340295496998e-03 -8.6737888618699799e-02 -2.8465580571150895e-03 2.0103535525876737e-02 3.4529123692195185e-04 3.6954172220230248e+00 -2.5865633243540742e-02 -2.0547661719519965e+00 5.3213097830497880e-03 -5.7279804411336954e-02 1.4354330674868265e-01 1.5147332612917452e-02 -7.4777869475838088e-02 -2.6237030311913045e-03 7.4681917057115577e-03 -2.7415892232374972e-01 2.5512143068226578e-01 4.6923034107749118e-02 -9.5589587594724079e-03 1.1817795778700027e-03 -9.0715058775685975e-02 -1.6496962801397785e-03 -2.0972548083818765e-02 6.4599736649668671e-03 -2.5901933750083117e+00 -2.4098737802319192e-02 -1.5434625635100474e+00 3.7068844572729631e-03 -2.7647691814308928e-01 7.4051186667929869e-02 8.9982909709416248e-02 1.8415674476386812e-01 -2.1647628939177821e-02 7.5836253953811550e-02 -9.8603246702987235e-01 -1.8562692865452846e-01 6.4435590914058594e-02 5.1215331759125841e-02 3.1924807433541480e-02 -5.2506739304317307e-01 3.2428839554040678e-01 1.2824700884010554e-02 -1.5547182539951554e-01 1.4374752484218334e-01 -3.1963619679629574e-02 1.7190516244870651e+00 1.3690120046066401e-02 -1.1048003273929226e+00 -4.5645473864638575e-02 2.4768175167829698e-03 2.1495237292219826e-01 3.5336997436474782e-04 -2.8178154844588077e-04 2.4950484353922775e-02 -9.3998544372181925e-01 1.6168610272935788e-02 6.1826199725703690e-02 -1.4803237265972213e-02 -2.1133808255200393e-02 -1.5938627515140524e-02 1.2829193482275514e-03 8.6895184278391348e-04 -2.6317327509525228e+00 -6.3408661606558780e-03 1.1207428826934347e+00 1.8140216112270792e-03 4.2317705902462421e-02 9.3187094641167134e-01 
      </Row>
      <Row Index="237">
        -3.5147541597509768e-02 3.1324984269655021e-02 -9.4394413024201640e-01 -1.6068382948574822e-02 -2.9842368361094662e-02 -1.4293573770555668e-01 1.8248446096040425e+00 4.0958930311844499e-02 -1.2597430040676461e-01 3.3677828393970138e-01 4.6787609080467973e-02 -4.0657835973433976e-02 -7.7571796879965405e-02 6.4845879806693318e-02 1.2683661174705776e+00 -2.0692839344064851e-02 -3.8393398615880869e-01 3.3466439946026938e-02 1.7359098519716554e-01 1.8290828954263816e-02 3.6027403143155112e-03 2.1915082113891913e+00 -7.4132409536376009e-03 -1.0050527564744449e-03 -2.5522289530999842e-01 2.2759444484702271e+00 6.3769695316295838e-03 -6.6752428092513583e-03 3.5298192488236846e-02 1.4929301886154267e-01 -1.7307117937434668e-02 -1.8039718009106309e-02 -8.1650833892776831e-03 9.8620617937467614e-01 3.5790691542842978e-03 -3.8098015465147910e+00 5.2347219967856518e-03 3.6571303166219904e-01 1.1734364998631008e-02 6.1619738043456884e-03 -7.4942468549374208e-01 -1.3274256210687341e-02 -1.0514426998719628e-02 5.2702038693496434e-02 -7.7753554969240213e-01 -2.4345780257487348e-02 2.4017831587552774e-04 1.0314475767816522e-02 -2.8224803615921701e-01 -6.9440224058780586e-02 6.2294282558013947e-02 6.2740837049167553e-02 1.2143855653552009e+00 7.8792653820642045e-02 4.8286272326859034e+00 -5.1996111705374659e-03 6.0142252136756724e-03 -4.2940244862336385e-02 -9.4145784514960695e-03 4.9455281303198717e-01 2.9354162052160682e-02 -2.2288666940183111e-04 3.6027290064885165e-01 -2.6943089171891188e-01 1.1692905283666732e-03 -1.5193615941359040e-03 2.2243783806872308e-03 1.5011389957282972e-01 -3.0573559537856454e-03 2.3803839725516696e-02 -2.0966670126711051e-02 -1.2056379089190159e+00 6.2836525061946702e-02 -1.7286646440161348e+00 5.3438841595347952e-03 6.8832218721865956e-02 -2.3394742980826777e-03 -6.0667143380439104e-02 5.3836943643545965e-02 1.2293609355059409e-02 -2.3993678152059106e-02 2.2610155770101414e-01 -6.8996487603362766e-01 -1.9241093390860442e-03 -2.7532973980564091e-02 9.0473810950706446e-02 1.6530906345820995e-01 6.7839206667485996e-02 7.0036803330708608e-03 -1.5284346161283935e-02 -1.1489658863540626e+00 3.6753532134753186e-02 1.7066309125061707e+00 1.4035508777973327e-02 2.4769796356304141e-01 2.9080358773967419e-02 -2.1816230339903431e-02 5.2760448093249579e-01 1.8832356760762003e-02 -4.9426620450949699e-03 -3.4996219374374959e-01 -1.0086733163985286e+00 -3.2073486236384952e-02 -1.1774460917581830e-03 6.8561193789198338e-03 1.1397346642661432e-01 1.3901060421858347e-02 -2.9037876119105022e-02 2.6876163290644683e-02 1.3586355135921622e+00 -8.8001496815820701e-02 2.7387241642354638e+00 6.5338535646404239e-03 3.3265727938669443e-01 -1.1541516887600523e-02 8.4300040420733691e-02 2.5549538777163434e+00 6.5780497070349053e-03 9.9226439543813605e-03 1.2833941235817292e-01 8.6703587375359348e-01 4.3448842941526289e-02 -2.8786925639485705e-03 1.3370161326581032e-03 -3.0657626982128505e-01 -1.1435619066844538e-02 -2.0890260918532633e-02 -1.2587925895324759e-02 6.4139379377593286e-02 4.6036345456673899e-02 2.4844846843759569e+00 -5.9474196082769382e-03 6.1872675669128796e-02 -1.0941161513972730e-02 -2.3749627664766848e-02 -2.8813034705817699e+00 -3.2157037581738601e-02 -7.5449551547457361e-04 6.3868484111640100e-01 -1.2460667681880295e+00 1.0368866540488852e-03 -1.5741307351824219e-03 2.0568541771055993e-02 6.5513297309621521e-01 3.0610555915963289e-02 -2.2979780143934647e-03 2.6523006342515032e-02 -8.2374033227461041e-01 -1.5847785338792164e-02 -7.9284777836001012e+00 -8.7178415548279931e-03 1.1108893677555898e-01 1.2038405909599703e-02 -1.5516262542628945e-02 3.6964181024081881e+00 1.4316691770225966e-02 -1.2577437796193358e-02 2.2979239888707070e-01 -4.3874190106155311e+00 9.9092152761059982e-04 6.3028987436753309e-03 1.6085041093085360e-02 2.1999940419043185e-02 -2.9825899584709603e-02 6.0226601349157693e-02 2.3533086146847459e-03 5.1030143976731779e-02 1.4845581240033567e-01 8.5736062462819973e-01 1.7162365243475752e-03 -5.8558187643029669e-02 3.1596615340454548e-02 3.1040463240786242e-02 -2.5830120092280140e-02 -3.3160222445561160e-02 1.0508829782451823e-04 2.3328405953520814e-01 3.2313998097990861e+00 3.4487522080393518e-02 -3.7667709482328005e-04 3.5017746398035288e-02 5.3489377663709092e-02 -1.4111181897584402e-01 -4.5541497307386436e-02 -3.9097519860291641e-03 -2.0694837065934735e-01 2.6844033110336341e-02 2.9051403156831839e+00 7.1356702836096186e-03 3.5045878687833465e-01 -4.3038273558615003e-02 -7.1810689724827181e-03 -3.8607939794178492e-01 6.1187647331366612e-03 -6.9846743720087812e-03 4.1014680179841889e-02 1.7736687287042514e+00 3.7401586718033286e-02 -2.0996857776657551e-04 -4.8710333402178594e-04 1.6989865960798056e-01 2.5214925217838413e-02 1.4639716727344876e-02 -8.5444340783146444e-02 -2.1463250602801054e-01 1.3560516847542203e-01 5.5237621368803502e-02 3.7933560266512067e-03 -8.9884845597680396e-02 -5.6594347805685175e-02 -4.9289701888286075e-02 -2.0785676120178209e-01 1.1131042791986889e-01 -1.0582377494394990e-01 6.7738708394517744e-01 -2.8151179922713254e-01 2.4967691060950870e-01 -9.7791680312341825e-02 -2.5762025285666623e-02 1.2776722745741154e+00 -2.5700299161684370e-01 -7.3945861844432415e-02 -1.4577144801634745e-02 2.9137813126681067e-01 2.7056046339734507e-01 -1.5575917668163015e+00 7.7958472596119099e-02 7.3435744321034235e-01 1.2221320820696491e-02 7.3336171904971603e-03 -1.8191851353424227e-01 8.4697232508471609e-03 -7.2490894424984131e-04 -1.0805182665077240e-02 -2.0574782851169895e-01 -2.6704530341021514e-03 -1.4803237266163116e-02 2.1666869283716167e-01 4.8647683740398406e-02 -4.5263232294736611e-03 6.4436574468018648e-03 -2.3494166793616503e-03 4.4668820204651638e-01 2.5456966878806497e-02 -8.0722493899156689e-01 -3.2981888838361242e-03 -2.1969378900749348e-02 7.7555536846882211e-04 
      </Row>
      <Row Index="238">
        -5.2257322984019083e-01 -3.7794413025721951e-02 1.6446253713965416e+02 1.5076889649753866e-01 5.8769349109752511e-02 -6.7913795325905085e+01 -1.4618415744006634e+03 -4.5682080560609393e+00 -1.4016856899430791e-01 5.9722530909539273e-02 -3.3365606278402265e+02 1.4523485489189625e+00 1.7020835517905653e+00 -4.9419276536355028e-02 -1.1427960612252355e+02 -5.1298637266736478e+00 2.0976196169853210e+02 -3.6995019501773641e-02 1.0326315326616168e+01 -5.7262545770499855e+00 -6.0864263869007118e-03 2.9005570950265974e+02 5.1429022569209337e-03 1.4622042129758483e-02 -4.8718841873109341e+01 -2.1319328545714961e+03 5.9492078144103289e+00 -7.1423550807594438e-03 6.0562458104413963e-03 8.8981757670389925e+00 9.4820596743375063e-01 -1.4545471650199033e+00 -5.4929868198087206e-02 2.3332261370494962e+02 -7.8814699156209826e+00 -8.4998566769063473e+01 4.6844951310049510e-02 5.2379132108252634e+01 9.6317494338727556e+00 4.3876115259990911e-03 8.6153808781320549e+01 6.1838167566747870e-03 5.1638526620081393e-03 7.9667992185801268e+01 -2.3527126812189817e+02 7.0762502592551755e+00 5.5873598512334866e-04 5.5556520192112657e-03 3.6521778270578943e+02 4.7404524502344429e+00 -1.0906636858126149e+00 -1.8045150571197155e-01 -4.0538831139355898e+02 6.3641535629285499e+00 2.2456537566706538e+02 2.4845790820108959e-02 2.7480823494959623e+01 -2.9967935445602052e+00 -4.5534402559496812e-02 2.4380885396897793e+02 -1.2685922961782126e-01 2.9272608097329567e-02 7.3518395617604256e+01 2.3360704032890499e+02 5.3389543803641573e+00 4.0449254650525290e-03 -2.9015622194492607e-03 -3.2120706033753231e+02 -1.0345107425237074e+00 5.6058160196698736e-01 -1.0458545998790214e-01 -4.9889479310810566e+02 7.1661175230183289e+00 1.4528345833253115e+02 -3.2068937958683819e-02 -3.4144499456742778e+00 3.2795366004866082e+00 3.2670272541054146e-02 2.5256014138460159e+01 1.3110100711855921e-02 1.2737705605331939e-02 3.6028392286767485e+01 8.2924825697764754e+02 -1.5406010286824312e+00 -4.4000027524816687e-02 1.5619323022974640e-02 3.2079815591976512e+02 -3.7566975019872189e+00 4.2061474007787183e+00 1.0804829857806908e-01 1.2036106637280900e+03 8.2872913205064833e+00 1.5541573545197025e+02 2.9966716045237263e-02 -1.1246185019612312e+01 -6.9952270656358451e-02 7.3509665852270700e-02 1.8026922451704741e+02 1.1736328397091711e-02 -5.5822657945100218e-02 -1.1043835302209482e+02 1.3158558812439442e+03 5.4211885385884671e+00 -3.2621940901435664e-02 -4.0748542537585308e-03 3.8190694807097316e+02 -4.5443093543872237e-01 3.9275570634054020e+00 4.2091871711272688e-01 1.4302628205716610e+02 -3.5372908051358536e+00 3.2012072949111462e+02 -1.8182845894261845e-01 -2.3767714723944664e+01 4.4052975104423240e+00 2.2584190970519558e-02 7.2148282363964245e+02 1.1279638171117767e-02 -4.9854371543915477e-02 -1.9225115230819210e+02 1.9755016562081873e+03 9.0579276406915596e+00 -1.7689931412547821e-02 -8.6396357314981742e-03 -8.4576081957973656e+01 8.1667520455084741e-01 3.8740136588530731e+00 4.1675393884361256e-02 3.7834334796667099e+02 7.3365067530539818e-01 2.0282427831296809e+02 -1.0055402896250598e-01 4.3588996148682781e+00 -1.2539372360697598e+00 8.2986680135945790e-03 6.1006161260604858e+02 7.7104005167711875e-02 -1.9531908037606627e-02 1.2371052007423714e+01 1.3160920357704163e+02 -3.1932360114296898e-01 4.5963354727973638e-03 1.1236615989872689e-02 2.9558193831238896e+01 -2.5285872934618965e+00 5.4189517802296905e-01 6.3145271851681173e-03 -1.7188628550758585e+02 -4.0939934551715851e-02 2.1291332268714905e+02 5.8935206089898884e-02 -7.0136285508051515e+00 -4.0299857197314850e+00 -3.8973166420078087e-02 -5.8167731286585331e+02 5.8848668358606915e-02 -4.8519777679075560e-02 1.2077778723137453e+02 1.2752989335271996e+03 -2.3402417303247489e+00 -2.3292499195648020e-02 -5.2123523432072716e-03 3.5019108381752449e+02 2.6672184234266751e+00 -4.7368638441412259e+00 1.7426719966761084e-01 2.9335505760740489e+02 9.8598768240126446e+00 2.7574283206835389e+01 -4.0173018125591398e-01 -7.3857298453804106e+00 -2.3139587651967304e+00 -7.6544462448282502e-03 -4.8933651134371758e+01 7.2065730852955312e-02 -3.5276535254070041e-02 1.2504775117011741e+02 -2.1366992256708909e+03 5.4612902153894538e-01 -1.9660977405635549e-02 7.3729380799250066e-03 4.2074505831301212e+02 6.6045304995786864e+00 1.9873143034928944e+00 -6.1351758658929612e-03 -3.3255042860517278e+02 -5.0551571301184595e-02 1.3804463898297399e+02 -8.3789807837547414e-02 -1.2292445004917681e+01 -5.2756828989804490e+00 -8.3572173148240836e-03 1.5236971138417721e+02 -4.4581195745877267e-02 -3.1679006874355764e-02 8.1892511639744043e+00 -9.9285901467688382e+02 3.8799276575446129e-02 1.7782106080517224e-03 -7.9063414458886427e-03 -2.0859375322601409e+02 2.1823201347433496e+00 -3.3045981944742380e+00 9.3052069425539230e-02 -2.7220561238634400e+02 -7.1760476531926543e-01 1.4423407184233656e+02 -8.6440033841427066e-02 -1.5230888103134930e+01 -2.2977409784798510e+01 -3.7199379875892191e-01 1.4856592290045228e+01 2.5581252845222480e-01 -6.1912447520307978e-01 3.6687729077320546e+02 3.6236630007834174e+02 -1.0331235717458185e+00 -4.0482575537935250e-01 -7.1584737281638722e-02 9.6145632254891098e+01 2.5082314735278487e+01 -7.4798176436743233e+00 1.4846869809905741e+00 -6.6006341092055663e+01 1.3120437425997807e+01 3.8943103531375527e+01 -3.9248445065059059e+00 -1.0519778177142143e+02 -4.9588409497519024e+00 2.4667588108968630e-03 7.2752176547970157e+02 -1.7567270185395500e-02 1.7027841332435401e-03 -1.3261090177955339e+01 3.4995575805555154e+02 -4.7097465757665633e+00 -2.1133807974024421e-02 4.8647683829983634e-02 1.0238412484384025e+02 1.4506318644307612e+00 -3.2833493899670430e-01 -8.4198176511154346e-04 5.2254590408794047e+02 2.3998812266509049e+00 -9.4450856186449528e-01 -5.0977468606361320e-03 -1.8985113226226531e+00 -3.4528866482729131e+02 
      </Row>
      <Row Index="239">
        -3.7106598733862484e-01 -4.5528428540308141e-02 -1.0915051578544080e+01 1.2609061039199787e-02 1.0115242045856121e-02 -1.5517461169045419e+01 1.7029461139813066e+01 -1.9074802635651622e+00 -5.4925445971889530e-02 -1.5722811500040734e-02 9.3973438388638897e+00 -1.6080892286030576e+01 -3.1093562598107383e-01 3.7138145012249879e-02 1.5131473368499428e+01 -1.1152934397978242e+00 -1.3960638761520386e+01 4.0112036676873686e-03 -1.1667354225064628e+00 2.2238577945972793e-01 7.9270269648077374e-03 1.6644004111411050e+01 2.0517138790410172e-03 -1.7862563930748365e-02 -3.6584002832882106e+01 1.4758676773548359e+01 -2.5320160710252821e+00 -5.5329914910089428e-03 -1.8377944048779682e-03 -1.3626579330235700e+01 -2.0598789163632318e+00 -1.0328020717861364e+00 6.2920070731706801e-02 3.7486706019844860e+01 -9.4242347468389198e-01 3.0798088789451867e+01 3.8341739527822938e-03 -9.5890752823337380e+00 -1.5052386461611604e+00 -1.5680870958021842e-02 5.6911052968569038e+00 4.1521212535826635e-03 -1.6646919621507550e-02 1.6602043919265270e+01 -1.0953592306002975e+01 3.8586760091384349e+00 -5.1642790861592403e-03 -2.6522042696512926e-03 -1.8073415743652731e+01 2.6812849600508343e+01 -1.5514020333648659e-01 -3.8439224060584820e-01 6.9234630691353232e+00 -1.4852027640445158e+00 1.8338645067997277e+01 1.7821848911125926e-02 4.1000710986554623e-01 -1.1215877480281051e+00 1.8272344908154992e-02 8.3534668616484851e+00 2.4846653948316089e-03 -8.2224284257179647e-03 2.4595293617807329e+01 -3.1282006021356210e+01 1.3955115542048588e+00 -4.8441549728295286e-04 2.0157637713396070e-03 -9.8279211662884336e+00 1.1103434572316473e+01 -5.1286341919512779e-01 5.8499534281963861e-02 -1.3833115948829800e+01 6.2250527192372829e-01 -1.4607770319562405e+00 -5.8585549368217471e-03 5.1529623335227370e-01 -9.4684177732051467e-01 2.2548939137095658e-02 -6.8794466434046626e+00 4.8828236658664537e-03 -2.6963716415423278e-02 1.7217526370513951e+01 -1.3799667680636048e+01 -8.3801447150108288e-01 -8.0150854548719508e-03 -2.8550198213963540e-03 1.5156361781453597e+01 -2.1282159732654691e+01 7.7038492413703352e-01 1.9110815601379727e-01 1.9883512966189301e+01 -4.5882709155557677e-01 2.8546661252621561e+00 1.4967308941550073e-02 8.7794577656313777e-01 7.6022410348377889e-01 1.0744181909615236e-02 2.1107805831357837e+01 1.7464964948885608e-03 -7.6907846575977601e-03 -3.0458021403464954e+01 -5.5040530406113248e+00 -5.6815509647130966e+00 -2.7007795154077030e-03 -4.5568641121462861e-04 -3.3181180204264820e+00 -2.2191234197467566e+01 3.8303813114180230e-01 -1.7111334944502232e-02 7.1370509542524815e+01 1.9066908646491356e+00 4.8918986240401864e+01 -2.6355778968536470e-03 -4.8741197129711509e+00 -1.1673062755926367e+00 -7.1842738620375712e-02 1.7963875247311080e+01 5.6375591773871747e-04 -6.6242571652423976e-03 1.4009140534908511e+01 1.7693535465665627e+02 6.1566960753543754e+00 -3.5067405577393629e-04 3.8969358495322126e-03 -6.0987394063704414e-01 4.1380593927897280e+00 -4.1668418855260825e-01 -1.2753175981106324e-01 3.0038036603480577e+01 -4.0289155321443104e-01 1.8989124854240799e+01 6.3997085385949504e-03 6.5032683114714018e-01 -5.5055159127186926e-01 8.9078766834973067e-02 1.7597970485687256e+01 -1.3313978609232890e-02 -2.7110433588859451e-03 1.3745584955322556e+00 3.6845435202121735e+01 -4.6579851638234686e+00 1.4090456432995779e-02 3.5914315737564095e-03 -1.0143335759406909e+01 -3.2150751163442692e+01 2.0170337922263570e-01 9.8521527259435970e-02 -1.4490039443306159e+01 6.5402241551782936e-01 6.8614769615232944e+00 -6.7436202963619962e-03 1.4137115795165300e-02 1.8747077869811619e+00 -8.4282837279943124e-03 -7.4885530117899179e+00 -6.1900999607704676e-03 -1.1449386961430719e-02 3.0520579967793310e+01 -2.2485478997405153e+01 9.8696091582375800e-01 4.1243833206312530e-03 -2.8053833045920129e-03 2.3557698215136043e+00 2.1259894781664116e+01 1.0321278523679212e+00 7.1306550246674760e-03 -3.8836358101107180e+00 -1.8531982232789233e+00 -1.0628803725587204e+01 -9.7565387327591679e-04 -3.0097735864692368e+00 5.5917514002612734e-01 -8.0177142533273127e-03 1.0485717055664281e+01 -5.2657819244359416e-03 1.4952044087323202e-02 2.8068174640939105e+01 5.2305631770286709e+00 8.8708105672321835e-01 -4.5211612714695093e-03 -3.2928842076387355e-03 3.9059267237316817e+00 5.0138302787774592e+01 -1.9996856324814871e-01 -1.5321798086188210e-01 -4.2832474636728875e+01 -6.0332628523246967e-01 -2.3287719652289525e+01 -5.0980386950811862e-03 -1.2674907298642211e+00 -5.5355541870267189e-01 -3.5086876628270147e-02 7.7151769928459544e+00 7.0235244719185630e-03 -5.5306753452271096e-03 5.9672888018249068e+00 -4.7023215653607622e+01 -3.1571812218171544e+00 4.0565278031223784e-04 -9.6032697507464349e-04 1.4392018453920173e+01 1.0412777859000926e+01 -2.6073024175275350e-02 1.4572449085017070e-01 -4.3380563225480728e+01 -1.7954109053753200e+00 3.5163585268965107e+01 -1.2687097846537654e-03 -3.5368319345870987e+00 1.0888196043379139e+00 -2.1072101365393792e-01 -2.1895692392499768e+00 -3.7730961471652336e-02 -2.1602706425767337e-02 5.8629655557917431e+01 2.2753915361536201e+01 -1.8174424819131673e+01 -3.3351958687387079e-02 -1.9908335681286832e-02 8.4276912214234471e+01 2.1773170089742052e+01 2.1229416414353182e+00 -9.8392340238431331e-01 2.3657964139245450e+01 -5.3141975935250230e+00 -3.8814022268008557e+01 -4.8737045113227850e-02 -9.7887763417820679e+00 6.6915664706721145e-01 -3.3876563888242117e-03 -1.1975678095768671e+00 -9.4175634146154152e-05 -1.6932545251435727e-03 -7.6208591087197419e-01 5.7341621758809609e+01 -1.1100921460662692e+00 -1.5938627438160324e-02 -4.5263231959680184e-03 1.4506318519815977e+00 7.1225376936663451e+00 -1.5154193000671512e-01 5.7027338653903442e-03 3.6309282037274755e+01 -6.8521165117999772e-01 -1.5712746647186577e+00 3.7596035634505295e-03 1.1276877632772084e+00 -5.6234275985725681e+01 
      </Row>
      <Row Index="240">
        -4.2398528696392646e-01 -1.0247915014396369e-03 2.7232878517243080e+00 -1.5641203877262200e-02 2.3393025714923965e-04 -6.5734707442315994e+00 -1.4609718325664289e+01 1.3397835870895278e+00 1.1658599629539523e-02 1.2108626158614300e-02 2.0436273425384570e+00 6.2527614385908237e-01 -3.1617066590297327e+00 2.3322914856635180e-02 -1.0683988801523810e+01 -1.4259923747740686e+00 7.2863563988357782e-01 -4.5444373699723428e-02 9.7452544976113131e-01 3.2214316463978321e-01 -5.4209058780543273e-03 8.5640798820604687e+00 1.0553421340091518e-03 -4.2332034680150343e-03 -1.4342588302737568e+01 -2.4556051768105135e+01 2.0126767453402863e+00 -2.2986016976602741e-03 1.2890569379919725e-04 -3.7101468438474683e-01 3.2216475531458855e-01 4.9411881973474010e+00 1.7550194264799757e-02 3.6657641322090058e+00 -7.3969058821239742e-01 -1.3001921820658026e+01 3.2631977960306813e-02 -1.1781545752470208e+00 2.4964580064988695e-01 -2.7347954921594919e-03 -1.9527788884353328e+00 -4.7116986775534997e-03 -4.9928511160146627e-04 3.9437432426639134e+00 -2.5209489734494127e+01 -1.0491331672635908e+00 -3.0447624657128358e-03 3.1977344578493216e-04 -4.6815115193348902e+00 -5.0328401696242508e-01 5.0479917247239428e+00 4.4973705714483003e-02 -6.6335233713052730e+00 -1.3476613364118748e+00 -2.9953403191233519e+01 3.0465789142581912e-02 -3.8616500860298402e+00 -4.5758323560085046e-01 -2.8281175772661982e-03 -1.3696269323118031e+00 1.2955187468762119e-02 4.3582311503083115e-03 -5.1073811686364934e+00 -1.8352997790963855e+01 1.6852421877883899e+00 7.0017933034538515e-04 1.5609881998903674e-03 9.4288150637930812e-01 -6.0379130692126637e-01 -7.1157484834486695e-01 -1.0617330791689028e-02 -7.4631463224068284e-01 -8.7706369267115747e-01 1.3999227821695968e+00 -6.7123094738121836e-03 -1.9456305750100000e-01 -4.2193591213185755e-01 -3.2078899837557628e-03 -2.7442689496092498e-01 2.8183874212857063e-03 9.1892690697097379e-03 4.4771042852141818e+00 1.1044814956869232e+01 -1.9732125528578308e+00 2.5110981449749659e-03 2.9891623561457692e-03 -2.1670740319541437e-01 5.8428814532817341e-01 -4.2128941851951822e+00 -1.4842662044202370e-02 1.4324581547594789e+01 -7.9161822366222623e-01 8.6687822107087413e+00 1.7021685641097406e-02 -1.6851284281001426e+00 3.6916513873620715e-01 2.4251130885666328e-03 4.6124265901162289e+00 3.9942782037911684e-03 6.5849191872615620e-03 -1.3719516558934629e+01 1.8739519174635461e+01 -7.3356000966987267e-01 1.0202470426143861e-03 3.6362767134789920e-04 -3.3019878470222466e+00 5.7689303778533940e-01 -1.2501450265881431e+00 -4.0479626462825991e-03 1.5090957033913583e+01 1.8358453808741615e+00 -9.5705569748533890e+00 -5.8358433129797049e-03 -1.6997168225352652e+00 -1.9878683246707851e-01 5.5602931184779436e-03 1.3970201798352718e+01 6.3906694616733262e-03 8.1157947429026933e-03 -1.1419385766748746e+00 3.6156389804506034e+01 3.0533065738225673e-02 2.4131261542745808e-03 7.9060726954960359e-04 -5.4003251438939515e-01 -1.3199425174752832e-01 -1.6022026226316655e+00 -1.9461332942682930e-03 8.9029314737999812e+00 -1.2217969597716944e+00 -3.5411982472069212e+00 6.2878171134634897e-03 7.1896414915590867e-01 -2.1037698248500192e-01 -5.3428739699938887e-03 1.0164222095161676e+01 -4.4427136058509120e-03 -1.5316680753386436e-02 -1.6731667557105538e+00 4.1422607284039259e+00 1.2940832273779961e+00 -1.5592201928775751e-03 2.1839271738988142e-04 -1.5825606385442370e+00 6.8369315151596766e-01 1.9294205320045421e+00 -2.5127486162546120e-03 3.3009069128675037e+00 3.3794785034115193e-01 2.3053301144391298e+00 3.2900493927212615e-02 4.9358514300547540e-01 5.8225036648826745e-01 7.2860346888621308e-03 1.5619434381806059e+01 -1.4154695814943108e-02 -1.7478869249465845e-02 1.3419954145101656e+01 -2.8107580254833010e+01 -2.4839086022192913e+00 -9.2967535697970893e-03 1.8960119783006935e-04 -2.0076878614729594e+00 -1.4230180152307526e+00 7.8774038351049924e+00 6.9486484568910711e-02 3.6755144551352714e+00 -2.1570665120639347e+00 1.1851911688732798e+01 3.7325180144456738e-02 3.1313511163225485e+00 3.9204827609367499e-01 4.7512082612044537e-04 -9.0781321088397817e+00 -1.2035750842755988e-02 -6.2085608761108801e-03 1.7192469739678927e+01 2.1835252977645723e+01 -8.5184398692780405e-01 2.4521363194707213e-03 1.4711746588531582e-03 -1.3312749108117714e+00 -1.0762723322661714e+00 -3.9881175687934274e+00 -2.6588683702499338e-02 -6.6763108201957948e+00 -1.2987330849175578e+00 2.5933846168169111e+01 1.3771572956656541e-02 -3.5100100307136017e-01 -5.7068622675990355e-01 2.3217055814583887e-03 -3.8527525549852726e+00 5.6734699198326410e-03 -7.4873981237644216e-03 2.2394848555031786e+00 1.4118962408625521e+01 1.6394608970413174e+00 -1.5418116036108875e-03 -7.0540828147667989e-04 5.7645994006287538e+00 -7.3707041832517461e-01 2.7175399591105815e+00 7.2940514561423697e-03 4.1438577930784959e-01 -2.1496696070967118e+00 3.8277835801677611e+00 1.7300390071959271e-02 1.2345684209431056e+00 1.2854817759698562e+00 6.8255657780980528e-02 1.5934903192060119e+00 -1.1073175886302522e-01 -1.9719036303580495e-01 4.5829549724803655e+01 -2.8029885648629715e+00 3.4463725232421893e+00 -5.7689502598116116e-02 -7.6971490982210844e-03 2.2898337814043771e+01 -8.7900613403116949e+00 -4.7059587894716515e-01 5.4846295888975760e-01 -1.2853817509163491e+01 -4.4986240966090918e+00 -8.8645126961582719e+00 2.4550154068522900e-01 1.3916973584141488e+00 3.2644687621262847e-01 4.7903642862445750e-04 -1.1896596027992928e+01 5.0047099202443768e-03 6.8753405100918652e-04 -2.7479155279485212e-01 -3.1470520654185354e+00 9.2836131300466218e-01 1.2829193560834895e-03 6.4436574492314769e-03 -3.2833494281885578e-01 -1.5154193076884326e-01 1.8222008205639213e+00 -4.4435936795748400e-05 2.0677697163826920e+00 -1.0457812275724336e+00 1.1778036312462064e+00 1.0386827982917056e-02 -4.9178753874093672e-01 2.2016655711827493e+00 
      </Row>
      <Row Index="241">
        -5.4562350078953825e-03 4.1771757009589905e-05 -1.1938415380063816e-01 1.1789945380535904e-04 6.7720455211939257e-04 -2.7360577387298690e-02 -9.8320454417262226e-02 -4.5112004900116354e-03 5.3013345810453694e-03 -4.9301291548990989e-03 3.1529110788142134e-04 -3.0147473732540675e-02 -1.7606966737275798e-03 -2.8169222273440653e-02 4.5700422665140650e-01 5.8281642044448745e-03 1.5379203041084111e-01 2.3212137124044574e-03 -1.2684281184647261e-02 6.4249466088313056e-03 -1.7693597416137408e-03 3.2129123165759665e-02 8.7360370210287641e-05 -2.4545924075645154e-03 -7.4442529250518419e-02 -1.6005379516241192e-01 -6.2740541006860440e-03 1.1550364745360753e-03 -4.2025343974949614e-04 -1.9151424073810652e-02 4.8096375703607919e-03 1.6657336708476578e-03 6.1222158097228530e-02 2.3791953538966482e-01 -2.3525938770490029e-03 1.6932084596373898e-01 -1.6907651684441305e-03 -8.1102630263195863e-02 -9.0136141266441427e-03 5.4217982728319569e-03 -8.4396534811290280e-02 6.4088273012963271e-04 8.9061427549772532e-03 2.7128259085657191e-02 -3.2771171630884055e-01 4.4971404769515999e-03 -2.6773111019681162e-03 -2.9458127350754371e-03 -8.1173542454621384e-02 9.1944480956499319e-02 -3.4518125119120668e-04 -2.8159256128844667e-01 -1.7477115988867808e-02 -2.1385551714274698e-03 -9.2927554873676854e-01 -8.4884793443951168e-04 4.4891291678823109e-02 2.0863915217148588e-03 -3.3366469423872225e-03 -7.6476952654047636e-03 -1.1747233563585979e-04 -3.3560446482491374e-03 -7.6245185409788974e-03 -7.2638423279386188e-02 -8.6286551112380039e-03 1.5099752082776141e-03 1.2916291634592625e-03 5.8313515338568322e-03 1.5046251668309196e-03 3.8890254269574598e-04 9.0373371047169027e-02 -2.9041662824602099e-01 -5.0029551760033542e-05 2.5713965453542187e-01 -7.3320809688226518e-04 9.8478923920310990e-03 -1.2594233433461000e-02 -2.1215219835566401e-03 -3.5553915149648674e-03 -7.2990808382300543e-05 -6.6572098070434294e-03 3.8638185790290436e-02 1.1974392602132866e-01 6.4420997840386462e-04 2.1388292164368217e-03 1.1634665593274196e-04 -4.0859632162749904e-02 -4.4630896331909753e-02 2.7495910645143340e-03 2.0417087538552181e-01 -5.6628411611711726e-01 -1.0880422111540611e-02 5.0560503091355713e-01 1.5765601468409329e-04 4.5819327482604422e-02 8.1064916794559849e-03 1.2631316294446915e-03 6.3530485927913105e-02 1.3476653894350932e-03 -5.3198843000146212e-04 -7.4854771355944649e-02 1.5365824538923789e-01 -1.0237029180260038e-03 -9.8689178231525787e-05 -2.8585812683523670e-04 -1.5291791076379013e-02 -4.1416560238758393e-03 2.3390970315517734e-04 -4.8146524374732103e-02 8.0632276208780240e-01 8.8820638596303070e-03 1.4684016118553700e-01 7.2631081613039328e-05 -1.7501734679171932e-02 -5.7670321232876631e-03 -1.5862420381216324e-03 3.2289973433648811e-02 3.6773339930240567e-05 2.6106237648721997e-03 -9.5143451806507073e-02 4.7617326968838825e-01 -1.0997893247435275e-03 -5.2998304173948463e-05 -1.6254269639669194e-04 -2.3119982411095918e-02 2.1038836925526994e-02 -1.5664027024104854e-03 -3.6075678177834192e-02 -3.2061431224428816e-01 -2.6166385222303745e-04 2.0204048015978060e-01 -6.2302399733882297e-04 5.3670678557828921e-03 1.6557652498576658e-03 4.0081381299792440e-03 -1.5852699230890721e-01 -2.5509625182995599e-04 4.9189097499553469e-03 5.6579975989734521e-05 -2.9923125472851098e-01 -5.9371182771883468e-03 -1.1218858000074938e-03 -1.9482445525462258e-03 -2.2834289995898871e-02 -2.9632045686447839e-02 -1.2392356512549441e-03 -1.0844870989868127e-01 -2.6864556333543987e-01 3.1837922056183743e-03 1.9761394390661735e-01 -3.6163159320506955e-05 -1.2975699557500775e-02 4.1666031369231860e-03 -5.1074011862195512e-04 2.9207652925379080e-01 3.7585629262524428e-04 -1.8511854382698978e-03 9.2412332882872761e-02 -3.5539850369423220e-01 1.0340593084741612e-02 -3.2791894438510133e-04 -1.0375399403327046e-04 -1.8399479476649105e-02 1.6014408637365918e-02 5.0937608114045574e-03 -1.6686751619595652e-03 5.6985794098000042e-01 -8.0911383304371753e-03 7.7135565206208412e-01 -7.3671485251802782e-04 -6.7023118627730582e-02 1.2894944082795234e-02 6.5985943609181419e-04 -4.0026047960282085e-03 -1.5421135630804272e-03 3.3015818548028930e-03 7.7913595101790634e-02 1.6349380025826576e-01 7.9719468573102858e-05 1.5661402914682321e-04 -6.7915951914054862e-04 -1.7211131582826056e-02 7.6403201769750240e-02 -1.3704397921934230e-03 7.2672466603681762e-02 -4.5773773322935085e-01 -1.5977322571856689e-02 6.6112777084617846e-01 1.9683994303498764e-04 -4.3759355033898828e-03 -4.1134564261327000e-03 -7.6267858969885083e-03 1.3101484285243714e-02 -8.3506147652168128e-04 -1.0740002036805585e-02 1.8899767158700342e-02 8.2175889985592221e-02 -6.5849991873392355e-03 3.1936481711726042e-03 3.3345469354643855e-03 8.8954803850356257e-02 -4.4088611676372125e-02 5.8614760733064486e-03 3.0175282370786949e-01 6.4854202185256327e-01 -1.1731170967408389e-02 -1.7420300387129828e-02 1.5029680010969493e-04 -4.1792254633037373e-02 9.0912033473955489e-03 -2.2430426192187269e-02 -1.7697290285610734e-02 -3.0398994028804083e-03 -3.7196660775889567e-02 3.1657087853454868e-01 1.5169341553246340e-02 -1.7792680263625016e-02 1.4594087620433988e-02 1.2492242977130363e-02 3.7170164600547650e-01 -1.3836654894953426e-01 1.8760003128011959e-02 2.9408222941249318e-01 -1.2140532038733909e-01 -7.0128734369632184e-02 2.5653424955152104e-01 9.8291922387128139e-04 -3.2904857253299724e-03 3.4233154988214665e-03 -1.0329022341762362e-04 -2.5502487617893621e-01 7.3876989286714156e-04 -2.2207794687886806e-04 -1.2986075426852040e-02 2.2189710706106164e-01 -6.2761726347602383e-03 8.6895184320212593e-04 -2.3494166793817384e-03 -8.4198184597994441e-04 5.7027338602324562e-03 -4.4435933816089346e-05 1.0003567121639459e-02 2.9335581019200418e-01 -7.0701596614242135e-04 6.1817829182018613e-02 -3.9392205646710925e-04 6.2594755983980122e-03 -2.2232619889461297e-01 
      </Row>
      <Row Index="242">
        -2.2314914489002695e+02 -7.4524398331413977e-01 -1.0201954915523529e+04 7.9028470006596763e-01 7.8805946427019080e-01 -1.7915065525174141e+03 -3.4206519160270691e+03 -1.2742970057143248e+02 -1.0315034998668125e+01 1.6286118040225119e+00 -1.4748959954604506e+03 -3.2557143568992615e+01 4.5360933765769005e+01 2.7856766856275499e+00 -8.1736059165000916e+02 6.1652951672673225e+01 -6.6610487613677979e+03 1.4772821626393124e+00 5.2228868290781975e+01 1.0416158229112625e+02 3.2764589483849704e-01 -3.3656538851261139e+03 -2.5964238680899143e-01 2.1938010834855959e-01 -1.2125764391422272e+03 -1.4976188282296062e+03 -9.9366024136543274e+00 -6.9085050519788638e-01 2.1878345610457473e-01 3.8809948577708565e+02 3.4088797867298126e+00 1.8793788935989141e+01 2.1081922689918429e+00 -2.2472578970193863e+03 1.5110497604310513e+02 7.3589386829137802e+03 -2.0889445416396484e+00 9.2972088577711838e+02 1.2526852816529572e+02 1.5827247116249055e-02 -4.5991128676548251e+03 -3.2931099995039403e-02 2.1565849776379764e-01 2.5747912391424179e+03 -1.3160424563407898e+04 4.7163294562872034e+02 -5.0443973072106019e-02 6.0233018855797127e-02 1.3918435874506831e+03 1.6210702407360077e+02 1.8976194299757481e+00 -1.0004736469825730e+01 -7.6881558298349380e+04 -3.7838186979293823e+01 -3.1724171513319016e+03 -1.0110543741029687e+00 4.2721388065814972e+02 -1.5523863391764462e+02 4.5542058831779286e-01 -6.2779402727484703e+03 7.3686647915747017e-01 7.5632293319540622e-01 -4.2202734959125519e+02 -4.7661338918805122e+03 -6.1868462435901165e+01 1.0011181280424353e-01 2.0063559230038663e-01 -2.0714691683426499e+03 2.6561363399028778e+01 1.4223211044445634e+00 2.4791201807674952e+00 -5.3578034456014633e+04 9.8820514313993044e+01 -1.2828897147357464e+04 6.3666318776085973e-02 3.8735619753599167e+01 -2.3473915904015303e+02 9.0127199242124334e-01 1.1640424838066101e+03 1.7838324420154095e+00 2.9677822021767497e-01 2.0747669476568699e+03 2.8250678025484085e+03 1.3959117934107780e+01 -2.6858238105196506e+00 2.5840568172861822e-01 3.0796458858102560e+03 -1.4411671936511993e+01 -1.2158650830388069e+00 9.8069991595111787e+00 7.2144148757338524e+04 9.1572395145893097e+01 -2.0080788017809391e+03 -5.6128255772637203e-01 2.2352193093299866e+02 2.6211837499961257e+02 2.8375260141910985e-01 3.4021920714378357e+03 7.9640507011208683e-01 3.3408300718292594e-02 -2.6816876881346107e+03 1.2330763443298638e+03 -1.2273127793241292e+02 -3.2156560427392833e-01 -1.7492957034846768e-02 1.7105436450242996e+03 -1.9566191762685776e+01 -1.2070019543170929e-01 2.3694611815735698e+00 1.5035708827018738e+04 -1.1052623941004276e+02 2.0119657835483551e+04 7.9229994723573327e-01 1.3739161515235901e+02 -4.6208385020494461e+01 -4.2414024355821311e-02 -1.0620564492076635e+04 1.0976467937871348e+00 -3.3654412467149086e-01 -1.4212518050074577e+03 -6.1855796937346458e+03 2.9360643035844259e+02 -2.5213931291182234e-01 1.7104672825826128e-01 -3.8568457641731948e+02 2.3374121628701687e+01 7.7022442851448432e+00 -1.1056961086578667e+00 -4.2147876116752625e+04 4.1360792233259417e+01 -1.7951329689398408e+04 -6.9785077407141216e-01 3.3868169649550691e+02 -8.7146090128691867e+01 8.7327406881377101e-01 -1.1197919509887695e+04 -4.3274160087457858e-01 3.8757329224608839e-02 4.1925764827430248e+02 -7.9716403198242188e+03 -9.6674548301845789e+01 -4.0273897256702185e-01 -6.3936641083273571e-02 -3.0918126887083054e+02 -2.7820797404274344e+01 -6.9834086955524981e+00 -1.0858845468610525e+00 -3.0312292260825634e+04 2.7025329649448395e+01 -6.2420658779144287e+03 -1.2691357247076667e+00 2.6517699360847473e+01 5.2412166695110500e+01 -8.5422515998652671e-01 3.7145339736640453e+04 -1.9903900287436045e+00 -6.8955124108470045e-01 2.9894703799113631e+03 8.2177260110676289e+03 1.4379947848990923e+02 4.3308746058937686e-01 -1.5699599422350730e-01 1.7011785140396096e+03 6.4101742894388735e+01 1.7059195765352342e+01 7.6025765265876544e+00 8.0763383489102125e+04 1.3131160530843772e+02 -1.3043902017951012e+04 -2.0667120942907786e+00 7.5913010671734810e+01 5.0911445182841271e+02 -3.4109553154121386e-01 -1.8617974269017577e+03 -1.2014342875918373e+00 1.3815846794750541e-01 2.5450097630918026e+03 1.1807856009483337e+04 3.9104715052992105e+01 3.5242167806791258e-01 3.7389843215350993e-02 2.2301792491972446e+03 -5.6444114768877625e+01 -5.6721913911867887e+01 -1.1588499609497376e+00 -4.2385177730873227e+04 3.4490200064145029e+01 -2.7093742396831512e+03 -2.6226136722834781e-01 -4.2217742308974266e+02 -1.8907179676927626e+02 -1.1802763790037716e+00 -9.8148711632043123e+03 -3.7284911374445073e-01 -1.6009812163247261e-02 -9.3981953721493483e+02 2.5281630240678787e+03 -2.9982582754269242e+02 3.2539353411448246e-01 -2.9957213650391168e-01 -1.4120342113347724e+03 -1.0990796314552426e+01 4.3625796206295490e+01 6.2918838192708790e+00 4.7879882813841105e+04 1.5713395059481263e+02 1.7831108808487654e+04 -1.5651590498600854e+00 6.2874046400189400e+02 4.9659166865050793e+02 -1.3557505450909957e+01 1.7690853333845735e+02 -1.9897968316334300e+01 -4.7718115671741543e+00 2.1419494581222534e+03 -2.3545594017505646e+03 -1.3682738845627755e+03 -3.0513907401928009e+00 -4.3747312033156049e+00 -7.4478491598367691e+02 -3.5767995953559875e+01 -5.8131121547892690e+01 5.7357851818620702e+01 3.5196478702738881e+04 3.3831628625281155e+02 -1.2700358714651316e+04 -1.2898241621544003e+01 -9.9622906686738133e+02 -3.5993229230400175e+01 9.4567022242699750e-03 -4.0866925198182464e+04 1.6748855104015092e-01 5.0066933354173671e-02 -2.9143518424988724e+02 1.8844143295456903e+04 -6.3841032558214046e+01 -2.6317327453216421e+00 4.4668818994614412e-01 5.2254590866900980e+02 3.6309283461188897e+01 2.0677698757499456e+00 2.9335581752911821e-01 6.8309595785610683e+04 9.6516754675656557e+01 -2.3320203821659088e+03 -3.3072786790223019e-01 -2.1002776561770588e+02 -1.8780665061880052e+04 
      </Row>
      <Row Index="243">
        -1.2756581063608792e+00 2.4093798943113143e-02 9.5354348635300994e+01 4.8211208608336165e-02 -2.2459064086604030e-03 -4.3558001292403787e+01 1.7211869376897812e+02 -2.6730438449861822e+00 -2.6563744583540938e-02 3.3764172233986756e-02 -2.0972765851474833e+00 3.3776573410723358e+00 1.5079998536966741e+00 -1.3026868038650719e-02 5.4410008609294891e+01 1.5040887809416745e+01 -1.6058381733298302e+02 -2.9985426815983374e-02 2.4734979884815402e+00 1.8553399361553602e+00 1.2001123378468037e-02 2.6288234117603861e+02 2.7720995096842671e-03 -8.6231182194751455e-06 -6.7809460842981935e+01 2.3198113668223959e+02 -3.4208526483271271e+00 -9.6387228359162691e-04 5.0609070167411119e-03 2.5238085578175742e+00 7.8968797298148274e-01 -2.3971728362957947e+00 -8.5687806968053337e-03 4.6303894491866231e+00 1.3302851272281259e+01 -2.0944580421410501e+02 -7.4935243538675422e-02 1.8473150894340051e+00 2.4860694538947428e+00 -5.0903045121231116e-06 1.0168393890210655e+02 6.7401595206320053e-03 -4.0508686979592312e-03 2.4824164986610413e+01 1.4947917588800192e+02 2.1662271639729624e+00 2.0164977088938940e-03 -4.7333811318139851e-04 5.3759724659030326e+00 -4.9466324059758335e+00 -9.5861837558913976e-01 -1.2832537881877215e-01 -6.1735191464948002e+01 1.0954516330239130e+01 8.8787105451337993e+01 -6.4683424400755030e-02 -1.7202491073170677e+01 1.3468449611682445e+00 -6.1805782779629226e-03 2.1414065713156015e+02 2.0734953475766815e-02 -1.5548950849655796e-02 -8.3777264530770481e+01 5.2447269432712346e+01 -7.7050017515430227e+00 -2.7923211753773103e-03 -8.3958541780759788e-03 -1.1575216848577838e+00 1.9240690438891761e-01 9.4870474261915660e-01 5.7613117922755919e-02 -5.7584788701497018e+01 1.1199075131231439e+01 -5.4426483950810507e+01 -4.1318295535347715e-02 -1.6801489214412868e+00 -1.2937311958085047e+00 -1.0665792498912197e-02 -2.2682478941977024e+01 -5.2092948585595877e-03 -4.2424635741440397e-03 4.5025793320026423e+01 -9.1036262511275709e+01 1.7934596742925351e+00 -7.8690273928714305e-03 1.1718594818177053e-02 1.9361276918221847e+01 2.6567181739956141e+00 1.7118748411594424e+00 3.4947097801705240e-02 7.9709161173610482e+01 5.5817746872780845e+00 -6.5441021764301695e+01 6.0996232900834002e-03 -6.2674157535657287e+00 2.3862003375979839e+00 1.5569205204087666e-02 1.4805924834683537e+01 1.6884512855995126e-02 -9.3561647067872400e-03 -6.1240432682738174e+01 -1.0854757587357017e+02 -1.8419248695463466e+00 -2.7453118700577761e-03 5.6122002022220840e-03 1.1690741994418204e+01 3.9586795322829857e+00 1.6381486985483207e-01 3.0671373965560633e-02 1.7252474725246429e+00 -2.2646088328096084e+01 3.5144771859049797e+00 6.2274169785268896e-02 3.4132951954379678e+00 -2.7766353066908778e-02 2.3029912409356257e-02 5.3427867255639285e+02 -7.6001199157076371e-03 -8.2076668153376886e-03 -5.3144271828699857e+01 -9.7524511808413081e+01 -3.2253793314976065e-01 -9.3636173263575984e-03 -1.9830473617687971e-03 -9.8468864459828183e+00 -2.8411484495154582e-01 1.5241359846886553e+00 1.3981559101011953e-02 -5.1048280645161867e+01 1.0444028162106406e+01 -4.7197300629457459e+01 -2.4572745480440972e-02 -3.3607677308355051e+00 1.7306961476606375e-02 -3.3171767428939347e-02 2.7723893588781357e+02 -3.5516187770099350e-03 1.7283824188780272e-02 3.7496579366968945e+01 1.7481729924678802e+02 -2.5345451345492620e+00 -4.4163354067450200e-03 2.8299332399512878e-03 2.4732743571745232e+01 7.3494123357377248e+00 -1.2852552632193692e+00 -2.7993204581434838e-02 -6.2707120616571046e+01 -1.8103112638927996e+00 7.1966967210173607e+01 -1.2176514887528356e-02 1.8117471877485514e-01 -2.5171206671802793e-01 -3.0403060774290225e-02 9.9674108240753412e+01 1.6967216077265590e-02 -3.6789271492807529e-03 8.9402986543107545e+01 -1.1387408813158982e+02 5.3815900720563263e+00 1.3504081096417764e-02 -7.7034408467220317e-03 -2.3400508483246085e-01 -1.0632848508885218e-01 -2.5361032066925873e+00 5.5437523734383376e-02 4.3355581020237878e+01 2.4360192806840132e+01 -3.9327285131905228e+01 -1.5771050226106809e-01 4.9865230981376953e+00 3.2512132871861468e+00 -1.9833718175448212e-03 -2.8551721700752387e+02 9.0044661237698165e-03 1.2666975616753007e-02 6.2688734801835380e+01 5.5842320098192431e+01 3.0231000176590896e+00 2.1063662086220347e-03 9.6815900920432796e-04 7.3053710354724899e+00 -1.1350426691191387e+01 2.7497183855211915e+00 4.9068993867422250e-02 -6.2864965151413344e+01 1.0409345121599472e+01 -9.0312563749728724e+01 -3.0709403517903411e-03 -1.6750673698843457e+00 4.2323958970009699e+00 -8.2359929826907319e-03 -1.4461626407981385e+02 1.5815892521004571e-02 -1.5145075971076949e-03 -5.0214057576667983e+01 2.2843845007591881e+01 -5.3867725650779903e+00 2.2250769775311596e-04 -2.4329994703609081e-03 -4.1938608513955842e+00 -1.8895419709369889e+00 -5.8274154982791515e-01 7.4589832028323144e-02 -5.9126806032028981e+01 2.5816285625172895e+01 -2.1562984264324768e+01 -8.8971400021137015e-02 4.5438945651985705e+00 1.9987307863309979e+01 -2.7855806506067893e-01 7.3691375544178300e+01 2.1050703081709798e-01 2.0109878311245666e-02 4.2180087067652494e+01 -1.2463288054568693e+00 -1.1901030601620732e+01 9.4558235376162258e-02 -8.7632978464171174e-02 -3.2151805147295818e+01 3.5930521930335090e+01 7.3817222245797893e+00 5.0835788841653340e-01 2.6727836393110920e+01 5.3555010624921124e+01 -1.4560153866594192e+01 -1.2783174421348349e+00 -1.8961948803465930e+01 9.3572850180680689e-01 1.0895068075171821e-03 -9.3827873841219116e+01 -4.8667457625128918e-03 -3.4368554926800243e-04 -1.1505571375282670e+01 -1.0048620668217708e+02 -1.1629804219373916e+00 -6.3408664377675450e-03 2.5456966761439048e-02 2.3998813053294725e+00 -6.8521164191042772e-01 -1.0457812293061579e+00 -7.0701593904232141e-04 9.6516760223603342e+01 1.5940184927712835e+01 1.5427327549783513e+01 -1.1717838179255140e-02 -2.5591417571849888e+00 1.0163637647770810e+02 
      </Row>
      <Row Index="244">
        2.0636980482106810e+02 -3.6308110486424994e-01 -1.0452930289745331e+04 7.8471304413687903e-01 6.2967658621710143e-01 4.4277328667044640e+02 5.1621859550476074e+02 1.2638027740351390e+01 3.6792122460556129e+00 -1.0283912869235792e+00 -7.4278997535631061e+02 1.0888984143733978e+01 -1.4295056506991386e+01 6.4515013446798548e+00 -1.7612811674177647e+04 1.3411416579037905e+02 -4.9415810555934906e+04 -1.8889616191154346e-01 -3.7694578154385090e+02 -1.9237026538327336e+02 4.9021256889682263e-01 2.4410115025043488e+03 2.4272525882406626e-01 1.9079935300396755e-03 -3.9788564372062683e+02 3.8953942296989262e+03 6.3473546206951141e+00 2.6025513751665130e-01 1.0743226809427142e-01 1.3085241161752492e+01 6.9692040830850601e+00 -1.6960464637726545e+01 2.0554185910732485e+00 6.5966918796300888e+02 -1.5976139649748802e+01 1.8600778513252735e+04 -4.1635765810497105e-03 -2.4857816149254213e+03 2.3069489978626370e+02 7.8543195547536016e-01 -2.1480575513509102e+03 9.1378134296974167e-01 -9.6919044514652342e-01 -8.2564004769921303e+02 -8.8555764386653900e+03 -1.2457911195754423e+02 -1.7818344706756761e-01 1.8996941564910230e-01 2.1790232181921601e+03 -3.4424699224531651e+01 -1.7084444951266050e+01 2.4923265522229485e+00 -8.2831236188709736e+03 -1.0713062739744782e+02 -3.4048900907814503e+04 -8.9564494800288230e-01 -3.3152023322880268e+02 1.2770272548496723e+02 -9.6833561747916974e-01 -1.9146537893712521e+03 -1.6718911163916346e+00 -5.1782065319866888e-01 2.7438928955793381e+02 -1.1533060941100121e+03 -2.8367939580231905e+01 3.6813208927924279e-02 -2.1509058903757250e-01 2.1446123916283250e+02 -4.5760050684213638e+01 -7.1789045801851898e+00 -1.2121983137185453e+00 -3.5367737295627594e+03 -8.5902962434338406e+00 3.9288366400599480e+04 -4.6760729933157563e-01 4.1006522642448545e+01 2.4252087850123644e+02 -1.9980081828543916e-01 5.4590997183322906e+02 -8.9139161119237542e-01 -1.3529731654089119e+00 -8.1298919392935932e+02 -2.1109408360719681e+02 -3.1488021779805422e+00 1.0252501595095964e+00 -2.9678008867995231e-01 -9.9562692569755018e+02 1.4961246609687805e+01 7.2503120247274637e+00 1.8077775151468813e+00 3.5115002620287240e+04 -1.2618207157403231e+02 2.3122323650829494e+04 -5.7405547006055713e-01 4.0683542358875275e+02 -2.1409706346504390e+02 -4.5459855176159181e-01 5.8585646312236786e+03 -9.1479800449451432e-01 -1.3910299938288517e-01 -2.6462070890516043e+02 -1.8054723538681865e+03 8.9749083318747580e+01 3.0339361281949095e-01 -4.9326699074299540e-02 6.3661690437793732e+02 1.4867844022810459e+01 -3.9759814815595746e+01 -2.7344787531183101e-01 -2.0054642898082733e+04 -2.6431754734367132e+01 5.5161086842536926e+04 -2.2659145493526012e-01 -8.1547079265117645e+02 2.1889405489759520e+02 -4.1279910330194980e-01 -3.1134369839876890e+03 -5.6844114167324733e-01 -1.1361569608561695e-01 -1.6169956551641226e+03 -8.1523433093577623e+03 -8.1399553757721151e+01 5.2229810061362514e-02 8.3336562056501862e-05 1.1383413936942816e+02 -8.5120941046625376e+00 4.3175216954899952e+01 -4.6729634399525821e-01 2.5527894152402878e+04 -1.3522593743633479e+01 3.7329791187830269e+03 -1.2205368687864393e-01 -1.7609551230445504e+02 7.3134260909049772e+01 9.1721571469679475e-01 -2.7149172210693359e+03 1.3337156755442265e+00 5.6674796447623521e-01 -7.5764348864555359e+01 3.0153347015380859e+02 -5.5032622162252665e+00 4.4362282678775955e-02 1.3651102700714546e-01 3.5549875032901764e+02 9.7462702391203493e+00 4.3258776166476309e-01 -2.1981493476778269e-01 6.4471381945386529e+03 -6.9296726971864700e+01 1.1989430621147156e+04 -4.1744914924493060e-03 -5.0198352336883545e-01 -2.9742498054704629e+02 -1.1352123125834623e+00 2.3397911783248186e+04 7.6869117575597556e-01 -3.1676261004031403e-01 -2.6813529320247471e+02 2.8660092244967818e+03 -3.2241004473644352e+01 -1.7988484989746212e-01 -1.9880186161503843e-01 -1.4722532284259796e+02 -7.1501310468825977e+01 1.8844947860779939e+01 -1.3430957725759072e+00 -8.4740366197526455e+03 3.2112780913885217e+00 1.7504939229488373e+04 -1.9395353337722554e+00 -4.1434963986277580e+01 -3.3815370937867556e+02 -3.0871684302110225e-01 -1.2757919769193977e+03 1.4693306888511870e+00 4.5437032277186518e-01 -7.7360931251198053e+02 1.6434756749451160e+04 -5.7619695031433366e+01 -8.3996752571692923e-02 -3.4268028626320302e-01 -9.5708202683925629e+02 4.7522078427486122e+01 1.5290505805867724e+01 2.3767587453767192e+00 1.4529250370271504e+04 -3.9914397388231009e+01 5.9774938658922911e+03 -1.7917081396808499e-01 -9.4627082340419292e+01 -2.1379548843717203e+01 -1.6713937829626957e-01 -7.2064264512881637e+03 -1.0622413882883848e+00 -2.8942026300865109e-01 -6.1183698557317257e+01 5.0322804899364710e+03 1.7681781625375152e+01 -1.6281378120743284e-01 -2.2915168793940666e-01 -4.4494139330438338e+02 -9.1869040422141552e+01 4.0862872972618788e+01 4.3400805580604356e+00 -2.4689016746968031e+04 4.8924537291750312e+01 -7.3183060304922983e+04 -1.1242056063201744e-01 -2.9362827621400356e+02 -1.0982091216258705e+03 -1.0717532735317945e+01 7.8452693745773286e+02 4.3054682256188244e+00 -5.6551036227756413e-01 -1.6507211489677429e+03 -3.4882465619370341e+03 -7.9118085393682122e+01 6.6530037693246413e-01 -2.8787016504429630e+00 -8.4889502986222506e+03 -3.5000639570876956e+02 1.9879763759591151e+02 1.4690849890932441e+01 1.4892780831456184e+04 1.5135181162226945e+02 5.1060835386827588e+04 -1.4555027362890542e+01 2.4951932610832155e+03 -2.0231721902312711e+02 -2.7473752155856346e-02 -2.8992622489109635e+04 -3.0929263836696919e-01 -7.2321211436701560e-02 -7.7557115144445561e+01 7.8641476835616577e+03 -6.0298013781255566e+00 1.1207428937050281e+00 -8.0722492896529729e-01 -9.4451055419631302e-01 -1.5712747124489397e+00 1.1778037394396961e+00 6.1817829715778316e-02 -2.3320205909870565e+03 1.5427326338365674e+01 4.3289365778431296e+04 -9.7226517487402075e-03 1.7455526826577261e+02 -7.8573571662630857e+03 
      </Row>
      <Row Index="245">
        2.3158173075713551e-03 -4.2745662168666154e-03 -1.6866486828075722e-01 -4.7977707825999749e-02 -3.1476754808100749e-03 5.1538214921492909e-02 -3.4844737944513327e-01 1.2116166118174121e-02 8.4198864798448181e-03 -7.1748326729847989e-06 -3.3260635257875037e-02 1.3790036394311755e-02 -2.9874044345206130e-02 1.3318845679464175e-02 -2.0104427292972105e-01 -7.1882284321418410e-03 -3.3802110292890575e-01 -8.0006759169620523e-02 1.7873659039651102e-02 -7.9054405898659752e-03 -2.8395393854481199e-03 1.6780090409974946e-01 -2.5429728565384835e-04 -1.4527195807545468e-03 9.6819099053391255e-04 -4.6347614761123168e-01 1.2954743373484234e-02 3.0843088459198142e-03 -5.0524408130847576e-04 -1.0808843886375641e-01 -1.3378768173879507e-02 2.6437338613163774e-02 -1.3062200924061074e-02 -4.6752935324002465e-01 -1.5137271871026314e-02 2.0573548285028664e-02 8.1676012223036665e-02 -7.4554046901615045e-02 1.1269562074403439e-02 -1.9255044489008277e-03 -3.4259458610462445e-01 -2.8030790302224773e-03 3.7429837753766293e-03 -7.1731084297425696e-02 -2.7855110048403731e-01 -1.0246413577126745e-02 1.7549854886702576e-03 5.0391125080206933e-05 4.1821546244591445e-04 4.9039980355246371e-02 3.1286634572268213e-02 -3.8348003608135173e-05 9.5176243705509478e-02 -3.3698605309382401e-03 3.8489723665770725e-01 6.8055716647398512e-02 -2.2979045819056410e-02 3.6449533358506869e-03 1.6275497967042085e-03 -2.1817750585614704e-01 2.6858394421676923e-02 1.8690750981722182e-03 1.3336632861864928e-01 1.0935174814221682e-03 3.0791626662903582e-02 -4.9042186576231384e-04 7.5042448654283334e-04 -1.9445342720473491e-02 2.3564849757349293e-02 -1.1472390053647530e-02 4.5294058311453611e-03 2.5874407606170280e-01 -1.9502390710517403e-03 -3.4335497498250334e-01 -1.6955896831742479e-02 7.0289902810145577e-03 5.3832705175977935e-03 1.6318206981043026e-03 3.0064658545597922e-02 4.6192045471169507e-03 6.8410604217994386e-03 -3.1918702992243198e-02 1.2263627041465952e-01 -9.6301068005715251e-03 2.9096503217647118e-03 -4.4975995221796516e-04 7.9723381111364233e-02 8.5067761447135126e-03 -3.2225555091599745e-02 -2.8832571994499290e-03 3.9596129352958087e-02 -2.3343329756244202e-02 -3.4181045314426228e-01 4.8362497530516357e-02 3.0297474950202741e-04 -1.1432697151803950e-02 1.4993242781589089e-03 -1.1161180729686748e-02 1.5541191022339973e-02 3.9834797569353597e-03 8.2853744871272283e-02 1.9276629686959268e-01 -7.2338612280731240e-04 -5.8645253242439743e-04 2.7388734219258026e-04 1.4492920684460842e-01 -3.9524566374666392e-02 -4.0069899001764497e-03 4.1093828901388463e-03 -4.5249180249811616e-01 2.0606419611908677e-02 -5.0750514148239745e-01 -1.7455821530045768e-02 -2.9644698948686710e-02 8.4119939509292863e-03 -7.2580661829864113e-03 5.1676786220014037e-03 1.1290649100870187e-02 -1.9223135513222189e-03 1.1489094506714537e-01 -2.0142917669636518e-01 6.3814305795784065e-03 4.2758411097951199e-04 1.9638244312658593e-04 2.7773689154955150e-02 1.3555968416994801e-02 -2.3246215741515641e-02 2.1569507139247435e-03 1.0825008433312178e-01 1.3382735017923864e-03 1.8681241389822389e-01 1.3977614335365374e-02 3.0864551242707705e-02 6.8014520474584117e-03 7.1429951636758915e-04 -1.0034416967537254e+00 -1.6946051093608361e-02 -1.2045296753061763e-02 -7.9643720240028415e-02 2.0065022422932088e-01 8.2122368602313145e-03 3.8128375107921997e-03 7.6751709381230049e-04 -1.5791601103865105e-01 -4.4795966737922299e-02 1.7397059309029572e-02 -1.8911778648885047e-02 3.4857940060692272e-01 -1.3620794552480220e-03 4.1472624958259985e-01 8.2567140346858331e-02 3.0981386727944482e-02 -9.9853000106691070e-03 -3.2974187825085544e-04 6.3237552219379722e-01 7.3013091930212853e-03 2.2812351980532330e-03 -8.5205431181634594e-02 4.8488490968338738e-02 -2.1039629049803610e-02 -1.6003588419508108e-05 2.0156297453974986e-04 1.3216247563160977e-01 3.7280176190700232e-02 7.1412566594872828e-02 -4.0749941777507015e-03 -3.9364100643797428e-01 -1.0183858934386336e-02 -3.2310663045882393e-01 3.1407585376379887e-02 -1.6505307391298629e-02 -1.8244960822034528e-02 1.4686010233524449e-03 3.1613489012454465e-01 -3.2663475581601098e-02 -1.2222909216947242e-02 5.7211520145301620e-02 4.2115637557299124e-01 3.4698540131472555e-04 4.5856491567930480e-04 -1.4676516127254402e-03 1.5479238026591702e-01 8.6431622839143074e-02 -2.1630749576090125e-02 4.1779686559628715e-04 5.0153364526454425e-01 -1.4690851116313297e-02 -4.4900213091477781e-01 2.6415614196736659e-02 3.7050067113227669e-02 3.0836271724297148e-03 -1.3730310671358215e-03 6.3953566847885668e-02 -6.8202709857523303e-06 -5.4518079340821757e-03 1.9100261429264265e-01 2.1393847486160666e-01 2.7999642649206180e-02 1.9596507629519033e-03 -5.6190871206232042e-04 9.7983897067301484e-02 1.7440281788310585e-02 8.0900566852619704e-03 -2.0687896390741756e-02 -3.1264456517237704e-01 -8.8649206380750911e-03 2.7741135778950365e-01 8.5195082525060251e-03 -4.6345308050149470e-02 -3.5783043851779439e-02 5.3477894611990706e-03 -1.4721936932781432e-01 4.7769957410533692e-02 -4.7004198728086921e-02 9.4265272492884833e-01 -1.3504268422730092e-01 1.1759552420218711e-01 1.7247957447043244e-02 -1.0867257029179789e-02 6.6822207546101708e-01 6.8963904927386466e-02 1.2078304667362261e-03 -8.6925925390644920e-02 9.6224913569585624e-02 -5.1983984873601230e-02 9.3211928978860215e-02 -1.8025954125564070e-02 3.1525397055816029e-02 -5.7461787442001366e-03 -2.7136621497519942e-04 4.8230013481281730e-01 8.2355925292229570e-03 6.3070488163420590e-04 5.5460992630500527e-03 -2.9665491962457224e-01 3.8876384251817107e-03 1.8140216111373064e-03 -3.2981888839672679e-03 -5.0977469168742573e-03 3.7596035433473673e-03 1.0386827979864677e-02 -3.9392205656825843e-04 -3.3072786701927726e-01 -1.1717838098718403e-02 -9.7226546622550813e-03 1.8810599839601136e-02 -3.6135711607556686e-03 2.7782068152559936e-01 
      </Row>
      <Row Index="246">
        1.3152744843725372e+01 -2.2819133281700488e-02 1.9980017494037747e+02 2.1075891487612353e-02 -1.0599490598963257e-02 1.4620888337492943e+01 1.1628452014923096e+02 9.1815394108220971e-01 1.9781744445640470e-01 -3.2951718529659502e-02 8.4826111240545288e-01 -7.1971836313605309e-01 2.0052254827460274e+00 5.5582330658580759e-02 -1.6233264494501054e+02 6.3518806442152709e-01 6.1955810133367777e+02 6.7905412895015616e-02 -4.4877896114601754e+01 -4.5158027988509275e+00 -2.9448270237480756e-02 4.9003567122714594e+02 -8.0569236599785654e-03 -2.4660730254026930e-02 6.2567851785570383e+00 1.7893640438932925e+02 -1.1306120585650206e+00 8.7700214858159597e-03 -7.5776078581384354e-03 9.5385244254975987e-01 1.2644149572588503e-01 4.8188130371272564e-01 -1.1189413470492582e-01 1.6117150379111990e+02 6.9538501917850226e-01 1.2608450009878725e+03 -5.5560864259859954e-02 -1.8407090979599138e+02 -2.0120009999649483e+01 1.9640798294176420e-02 2.0394359889482348e+02 3.5121655036618904e-02 -5.7940816481277579e-02 4.5618442301638424e+00 3.9004526510834694e+01 4.0477374660572423e+00 -5.2706623034737277e-04 4.1320524647971979e-03 2.0017121483106166e+00 2.0187884620390832e+00 -5.4873687418294139e+00 1.2183597440980520e-01 1.8953284611983690e+02 -6.5348035873030312e+00 -7.4453738776315004e+02 -2.3946799437908339e-02 7.8390301935025491e+01 1.2339382576508797e+01 -1.6284638855267985e-02 4.1479304876225069e+02 -5.3916859665378070e-02 1.2757805833807367e-02 2.4885506832040846e+01 3.0168439356703311e+02 -8.9473752956837416e-01 8.3650085411761665e-03 -2.2515013528732197e-03 2.9607408050040249e+01 -2.7433420806773938e+00 -2.5172695893343189e-01 5.5541500925301079e-02 1.5165584978461266e+02 2.5716955498137395e-01 3.1779768390115350e+01 2.4581569996371400e-03 1.0561116659722757e+01 7.2363037016257294e+00 -1.3247100223452435e-02 -8.4524360831826925e+01 -1.0884401901421370e-02 -6.5008554038058719e-02 -1.8922844122585957e+01 -2.6210043876431882e+01 -3.2787493177602300e-01 5.1805105313405875e-02 -8.2375836200867525e-03 -2.5499980167485774e+01 -6.0695044463500381e-01 6.7565606511197984e-01 1.0115641501761274e-01 -5.8190696332021616e+01 -3.2812739405781031e+00 -2.4190280776086729e+02 -4.9697506256052293e-03 5.5437205936759710e+01 -1.5130200593819609e+01 -1.0264084682148678e-02 1.3433450115472078e+02 -4.7782017836652813e-02 9.7126806290361856e-03 -1.5952789909963030e+01 -1.4055649913701927e+01 -2.9530328113105497e+00 8.4973943803561269e-03 9.2630776930491265e-04 -2.2289223996922374e+00 -1.2313732481561601e-01 9.6959650043572765e-01 -4.8643471252489690e-02 4.4937910333275795e+01 8.6070843727793545e-01 3.2811323979124427e+02 -1.9196347429897287e-03 -9.4926718325354159e+01 2.0418489740259247e+00 7.0783525020488014e-03 9.9158432592230383e+02 -4.3276443566583112e-02 -1.3201340225805325e-02 -3.3425947198178619e+01 6.6553018500097096e+01 3.7049147254401760e+00 1.0022679953749503e-03 -5.3481712812626370e-03 4.1735760547817335e+00 -4.5905625628074631e-01 8.3734527242086187e-01 -8.2527476135510369e-02 4.6199367712438107e+02 -1.4381163117714095e+00 4.9137846346799051e+02 7.0913635861415969e-03 -5.7108934958581813e+01 6.9404692884054384e+00 3.7530502282606903e-02 6.3488857197761536e+02 4.4414890552616271e-02 -1.1282773517450551e-02 5.1362261455506086e-01 1.9498867905139923e+02 -1.4156330449914094e+00 -3.5674896475939022e-03 1.7630581117700217e-03 2.5169364417903125e+01 -1.2862278918546508e+00 5.4393581736803753e-02 -1.0315739687939640e-01 2.0929685314616654e+02 -1.6317353090271354e+00 -1.7837647932767868e+02 -4.1251817177681005e-02 -2.7536394201219082e+01 -6.3347721227983129e+00 -5.4094907544879334e-02 -6.6073286750353873e+01 2.8013663345305417e-04 3.1441097603419621e-02 2.5222839752968866e+01 -1.4812470032612327e+02 -1.0066072992284774e+00 -1.2049607328613376e-02 -4.2931500261254030e-03 1.8343724132719217e+00 -1.1983001296066504e+00 -1.1562145953166691e+00 -1.2333250395108166e+00 -1.9951672263350338e+02 -1.2881237137403332e+00 2.7712451709900051e+01 3.7844010704333186e-02 -1.7772053189401049e+02 -1.6359261343086473e+01 1.8400863948443202e-02 -4.1754736067051999e+02 5.5245995433324424e-02 6.2445181484804380e-02 -3.4575127757852897e+00 -2.7590191010339186e+02 2.1139943897651392e-01 -9.0538550423104880e-03 1.2207922723462161e-02 -3.7677319181384519e+00 2.9563355259888340e+00 6.9633579150467995e-01 8.5430540705601743e-02 8.3791152060846798e+01 2.5539587395905983e-01 -3.4856575722573325e+01 2.0179719169959753e-02 -1.3171334452694282e+01 4.4588973202553461e-01 -7.5413817468188427e-03 -9.4721978815272450e+01 -9.6379089999345524e-03 6.7659255927310369e-04 1.0543248882750049e+01 6.5093753679189831e+01 -4.1956899564829655e+00 -1.7134772334781445e-02 -4.7692991028398524e-03 2.3479420571278752e+01 -9.3173072617792059e+00 2.3526139304522076e+00 -3.6730848613342459e-01 -5.5748705769190565e+01 2.8188429162546527e+00 -3.0425117486011004e+02 1.7917816426574973e-02 -2.0229107005172409e+02 -4.5231404500547796e+01 -3.8398393111538098e-01 1.0880115325040242e+02 -1.8101689668583276e-02 5.3908828799899311e-01 7.0223921372089535e+01 4.6466303472639993e+01 -2.2929184787484701e+01 2.8530708111702552e-03 2.7791749653545139e-02 7.4480046137468889e+01 -1.9468527208897285e+01 1.3777254123629973e+01 -9.8356629136651463e+00 2.8529121911921538e+02 8.9362255168234697e+00 1.5407361526234308e+02 6.2697948239747348e-01 -4.5651971442784998e+02 -3.0285895053402783e+00 -5.3952102987864237e-04 1.3859765352448449e+01 -1.3977509647304487e-02 -3.8889483402115843e-03 -9.2610748835249979e-01 -1.3218892815018867e+02 2.6257548801331249e-01 4.2317705646837567e-02 -2.1969378951411045e-02 -1.8985112670270610e+00 1.1276877676427830e+00 -4.9178754052627482e-01 6.2594756037537280e-03 -2.1002776088047540e+02 -2.5591417439645738e+00 1.7455526878638193e+02 -3.6135712289777572e-03 5.1386861382816278e+01 1.3194549451149143e+02 
      </Row>
      <Row Index="247">
        6.4282486152835190e+01 3.2919065314345062e+00 -1.5028794525146484e+04 -6.2755840597674251e-01 -3.0724394705612212e-01 4.1227542209625244e+02 2.9684220581054688e+04 1.0692012996412814e+01 4.9423520048148930e+00 -7.4758056970313191e-01 1.7223908444643021e+03 2.4728141593933105e+02 1.5002020835876465e+01 -4.9864813312888145e-01 3.2613236312866211e+03 1.8090392374992371e+02 3.8017825927734375e+03 2.0691169444471598e+00 -1.9558649587631226e+02 -3.6339437484741211e+01 4.9994646757841110e-01 -1.0506307972908020e+04 2.9143598768860102e-01 5.7491467427462339e-01 -3.5438158416748047e+02 4.2871563399672508e+04 -1.9240729331970215e+01 2.2244703024625778e-01 -6.2991185812279582e-02 -2.1905565436929464e+01 6.9116136074066162e+01 -7.2221077680587769e+00 -7.0502018555998802e-01 4.3469519672393799e+03 1.5410344600677490e+02 6.0128115043640137e+03 -1.4814531244337559e+00 -2.0183626109883189e+03 1.4513024842739105e+02 3.6918253824114799e-01 -6.7043136052265763e+03 1.7622201517224312e-01 6.0389398783445358e-01 -1.0042600536346436e+02 4.9371956207275391e+04 -1.2086812749505043e+01 -6.9764061365276575e-02 -4.9293366959318519e-02 -8.3582543659210205e+02 -3.3837984943389893e+02 -4.8873380422592163e+01 7.4998221062123775e+00 3.1527370438337326e+04 7.8809373736381531e+01 1.9132169837951660e+03 -1.9512861119583249e+00 -3.9517492794990540e+02 7.1944405972957611e+01 -1.4076556637883186e-01 -1.4849597676277161e+04 6.3954836828634143e-01 -4.0029567899182439e-02 -2.1839135856628418e+03 -3.0110669399261475e+04 -1.0699677658081055e+02 3.4054026182275265e-02 -1.3979644980281591e-02 5.9192137134075165e+02 -2.8702163875102997e+02 3.4457321673631668e+01 -1.5175599446520209e+00 1.7570448451995850e+04 -3.0788879111409187e+02 -8.8419316234588623e+03 3.4541386738419533e-01 4.7748611211776733e+01 1.0277809083461761e+02 -8.6916255252435803e-01 6.3746862716674805e+03 -7.0515857264399529e-01 1.4838700764812529e+00 8.6945960760116577e+01 -1.0672346416473389e+04 -4.0586038365960121e+01 1.1037466609850526e+00 -9.0168878552503884e-02 3.1053095215559006e+02 3.1976800537109375e+02 5.2481933593750000e+01 -5.8651150912046432e+00 -3.5199570224523544e+04 -7.8017713069915771e+01 -2.5296102857589722e+03 -9.0744726173579693e-01 1.2203498077392578e+02 -1.0365275549888611e+02 -9.7368690976873040e-01 -5.3550793609619141e+03 -3.3772925846278667e-01 4.5787754002958536e-01 -7.1501667857170105e+02 -2.5129255128979683e+04 -2.0773835107684135e+01 2.6517266733571887e-01 8.5473954677581787e-02 -1.8078864669799805e+02 4.0799298000335693e+02 -1.5005198240280151e+01 -2.6373165771365166e+00 1.4918689559936523e+04 -2.5266729915142059e+02 -2.6752382507324219e+03 8.3093496412038803e-01 -3.1232883071899414e+02 8.5043239690363407e+01 3.1054045846685767e+00 -2.6494257003307343e+04 -5.2907334594056010e-01 8.7926069740206003e-01 1.3937385649681091e+03 9.2046790987968445e+04 7.6941184839233756e-01 -4.1150027245748788e-03 -1.4440359777654521e-01 7.4044677387177944e+02 7.2927139997482300e+00 -7.0502385016530752e+01 1.6286690309643745e+00 1.1822640510559082e+04 9.4048869485035539e+01 -3.1525315525531769e+03 1.3765594922006130e-01 -2.7864712827652693e+02 4.5959479760378599e+01 -1.0856116339564323e+00 -2.9129227050781250e+04 7.8062012325972319e-02 -1.0190007723867893e+00 3.6647205066680908e+02 -4.7199965576171875e+04 5.5089244961738586e+01 -4.7300721518695354e-02 1.9480803035548888e-02 -3.5809674167633057e+02 4.7362458820641041e+02 -5.6977122873067856e+00 -1.8199680447578430e+00 8.9733707804679871e+03 -2.9946577310562134e+02 -3.4252614440917969e+03 -2.3526904789614491e+00 1.1052247142791748e+02 -6.7420832157135010e+01 1.3645961924921721e+00 1.0081665904617310e+05 -1.2516640678659314e+00 1.7144738088827580e+00 1.1584559190273285e+03 9.8348390106439590e+04 -3.4949710505839903e+01 -1.7324084641586524e-01 2.6241219681105576e-01 -5.6901218180358410e+02 -7.3866510733962059e+01 8.9683347959071398e+00 -4.4260449206922203e+00 -1.9601153623580933e+04 2.0955256447754800e+02 -4.5013103542327881e+03 1.3399269917572383e+00 -3.3448445558547974e+02 -1.6649533331394196e+02 3.7072440423071384e-01 -2.2062769996881485e+04 3.9745341986417770e-01 1.3529663905501366e-02 7.2250280284881592e+02 -1.1667462325596809e+05 7.0148480787873268e+01 1.3390450167935342e-01 2.0246100844815373e-02 -5.9483108758926392e+01 -6.5185290110111237e+02 -6.0215777233242989e+00 9.8974357172846794e-01 -1.1357708001136780e+02 2.0977932132780552e+02 -2.6888652315139771e+03 4.3303146725520492e-01 1.1234291648864746e+02 2.0390082469582558e+02 1.0141790166962892e+00 -3.9913990238904953e+04 7.0892346929758787e-01 7.4946008389815688e-01 3.0218499994277954e+02 -1.1613437217664719e+05 -4.1377774536609650e+01 -2.0417758937401231e-01 2.3308190380703309e-02 -2.8056984817981720e+02 -4.5657192310690880e+02 7.5708256453275681e+01 -6.9976015631109476e+00 -1.6864390115737915e+03 5.9067591887712479e+02 1.5097452105641365e+04 1.2163210646249354e+00 -4.7276095914840698e+02 4.8423327255249023e+02 1.4554212559014559e+01 5.6388848891854286e+03 -5.6925867460668087e+00 1.4412873457185924e+01 5.0048471031188965e+03 4.2274177090406418e+04 3.3484688401222229e-01 3.4656744349631481e+00 3.3259436580119655e+00 -2.1200358176231384e+03 1.4547006022930145e+03 3.5138811971619725e+02 -3.5306093804538250e+01 -9.5461108694076538e+03 2.3561196563541889e+03 -1.1644895208954811e+04 2.6366950922179967e+01 1.0393935514688492e+03 2.6816519990563393e+01 1.4146376593271270e-01 -1.0759801289343834e+05 -2.2139395354315639e-02 8.3968915685545653e-02 -8.6763350747525692e+01 -3.5166707886126742e+05 6.2141778823390005e+01 9.3187028472311795e-01 7.7525537926703691e-04 -3.4528851385414600e+02 -5.6234263841062784e+01 2.2016605436801910e+00 -2.2232618469570298e-01 -1.8780652319908142e+04 1.0163641181588173e+02 -7.8573557348251343e+03 2.7782049957980071e-01 1.3194549387693405e+02 3.5160473794874077e+05 
      </Row>
    </InverseHessian>
  </Weights>
</MethodSetup>
